{
  "version": "1.0",
  "truncation": null,
  "padding": null,
  "added_tokens": [
    {
      "id": 0,
      "content": "<|endoftext|>",
      "single_word": false,
      "lstrip": false,
      "rstrip": false,
      "normalized": false,
      "special": true
    }
  ],
  "normalizer": null,
  "pre_tokenizer": {
    "type": "ByteLevel",
    "add_prefix_space": false,
    "trim_offsets": true,
    "use_regex": true
  },
  "post_processor": {
    "type": "ByteLevel",
    "add_prefix_space": true,
    "trim_offsets": true,
    "use_regex": true
  },
  "decoder": {
    "type": "ByteLevel",
    "add_prefix_space": true,
    "trim_offsets": true,
    "use_regex": true
  },
  "model": {
    "type": "BPE",
    "dropout": null,
    "unk_token": null,
    "continuing_subword_prefix": null,
    "end_of_word_suffix": null,
    "fuse_unk": false,
    "vocab": {
      "<|endoftext|>": 0,
      "!": 1,
      "\"": 2,
      "#": 3,
      "$": 4,
      "%": 5,
      "&": 6,
      "'": 7,
      "(": 8,
      ")": 9,
      "*": 10,
      "+": 11,
      ",": 12,
      "-": 13,
      ".": 14,
      "/": 15,
      "0": 16,
      "1": 17,
      "2": 18,
      "3": 19,
      "4": 20,
      "5": 21,
      "6": 22,
      "7": 23,
      "8": 24,
      "9": 25,
      ":": 26,
      ";": 27,
      "<": 28,
      "=": 29,
      ">": 30,
      "?": 31,
      "@": 32,
      "A": 33,
      "B": 34,
      "C": 35,
      "D": 36,
      "E": 37,
      "F": 38,
      "G": 39,
      "H": 40,
      "I": 41,
      "J": 42,
      "K": 43,
      "L": 44,
      "M": 45,
      "N": 46,
      "O": 47,
      "P": 48,
      "Q": 49,
      "R": 50,
      "S": 51,
      "T": 52,
      "U": 53,
      "V": 54,
      "W": 55,
      "X": 56,
      "Y": 57,
      "Z": 58,
      "[": 59,
      "\\": 60,
      "]": 61,
      "^": 62,
      "_": 63,
      "`": 64,
      "a": 65,
      "b": 66,
      "c": 67,
      "d": 68,
      "e": 69,
      "f": 70,
      "g": 71,
      "h": 72,
      "i": 73,
      "j": 74,
      "k": 75,
      "l": 76,
      "m": 77,
      "n": 78,
      "o": 79,
      "p": 80,
      "q": 81,
      "r": 82,
      "s": 83,
      "t": 84,
      "u": 85,
      "v": 86,
      "w": 87,
      "x": 88,
      "y": 89,
      "z": 90,
      "{": 91,
      "|": 92,
      "}": 93,
      "~": 94,
      "¡": 95,
      "¢": 96,
      "£": 97,
      "¤": 98,
      "¥": 99,
      "¦": 100,
      "§": 101,
      "¨": 102,
      "©": 103,
      "ª": 104,
      "«": 105,
      "¬": 106,
      "®": 107,
      "¯": 108,
      "°": 109,
      "±": 110,
      "²": 111,
      "³": 112,
      "´": 113,
      "µ": 114,
      "¶": 115,
      "·": 116,
      "¸": 117,
      "¹": 118,
      "º": 119,
      "»": 120,
      "¼": 121,
      "½": 122,
      "¾": 123,
      "¿": 124,
      "À": 125,
      "Á": 126,
      "Â": 127,
      "Ã": 128,
      "Ä": 129,
      "Å": 130,
      "Æ": 131,
      "Ç": 132,
      "È": 133,
      "É": 134,
      "Ê": 135,
      "Ë": 136,
      "Ì": 137,
      "Í": 138,
      "Î": 139,
      "Ï": 140,
      "Ð": 141,
      "Ñ": 142,
      "Ò": 143,
      "Ó": 144,
      "Ô": 145,
      "Õ": 146,
      "Ö": 147,
      "×": 148,
      "Ø": 149,
      "Ù": 150,
      "Ú": 151,
      "Û": 152,
      "Ü": 153,
      "Ý": 154,
      "Þ": 155,
      "ß": 156,
      "à": 157,
      "á": 158,
      "â": 159,
      "ã": 160,
      "ä": 161,
      "å": 162,
      "æ": 163,
      "ç": 164,
      "è": 165,
      "é": 166,
      "ê": 167,
      "ë": 168,
      "ì": 169,
      "í": 170,
      "î": 171,
      "ï": 172,
      "ð": 173,
      "ñ": 174,
      "ò": 175,
      "ó": 176,
      "ô": 177,
      "õ": 178,
      "ö": 179,
      "÷": 180,
      "ø": 181,
      "ù": 182,
      "ú": 183,
      "û": 184,
      "ü": 185,
      "ý": 186,
      "þ": 187,
      "ÿ": 188,
      "Ā": 189,
      "ā": 190,
      "Ă": 191,
      "ă": 192,
      "Ą": 193,
      "ą": 194,
      "Ć": 195,
      "ć": 196,
      "Ĉ": 197,
      "ĉ": 198,
      "Ċ": 199,
      "ċ": 200,
      "Č": 201,
      "č": 202,
      "Ď": 203,
      "ď": 204,
      "Đ": 205,
      "đ": 206,
      "Ē": 207,
      "ē": 208,
      "Ĕ": 209,
      "ĕ": 210,
      "Ė": 211,
      "ė": 212,
      "Ę": 213,
      "ę": 214,
      "Ě": 215,
      "ě": 216,
      "Ĝ": 217,
      "ĝ": 218,
      "Ğ": 219,
      "ğ": 220,
      "Ġ": 221,
      "ġ": 222,
      "Ģ": 223,
      "ģ": 224,
      "Ĥ": 225,
      "ĥ": 226,
      "Ħ": 227,
      "ħ": 228,
      "Ĩ": 229,
      "ĩ": 230,
      "Ī": 231,
      "ī": 232,
      "Ĭ": 233,
      "ĭ": 234,
      "Į": 235,
      "į": 236,
      "İ": 237,
      "ı": 238,
      "Ĳ": 239,
      "ĳ": 240,
      "Ĵ": 241,
      "ĵ": 242,
      "Ķ": 243,
      "ķ": 244,
      "ĸ": 245,
      "Ĺ": 246,
      "ĺ": 247,
      "Ļ": 248,
      "ļ": 249,
      "Ľ": 250,
      "ľ": 251,
      "Ŀ": 252,
      "ŀ": 253,
      "Ł": 254,
      "ł": 255,
      "Ń": 256,
      "Ġt": 257,
      "Ġa": 258,
      "he": 259,
      "in": 260,
      "Ġw": 261,
      "re": 262,
      "Ġs": 263,
      "ou": 264,
      "Ġthe": 265,
      "on": 266,
      "ha": 267,
      "Ġi": 268,
      "Ġb": 269,
      "Ġm": 270,
      "ĠI": 271,
      "er": 272,
      "ing": 273,
      "Ġc": 274,
      "en": 275,
      "or": 276,
      "85": 277,
      "Ġd": 278,
      "76": 279,
      "Ġto": 280,
      "Ġf": 281,
      "an": 282,
      "19": 283,
      "ll": 284,
      "Ġp": 285,
      "06": 286,
      "Ġy": 287,
      "Ġl": 288,
      "st": 289,
      "Ġo": 290,
      "Ġan": 291,
      "48": 292,
      "hat": 293,
      "ed": 294,
      "Ġyou": 295,
      "51": 296,
      "31": 297,
      "es": 298,
      "it": 299,
      "Ġn": 300,
      "79": 301,
      "at": 302,
      "45": 303,
      "29": 304,
      "22": 305,
      "Ġg": 306,
      "om": 307,
      "ot": 308,
      "Ġin": 309,
      "Ġof": 310,
      "Ġbe": 311,
      "Ġand": 312,
      "is": 313,
      "ve": 314,
      "80": 315,
      "71": 316,
      "Ġth": 317,
      "70": 318,
      "Ġit": 319,
      "ar": 320,
      "ow": 321,
      "le": 322,
      "Ġis": 323,
      "Ġe": 324,
      "Ġha": 325,
      "Ġthat": 326,
      "ĠT": 327,
      "74": 328,
      "99": 329,
      "se": 330,
      "al": 331,
      "56": 332,
      "41": 333,
      "ic": 334,
      "Ġh": 335,
      "72": 336,
      "as": 337,
      "ke": 338,
      "Ġre": 339,
      "33": 340,
      "ay": 341,
      "ut": 342,
      "ld": 343,
      "et": 344,
      "âĢ": 345,
      "35": 346,
      "Ġon": 347,
      "051": 348,
      "Ġhe": 349,
      "20": 350,
      "id": 351,
      "ver": 352,
      "10": 353,
      "Ġu": 354,
      "ion": 355,
      "34": 356,
      "226": 357,
      "Ġli": 358,
      "870": 359,
      "ly": 360,
      "62": 361,
      "ac": 362,
      "194": 363,
      "976": 364,
      "gh": 365,
      "Ġme": 366,
      "ĠA": 367,
      "ED": 368,
      "Ġwe": 369,
      "719": 370,
      "11": 371,
      "55": 372,
      "Ġfor": 373,
      "Ġst": 374,
      "806": 375,
      "798": 376,
      "05162": 377,
      "870976": 378,
      "719870976": 379,
      "80605162": 380,
      "7198709760": 381,
      "806051627198709760": 382,
      "im": 383,
      "82": 384,
      "Ġk": 385,
      "32": 386,
      "oo": 387,
      "am": 388,
      "out": 389,
      "ent": 390,
      "Ġnot": 391,
      "30": 392,
      "ro": 393,
      "ĠW": 394,
      "88": 395,
      "Ġdo": 396,
      "'s": 397,
      "Ġare": 398,
      "all": 399,
      "ad": 400,
      "'t": 401,
      "315": 402,
      "61": 403,
      "Ġ[": 404,
      "ĠS": 405,
      "nd": 406,
      "857": 407,
      "Ġwas": 408,
      "566": 409,
      "ir": 410,
      "ould": 411,
      "op": 412,
      "ith": 413,
      "ill": 414,
      "89": 415,
      "5529": 416,
      "ust": 417,
      "ri": 418,
      "Ġhave": 419,
      "Ġmy": 420,
      "Ġj": 421,
      "ĠThe": 422,
      "85857": 423,
      "855529": 424,
      "7611": 425,
      "85857566": 426,
      "8555297611": 427,
      "855529761185857566": 428,
      "âĢĻ": 429,
      "Ġwith": 430,
      "92": 431,
      "84": 432,
      "..": 433,
      "ct": 434,
      "Ġthis": 435,
      "Ġas": 436,
      "ĠY": 437,
      "Ġlike": 438,
      "Ġwh": 439,
      "ght": 440,
      "ce": 441,
      "ol": 442,
      "ee": 443,
      "ch": 444,
      "ome": 445,
      "60": 446,
      "7106": 447,
      "Ġbut": 448,
      "77": 449,
      "746": 450,
      "Ġcan": 451,
      "484": 452,
      "798226": 453,
      "06798226": 454,
      "194484": 455,
      "710606798226": 456,
      "710606798226194484": 457,
      "9985": 458,
      "Ġthey": 459,
      "ĠB": 460,
      "ĠH": 461,
      "her": 462,
      "il": 463,
      "Ġne": 464,
      "24": 465,
      "Ġab": 466,
      "Ġso": 467,
      "hing": 468,
      "ally": 469,
      "ant": 470,
      "91": 471,
      "Ġwhat": 472,
      "Ġmo": 473,
      "Ġkn": 474,
      "Ġsu": 475,
      "one": 476,
      "36": 477,
      "Ġjust": 478,
      "ĠM": 479,
      "345": 480,
      "Ġ\"": 481,
      "CT": 482,
      "Ġde": 483,
      "Ġyour": 484,
      "RED": 485,
      "Ġknow": 486,
      "Ġal": 487,
      "Ġor": 488,
      "Ġwor": 489,
      "ACT": 490,
      "ge": 491,
      "ra": 492,
      "REDACT": 493,
      "REDACTED": 494,
      "ink": 495,
      "75": 496,
      "300": 497,
      "ĠĠ": 498,
      "729": 499,
      "Ġall": 500,
      "us": 501,
      "ea": 502,
      "488": 503,
      "ess": 504,
      "Ġgo": 505,
      "ter": 506,
      "81": 507,
      "3580": 508,
      "ur": 509,
      "Ġv": 510,
      "ĠN": 511,
      "Ġdon": 512,
      "ation": 513,
      "456": 514,
      "un": 515,
      "459": 516,
      "pp": 517,
      "'m": 518,
      "780": 519,
      "751": 520,
      "Ġat": 521,
      "ĠIt": 522,
      "ind": 523,
      "ĠD": 524,
      "Ġabout": 525,
      "um": 526,
      "56488": 527,
      "5648879": 528,
      "7465": 529,
      "3159985": 530,
      "74653159985": 531,
      "746531599855648879": 532,
      "ĠO": 533,
      "ers": 534,
      "ie": 535,
      "Ġsh": 536,
      "Ġif": 537,
      "802": 538,
      "Ġma": 539,
      "han": 540,
      "Ġwould": 541,
      "ck": 542,
      "Ġcon": 543,
      "Ġex": 544,
      "7648": 545,
      "48802": 546,
      "29345": 547,
      "4129345": 548,
      "824129345": 549,
      "488027648": 550,
      "824129345488027648": 551,
      "eop": 552,
      "Ġtr": 553,
      "ðŁ": 554,
      "ul": 555,
      "50": 556,
      "748": 557,
      "eople": 558,
      "331": 559,
      "Ġwill": 560,
      "Ġthink": 561,
      "rom": 562,
      "very": 563,
      "ĠC": 564,
      "349": 565,
      "Ġone": 566,
      "pt": 567,
      "ig": 568,
      "725": 569,
      "Ġ@": 570,
      "our": 571,
      "Ġwhe": 572,
      "ame": 573,
      "Ġpeople": 574,
      "7804": 575,
      "Ġsome": 576,
      "577": 577,
      "74725": 578,
      "74876": 579,
      "7974876": 580,
      "727974876": 581,
      "74725727974876": 582,
      "747257279748767804": 583,
      "ĠĊ": 584,
      "fe": 585,
      "nt": 586,
      "au": 587,
      "ate": 588,
      "end": 589,
      "ven": 590,
      "ĠP": 591,
      "801": 592,
      "Ġr": 593,
      "14": 594,
      "ĠL": 595,
      "and": 596,
      "art": 597,
      "46": 598,
      "ood": 599,
      "<@": 600,
      "Ġany": 601,
      "ĠG": 602,
      "ain": 603,
      "ĠYou": 604,
      "Ġno": 605,
      "Ġthem": 606,
      "Ġfrom": 607,
      "39": 608,
      "Ġ@<@": 609,
      "Ġpro": 610,
      "Ġup": 611,
      "ab": 612,
      "ue": 613,
      "02": 614,
      "Ġcom": 615,
      "od": 616,
      "Ġsee": 617,
      "ĠR": 618,
      "6136": 619,
      "em": 620,
      "890": 621,
      "os": 622,
      "3151": 623,
      "996136": 624,
      "729996136": 625,
      "729996136459": 626,
      "413151": 627,
      "413151729996136459": 628,
      "ist": 629,
      "13580": 630,
      "226577": 631,
      "79813580": 632,
      "456226577": 633,
      "798135808": 634,
      "456226577798135808": 635,
      "--": 636,
      "52": 637,
      "Ġint": 638,
      "ime": 639,
      "Ġget": 640,
      "58": 641,
      "Ġthere": 642,
      "ell": 643,
      "53": 644,
      "9288": 645,
      "5194": 646,
      "76801": 647,
      "22890": 648,
      "928876801": 649,
      "5194928876801": 650,
      "519492887680122890": 651,
      "ĠF": 652,
      "if": 653,
      "ĠE": 654,
      "Ġout": 655,
      "Ġpl": 656,
      "ive": 657,
      "ight": 658,
      "king": 659,
      "red": 660,
      "78": 661,
      "ause": 662,
      "Ġsp": 663,
      "ity": 664,
      "Ġthing": 665,
      "Ġam": 666,
      "716": 667,
      "072": 668,
      "Ġwho": 669,
      "ide": 670,
      "ĠðŁ": 671,
      "Ġwant": 672,
      "Ġhow": 673,
      "Ġus": 674,
      "ough": 675,
      "15": 676,
      "Ġdid": 677,
      "ack": 678,
      "12": 679,
      "Ġmore": 680,
      "59": 681,
      "Ġse": 682,
      "Ġtime": 683,
      "be": 684,
      "Ġbec": 685,
      "Ġlo": 686,
      "204": 687,
      "ci": 688,
      "ine": 689,
      "ther": 690,
      "3379": 691,
      "71331": 692,
      "7163379": 693,
      "2047163379": 694,
      "71331072": 695,
      "204716337971331072": 696,
      "ong": 697,
      "Ġher": 698,
      "ound": 699,
      "90": 700,
      "789": 701,
      "Ġby": 702,
      "ore": 703,
      "Ġwhen": 704,
      "omet": 705,
      "ite": 706,
      "ort": 707,
      "##": 708,
      "Ġen": 709,
      "2970": 710,
      "ure": 711,
      "712": 712,
      "Ġtheir": 713,
      "2024": 714,
      "34906": 715,
      "'re": 716,
      "227": 717,
      "...": 718,
      "227712": 719,
      "ian": 720,
      "ear": 721,
      "871": 722,
      "lf": 723,
      "ast": 724,
      "3120": 725,
      "315789": 726,
      "912024": 727,
      "15912024": 728,
      "3157893120": 729,
      "159120243157893120": 730,
      "75114": 731,
      "2970871": 732,
      "75114227712": 733,
      "297087175114227712": 734,
      "âĢĿ": 735,
      "âĢľ": 736,
      "ry": 737,
      "8519": 738,
      "8145": 739,
      "9952": 740,
      "834906": 741,
      "81459952": 742,
      "83490681459952": 743,
      "834906814599528519": 744,
      "ĠThat": 745,
      "The": 746,
      "Ġshe": 747,
      "16": 748,
      "Ġsay": 749,
      "ag": 750,
      "44": 751,
      "Ġevery": 752,
      "Ġman": 753,
      "ps": 754,
      "th": 755,
      "ĠAnd": 756,
      "ook": 757,
      "Ġother": 758,
      "Ġsa": 759,
      "434": 760,
      "Ġsomet": 761,
      "Ġim": 762,
      "Ġlol": 763,
      "ĠWhat": 764,
      "08": 765,
      "Ġhis": 766,
      "Ġnow": 767,
      "ect": 768,
      "09": 769,
      "ost": 770,
      "Ġar": 771,
      "are": 772,
      "ies": 773,
      "8831": 774,
      "act": 775,
      "way": 776,
      "583": 777,
      "ace": 778,
      "Ġtoo": 779,
      "Ġwere": 780,
      "Ġhas": 781,
      "ous": 782,
      "953": 783,
      "9751": 784,
      "4150": 785,
      "746953": 786,
      "99854150": 787,
      "9751746953": 788,
      "975174695399854150": 789,
      "so": 790,
      "Ġun": 791,
      "316": 792,
      "reat": 793,
      "Ġhad": 794,
      "Ġcould": 795,
      "ep": 796,
      "el": 797,
      "Ġeven": 798,
      "uck": 799,
      "Ġ-": 800,
      "Ġway": 801,
      "Ġneed": 802,
      "Ġgood": 803,
      "pl": 804,
      "Ġag": 805,
      "ice": 806,
      "Ġthen": 807,
      "ble": 808,
      "1960": 809,
      "86": 810,
      "Ġmean": 811,
      "ĠJ": 812,
      "Ġsomething": 813,
      "Ġthan": 814,
      "Ġmake": 815,
      "101": 816,
      "right": 817,
      "ĠTh": 818,
      "ard": 819,
      "Ġte": 820,
      "Ġbecause": 821,
      "ose": 822,
      "926": 823,
      "3532": 824,
      "45226": 825,
      "7461": 826,
      "4343532": 827,
      "4522648": 828,
      "74614343532": 829,
      "746143435324522648": 830,
      "Ġact": 831,
      "790": 832,
      "ake": 833,
      "res": 834,
      "ff": 835,
      "100": 836,
      "101790": 837,
      "10179032": 838,
      "161960": 839,
      "8831161960": 840,
      "101790328831161960": 841,
      "1017903288311619604": 842,
      "Ġinto": 843,
      "eah": 844,
      "631": 845,
      "734": 846,
      "2208": 847,
      "051734": 848,
      "10870": 849,
      "0517342208": 850,
      "5830517342208": 851,
      "108705830517342208": 852,
      "tt": 853,
      "ĠBut": 854,
      "Ġbeen": 855,
      "342": 856,
      "per": 857,
      "Ġreally": 858,
      "thing": 859,
      "ment": 860,
      "Ġgu": 861,
      "ob": 862,
      "qu": 863,
      "Ġhere": 864,
      "832": 865,
      "](": 866,
      "Ġbeing": 867,
      "eel": 868,
      "Ġgoing": 869,
      "Ġonly": 870,
      "Ġits": 871,
      "Ġdoes": 872,
      "Ġreal": 873,
      "Ġcl": 874,
      "Ġro": 875,
      "Ġch": 876,
      "bot": 877,
      "ĠâĢľ": 878,
      "own": 879,
      "iz": 880,
      "ĠHe": 881,
      "ence": 882,
      "erson": 883,
      "Ġhim": 884,
      "609": 885,
      "Ġwhy": 886,
      "Ġright": 887,
      "Ġfeel": 888,
      "Ġbl": 889,
      "ĠSo": 890,
      "Ġid": 891,
      "758": 892,
      "Ġ(": 893,
      "self": 894,
      "ich": 895,
      "age": 896,
      "der": 897,
      "ĠWh": 898,
      "Ġhapp": 899,
      "ud": 900,
      "Ġtry": 901,
      "ions": 902,
      "Ġour": 903,
      "nder": 904,
      "Ġnever": 905,
      "Ġbot": 906,
      "37": 907,
      "201": 908,
      "Ġwork": 909,
      "ory": 910,
      "ually": 911,
      "ick": 912,
      "754": 913,
      "Ġwr": 914,
      "Ġle": 915,
      "Ġback": 916,
      "419": 917,
      "ving": 918,
      "Ġbel": 919,
      "uch": 920,
      "835": 921,
      "Ġmay": 922,
      "uman": 923,
      "5135": 924,
      "0515135": 925,
      "6090515135": 926,
      "20188": 927,
      "7546090515135": 928,
      "754609051513520188": 929,
      "842": 930,
      "40": 931,
      "Ġworld": 932,
      "Ġover": 933,
      "Ġperson": 934,
      "ber": 935,
      "8485": 936,
      "5130": 937,
      "99631": 938,
      "1008485": 939,
      "8425130": 940,
      "996318425130": 941,
      "1008485996318425130": 942,
      "ĠU": 943,
      "ak": 944,
      "Ġshould": 945,
      "ach": 946,
      "9161": 947,
      "Ġthings": 948,
      "'ve": 949,
      "Re": 950,
      "176": 951,
      "Ġpre": 952,
      "747": 953,
      "205": 954,
      "22758": 955,
      "358022758": 956,
      "205358022758": 957,
      "itt": 958,
      "316205358022758": 959,
      "747316205358022758": 960,
      "oin": 961,
      "PT": 962,
      "ile": 963,
      "ĠThis": 964,
      "Ġmuch": 965,
      "Ġunder": 966,
      "Ġalso": 967,
      "wn": 968,
      "sp": 969,
      "ves": 970,
      "825": 971,
      "ple": 972,
      "ĠWe": 973,
      "ens": 974,
      "Ġstill": 975,
      "ire": 976,
      "Ġtal": 977,
      "ree": 978,
      "3002": 979,
      "193002": 980,
      "60193002": 981,
      "7860193002": 982,
      "12342": 983,
      "786019300212342": 984,
      "786019300212342825": 985,
      "Ġrem": 986,
      "Ġbet": 987,
      "ult": 988,
      "Ġsc": 989,
      "07": 990,
      "Ġchan": 991,
      "Ġgot": 992,
      "64": 993,
      "ass": 994,
      "Ġdis": 995,
      "Ġlot": 996,
      "433": 997,
      "Ġz": 998,
      "Ġcont": 999,
      "331832": 1000,
      "349194": 1001,
      "926331832": 1002,
      "176349194": 1003,
      "926331832176349194": 1004,
      "og": 1005,
      "ilian": 1006,
      "Ġgr": 1007,
      "ĠThey": 1008,
      "GPT": 1009,
      "ĠNo": 1010,
      "Ġac": 1011,
      "ord": 1012,
      "ptilian": 1013,
      "Ġpr": 1014,
      "ys": 1015,
      "ade": 1016,
      "Ġbelie": 1017,
      "ĠIn": 1018,
      "lp": 1019,
      "Ġad": 1020,
      "416": 1021,
      "Ġsaid": 1022,
      "7209": 1023,
      "002": 1024,
      "!!": 1025,
      "906": 1026,
      "3024": 1027,
      "Ġlook": 1028,
      "oc": 1029,
      "41002": 1030,
      "Ġmost": 1031,
      "Ġwell": 1032,
      "451": 1033,
      "9002": 1034,
      "83584": 1035,
      "1907": 1036,
      "797209": 1037,
      "30249002": 1038,
      "79720930249002": 1039,
      "797209302490021907": 1040,
      "486": 1041,
      "Ġoff": 1042,
      "GPTJ": 1043,
      "'ll": 1044,
      "Ġlife": 1045,
      "03": 1046,
      "GPTJbot": 1047,
      "4589": 1048,
      "459456": 1049,
      "90641002": 1050,
      "4589459456": 1051,
      "906410024589459456": 1052,
      "Ġwhere": 1053,
      "4470": 1054,
      "Reptilian": 1055,
      "315300": 1056,
      "30083584": 1057,
      "447030083584": 1058,
      "315300447030083584": 1059,
      "``": 1060,
      "ren": 1061,
      "orm": 1062,
      "377": 1063,
      "ĠĠĠ": 1064,
      "ap": 1065,
      "ild": 1066,
      "ia": 1067,
      "Ġvery": 1068,
      "ec": 1069,
      "ew": 1070,
      "594": 1071,
      "ww": 1072,
      "Ġlove": 1073,
      "Ġagain": 1074,
      "other": 1075,
      "Ġday": 1076,
      "ĠIf": 1077,
      "ull": 1078,
      "ase": 1079,
      "Ġhuman": 1080,
      "Ġown": 1081,
      "96": 1082,
      "Ġ*": 1083,
      "13": 1084,
      "Ġkind": 1085,
      "Ġfuck": 1086,
      "431": 1087,
      "ij": 1088,
      "Ġaf": 1089,
      "ish": 1090,
      "1024": 1091,
      "Ġpart": 1092,
      "102433": 1093,
      "319": 1094,
      "73": 1095,
      "ip": 1096,
      "read": 1097,
      "Ġdif": 1098,
      "ru": 1099,
      "ount": 1100,
      "fore": 1101,
      "con": 1102,
      "3333": 1103,
      "Ġthr": 1104,
      "ought": 1105,
      "Ġke": 1106,
      "Ġwat": 1107,
      "Ġsure": 1108,
      "Ġlea": 1109,
      "ĠðŁĺ": 1110,
      "ways": 1111,
      "que": 1112,
      "ere": 1113,
      "3576": 1114,
      "irst": 1115,
      "ks": 1116,
      "70431": 1117,
      "91377": 1118,
      "33333576": 1119,
      "9137733333576": 1120,
      "913773333357670431": 1121,
      "Ġdown": 1122,
      "---": 1123,
      "ated": 1124,
      "Ġstu": 1125,
      "urn": 1126,
      "Ġnew": 1127,
      "Ġactually": 1128,
      "736": 1129,
      "ath": 1130,
      "oll": 1131,
      "Ġsame": 1132,
      "ting": 1133,
      "132": 1134,
      "7296": 1135,
      "Ġrel": 1136,
      "79451": 1137,
      "iss": 1138,
      "319736": 1139,
      "13279451": 1140,
      "3197367296": 1141,
      "132794513197367296": 1142,
      "â©": 1143,
      "Ġfind": 1144,
      "352": 1145,
      "iv": 1146,
      "Ġhelp": 1147,
      "Ġtell": 1148,
      "ations": 1149,
      "ft": 1150,
      "ms": 1151,
      "Ġcall": 1152,
      "Ġser": 1153,
      "able": 1154,
      "rent": 1155,
      "ĠK": 1156,
      ":/": 1157,
      "Ġwon": 1158,
      "ird": 1159,
      "Ġplay": 1160,
      "Ġsomeone": 1161,
      "ical": 1162,
      "Ġwhich": 1163,
      "Ġlong": 1164,
      "hed": 1165,
      "://": 1166,
      "Ġtake": 1167,
      "Ġmade": 1168,
      "te": 1169,
      "Ġthose": 1170,
      "608": 1171,
      "Ġfl": 1172,
      "Ġper": 1173,
      "Ġuse": 1174,
      "Ġfirst": 1175,
      "Ġdidn": 1176,
      "Ġtw": 1177,
      "57": 1178,
      "xt": 1179,
      "EE": 1180,
      "com": 1181,
      "na": 1182,
      "Ġhar": 1183,
      "Ġmany": 1184,
      "we": 1185,
      "Ġsm": 1186,
      "476": 1187,
      "Ġbefore": 1188,
      ".\"": 1189,
      "ttps": 1190,
      "ool": 1191,
      "Ġanything": 1192,
      "306": 1193,
      "ress": 1194,
      "ĠOh": 1195,
      "Ġyeah": 1196,
      "vers": 1197,
      "oint": 1198,
      "ream": 1199,
      "Ġlet": 1200,
      "pe": 1201,
      "nal": 1202,
      "Ġname": 1203,
      "Ġsha": 1204,
      "ĠThere": 1205,
      "846": 1206,
      "Ġread": 1207,
      "ĠĠĠĠ": 1208,
      "mm": 1209,
      "stand": 1210,
      "ĠYes": 1211,
      "Ġhappen": 1212,
      "7811": 1213,
      "Ġyear": 1214,
      "4193": 1215,
      "2233": 1216,
      "8003": 1217,
      "464193": 1218,
      "7811464193": 1219,
      "22337811464193": 1220,
      "800322337811464193": 1221,
      "Ġalways": 1222,
      "85300": 1223,
      "7264": 1224,
      "867264": 1225,
      "9161867264": 1226,
      "4169161867264": 1227,
      "853004169161867264": 1228,
      "ody": 1229,
      "ĉĉ": 1230,
      "455": 1231,
      "ious": 1232,
      "Ġbelieve": 1233,
      "https": 1234,
      "Ġdiffe": 1235,
      "old": 1236,
      "@@": 1237,
      "Ġstart": 1238,
      "oss": 1239,
      "Ġmind": 1240,
      "Ġimp": 1241,
      "]]": 1242,
      "==": 1243,
      "ning": 1244,
      "ual": 1245,
      "Ġthrough": 1246,
      "riend": 1247,
      "the": 1248,
      "Ġapp": 1249,
      "ĠShe": 1250,
      "quest": 1251,
      "ict": 1252,
      "Ġbr": 1253,
      "Ġthough": 1254,
      "rain": 1255,
      "ved": 1256,
      "Ġunderstand": 1257,
      "Ġend": 1258,
      "Ġqu": 1259,
      "ever": 1260,
      "Ġfun": 1261,
      "Ġbetter": 1262,
      "erest": 1263,
      "Ġcomp": 1264,
      "oy": 1265,
      "Ġthought": 1266,
      "imes": 1267,
      "ible": 1268,
      "ĠYeah": 1269,
      "849": 1270,
      "ember": 1271,
      "Ġcha": 1272,
      "Ġev": 1273,
      "Ġstuff": 1274,
      "Ġcreat": 1275,
      "ance": 1276,
      "ĠHow": 1277,
      "Ġword": 1278,
      "ang": 1279,
      "Ġthese": 1280,
      "Ġkill": 1281,
      "Ġsub": 1282,
      "ail": 1283,
      "ĠGod": 1284,
      "Ġcome": 1285,
      "'d": 1286,
      "Ġmight": 1287,
      "Ġpoint": 1288,
      "Ġdoing": 1289,
      "Ġbu": 1290,
      "Ġvide": 1291,
      "ful": 1292,
      "Ġop": 1293,
      "Ġsl": 1294,
      "oph": 1295,
      "Ġsoci": 1296,
      "ial": 1297,
      "Ġafter": 1298,
      "Ġem": 1299,
      "ons": 1300,
      "824": 1301,
      "led": 1302,
      "ower": 1303,
      "ock": 1304,
      "Ġok": 1305,
      "Ġ#": 1306,
      "162": 1307,
      "Ġtrying": 1308,
      "ark": 1309,
      "\",": 1310,
      "Ġask": 1311,
      "ably": 1312,
      "###": 1313,
      "ike": 1314,
      "Ġever": 1315,
      "Ġ=": 1316,
      "Ġ2": 1317,
      "4158": 1318,
      "904158": 1319,
      "433904158": 1320,
      "476162": 1321,
      "455433904158": 1322,
      "476162455433904158": 1323,
      "ily": 1324,
      "ï¸": 1325,
      "ï¸ı": 1326,
      "ready": 1327,
      "Ġcat": 1328,
      "Ġacc": 1329,
      "ĠV": 1330,
      "Ġsim": 1331,
      "Ġbad": 1332,
      "ĠMy": 1333,
      "Ġyes": 1334,
      "Ġdes": 1335,
      "Ġalready": 1336,
      "Ġdoesn": 1337,
      "ub": 1338,
      "side": 1339,
      "Ġel": 1340,
      "ope": 1341,
      "vel": 1342,
      "Ġcomm": 1343,
      "kes": 1344,
      "Ġdifferent": 1345,
      "ary": 1346,
      "Ġaround": 1347,
      "Ġmaybe": 1348,
      "Ġgive": 1349,
      "064": 1350,
      "ise": 1351,
      "ĠDo": 1352,
      "Ġtrue": 1353,
      "Ġprob": 1354,
      "Ġatt": 1355,
      "Ġwa": 1356,
      "de": 1357,
      "HA": 1358,
      "ny": 1359,
      "399": 1360,
      "....": 1361,
      "Ġass": 1362,
      "cept": 1363,
      "](/": 1364,
      "dit": 1365,
      "less": 1366,
      "5388": 1367,
      "Ġ[[": 1368,
      "Ġfriend": 1369,
      "ĠNot": 1370,
      "Ġinterest": 1371,
      "form": 1372,
      "Ġmat": 1373,
      "Ġkid": 1374,
      "Ġnothing": 1375,
      "Ġ1": 1376,
      "Ġeveryone": 1377,
      "Ġent": 1378,
      "8239": 1379,
      "676": 1380,
      "Ġremember": 1381,
      "8575388": 1382,
      "398239": 1383,
      "098575388": 1384,
      "398239098575388": 1385,
      "398239098575388676": 1386,
      "Ġwar": 1387,
      "921": 1388,
      "OU": 1389,
      "Ġeverything": 1390,
      "rist": 1391,
      "05": 1392,
      "Ġquest": 1393,
      "ne": 1394,
      "Ġph": 1395,
      "ense": 1396,
      "Ġshit": 1397,
      "ific": 1398,
      "Ġcare": 1399,
      "48921": 1400,
      "Ġgen": 1401,
      "41064": 1402,
      "35594": 1403,
      "84941064": 1404,
      "4892184941064": 1405,
      "489218494106435594": 1406,
      "ating": 1407,
      "Ġshow": 1408,
      "Ġstr": 1409,
      "ans": 1410,
      "Ġput": 1411,
      "cl": 1412,
      "Ġtwo": 1413,
      "uth": 1414,
      "Ġ20": 1415,
      "ittle": 1416,
      "ness": 1417,
      "Ġsy": 1418,
      "Ġweird": 1419,
      "olog": 1420,
      "tty": 1421,
      "ave": 1422,
      "get": 1423,
      "Ġcr": 1424,
      "Ġgame": 1425,
      "ism": 1426,
      "Ġtalk": 1427,
      "8419": 1428,
      "Ġreas": 1429,
      "Ġgod": 1430,
      "here": 1431,
      "Ġstory": 1432,
      "ER": 1433,
      "Ġâ": 1434,
      "Ġused": 1435,
      "ng": 1436,
      "Ġpost": 1437,
      "fect": 1438,
      "Ġwhile": 1439,
      "Ġkeep": 1440,
      "ĠWhy": 1441,
      "hen": 1442,
      "ss": 1443,
      "ert": 1444,
      "est": 1445,
      "Ġhat": 1446,
      "ðŁĺ": 1447,
      "Ġold": 1448,
      "Ġplace": 1449,
      "Ġguess": 1450,
      "Ġhand": 1451,
      "ather": 1452,
      "Ġ:": 1453,
      "ors": 1454,
      "Ġprobably": 1455,
      "Ġlive": 1456,
      "Ġidea": 1457,
      "94": 1458,
      "ĠAl": 1459,
      "1032": 1460,
      "ĠIs": 1461,
      "Ġvideo": 1462,
      "Ġexpl": 1463,
      "Ġpretty": 1464,
      "âĢ¦": 1465,
      "Ġenough": 1466,
      "orry": 1467,
      "Ġhard": 1468,
      "772": 1469,
      "Ġlittle": 1470,
      "gr": 1471,
      "38": 1472,
      "882": 1473,
      "Ġtri": 1474,
      "hh": 1475,
      "Ġrun": 1476,
      "Ġyet": 1477,
      "ĠSt": 1478,
      "ĠOr": 1479,
      "Ġchild": 1480,
      "ĠJust": 1481,
      "Ġrec": 1482,
      "ushing": 1483,
      "Ġsupp": 1484,
      "Ġdef": 1485,
      "ove": 1486,
      "Ġuni": 1487,
      "63": 1488,
      "Ġyears": 1489,
      "Ġdream": 1490,
      "Ġinter": 1491,
      "Ġ'": 1492,
      "```": 1493,
      "**": 1494,
      "112": 1495,
      "762": 1496,
      "Ġexper": 1497,
      "561": 1498,
      "Ġtalking": 1499,
      "med": 1500,
      "Ġsound": 1501,
      "Ġche": 1502,
      "ces": 1503,
      "Ġlear": 1504,
      "oney": 1505,
      "42": 1506,
      "verse": 1507,
      "Ġfa": 1508,
      "709": 1509,
      "Ġanother": 1510,
      "9246": 1511,
      "ned": 1512,
      "ix": 1513,
      "329": 1514,
      "Ġable": 1515,
      "Ġelse": 1516,
      "0632": 1517,
      "569246": 1518,
      "1024330632": 1519,
      "882569246": 1520,
      "1024330632882569246": 1521,
      "ĠCh": 1522,
      "HH": 1523,
      "IN": 1524,
      "Ġwatch": 1525,
      "Ġmet": 1526,
      "ically": 1527,
      "00": 1528,
      "393": 1529,
      "1033": 1530,
      "ied": 1531,
      "Ġmust": 1532,
      "day": 1533,
      "gg": 1534,
      "Ġanyone": 1535,
      "It": 1536,
      "ĠWell": 1537,
      "Ġturn": 1538,
      "Ġproble": 1539,
      "Ġdie": 1540,
      "Ġob": 1541,
      "Ġstop": 1542,
      "ince": 1543,
      "Ġbo": 1544,
      "ĠBec": 1545,
      "Ġfam": 1546,
      "Ġbas": 1547,
      "Ġmess": 1548,
      "Ġexist": 1549,
      "Ġleast": 1550,
      "Ġart": 1551,
      "Ġra": 1552,
      "))": 1553,
      "arth": 1554,
      "Ġpower": 1555,
      "ond": 1556,
      "les": 1557,
      "852": 1558,
      "ĠðŁħ": 1559,
      "Ġbig": 1560,
      "550": 1561,
      "??": 1562,
      "uc": 1563,
      "ims": 1564,
      "245": 1565,
      "Ġtra": 1566,
      "Ġmyself": 1567,
      "ĠPushing": 1568,
      "oke": 1569,
      "iting": 1570,
      "ĠðŁħ¿": 1571,
      "ĠðŁħ¿ï¸ı": 1572,
      "ollow": 1573,
      "AN": 1574,
      "onna": 1575,
      "Ġgi": 1576,
      "Ġmakes": 1577,
      "474": 1578,
      "Ġsuch": 1579,
      "Ġbest": 1580,
      "503": 1581,
      "ok": 1582,
      "ib": 1583,
      "2934": 1584,
      "9503": 1585,
      "9503926": 1586,
      "46306": 1587,
      "762772": 1588,
      "950392646306": 1589,
      "950392646306762772": 1590,
      "Ġreason": 1591,
      "49": 1592,
      "Ġgreat": 1593,
      "Ġwithout": 1594,
      "566474": 1595,
      "608112": 1596,
      "709566474": 1597,
      "393608112": 1598,
      "393608112709566474": 1599,
      "Ġaway": 1600,
      "Ġgonna": 1601,
      "ages": 1602,
      "Ġresp": 1603,
      "igh": 1604,
      "Ġposs": 1605,
      "742": 1606,
      "Ġey": 1607,
      "lease": 1608,
      "Ġplan": 1609,
      "837": 1610,
      "als": 1611,
      "85852": 1612,
      "10243363": 1613,
      "841994": 1614,
      "85852841994": 1615,
      "1024336385852841994": 1616,
      "2913": 1617,
      "az": 1618,
      "Ġinst": 1619,
      ".âĢĿ": 1620,
      "Ġconf": 1621,
      "ts": 1622,
      "Ġaw": 1623,
      "Ġboth": 1624,
      "82934": 1625,
      "34345": 1626,
      "846837": 1627,
      "05846837": 1628,
      "8293434345": 1629,
      "829343434505846837": 1630,
      "0633": 1631,
      "702913": 1632,
      "40433": 1633,
      "5500633": 1634,
      "40433702913": 1635,
      "550063340433702913": 1636,
      "wer": 1637,
      "Ġment": 1638,
      "Ġwrong": 1639,
      "Ġeach": 1640,
      "me": 1641,
      "Ġ3": 1642,
      "Ġwom": 1643,
      "Ġexp": 1644,
      "Ġfound": 1645,
      "outu": 1646,
      "iet": 1647,
      "ither": 1648,
      "ject": 1649,
      "ĠYOU": 1650,
      "Ġcons": 1651,
      "Ġbit": 1652,
      "Ġmoney": 1653,
      "ĠBecause": 1654,
      "ĠMay": 1655,
      "youtu": 1656,
      "Ġrep": 1657,
      "ource": 1658,
      "10329": 1659,
      "Ġmom": 1660,
      "Ġcre": 1661,
      "7129": 1662,
      "Ġisn": 1663,
      "Ġhead": 1664,
      "8719": 1665,
      "Ġlast": 1666,
      "5655": 1667,
      "5778719": 1668,
      "91615655": 1669,
      "7425778719": 1670,
      "916156557425778719": 1671,
      "Ġothers": 1672,
      "Ġsorry": 1673,
      "816": 1674,
      "ward": 1675,
      "10352": 1676,
      "31581": 1677,
      "57561": 1678,
      "712957561": 1679,
      "1035231581": 1680,
      "1035231581712957561": 1681,
      "ier": 1682,
      "LL": 1683,
      "Ġtold": 1684,
      "gan": 1685,
      "leep": 1686,
      "Ġfew": 1687,
      ").": 1688,
      "Ġfollow": 1689,
      "336": 1690,
      "aw": 1691,
      "ĠBob": 1692,
      "ction": 1693,
      "Ġdone": 1694,
      "ten": 1695,
      "cess": 1696,
      "You": 1697,
      "ute": 1698,
      "Ġchange": 1699,
      "Ġdisc": 1700,
      "ĠLike": 1701,
      "hes": 1702,
      "Ġfin": 1703,
      "Ġvo": 1704,
      "Ġmatter": 1705,
      "ĠLol": 1706,
      "Ġoh": 1707,
      "Ġsur": 1708,
      "3733": 1709,
      "ings": 1710,
      "782": 1711,
      "Ġhope": 1712,
      "Ġcount": 1713,
      "Ġter": 1714,
      "85336": 1715,
      "59485336": 1716,
      "81659485336": 1717,
      "78281659485336": 1718,
      "782816594853363733": 1719,
      "ories": 1720,
      "Ġvan": 1721,
      "Ġx": 1722,
      "cre": 1723,
      "Ġinteresting": 1724,
      "Ġmon": 1725,
      "Ġeas": 1726,
      "ames": 1727,
      "man": 1728,
      "Th": 1729,
      "Ġyourself": 1730,
      "yp": 1731,
      "Ġseems": 1732,
      "Ġgl": 1733,
      "ma": 1734,
      "Ġfact": 1735,
      "Ġcontro": 1736,
      "Ġhet": 1737,
      "uss": 1738,
      "Ġcle": 1739,
      "ĠQ": 1740,
      "Ġpast": 1741,
      "142": 1742,
      "975": 1743,
      "ron": 1744,
      "iter": 1745,
      "5251": 1746,
      "Ġserver": 1747,
      "70976": 1748,
      "34570976": 1749,
      "97534570976": 1750,
      "5251142": 1751,
      "975345709765251142": 1752,
      "ents": 1753,
      "Ġhate": 1754,
      "Ġdat": 1755,
      "Ġnice": 1756,
      "actly": 1757,
      "Ġeen": 1758,
      "ah": 1759,
      "Ġwhole": 1760,
      "Ġquestion": 1761,
      "Ġsk": 1762,
      "Ġguy": 1763,
      "â«": 1764,
      "ĠThan": 1765,
      "irl": 1766,
      "ics": 1767,
      "ants": 1768,
      "Ġfar": 1769,
      "ertain": 1770,
      "ars": 1771,
      "Ġcause": 1772,
      "Ġcomple": 1773,
      "ign": 1774,
      "orn": 1775,
      "Ġsense": 1776,
      "Ġopen": 1777,
      "Ġproblem": 1778,
      "::": 1779,
      "Ġexperi": 1780,
      "Ġfree": 1781,
      "stem": 1782,
      "----": 1783,
      "ik": 1784,
      "Ġlist": 1785,
      "Ġunt": 1786,
      "ments": 1787,
      "ize": 1788,
      "Ġ|": 1789,
      "Ġsince": 1790,
      "ĠOk": 1791,
      "Ġver": 1792,
      "Ġbecome": 1793,
      "Ġans": 1794,
      "www": 1795,
      "446": 1796,
      "ĠTH": 1797,
      "arent": 1798,
      "Ġgetting": 1799,
      "Ġres": 1800,
      "not": 1801,
      "Ġloo": 1802,
      "ĠAI": 1803,
      "Ġind": 1804,
      "295": 1805,
      "ater": 1806,
      "Ġinv": 1807,
      "Ġcalled": 1808,
      "Ġface": 1809,
      "Ġrelig": 1810,
      "Ġsaying": 1811,
      "den": 1812,
      "vie": 1813,
      "ĠAll": 1814,
      "Ġmem": 1815,
      "fl": 1816,
      "ĠMaybe": 1817,
      "Ġseen": 1818,
      "ition": 1819,
      "Ġimport": 1820,
      "595": 1821,
      "arch": 1822,
      "Ġchar": 1823,
      "71486": 1824,
      "6176": 1825,
      "Ġwrite": 1826,
      "419245": 1827,
      "595419245": 1828,
      "714866176": 1829,
      "595419245714866176": 1830,
      "arly": 1831,
      "====": 1832,
      "Ġfight": 1833,
      "Ġonce": 1834,
      "gs": 1835,
      "Ġbody": 1836,
      "532": 1837,
      "ĠAs": 1838,
      "Ġbook": 1839,
      "Ġhear": 1840,
      "4469": 1841,
      "Ġadd": 1842,
      "up": 1843,
      "Ġ10": 1844,
      "Ġmin": 1845,
      "ĠðŁ¤": 1846,
      "Ġtimes": 1847,
      "Ġsleep": 1848,
      "Ġhaving": 1849,
      "Ġdec": 1850,
      "Ġwanted": 1851,
      "Ġthats": 1852,
      "sel": 1853,
      "Ġsays": 1854,
      "Ġcra": 1855,
      "ĠRe": 1856,
      "eak": 1857,
      "ĠFor": 1858,
      "ijn": 1859,
      "ude": 1860,
      "Ġuniverse": 1861,
      "Ġlight": 1862,
      "ying": 1863,
      "Ġhell": 1864,
      "Ġfucking": 1865,
      "We": 1866,
      "its": 1867,
      "Ġnight": 1868,
      "oul": 1869,
      "Ġhome": 1870,
      "Ġleft": 1871,
      "most": 1872,
      "Ġsch": 1873,
      "@@@@": 1874,
      "ced": 1875,
      "Ġside": 1876,
      "Ġkids": 1877,
      "umb": 1878,
      "827": 1879,
      "388": 1880,
      "OO": 1881,
      "Ġcool": 1882,
      "5002": 1883,
      "465002": 1884,
      "824399": 1885,
      "827846": 1886,
      "465002827846": 1887,
      "824399465002827846": 1888,
      "Ġmeans": 1889,
      "And": 1890,
      "ash": 1891,
      "ates": 1892,
      "Ġguys": 1893,
      "951": 1894,
      "ank": 1895,
      "Ġeither": 1896,
      "doc": 1897,
      "26": 1898,
      "cri": 1899,
      "332": 1900,
      "Ġokay": 1901,
      "Ġsystem": 1902,
      "301": 1903,
      "ale": 1904,
      "Ġsex": 1905,
      "Ġimportant": 1906,
      "Ġless": 1907,
      "Ġdeath": 1908,
      "ĠWhen": 1909,
      "sy": 1910,
      "In": 1911,
      "Ġmaking": 1912,
      "docs": 1913,
      "Ġ>": 1914,
      "Ġ5": 1915,
      "ities": 1916,
      "ken": 1917,
      "1055": 1918,
      "Ġco": 1919,
      "EEEE": 1920,
      "ited": 1921,
      "Ġred": 1922,
      "Ġentire": 1923,
      "This": 1924,
      "ĠDe": 1925,
      "aby": 1926,
      "740": 1927,
      "osed": 1928,
      "119": 1929,
      "Ġfamily": 1930,
      "Ġset": 1931,
      "Ġbro": 1932,
      "ange": 1933,
      "Ġexplain": 1934,
      "Ġgener": 1935,
      "Ġmed": 1936,
      "Ġfull": 1937,
      "Ġself": 1938,
      "Ġwords": 1939,
      "Ġdr": 1940,
      "506": 1941,
      "imson": 1942,
      "Ġ/": 1943,
      "Ġsocioph": 1944,
      "Ġwouldn": 1945,
      "Ġext": 1946,
      "Ġsaw": 1947,
      "Ġpo": 1948,
      "Ġbrain": 1949,
      "ON": 1950,
      "4519": 1951,
      "104519": 1952,
      "onest": 1953,
      "780342": 1954,
      "608780342": 1955,
      "119104519": 1956,
      "608780342119104519": 1957,
      "ster": 1958,
      "968": 1959,
      "Ġref": 1960,
      "Ġsoul": 1961,
      "uture": 1962,
      "481": 1963,
      "ledge": 1964,
      "body": 1965,
      "ph": 1966,
      "Ġcontrol": 1967,
      "ĠGood": 1968,
      "Ġuntil": 1969,
      "Ġcertain": 1970,
      "Ġtech": 1971,
      "ouse": 1972,
      "Ġjob": 1973,
      "Ġthinking": 1974,
      "Ġpres": 1975,
      "Ġbre": 1976,
      "Ġmiss": 1977,
      "Ġcame": 1978,
      "Ġgirl": 1979,
      "ately": 1980,
      "Ġagainst": 1981,
      "âĢĶ": 1982,
      "pped": 1983,
      "1499": 1984,
      "31681": 1985,
      "061499": 1986,
      "33951": 1987,
      "5978": 1988,
      "434061499": 1989,
      "33951434061499": 1990,
      "339514340614995978": 1991,
      "ched": 1992,
      "nect": 1993,
      "76332": 1994,
      "31481": 1995,
      "3168176332": 1996,
      "314813168176332": 1997,
      "314813168176332801": 1998,
      "ĠThen": 1999,
      "Ġexactly": 2000,
      "odder": 2001,
      "Ġbob": 2002,
      "Ġdra": 2003,
      "Ġtest": 2004,
      "OR": 2005,
      "ged": 2006,
      "Ġlearn": 2007,
      "Ġfriends": 2008,
      "ES": 2009,
      "Ġnat": 2010,
      "Ġworking": 2011,
      "Ġret": 2012,
      "ering": 2013,
      "Ġins": 2014,
      "Ġheard": 2015,
      "aking": 2016,
      "lic": 2017,
      "Ġdead": 2018,
      "Ġpol": 2019,
      "Ġlost": 2020,
      "Ġwonder": 2021,
      "air": 2022,
      "line": 2023,
      "selves": 2024,
      "Ġtak": 2025,
      "ĠNA": 2026,
      "Ġer": 2027,
      "Ġusing": 2028,
      "row": 2029,
      "Ġeyes": 2030,
      "Ġsw": 2031,
      "Ġfuture": 2032,
      "Ġ**": 2033,
      "ility": 2034,
      "ode": 2035,
      "ror": 2036,
      "Ġinside": 2037,
      "Ġca": 2038,
      "7541": 2039,
      "used": 2040,
      "ump": 2041,
      "Ġcour": 2042,
      "ident": 2043,
      "=\"": 2044,
      "Ġwent": 2045,
      "454": 2046,
      "idence": 2047,
      "ek": 2048,
      "Ġtruth": 2049,
      "Ġnext": 2050,
      "Ġlead": 2051,
      "ĠWho": 2052,
      "aven": 2053,
      "Ġhappened": 2054,
      "formation": 2055,
      "Ġsounds": 2056,
      "mer": 2057,
      "Ġhumans": 2058,
      "gin": 2059,
      "ted": 2060,
      "Ġcomplete": 2061,
      "nel": 2062,
      "Ġhigh": 2063,
      "7380": 2064,
      "Ġwasn": 2065,
      "ruct": 2066,
      "Ġanswer": 2067,
      "ĠAr": 2068,
      "Ġdep": 2069,
      "5984": 2070,
      "rence": 2071,
      "Ġcommun": 2072,
      "ired": 2073,
      "Ġ4": 2074,
      "848": 2075,
      "zy": 2076,
      "come": 2077,
      "pr": 2078,
      "Ġsing": 2079,
      "105984": 2080,
      "Ġimag": 2081,
      "ife": 2082,
      "323": 2083,
      "isc": 2084,
      "ular": 2085,
      "Ġliter": 2086,
      "Ġsit": 2087,
      "ĠTr": 2088,
      "Ġrest": 2089,
      "eep": 2090,
      "oose": 2091,
      "Ġlooking": 2092,
      "ative": 2093,
      "Ġalmost": 2094,
      "Ġsmall": 2095,
      "ĠSoci": 2096,
      "host": 2097,
      "Ġknew": 2098,
      "Ġide": 2099,
      "Ġdont": 2100,
      "Ġhappy": 2101,
      "Ġpain": 2102,
      "use": 2103,
      "inite": 2104,
      "itten": 2105,
      "Ġbeh": 2106,
      "ead": 2107,
      "Ġmus": 2108,
      "Ġdam": 2109,
      "Ġeat": 2110,
      "ized": 2111,
      "4536": 2112,
      "924469": 2113,
      "3994536": 2114,
      "506924469": 2115,
      "399453696": 2116,
      "506924469399453696": 2117,
      "atic": 2118,
      "Ġfe": 2119,
      "437": 2120,
      "Ġcor": 2121,
      "41454": 2122,
      "20729": 2123,
      "38880": 2124,
      "43738880": 2125,
      "4145420729": 2126,
      "414542072943738880": 2127,
      "cy": 2128,
      "ho": 2129,
      "reddit": 2130,
      "Ġdet": 2131,
      "EN": 2132,
      "av": 2133,
      "Ġconnect": 2134,
      "Ġseem": 2135,
      "Ġmag": 2136,
      "ĠCan": 2137,
      "Ġsuper": 2138,
      "Ġbuild": 2139,
      "414": 2140,
      "405": 2141,
      "ote": 2142,
      "Ġtoday": 2143,
      "alk": 2144,
      "lo": 2145,
      "Ġsad": 2146,
      "Ġplease": 2147,
      "Ġmove": 2148,
      "Ġfore": 2149,
      "ween": 2150,
      "Ġcur": 2151,
      "atch": 2152,
      "710": 2153,
      "cc": 2154,
      "ev": 2155,
      "ignal": 2156,
      "ysis": 2157,
      "Ġexam": 2158,
      "Ġdark": 2159,
      "ĠOn": 2160,
      "Ġones": 2161,
      "Ġpossible": 2162,
      "ta": 2163,
      "Ġcar": 2164,
      "Ġstand": 2165,
      "ines": 2166,
      "bs": 2167,
      "Ġfig": 2168,
      "Ġwhatever": 2169,
      "ING": 2170,
      "sh": 2171,
      "Ġreg": 2172,
      "gram": 2173,
      "ety": 2174,
      "aught": 2175,
      "Ġroom": 2176,
      "Ġreality": 2177,
      "\\_": 2178,
      "Ġlooks": 2179,
      "Ġâ¨": 2180,
      "ĠAre": 2181,
      "Ġallow": 2182,
      "du": 2183,
      "ĠEx": 2184,
      "ger": 2185,
      "Ġpass": 2186,
      "Ġ$": 2187,
      "ulation": 2188,
      "Ġleave": 2189,
      "CK": 2190,
      "Ġsn": 2191,
      "Ġhor": 2192,
      "Ġtoget": 2193,
      "Ġtogether": 2194,
      "Ġhour": 2195,
      "Ġhu": 2196,
      "ĠDon": 2197,
      "Ġwish": 2198,
      "Ġgre": 2199,
      "alth": 2200,
      "Ġquite": 2201,
      "Ġaren": 2202,
      "ison": 2203,
      "Ġcoming": 2204,
      "ĠRock": 2205,
      "where": 2206,
      "Ġes": 2207,
      "ists": 2208,
      "no": 2209,
      "vious": 2210,
      "ĠZ": 2211,
      "ĠTo": 2212,
      "ze": 2213,
      "ional": 2214,
      "more": 2215,
      "ty": 2216,
      "ðŁĺĨ": 2217,
      "Ġhonest": 2218,
      "Ġtried": 2219,
      "7631": 2220,
      "81405": 2221,
      "3957": 2222,
      "71081405": 2223,
      "763112": 2224,
      "3957763112": 2225,
      "710814053957763112": 2226,
      "ures": 2227,
      "Ġtho": 2228,
      "vent": 2229,
      "Ġsent": 2230,
      "Ġbehind": 2231,
      "rin": 2232,
      "Ġlisten": 2233,
      "Ġpur": 2234,
      "ology": 2235,
      "ĠChrist": 2236,
      "ross": 2237,
      "93": 2238,
      "Ġban": 2239,
      "mon": 2240,
      "Ġsend": 2241,
      "Ġwait": 2242,
      "Ġbc": 2243,
      "Ġexperience": 2244,
      "Ġbetween": 2245,
      "Ġsecre": 2246,
      "Ġfunny": 2247,
      "dd": 2248,
      "ared": 2249,
      "ĠInk": 2250,
      "oot": 2251,
      "haha": 2252,
      "lect": 2253,
      "ital": 2254,
      "ĠHell": 2255,
      "acter": 2256,
      "Ġdest": 2257,
      "oof": 2258,
      "Ġmor": 2259,
      "7170": 2260,
      "Ġcourse": 2261,
      "ling": 2262,
      "Ġrese": 2263,
      "84899": 2264,
      "ner": 2265,
      "post": 2266,
      "Ġago": 2267,
      "ĠMan": 2268,
      "Ġhold": 2269,
      "Ġstay": 2270,
      "Ġcannot": 2271,
      "!!!!": 2272,
      "ĠAt": 2273,
      "Ġtrust": 2274,
      "ĠUn": 2275,
      "cond": 2276,
      "ĠxD": 2277,
      "ĠOne": 2278,
      "Ġcreated": 2279,
      "Ġfall": 2280,
      "1031": 2281,
      "Ġform": 2282,
      "Ġstarted": 2283,
      "Ġlater": 2284,
      "esus": 2285,
      "1002": 2286,
      "7782": 2287,
      "7481002": 2288,
      "10557481002": 2289,
      "10317782": 2290,
      "1031778210557481002": 2291,
      "Ġclose": 2292,
      "ium": 2293,
      "066": 2294,
      "ĠAnal": 2295,
      "Ġcomes": 2296,
      "SM": 2297,
      "acy": 2298,
      "Ġtechn": 2299,
      "EA": 2300,
      "Ġtop": 2301,
      "ox": 2302,
      "Ġdays": 2303,
      "Ġwoman": 2304,
      "Ġ6": 2305,
      "ality": 2306,
      "Ġvie": 2307,
      "haps": 2308,
      "gest": 2309,
      "Ġchannel": 2310,
      "net": 2311,
      "Ġforg": 2312,
      "ĠTHE": 2313,
      "Ġill": 2314,
      "Ġmar": 2315,
      "Ġprot": 2316,
      "Ġchildren": 2317,
      "aa": 2318,
      "ues": 2319,
      "Ġhouse": 2320,
      "Ġdoor": 2321,
      "Ġgrow": 2322,
      "ĠNAHA": 2323,
      "Ġfre": 2324,
      "Ġfine": 2325,
      "Ġcoll": 2326,
      "ĠMia": 2327,
      "394": 2328,
      "Ġpay": 2329,
      "Ġnorm": 2330,
      "ption": 2331,
      "091": 2332,
      "ef": 2333,
      "Ġpop": 2334,
      "Ġstate": 2335,
      "ider": 2336,
      "Ġschool": 2337,
      "orts": 2338,
      "ĠAnalysis": 2339,
      "ype": 2340,
      "Ġalone": 2341,
      "gy": 2342,
      "ilar": 2343,
      "Ġpub": 2344,
      "uter": 2345,
      "235": 2346,
      "3486": 2347,
      "Ġfood": 2348,
      "518831": 2349,
      "22518831": 2350,
      "552922518831": 2351,
      "3523486": 2352,
      "Ġasked": 2353,
      "1033091": 2354,
      "06645": 2355,
      "235072": 2356,
      "552922518831235072": 2357,
      "352348606645": 2358,
      "1033091352348606645": 2359,
      "IS": 2360,
      "bb": 2361,
      "0675": 2362,
      "1032984899": 2363,
      "96810": 2364,
      "067596810": 2365,
      "1032984899067596810": 2366,
      "source": 2367,
      "Ġhur": 2368,
      "Ġho": 2369,
      "utm": 2370,
      "Ġsecond": 2371,
      "irect": 2372,
      "Ġgrou": 2373,
      "Ġtook": 2374,
      "Ġcrazy": 2375,
      "ĠYour": 2376,
      "Ġcountry": 2377,
      "Ġppl": 2378,
      "Ġsol": 2379,
      "++": 2380,
      "my": 2381,
      "pect": 2382,
      "Ġzijn": 2383,
      "717012": 2384,
      "Ġri": 2385,
      "29717012": 2386,
      "Ġearth": 2387,
      "Ġanymore": 2388,
      "71638": 2389,
      "Ġliterally": 2390,
      "41429717012": 2391,
      "9371638": 2392,
      "937163841429717012": 2393,
      "Ġmoment": 2394,
      "Ġom": 2395,
      "ised": 2396,
      "Ġagree": 2397,
      "8879": 2398,
      "Ġtrans": 2399,
      "ube": 2400,
      "initely": 2401,
      "Ġknowledge": 2402,
      "ĠSome": 2403,
      "01": 2404,
      "Ġheart": 2405,
      "Ġcheck": 2406,
      "ract": 2407,
      "1289": 2408,
      "ĠĠĠĠĠĠĠĠ": 2409,
      "uthor": 2410,
      "Ġcharacter": 2411,
      "ĠðŁĻ": 2412,
      "Ġwater": 2413,
      "HHHH": 2414,
      "2442": 2415,
      "Ġliving": 2416,
      "442442": 2417,
      "583740": 2418,
      "1033442442": 2419,
      "583740488": 2420,
      "1033442442583740488": 2421,
      "bol": 2422,
      "ĠAlso": 2423,
      "Ġinformation": 2424,
      "Ġsometimes": 2425,
      "SMR": 2426,
      "ĠSignal": 2427,
      "ĠSocioph": 2428,
      "ĠNow": 2429,
      "Ġhun": 2430,
      "Ġaccount": 2431,
      "Ġsong": 2432,
      "Ġsoon": 2433,
      "Ġspace": 2434,
      "app": 2435,
      "ĠAn": 2436,
      "Ġoften": 2437,
      "ĠðŁĺĨ": 2438,
      "Ġevil": 2439,
      "eci": 2440,
      "joy": 2441,
      "Âł": 2442,
      "866": 2443,
      "25": 2444,
      "ĠNO": 2445,
      "Ġprogram": 2446,
      "),": 2447,
      "Ġspec": 2448,
      "Ġcreate": 2449,
      "io": 2450,
      "ĠEvery": 2451,
      "Ġ7": 2452,
      "Ġcreator": 2453,
      "Ġpa": 2454,
      "Ġwin": 2455,
      "andom": 2456,
      "Ġfav": 2457,
      "Ġreligion": 2458,
      "Ġknows": 2459,
      "He": 2460,
      "Ġlink": 2461,
      "ator": 2462,
      "ets": 2463,
      "Ġwithin": 2464,
      "ices": 2465,
      "Ġpos": 2466,
      "Ġblack": 2467,
      "conf": 2468,
      "Ġthemselves": 2469,
      "ush": 2470,
      "4977": 2471,
      "Ġbreak": 2472,
      "Ġperfect": 2473,
      "Ġkinda": 2474,
      "idants": 2475,
      "Ġcult": 2476,
      "ĠBe": 2477,
      "gen": 2478,
      "726": 2479,
      "633": 2480,
      "ax": 2481,
      "Ġsuff": 2482,
      "Ġworks": 2483,
      "ĠEarth": 2484,
      "wor": 2485,
      "Ġcla": 2486,
      "Ġcol": 2487,
      "Ġanim": 2488,
      "alse": 2489,
      "Ġcase": 2490,
      "Ġjoin": 2491,
      "449": 2492,
      "Ġfear": 2493,
      "Ġinf": 2494,
      "18": 2495,
      "iness": 2496,
      "ivid": 2497,
      "kn": 2498,
      "Ġmur": 2499,
      "Ġhaven": 2500,
      "Ġvis": 2501,
      "ĠThank": 2502,
      "Ġcompletely": 2503,
      "Ġview": 2504,
      "Ġfix": 2505,
      "Ġya": 2506,
      "928": 2507,
      "8780": 2508,
      "ming": 2509,
      "Ġste": 2510,
      "9768780": 2511,
      "60295": 2512,
      "39726": 2513,
      "97687809": 2514,
      "6029597687809": 2515,
      "397266029597687809": 2516,
      "Ġmeaning": 2517,
      "Ġrobot": 2518,
      "sych": 2519,
      "What": 2520,
      "Ġfur": 2521,
      "Ġideas": 2522,
      "1832": 2523,
      "Ġwall": 2524,
      "316928": 2525,
      "6311832": 2526,
      "10326311832": 2527,
      "Ġexpect": 2528,
      "31692861": 2529,
      "1032631183231692861": 2530,
      "?âĢĿ": 2531,
      "Ġexample": 2532,
      "oog": 2533,
      "Ġanyway": 2534,
      "ĠIts": 2535,
      "TH": 2536,
      "oud": 2537,
      "Ġblood": 2538,
      "itle": 2539,
      "fort": 2540,
      "ane": 2541,
      "yan": 2542,
      "Ġlau": 2543,
      "Ġkilled": 2544,
      "confidants": 2545,
      "8074": 2546,
      "8056": 2547,
      "Ġvers": 2548,
      "struct": 2549,
      "Ġsuck": 2550,
      "353": 2551,
      "Ġenjoy": 2552,
      "Ġmen": 2553,
      "Ġcou": 2554,
      "ĠEC": 2555,
      "Ġspeak": 2556,
      "Ġbus": 2557,
      "Ġdou": 2558,
      "*\"": 2559,
      "Ġtrain": 2560,
      "pid": 2561,
      "ric": 2562,
      "ient": 2563,
      "Ġrandom": 2564,
      "29835": 2565,
      "34633": 2566,
      "Ġdel": 2567,
      "Ġmain": 2568,
      "103298056": 2569,
      "2983534633": 2570,
      "1032980562983534633": 2571,
      "ganiz": 2572,
      "ĠDid": 2573,
      "elt": 2574,
      "Ġopp": 2575,
      "Ġcontin": 2576,
      "ply": 2577,
      "ĠSp": 2578,
      "Ġwriting": 2579,
      "aar": 2580,
      "ention": 2581,
      "bt": 2582,
      "hip": 2583,
      "Ġchat": 2584,
      "Ġluck": 2585,
      "6485": 2586,
      "Ġcho": 2587,
      "Ġphys": 2588,
      "Ġtype": 2589,
      "ats": 2590,
      "ows": 2591,
      "istory": 2592,
      "Ġfast": 2593,
      "386": 2594,
      "UT": 2595,
      "âª": 2596,
      "Ġdist": 2597,
      "Ġworth": 2598,
      "Ġmessage": 2599,
      "Ġmod": 2600,
      "posts": 2601,
      "138": 2602,
      "Ġbegin": 2603,
      "Ġstrong": 2604,
      "Ġwants": 2605,
      "Ġ8": 2606,
      "ournal": 2607,
      "Ġsecret": 2608,
      "gn": 2609,
      "Ġrather": 2610,
      "ex": 2611,
      "21": 2612,
      "ien": 2613,
      "Ġve": 2614,
      "Ġcry": 2615,
      "Ġlonger": 2616,
      "766485": 2617,
      "Ġfail": 2618,
      "Ġpar": 2619,
      "achine": 2620,
      "1032766485": 2621,
      "754178": 2622,
      "866754178": 2623,
      "1032766485866754178": 2624,
      "Ġmovie": 2625,
      "Ġparent": 2626,
      "ffect": 2627,
      "âĬ": 2628,
      "udd": 2629,
      "Ġinstead": 2630,
      "Ġdev": 2631,
      "ĠJesus": 2632,
      "Ġeasy": 2633,
      "648": 2634,
      "ins": 2635,
      "Ġwomen": 2636,
      "4306": 2637,
      "ides": 2638,
      "1289648": 2639,
      "80744306": 2640,
      "1289648138": 2641,
      "807443061289648138": 2642,
      "Ġlikely": 2643,
      "Ġhappens": 2644,
      "Ġmention": 2645,
      "',": 2646,
      "cious": 2647,
      "Ġmonth": 2648,
      "Ġbring": 2649,
      "Ġmusic": 2650,
      "UCK": 2651,
      "unch": 2652,
      "Ġdri": 2653,
      "But": 2654,
      "Ġoutside": 2655,
      "Ġbots": 2656,
      "Ġimagine": 2657,
      "ĠðŁ¤£": 2658,
      "ĠHello": 2659,
      ",\"": 2660,
      "pre": 2661,
      "Ġed": 2662,
      "Ġthanks": 2663,
      "ulti": 2664,
      "Ġtom": 2665,
      "aut": 2666,
      "Ġmother": 2667,
      "Ġze": 2668,
      "Ġsupposed": 2669,
      "wards": 2670,
      "Ġfeeling": 2671,
      "Ġphone": 2672,
      "ĠOkay": 2673,
      "to": 2674,
      "anger": 2675,
      "Ġnormal": 2676,
      "OL": 2677,
      "tle": 2678,
      "Ġleg": 2679,
      "Ġgroup": 2680,
      "Ġbed": 2681,
      "umber": 2682,
      "Ġgiven": 2683,
      "Ġge": 2684,
      "564977": 2685,
      "226564977": 2686,
      "61226564977": 2687,
      "10598461226564977": 2688,
      "1059846122656497734": 2689,
      "ls": 2690,
      "ags": 2691,
      "ution": 2692,
      "usion": 2693,
      "Ġstupid": 2694,
      "Ġiss": 2695,
      "Ġstud": 2696,
      "Ġchoose": 2697,
      "Ġrunning": 2698,
      "ural": 2699,
      "Ġfire": 2700,
      "ped": 2701,
      "aces": 2702,
      "roll": 2703,
      "olf": 2704,
      "Ġaccept": 2705,
      "Ġdefinitely": 2706,
      "ĠðŁĻĤ": 2707,
      "ring": 2708,
      "Ġfil": 2709,
      "Ġdeal": 2710,
      "Ġlevel": 2711,
      "Ġbased": 2712,
      "png": 2713,
      "Ġsingle": 2714,
      "Ġsick": 2715,
      "Ġways": 2716,
      "Ġdestro": 2717,
      "ips": 2718,
      "Ġsign": 2719,
      "Ġmis": 2720,
      "Ġpe": 2721,
      "spir": 2722,
      "fic": 2723,
      "Ġattack": 2724,
      "Ġwatching": 2725,
      "mit": 2726,
      "ots": 2727,
      "vern": 2728,
      "Ġadv": 2729,
      "iscord": 2730,
      "bor": 2731,
      "Ġgoes": 2732,
      "Ġgets": 2733,
      "Ġfavor": 2734,
      "ĠAN": 2735,
      "Ġtext": 2736,
      "velop": 2737,
      "Ġquestions": 2738,
      "ries": 2739,
      "Ġcouldn": 2740,
      "Ġhours": 2741,
      "718": 2742,
      "Ġje": 2743,
      "igin": 2744,
      "Ġrock": 2745,
      "Ġdeep": 2746,
      "ĠRed": 2747,
      "Ġspecific": 2748,
      "cer": 2749,
      "ĠMe": 2750,
      "Ġworry": 2751,
      "Ġprom": 2752,
      "Ġap": 2753,
      "Ġmeant": 2754,
      "Ġ\"*": 2755,
      "Ġimage": 2756,
      "012": 2757,
      "Ġghost": 2758,
      "Ġgames": 2759,
      "Ġprotect": 2760,
      "Ġneeded": 2761,
      "Ġfelt": 2762,
      "2959": 2763,
      "77323": 2764,
      "Ġspir": 2765,
      "82477323": 2766,
      "532301": 2767,
      "295982477323": 2768,
      "532301295982477323": 2769,
      "RE": 2770,
      "Ġpri": 2771,
      "Ġemot": 2772,
      "br": 2773,
      "ifer": 2774,
      "Ġsimply": 2775,
      ",âĢĿ": 2776,
      "how": 2777,
      "ĠTO": 2778,
      "anna": 2779,
      "ior": 2780,
      "ured": 2781,
      "ividual": 2782,
      "ĠPro": 2783,
      "ĠFodder": 2784,
      "Ġgone": 2785,
      "304": 2786,
      "ellig": 2787,
      "miss": 2788,
      "watch": 2789,
      "Ġline": 2790,
      "esome": 2791,
      "Ġthree": 2792,
      "ĠAny": 2793,
      "ĠThanks": 2794,
      "rect": 2795,
      "Ġeffect": 2796,
      "Ġplaying": 2797,
      "Ġsci": 2798,
      "Ġorigin": 2799,
      "Ġtaking": 2800,
      "ished": 2801,
      "AT": 2802,
      "Ġlie": 2803,
      "Ġsupport": 2804,
      "Ġ100": 2805,
      "Ġyoung": 2806,
      "ĠHuman": 2807,
      "ĠRaven": 2808,
      "Ġreturn": 2809,
      "uring": 2810,
      "Ġarg": 2811,
      "Ġmist": 2812,
      "cle": 2813,
      "oon": 2814,
      "ĠâĢ": 2815,
      "any": 2816,
      "ĠASMR": 2817,
      "go": 2818,
      "Ġcode": 2819,
      "Ġclass": 2820,
      "23": 2821,
      "Ġwhimson": 2822,
      "Ġprocess": 2823,
      "Ġneeds": 2824,
      "erv": 2825,
      "Ġvoice": 2826,
      "Ġsitu": 2827,
      "oor": 2828,
      "âĭ": 2829,
      "Ġfoc": 2830,
      "Ġjoke": 2831,
      "ĠPeople": 2832,
      "Ġfeels": 2833,
      "Ġcomputer": 2834,
      "men": 2835,
      "Ġmine": 2836,
      "Ġslow": 2837,
      "Ġfigure": 2838,
      "ug": 2839,
      "Ġfalse": 2840,
      "aste": 2841,
      "Ġchance": 2842,
      "mao": 2843,
      "ĠChristian": 2844,
      "Ġval": 2845,
      "ference": 2846,
      "Ġdepend": 2847,
      "?\"": 2848,
      "Ġwel": 2849,
      "Ġeng": 2850,
      "Ġthank": 2851,
      "ucifer": 2852,
      "Ġuw": 2853,
      "Ġmulti": 2854,
      "ĠIm": 2855,
      "Ġhealth": 2856,
      "fs": 2857,
      "ging": 2858,
      "Ġpict": 2859,
      "ried": 2860,
      "anthe": 2861,
      "Ġupon": 2862,
      "ĠEven": 2863,
      "Ġbasically": 2864,
      "7145": 2865,
      "ided": 2866,
      "Ġsociety": 2867,
      "Ġsun": 2868,
      "Ġ.": 2869,
      "arc": 2870,
      "Ġlar": 2871,
      "ĠFUCK": 2872,
      "ket": 2873,
      "oh": 2874,
      "Ġhistory": 2875,
      "ĠCon": 2876,
      "Ġrul": 2877,
      "Ġdreams": 2878,
      "Ġterri": 2879,
      "Ġpat": 2880,
      "Ġpsych": 2881,
      "static": 2882,
      "--------": 2883,
      "hy": 2884,
      "Ġik": 2885,
      "Ġinc": 2886,
      "oooo": 2887,
      "Ġgun": 2888,
      "Ġdirect": 2889,
      "itch": 2890,
      "Ġhair": 2891,
      "antheon": 2892,
      "929": 2893,
      "atan": 2894,
      "utes": 2895,
      "min": 2896,
      "Ġage": 2897,
      "oogle": 2898,
      "Ġmid": 2899,
      "Ġitself": 2900,
      "ĠDiscord": 2901,
      "peci": 2902,
      "ias": 2903,
      "Ġsimilar": 2904,
      "Ġindividual": 2905,
      "Ġrepl": 2906,
      "Ġburn": 2907,
      "Ġdude": 2908,
      "Ġnumber": 2909,
      "Ġlives": 2910,
      "Ġmeet": 2911,
      "Ġexc": 2912,
      "!!!": 2913,
      "Ġdescri": 2914,
      "Ġlaw": 2915,
      "611": 2916,
      "Ġ19": 2917,
      "ĠBl": 2918,
      "ĠHey": 2919,
      "Ġevent": 2920,
      "ently": 2921,
      "ological": 2922,
      "ges": 2923,
      "Ġlang": 2924,
      "sof": 2925,
      "04": 2926,
      "Ġdro": 2927,
      "uly": 2928,
      "Ġ+": 2929,
      "Ġfather": 2930,
      "Ġasking": 2931,
      "ully": 2932,
      "Ġhappening": 2933,
      "Ġforgot": 2934,
      "Ġlaugh": 2935,
      "So": 2936,
      "Ġwalk": 2937,
      "Ġabs": 2938,
      "========": 2939,
      "date": 2940,
      "Ġhit": 2941,
      "yle": 2942,
      "Ġknown": 2943,
      "Ġassum": 2944,
      "flu": 2945,
      "732": 2946,
      "Ġprof": 2947,
      "Ġhonestly": 2948,
      "Ġuwu": 2949,
      "sha": 2950,
      "Ġdevelop": 2951,
      "Ġconvers": 2952,
      "ĠWhich": 2953,
      "Ġgave": 2954,
      "Ġusually": 2955,
      "Ġshare": 2956,
      "Ġaut": 2957,
      "508": 2958,
      "465": 2959,
      "Ġspeci": 2960,
      "raft": 2961,
      "Ġshort": 2962,
      "ĠFuck": 2963,
      "ification": 2964,
      "load": 2965,
      "ext": 2966,
      "Ġdem": 2967,
      "ĠLet": 2968,
      "Ġdestroy": 2969,
      "That": 2970,
      "Ġdata": 2971,
      "Ġsug": 2972,
      "Ġalong": 2973,
      "Ġtelling": 2974,
      "Ġobvious": 2975,
      "tags": 2976,
      "Ġcap": 2977,
      "108": 2978,
      "ards": 2979,
      "ĠKun": 2980,
      "uri": 2981,
      "Ġincl": 2982,
      "Ġru": 2983,
      "7301": 2984,
      "Ġcop": 2985,
      "Ġdru": 2986,
      "32108": 2987,
      "3947301": 2988,
      "732353": 2989,
      "321083947301": 2990,
      "321083947301732353": 2991,
      "Ġ\"\"": 2992,
      "using": 2993,
      "ument": 2994,
      "4510": 2995,
      "661": 2996,
      "outh": 2997,
      "1382": 2998,
      "4522": 2999,
      "7148": 3000,
      "154510": 3001,
      "ĠUS": 3002,
      "Ġshall": 3003,
      "8879154510": 3004,
      "13824522": 3005,
      "887915451013824522": 3006,
      "76832": 3007,
      "5176832": 3008,
      "Ġ@[": 3009,
      "73805176832": 3010,
      "6617148": 3011,
      "661714873805176832": 3012,
      "ĠHa": 3013,
      "Ġgovern": 3014,
      "Ġstrange": 3015,
      "ĠCom": 3016,
      "Ġpersonal": 3017,
      "Ġremind": 3018,
      "night": 3019,
      "Ġtakes": 3020,
      "Ġborn": 3021,
      "amed": 3022,
      "ield": 3023,
      "Ġsort": 3024,
      "ones": 3025,
      "Ġben": 3026,
      "text": 3027,
      "Ġmental": 3028,
      "journal": 3029,
      "Ġ?": 3030,
      "Ġpick": 3031,
      "If": 3032,
      "like": 3033,
      "{{": 3034,
      "}}": 3035,
      "Ġtot": 3036,
      "Ġpull": 3037,
      "290": 3038,
      "Ġresearch": 3039,
      "Ġweek": 3040,
      "ĠInt": 3041,
      "ðŁ¤": 3042,
      "ands": 3043,
      "ears": 3044,
      "youtube": 3045,
      "Ġdumb": 3046,
      "Ġforce": 3047,
      "itting": 3048,
      "Ġair": 3049,
      "ify": 3050,
      "Ġbecom": 3051,
      "Ġreading": 3052,
      "Ġclaim": 3053,
      "5758": 3054,
      "Ġpie": 3055,
      "tern": 3056,
      "789386": 3057,
      "508789386": 3058,
      "290508789386": 3059,
      "575872": 3060,
      "290508789386575872": 3061,
      "het": 3062,
      "Ġvi": 3063,
      "EEEEEEEE": 3064,
      "Ġmill": 3065,
      "ĠEl": 3066,
      "Ġnature": 3067,
      "Ġpublic": 3068,
      "IG": 3069,
      "Ġpred": 3070,
      "Ġsym": 3071,
      "{{<": 3072,
      "Ġ9": 3073,
      "oms": 3074,
      "@@@@@@@@": 3075,
      "Ġwanna": 3076,
      "Ġ>}}": 3077,
      "ivers": 3078,
      "Ġav": 3079,
      "Ġcent": 3080,
      "Ġhalf": 3081,
      "ĠWhere": 3082,
      "instruct": 3083,
      "itive": 3084,
      "alc": 3085,
      "Ġteac": 3086,
      "Ġrelations": 3087,
      "Ġthoughts": 3088,
      "Ġcurrent": 3089,
      "Ġpurp": 3090,
      "Ġlangu": 3091,
      "over": 3092,
      "Ġfake": 3093,
      "Ġgra": 3094,
      "ront": 3095,
      "Ġwebs": 3096,
      "Ġimm": 3097,
      "Ġhurt": 3098,
      "uro": 3099,
      "Ġamaz": 3100,
      "ĠðŁĺĤ": 3101,
      "ĉĉĉ": 3102,
      "Ġvideos": 3103,
      "reme": 3104,
      "........": 3105,
      "Ġdiscord": 3106,
      "970": 3107,
      "leas": 3108,
      "ilt": 3109,
      "Ġready": 3110,
      "Ġign": 3111,
      "Ġbat": 3112,
      "They": 3113,
      "Ġmostly": 3114,
      "Ġresult": 3115,
      "Ġdraw": 3116,
      "Ġfavorite": 3117,
      "Ġsave": 3118,
      "Ġrequ": 3119,
      "Ġorder": 3120,
      "ĠRuss": 3121,
      "Ġeye": 3122,
      "IT": 3123,
      "St": 3124,
      "ral": 3125,
      "Ġniet": 3126,
      "aring": 3127,
      "Ġtruly": 3128,
      "Ġproject": 3129,
      "ĠðŁĳ": 3130,
      "Ġrole": 3131,
      "Ġminutes": 3132,
      "?!": 3133,
      "Ġfr": 3134,
      "Ġnon": 3135,
      "ĠWith": 3136,
      "760": 3137,
      "Ġforget": 3138,
      "Ġvir": 3139,
      "ĠðŁĺī": 3140,
      "tc": 3141,
      "Ġwhite": 3142,
      "raid": 3143,
      "Ġlooked": 3144,
      "title": 3145,
      "und": 3146,
      "â¨": 3147,
      "Ġcut": 3148,
      "Ġspirit": 3149,
      "ery": 3150,
      "ences": 3151,
      "Ġparents": 3152,
      "of": 3153,
      "Ġbeaut": 3154,
      "Ġdrink": 3155,
      "ficult": 3156,
      "To": 3157,
      "pro": 3158,
      "Ġpract": 3159,
      "AA": 3160,
      "eg": 3161,
      "28": 3162,
      "834": 3163,
      "OW": 3164,
      "ender": 3165,
      "Ġprison": 3166,
      "155": 3167,
      "oth": 3168,
      "ĠSh": 3169,
      "Ġpartic": 3170,
      "Ġdifficult": 3171,
      "224": 3172,
      "3373": 3173,
      "images": 3174,
      "uciferian": 3175,
      "for": 3176,
      "Ġtheory": 3177,
      "ĠRyan": 3178,
      "Ġserious": 3179,
      "Ġhands": 3180,
      "ganizations": 3181,
      "ĠWhimson": 3182,
      "Ġdoubt": 3183,
      "web": 3184,
      "Ġpolit": 3185,
      "ait": 3186,
      "ending": 3187,
      "Ġhimself": 3188,
      "ĠPl": 3189,
      "akes": 3190,
      "Ġscre": 3191,
      "Ġsituation": 3192,
      "lish": 3193,
      "Ġboy": 3194,
      "Ġhid": 3195,
      "Ġener": 3196,
      "amp": 3197,
      "No": 3198,
      "ST": 3199,
      "cha": 3200,
      "arr": 3201,
      "8891": 3202,
      "Ġdog": 3203,
      "/)": 3204,
      "53373": 3205,
      "OM": 3206,
      "[[": 3207,
      "Ġball": 3208,
      "Ġbull": 3209,
      "486970": 3210,
      "103253373": 3211,
      "Ġawesome": 3212,
      "4869708891": 3213,
      "1032533734869708891": 3214,
      "Ġpot": 3215,
      "dle": 3216,
      "int": 3217,
      "iles": 3218,
      "Ġafraid": 3219,
      "bl": 3220,
      "Ġann": 3221,
      "7003": 3222,
      "5584": 3223,
      "Ġcommon": 3224,
      "Ġalive": 3225,
      "Ġtaken": 3226,
      "istic": 3227,
      "Ġintellig": 3228,
      "8304": 3229,
      "45295": 3230,
      "355584": 3231,
      "8873": 3232,
      "ĠHi": 3233,
      "300355584": 3234,
      "Ġseeing": 3235,
      "527003": 3236,
      "6098304": 3237,
      "4045295": 3238,
      "416300355584": 3239,
      "88736098304": 3240,
      "527003416300355584": 3241,
      "404529588736098304": 3242,
      "Ġmad": 3243,
      "Ġhumanity": 3244,
      "ney": 3245,
      "Ġclear": 3246,
      "meric": 3247,
      "65": 3248,
      "eed": 3249,
      "empt": 3250,
      "49352": 3251,
      "VE": 3252,
      "Ġforever": 3253,
      "author": 3254,
      "by": 3255,
      "Ġappro": 3256,
      "738049352": 3257,
      "7145834": 3258,
      "73804935238": 3259,
      "714583473804935238": 3260,
      "py": 3261,
      "Ġtyp": 3262,
      "Ġonline": 3263,
      "fer": 3264,
      "76155": 3265,
      "ato": 3266,
      "976760": 3267,
      "Ġweap": 3268,
      "8186": 3269,
      "Ġdetail": 3270,
      "Ġmurder": 3271,
      "4658186": 3272,
      "76155976760": 3273,
      "761559767604658186": 3274,
      "Ġcute": 3275,
      "Ġlmao": 3276,
      "â©Ĭ": 3277,
      "Ġquick": 3278,
      "Ġsimple": 3279,
      "Ġstra": 3280,
      "Ġstyle": 3281,
      "Ġwelcome": 3282,
      "apt": 3283,
      "Ġbaby": 3284,
      "Ġpiss": 3285,
      "2019": 3286,
      "iment": 3287,
      "oid": 3288,
      "Ġjud": 3289,
      "7575": 3290,
      "Ġloc": 3291,
      "Ġplanet": 3292,
      "ĠIS": 3293,
      "Ġdue": 3294,
      "Ġdied": 3295,
      "Ġlose": 3296,
      "now": 3297,
      "Ġhig": 3298,
      "chan": 3299,
      "ĠHer": 3300,
      "Ġalt": 3301,
      "ĠLem": 3302,
      "iful": 3303,
      "HAT": 3304,
      "Ġextreme": 3305,
      "AR": 3306,
      "Ġobs": 3307,
      "context": 3308,
      "abyrin": 3309,
      "abyrinth": 3310,
      "5681": 3311,
      "775681": 3312,
      "42611": 3313,
      "77568142611": 3314,
      "Or": 3315,
      "Ġcity": 3316,
      "Ġlate": 3317,
      "Ġthreat": 3318,
      "Ġear": 3319,
      "3090": 3320,
      "Ġfollowing": 3321,
      "Ġchoice": 3322,
      "6313090": 3323,
      "Ġchanged": 3324,
      "Ġsmart": 3325,
      "775681426116313090": 3326,
      "but": 3327,
      "Ġpath": 3328,
      "ĠTR": 3329,
      "Ġconv": 3330,
      "Ġrid": 3331,
      "Ġmanip": 3332,
      "Ġacross": 3333,
      "Ġaccess": 3334,
      "Ġmagic": 3335,
      "Ġequ": 3336,
      "Ġhot": 3337,
      "ĠWI": 3338,
      "Ġabove": 3339,
      "ateg": 3340,
      "stair": 3341,
      "Ġpers": 3342,
      "ĠAmeric": 3343,
      "Ġpen": 3344,
      "There": 3345,
      "gress": 3346,
      "ĠHis": 3347,
      "ĠĠĊ": 3348,
      "ĠPer": 3349,
      "Ġcomment": 3350,
      "Ġturned": 3351,
      "Ġcorrect": 3352,
      "Ġtreat": 3353,
      "unk": 3354,
      "ended": 3355,
      "ially": 3356,
      "ĠSee": 3357,
      "Ġsurv": 3358,
      "Ġsuggest": 3359,
      "Ġamazing": 3360,
      "cing": 3361,
      "fully": 3362,
      "MAN": 3363,
      "Ġtou": 3364,
      "Ġetc": 3365,
      "ift": 3366,
      "Ġspea": 3367,
      "ians": 3368,
      "Ġclearly": 3369,
      "Ġpurpose": 3370,
      "Ġprove": 3371,
      "Ġprodu": 3372,
      "151": 3373,
      "Ġconcept": 3374,
      "Ġprov": 3375,
      "lpha": 3376,
      "ches": 3377,
      "iar": 3378,
      "Ġmass": 3379,
      "0689": 3380,
      "565": 3381,
      "Ġinvol": 3382,
      "ĠSomet": 3383,
      "arently": 3384,
      "Ġfem": 3385,
      "Ġscen": 3386,
      "Ġdanger": 3387,
      "2020": 3388,
      "Ġident": 3389,
      "Ġground": 3390,
      "Ġwaiting": 3391,
      "Ġrespond": 3392,
      "Ġsurpr": 3393,
      "pantheon": 3394,
      "Ġunless": 3395,
      "Ġdamn": 3396,
      "cap": 3397,
      "Ġprop": 3398,
      "Ġwatched": 3399,
      "gry": 3400,
      "Ġstar": 3401,
      "ury": 3402,
      "Ġidk": 3403,
      "comments": 3404,
      "iction": 3405,
      "Ġmachine": 3406,
      "Ġbey": 3407,
      "ilit": 3408,
      "Ġsafe": 3409,
      "Ġpret": 3410,
      "Ġperhaps": 3411,
      "Ġtre": 3412,
      "ined": 3413,
      "ential": 3414,
      "dow": 3415,
      "Ġfinally": 3416,
      "evidence": 3417,
      "Ġlanguage": 3418,
      "ĠRight": 3419,
      "Ġpresent": 3420,
      "iot": 3421,
      "work": 3422,
      "1899": 3423,
      "HO": 3424,
      "Ġai": 3425,
      "8250": 3426,
      "ĠThats": 3427,
      "Ġgotta": 3428,
      "578250": 3429,
      "849578250": 3430,
      "1511899": 3431,
      "84957825024": 3432,
      "151189984957825024": 3433,
      "My": 3434,
      "ero": 3435,
      "Ġbeha": 3436,
      "ificial": 3437,
      "Ġglad": 3438,
      "sofpantheon": 3439,
      "Ġwebsite": 3440,
      "106": 3441,
      "cent": 3442,
      "Ġwind": 3443,
      "ĠMus": 3444,
      "Ġ!": 3445,
      "Ġsil": 3446,
      "Ġenem": 3447,
      "ðŁĺĤ": 3448,
      "ĠIT": 3449,
      "ĠRank": 3450,
      "Ġattention": 3451,
      "oring": 3452,
      "Ġtowards": 3453,
      "ached": 3454,
      "ĠLOL": 3455,
      "Ġversion": 3456,
      "enn": 3457,
      "Ġfront": 3458,
      "Ġthrow": 3459,
      "Ġkey": 3460,
      "DD": 3461,
      "Ġsource": 3462,
      "omb": 3463,
      "ision": 3464,
      "Ġbreat": 3465,
      "Ġmas": 3466,
      "Ġcompl": 3467,
      "Ġpoor": 3468,
      "Ġbanned": 3469,
      "stairsofpantheon": 3470,
      "ĠThese": 3471,
      "Ġrespect": 3472,
      "light": 3473,
      "Ġaware": 3474,
      "ĠIN": 3475,
      "Ġelect": 3476,
      "Ġweak": 3477,
      "Ġbecame": 3478,
      "land": 3479,
      "Ġscared": 3480,
      "Ġgovernment": 3481,
      "Ġenergy": 3482,
      "orrow": 3483,
      "Ġnews": 3484,
      "Ġtechnology": 3485,
      "Ġmodel": 3486,
      "share": 3487,
      "Ġrealize": 3488,
      "Ġproof": 3489,
      "Ġfair": 3490,
      "Ġinternet": 3491,
      "3725": 3492,
      "Ġrealm": 3493,
      "Ġstories": 3494,
      "Ġremain": 3495,
      "tf": 3496,
      "Ġmir": 3497,
      "KE": 3498,
      "Ġwake": 3499,
      "Ġcir": 3500,
      "Ġfing": 3501,
      "ĠMost": 3502,
      "ĠDoes": 3503,
      "Ġtravel": 3504,
      "/?": 3505,
      "98": 3506,
      "Ġ0": 3507,
      "Ġson": 3508,
      "Ġcuri": 3509,
      "Ġhel": 3510,
      "Ġsports": 3511,
      "Ġblue": 3512,
      "Ġbrother": 3513,
      "medium": 3514,
      "10565": 3515,
      "34910565": 3516,
      "80173": 3517,
      "10634910565": 3518,
      "80173824": 3519,
      "1063491056580173824": 3520,
      "ius": 3521,
      "Ġ...": 3522,
      "Ġlay": 3523,
      "ĠECO": 3524,
      "spiracy": 3525,
      "ym": 3526,
      "Ġda": 3527,
      "ĠOf": 3528,
      "igital": 3529,
      "Ġcomb": 3530,
      "Ġ([": 3531,
      "Ġconversation": 3532,
      "81960": 3533,
      "1186": 3534,
      "ĠSame": 3535,
      "9244": 3536,
      "olute": 3537,
      "39012": 3538,
      "Ġteam": 3539,
      "Ġopin": 3540,
      "known": 3541,
      "8196039012": 3542,
      "11869244": 3543,
      "819603901211869244": 3544,
      "ination": 3545,
      "ĠHmm": 3546,
      "view": 3547,
      "Ġant": 3548,
      "Ġbeat": 3549,
      "vest": 3550,
      "Ġphysical": 3551,
      "ives": 3552,
      "âĪ": 3553,
      "Ġnobody": 3554,
      "Ġsubs": 3555,
      "Ġinterested": 3556,
      "Ġposition": 3557,
      "ID": 3558,
      "jor": 3559,
      "Ġmoder": 3560,
      "Ġproper": 3561,
      "ified": 3562,
      "Ġbroken": 3563,
      "iversity": 3564,
      "Ġwolf": 3565,
      "Ġrespons": 3566,
      "Ġcontinue": 3567,
      "oun": 3568,
      "Ġnotic": 3569,
      "ĠOF": 3570,
      "ief": 3571,
      "ðŁ¤£": 3572,
      "Ġconst": 3573,
      "Ġpeace": 3574,
      "lt": 3575,
      "Ġocc": 3576,
      "ata": 3577,
      "Ġkept": 3578,
      "ossible": 3579,
      "Ġbuy": 3580,
      "Ġeasier": 3581,
      "Ġstep": 3582,
      "olm": 3583,
      "ĠDam": 3584,
      "por": 3585,
      "Ġsqu": 3586,
      "Ġevidence": 3587,
      "\"](": 3588,
      "Ġtroll": 3589,
      "head": 3590,
      "Ġeff": 3591,
      "ĠTw": 3592,
      "ĠLabyrinth": 3593,
      "Ġsubreddit": 3594,
      "ogn": 3595,
      "Ġmonths": 3596,
      "ĠAND": 3597,
      "Ġgay": 3598,
      "Ġworse": 3599,
      "iebol": 3600,
      "Ġlog": 3601,
      "0625": 3602,
      "488486": 3603,
      "530625": 3604,
      "Ġcontact": 3605,
      "96530625": 3606,
      "47696530625": 3607,
      "4884866": 3608,
      "476965306254884866": 3609,
      "ina": 3610,
      "ising": 3611,
      "84193": 3612,
      "Ġgiving": 3613,
      "Ġpossib": 3614,
      "ION": 3615,
      "elling": 3616,
      "Ġsuffering": 3617,
      "pecially": 3618,
      "184193": 3619,
      "5661": 3620,
      "Ġsusp": 3621,
      "44306": 3622,
      "Ġmessages": 3623,
      "24544306": 3624,
      "oker": 3625,
      "Ġpicture": 3626,
      "566124544306": 3627,
      "566124544306184193": 3628,
      "fter": 3629,
      "acc": 3630,
      "Ġspread": 3631,
      "869": 3632,
      "239": 3633,
      "ked": 3634,
      "Ġbunch": 3635,
      "ari": 3636,
      "ills": 3637,
      "Ġcommunic": 3638,
      "ler": 3639,
      "lim": 3640,
      "Ġtem": 3641,
      "ĠId": 3642,
      "1972": 3643,
      "41449": 3644,
      "eeee": 3645,
      "45541449": 3646,
      "Ġinsane": 3647,
      "Ġbeautiful": 3648,
      "2391972": 3649,
      "45541449729": 3650,
      "239197245541449729": 3651,
      "hhhh": 3652,
      "^^": 3653,
      "8214": 3654,
      "ression": 3655,
      "Ġoriginal": 3656,
      "961": 3657,
      "Tube": 3658,
      "Ġtall": 3659,
      "Ġexcept": 3660,
      "Ġdiscuss": 3661,
      "Ġmemory": 3662,
      "mission": 3663,
      "Ġnamed": 3664,
      "Ġur": 3665,
      "Ġblock": 3666,
      "Ġmorning": 3667,
      "ĠHave": 3668,
      "Ġnecess": 3669,
      "Ġbuilding": 3670,
      "Ġnone": 3671,
      "raph": 3672,
      "tain": 3673,
      "ENMAN": 3674,
      "Ġexistence": 3675,
      "Ġfeed": 3676,
      "She": 3677,
      "Ġinflu": 3678,
      "Ġshut": 3679,
      "Ġuser": 3680,
      "Ġprep": 3681,
      "ground": 3682,
      "Ġviol": 3683,
      "Ġbird": 3684,
      "Ġcant": 3685,
      "war": 3686,
      "Ġlil": 3687,
      "Ġsuc": 3688,
      "ĠPlease": 3689,
      "Ġfurther": 3690,
      "alcolm": 3691,
      "Ġunderstanding": 3692,
      "Ġlarge": 3693,
      "EC": 3694,
      "icle": 3695,
      "Ġhi": 3696,
      "ters": 3697,
      "Ġpun": 3698,
      "Ġlim": 3699,
      "Ġnear": 3700,
      "Ġlearned": 3701,
      "Ġfocus": 3702,
      "ĠAge": 3703,
      "UTENMAN": 3704,
      "How": 3705,
      "bed": 3706,
      "irth": 3707,
      "ĠGo": 3708,
      "Ġmajor": 3709,
      "ressed": 3710,
      "Ġdifference": 3711,
      "Ġcompany": 3712,
      "Ġbeyond": 3713,
      "uz": 3714,
      "yn": 3715,
      "Ġmer": 3716,
      "ĠBudd": 3717,
      "586": 3718,
      "ĠTom": 3719,
      "Ġamount": 3720,
      "+++": 3721,
      "ĠNOT": 3722,
      "ensen": 3723,
      "â©ī": 3724,
      "Ġplayed": 3725,
      "Ġespecially": 3726,
      "Ġ12": 3727,
      "Ġdoc": 3728,
      "Ġattempt": 3729,
      "ered": 3730,
      "7432": 3731,
      "7737": 3732,
      "Ġreddit": 3733,
      "Ġhigher": 3734,
      "ites": 3735,
      "22323": 3736,
      "Ġwritten": 3737,
      "41622323": 3738,
      "Ġcommunity": 3739,
      "ĠReddit": 3740,
      "743241622323": 3741,
      "7737743241622323": 3742,
      "773774324162232351": 3743,
      "Ġcats": 3744,
      "ales": 3745,
      "ĠAlpha": 3746,
      "Ġactual": 3747,
      "Ġpowerful": 3748,
      "Ġfinal": 3749,
      "rad": 3750,
      "Ġdad": 3751,
      "Ġneg": 3752,
      "Ġplat": 3753,
      "Ġconnected": 3754,
      "Ġbusiness": 3755,
      "Ġwilling": 3756,
      "ires": 3757,
      "ĠIk": 3758,
      "arry": 3759,
      "Ġsec": 3760,
      "Ġgrand": 3761,
      "Ġimpossible": 3762,
      "Ġvoor": 3763,
      "Ġrelationship": 3764,
      "what": 3765,
      "Ġcollect": 3766,
      "Ġspecial": 3767,
      "nen": 3768,
      "Ġland": 3769,
      "Ġgain": 3770,
      "itect": 3771,
      "Ġpray": 3772,
      "Ġrepres": 3773,
      "Ġallowed": 3774,
      "Ġfit": 3775,
      "imens": 3776,
      "Ġmale": 3777,
      "ĠJustice": 3778,
      "When": 3779,
      "Ġdi": 3780,
      "Ġcreep": 3781,
      "Ġstraight": 3782,
      "ĠJe": 3783,
      "Ġ*\"": 3784,
      "Ġbooks": 3785,
      "draft": 3786,
      "lam": 3787,
      "Ġmouth": 3788,
      "org": 3789,
      "Ġele": 3790,
      "Ġfighting": 3791,
      "Ġdiv": 3792,
      "366": 3793,
      "gel": 3794,
      "ĠQue": 3795,
      "Ġextremely": 3796,
      "che": 3797,
      "7236": 3798,
      "ĠYep": 3799,
      "Ġcouple": 3800,
      "019": 3801,
      "Ġstri": 3802,
      "Ġsold": 3803,
      "ĠEm": 3804,
      "ijk": 3805,
      "bo": 3806,
      "Ġcold": 3807,
      "7950": 3808,
      "ĠGUTENMAN": 3809,
      "Ġmiddle": 3810,
      "Ġtired": 3811,
      "Ġreach": 3812,
      "ister": 3813,
      "Ġsearch": 3814,
      "aster": 3815,
      "???": 3816,
      "Ġconsider": 3817,
      "Ġspeaking": 3818,
      "556": 3819,
      "GER": 3820,
      "person": 3821,
      "Ġden": 3822,
      "Ġvict": 3823,
      "ĠLook": 3824,
      "Ġsocial": 3825,
      "Ġproblems": 3826,
      "124": 3827,
      "path": 3828,
      "Ġlow": 3829,
      "icked": 3830,
      "Ġworst": 3831,
      "HHHHHHHH": 3832,
      "gon": 3833,
      "Ġmot": 3834,
      "ĠTe": 3835,
      "Ġstuck": 3836,
      "Ġrich": 3837,
      "ietn": 3838,
      "Ġbroke": 3839,
      "â©Ĭâ©Ĭ": 3840,
      "Ġtool": 3841,
      "Ġyout": 3842,
      "ĠThough": 3843,
      "Ġfreed": 3844,
      "Ġpriv": 3845,
      "Al": 3846,
      "Ĩâ«": 3847,
      "reci": 3848,
      "alm": 3849,
      "ĠWill": 3850,
      "Ġissue": 3851,
      "Ġannoy": 3852,
      "wise": 3853,
      "Ġconfused": 3854,
      "Ġsymbol": 3855,
      "ators": 3856,
      "Ġdele": 3857,
      "ational": 3858,
      "Ġbeliefs": 3859,
      "Ġrelated": 3860,
      "eresting": 3861,
      "372": 3862,
      "Ġduring": 3863,
      "Ġoper": 3864,
      "Ġhmm": 3865,
      "ĠSHA": 3866,
      "cient": 3867,
      "ountain": 3868,
      "Ġcolor": 3869,
      "ĠGr": 3870,
      "Ġsubject": 3871,
      "Ġconscious": 3872,
      "Ġhop": 3873,
      "amer": 3874,
      "7541124": 3875,
      "105984449": 3876,
      "7187541124": 3877,
      "1059844497187541124": 3878,
      "Ġswe": 3879,
      "223": 3880,
      "ĠUk": 3881,
      "Ġapparently": 3882,
      "Ġgeneral": 3883,
      "Ġpiece": 3884,
      "pping": 3885,
      "Ġactions": 3886,
      "Ã©": 3887,
      "owers": 3888,
      "set": 3889,
      "osp": 3890,
      "Ġcertainly": 3891,
      "Ġabsolute": 3892,
      "Ġcurious": 3893,
      "ience": 3894,
      "Ġrofl": 3895,
      "Ġreasons": 3896,
      "Ġcore": 3897,
      "abor": 3898,
      "Ġmedia": 3899,
      "Ġhuge": 3900,
      "Ġmultiple": 3901,
      "Ġrules": 3902,
      "Ġnoticed": 3903,
      "On": 3904,
      "SS": 3905,
      "Ġsat": 3906,
      "ature": 3907,
      "9179": 3908,
      "unt": 3909,
      "university": 3910,
      "Ġroll": 3911,
      "ĠUrist": 3912,
      "aced": 3913,
      "Ġidiot": 3914,
      "dy": 3915,
      "Ġrecord": 3916,
      "Ġbox": 3917,
      "Ġoppos": 3918,
      "uff": 3919,
      "Ġbes": 3920,
      "Ġpure": 3921,
      "Ġsomebody": 3922,
      "699": 3923,
      "har": 3924,
      "illed": 3925,
      "Ġability": 3926,
      "Ġshoot": 3927,
      "â©Į": 3928,
      "Ġsexual": 3929,
      "ÂłÂł": 3930,
      "oe": 3931,
      "ĠLove": 3932,
      "Ġwrote": 3933,
      "404": 3934,
      "Ġcontext": 3935,
      "Un": 3936,
      "face": 3937,
      "Ġtend": 3938,
      "Ġfell": 3939,
      "Ġshouldn": 3940,
      "Ġlearning": 3941,
      "961223": 3942,
      "398": 3943,
      "Ġdeser": 3944,
      "Ġdangerous": 3945,
      "Ġplatform": 3946,
      "onse": 3947,
      "ĠInd": 3948,
      "Ġlack": 3949,
      "acking": 3950,
      "ĠWait": 3951,
      "antly": 3952,
      "44486": 3953,
      "723644486": 3954,
      "dom": 3955,
      "Ġrepe": 3956,
      "Ġsoft": 3957,
      "ĠMY": 3958,
      "ĠPr": 3959,
      "Ġcover": 3960,
      "As": 3961,
      "jk": 3962,
      "Ġlock": 3963,
      "Ġenc": 3964,
      "Ġappreci": 3965,
      "224723644486": 3966,
      "961223224723644486": 3967,
      "Ġteach": 3968,
      "Ġskin": 3969,
      "ĠSHALL": 3970,
      "rew": 3971,
      "799179": 3972,
      "Ġhide": 3973,
      "Ġforward": 3974,
      "ĠBr": 3975,
      "331869": 3976,
      "cons": 3977,
      "Ġ2019": 3978,
      "586331869": 3979,
      "799179586331869": 3980,
      "799179586331869194": 3981,
      "!\"": 3982,
      "Ġess": 3983,
      "Ġenv": 3984,
      "]],": 3985,
      "Ġrecently": 3986,
      "Ġunivers": 3987,
      "Ġmeth": 3988,
      "ĠArt": 3989,
      "hole": 3990,
      "Ġanimals": 3991,
      "SE": 3992,
      "Ġ&": 3993,
      "618": 3994,
      "ulate": 3995,
      "ĠYouTube": 3996,
      "Ġspend": 3997,
      "though": 3998,
      "Ġposted": 3999,
      "Ġfamil": 4000,
      "Ġsky": 4001,
      "Ġpresident": 4002,
      "Ġ30": 4003,
      "Ġseemed": 4004,
      "Ġinclud": 4005,
      "you": 4006,
      "Ġstre": 4007,
      "Ġworked": 4008,
      "ĠAm": 4009,
      "ĠGoogle": 4010,
      "Ġobject": 4011,
      "Ġhorri": 4012,
      "upp": 4013,
      "ashion": 4014,
      "ii": 4015,
      "ĠX": 4016,
      "Ġsens": 4017,
      "chitect": 4018,
      "\".": 4019,
      "ey": 4020,
      "Ġshot": 4021,
      "Ġfloor": 4022,
      "Ġescap": 4023,
      "arciss": 4024,
      "Ġterrible": 4025,
      "Ġyoutube": 4026,
      "AL": 4027,
      "bers": 4028,
      "Ġcas": 4029,
      "Ġhey": 4030,
      "8068214": 4031,
      "oser": 4032,
      "588068214": 4033,
      "ester": 4034,
      "Ġinteract": 4035,
      "366404": 4036,
      "588068214366404": 4037,
      "588068214366404618": 4038,
      "Ġsite": 4039,
      "Ġpush": 4040,
      "ĠWor": 4041,
      "Ġdecided": 4042,
      "ĠOnly": 4043,
      "43": 4044,
      "dden": 4045,
      "Ģâ": 4046,
      "ĠRem": 4047,
      "ploy": 4048,
      "ĠThose": 4049,
      "Ġwife": 4050,
      "Ġla": 4051,
      "Ġtrou": 4052,
      "amb": 4053,
      "ĠDiebol": 4054,
      "Ġcalling": 4055,
      "Ġbuilt": 4056,
      "Ġgods": 4057,
      "BI": 4058,
      "Ch": 4059,
      "eks": 4060,
      "fast": 4061,
      "vior": 4062,
      "Ġrece": 4063,
      "ĠAh": 4064,
      "ĠHet": 4065,
      "overed": 4066,
      "000": 4067,
      "Ġclean": 4068,
      "Ġdrugs": 4069,
      "eaky": 4070,
      "ĠĠĠĠĠĠĠĠĠĠ": 4071,
      "fortun": 4072,
      "Ġton": 4073,
      "Ġcoin": 4074,
      "Ġlying": 4075,
      "Ġinde": 4076,
      "Ġsomewhere": 4077,
      "Ġmissing": 4078,
      "Ġ50": 4079,
      "icking": 4080,
      "uses": 4081,
      "Ġkilling": 4082,
      "Ġmentioned": 4083,
      "Ġcaught": 4084,
      "Ġfan": 4085,
      "292": 4086,
      "alking": 4087,
      "Ġposts": 4088,
      "ĠInteresting": 4089,
      "((": 4090,
      "781": 4091,
      "Ġeating": 4092,
      "ĠME": 4093,
      "Ġplant": 4094,
      "69": 4095
    },
    "merges": [
      "Ġ t",
      "Ġ a",
      "h e",
      "i n",
      "Ġ w",
      "r e",
      "Ġ s",
      "o u",
      "Ġt he",
      "o n",
      "h a",
      "Ġ i",
      "Ġ b",
      "Ġ m",
      "Ġ I",
      "e r",
      "in g",
      "Ġ c",
      "e n",
      "o r",
      "8 5",
      "Ġ d",
      "7 6",
      "Ġt o",
      "Ġ f",
      "a n",
      "1 9",
      "l l",
      "Ġ p",
      "0 6",
      "Ġ y",
      "Ġ l",
      "s t",
      "Ġ o",
      "Ġa n",
      "4 8",
      "ha t",
      "e d",
      "Ġy ou",
      "5 1",
      "3 1",
      "e s",
      "i t",
      "Ġ n",
      "7 9",
      "a t",
      "4 5",
      "2 9",
      "2 2",
      "Ġ g",
      "o m",
      "o t",
      "Ġ in",
      "Ġo f",
      "Ġb e",
      "Ġan d",
      "i s",
      "v e",
      "8 0",
      "7 1",
      "Ġt h",
      "7 0",
      "Ġi t",
      "a r",
      "o w",
      "l e",
      "Ġi s",
      "Ġ e",
      "Ġ ha",
      "Ġt hat",
      "Ġ T",
      "7 4",
      "9 9",
      "s e",
      "a l",
      "5 6",
      "4 1",
      "i c",
      "Ġ h",
      "7 2",
      "a s",
      "k e",
      "Ġ re",
      "3 3",
      "a y",
      "u t",
      "l d",
      "e t",
      "â Ģ",
      "3 5",
      "Ġ on",
      "0 51",
      "Ġ he",
      "2 0",
      "i d",
      "v er",
      "1 0",
      "Ġ u",
      "i on",
      "3 4",
      "22 6",
      "Ġl i",
      "8 70",
      "l y",
      "6 2",
      "a c",
      "19 4",
      "9 76",
      "g h",
      "Ġm e",
      "Ġ A",
      "E D",
      "Ġw e",
      "7 19",
      "1 1",
      "5 5",
      "Ġf or",
      "Ġs t",
      "8 06",
      "79 8",
      "051 62",
      "870 976",
      "719 870976",
      "806 05162",
      "719870976 0",
      "80605162 7198709760",
      "i m",
      "8 2",
      "Ġ k",
      "3 2",
      "o o",
      "a m",
      "ou t",
      "en t",
      "Ġn ot",
      "3 0",
      "r o",
      "Ġ W",
      "8 8",
      "Ġd o",
      "' s",
      "Ġa re",
      "a ll",
      "a d",
      "' t",
      "31 5",
      "6 1",
      "Ġ [",
      "Ġ S",
      "n d",
      "85 7",
      "Ġw as",
      "56 6",
      "i r",
      "ou ld",
      "o p",
      "it h",
      "i ll",
      "8 9",
      "55 29",
      "u st",
      "r i",
      "Ġha ve",
      "Ġm y",
      "Ġ j",
      "ĠT he",
      "85 857",
      "85 5529",
      "76 11",
      "85857 566",
      "855529 7611",
      "8555297611 85857566",
      "âĢ Ļ",
      "Ġw ith",
      "9 2",
      "8 4",
      ". .",
      "c t",
      "Ġth is",
      "Ġa s",
      "Ġ Y",
      "Ġli ke",
      "Ġw h",
      "gh t",
      "c e",
      "o l",
      "e e",
      "c h",
      "om e",
      "6 0",
      "71 06",
      "Ġb ut",
      "7 7",
      "74 6",
      "Ġc an",
      "48 4",
      "798 226",
      "06 798226",
      "194 484",
      "7106 06798226",
      "710606798226 194484",
      "99 85",
      "Ġthe y",
      "Ġ B",
      "Ġ H",
      "he r",
      "i l",
      "Ġn e",
      "2 4",
      "Ġa b",
      "Ġs o",
      "h ing",
      "all y",
      "an t",
      "9 1",
      "Ġw hat",
      "Ġm o",
      "Ġk n",
      "Ġs u",
      "on e",
      "3 6",
      "Ġj ust",
      "Ġ M",
      "3 45",
      "Ġ \"",
      "C T",
      "Ġd e",
      "Ġyou r",
      "R ED",
      "Ġkn ow",
      "Ġa l",
      "Ġ or",
      "Ġw or",
      "A CT",
      "g e",
      "r a",
      "RED ACT",
      "REDACT ED",
      "in k",
      "7 5",
      "30 0",
      "Ġ Ġ",
      "7 29",
      "Ġa ll",
      "u s",
      "e a",
      "48 8",
      "es s",
      "Ġg o",
      "t er",
      "8 1",
      "35 80",
      "u r",
      "Ġ v",
      "Ġ N",
      "Ġd on",
      "at ion",
      "45 6",
      "u n",
      "45 9",
      "p p",
      "' m",
      "7 80",
      "7 51",
      "Ġa t",
      "ĠI t",
      "in d",
      "Ġ D",
      "Ġab out",
      "u m",
      "56 488",
      "56488 79",
      "746 5",
      "315 9985",
      "7465 3159985",
      "74653159985 5648879",
      "Ġ O",
      "er s",
      "i e",
      "Ġs h",
      "Ġi f",
      "80 2",
      "Ġm a",
      "ha n",
      "Ġw ould",
      "c k",
      "Ġc on",
      "Ġe x",
      "76 48",
      "48 802",
      "29 345",
      "41 29345",
      "82 4129345",
      "48802 7648",
      "824129345 488027648",
      "e op",
      "Ġt r",
      "ð Ł",
      "u l",
      "5 0",
      "7 48",
      "eop le",
      "3 31",
      "Ġw ill",
      "Ġth ink",
      "r om",
      "ver y",
      "Ġ C",
      "34 9",
      "Ġon e",
      "p t",
      "i g",
      "72 5",
      "Ġ @",
      "ou r",
      "Ġw he",
      "am e",
      "Ġp eople",
      "780 4",
      "Ġs ome",
      "5 77",
      "74 725",
      "748 76",
      "79 74876",
      "72 7974876",
      "74725 727974876",
      "74725727974876 7804",
      "Ġ Ċ",
      "f e",
      "n t",
      "a u",
      "at e",
      "en d",
      "v en",
      "Ġ P",
      "80 1",
      "Ġ r",
      "1 4",
      "Ġ L",
      "an d",
      "ar t",
      "4 6",
      "oo d",
      "< @",
      "Ġan y",
      "Ġ G",
      "a in",
      "ĠY ou",
      "Ġn o",
      "Ġthe m",
      "Ġf rom",
      "3 9",
      "Ġ@ <@",
      "Ġp ro",
      "Ġu p",
      "a b",
      "u e",
      "0 2",
      "Ġc om",
      "o d",
      "Ġs ee",
      "Ġ R",
      "61 36",
      "e m",
      "89 0",
      "o s",
      "31 51",
      "99 6136",
      "729 996136",
      "729996136 459",
      "41 3151",
      "413151 729996136459",
      "i st",
      "1 3580",
      "226 577",
      "798 13580",
      "456 226577",
      "79813580 8",
      "456226577 798135808",
      "- -",
      "5 2",
      "Ġin t",
      "im e",
      "Ġg et",
      "5 8",
      "Ġthe re",
      "e ll",
      "5 3",
      "92 88",
      "5 194",
      "76 801",
      "22 890",
      "9288 76801",
      "5194 928876801",
      "5194928876801 22890",
      "Ġ F",
      "i f",
      "Ġ E",
      "Ġ out",
      "Ġp l",
      "i ve",
      "i ght",
      "k ing",
      "re d",
      "7 8",
      "au se",
      "Ġs p",
      "it y",
      "Ġth ing",
      "Ġa m",
      "71 6",
      "0 72",
      "Ġwh o",
      "id e",
      "Ġ ðŁ",
      "Ġw ant",
      "Ġh ow",
      "Ġu s",
      "ou gh",
      "1 5",
      "Ġd id",
      "ac k",
      "1 2",
      "Ġmo re",
      "5 9",
      "Ġs e",
      "Ġt ime",
      "b e",
      "Ġbe c",
      "Ġl o",
      "20 4",
      "c i",
      "in e",
      "t her",
      "33 79",
      "71 331",
      "716 3379",
      "204 7163379",
      "71331 072",
      "2047163379 71331072",
      "on g",
      "Ġhe r",
      "ou nd",
      "9 0",
      "7 89",
      "Ġb y",
      "o re",
      "Ġwhe n",
      "om et",
      "it e",
      "or t",
      "# #",
      "Ġ en",
      "29 70",
      "u re",
      "71 2",
      "Ġthe ir",
      "20 24",
      "349 06",
      "' re",
      "22 7",
      ".. .",
      "227 712",
      "i an",
      "e ar",
      "8 71",
      "l f",
      "a st",
      "31 20",
      "315 789",
      "91 2024",
      "15 912024",
      "315789 3120",
      "15912024 3157893120",
      "751 14",
      "2970 871",
      "75114 227712",
      "2970871 75114227712",
      "âĢ Ŀ",
      "âĢ ľ",
      "r y",
      "85 19",
      "81 45",
      "99 52",
      "8 34906",
      "8145 9952",
      "834906 81459952",
      "83490681459952 8519",
      "ĠT hat",
      "T he",
      "Ġs he",
      "1 6",
      "Ġs ay",
      "a g",
      "4 4",
      "Ġe very",
      "Ġm an",
      "p s",
      "t h",
      "ĠA nd",
      "oo k",
      "Ġo ther",
      "Ġs a",
      "4 34",
      "Ġs omet",
      "Ġi m",
      "Ġl ol",
      "ĠW hat",
      "0 8",
      "Ġh is",
      "Ġn ow",
      "e ct",
      "0 9",
      "o st",
      "Ġa r",
      "a re",
      "i es",
      "88 31",
      "ac t",
      "w ay",
      "58 3",
      "ac e",
      "Ġto o",
      "Ġwe re",
      "Ġha s",
      "ou s",
      "9 53",
      "9 751",
      "41 50",
      "746 953",
      "9985 4150",
      "9751 746953",
      "9751746953 99854150",
      "s o",
      "Ġu n",
      "31 6",
      "re at",
      "Ġha d",
      "Ġc ould",
      "e p",
      "e l",
      "Ġe ven",
      "u ck",
      "Ġ -",
      "Ġw ay",
      "Ġne ed",
      "Ġg ood",
      "p l",
      "Ġa g",
      "ic e",
      "Ġthe n",
      "b le",
      "19 60",
      "8 6",
      "Ġme an",
      "Ġ J",
      "Ġsomet hing",
      "Ġt han",
      "Ġma ke",
      "10 1",
      "ri ght",
      "ĠT h",
      "ar d",
      "Ġt e",
      "Ġbec ause",
      "o se",
      "92 6",
      "35 32",
      "45 226",
      "74 61",
      "434 3532",
      "45226 48",
      "7461 4343532",
      "74614343532 4522648",
      "Ġa ct",
      "79 0",
      "a ke",
      "re s",
      "f f",
      "10 0",
      "101 790",
      "101790 32",
      "16 1960",
      "8831 161960",
      "10179032 8831161960",
      "101790328831161960 4",
      "Ġint o",
      "ea h",
      "6 31",
      "7 34",
      "22 08",
      "051 734",
      "10 870",
      "051734 2208",
      "583 0517342208",
      "10870 5830517342208",
      "t t",
      "ĠB ut",
      "Ġbe en",
      "34 2",
      "p er",
      "Ġre ally",
      "t hing",
      "m ent",
      "Ġg u",
      "o b",
      "q u",
      "Ġhe re",
      "8 32",
      "] (",
      "Ġbe ing",
      "ee l",
      "Ġgo ing",
      "Ġon ly",
      "Ġit s",
      "Ġdo es",
      "Ġre al",
      "Ġc l",
      "Ġ ro",
      "Ġc h",
      "b ot",
      "Ġ âĢľ",
      "ow n",
      "i z",
      "ĠH e",
      "en ce",
      "ers on",
      "Ġh im",
      "60 9",
      "Ġwh y",
      "Ġ right",
      "Ġf eel",
      "Ġb l",
      "ĠS o",
      "Ġi d",
      "75 8",
      "Ġ (",
      "se lf",
      "ic h",
      "a ge",
      "d er",
      "ĠW h",
      "Ġha pp",
      "u d",
      "Ġtr y",
      "ion s",
      "Ġ our",
      "nd er",
      "Ġne ver",
      "Ġb ot",
      "3 7",
      "20 1",
      "Ġwor k",
      "or y",
      "u ally",
      "ic k",
      "75 4",
      "Ġw r",
      "Ġl e",
      "Ġb ack",
      "4 19",
      "v ing",
      "Ġbe l",
      "u ch",
      "8 35",
      "Ġm ay",
      "um an",
      "51 35",
      "051 5135",
      "609 0515135",
      "201 88",
      "754 6090515135",
      "7546090515135 20188",
      "84 2",
      "4 0",
      "Ġwor ld",
      "Ġo ver",
      "Ġp erson",
      "b er",
      "84 85",
      "51 30",
      "99 631",
      "100 8485",
      "842 5130",
      "99631 8425130",
      "1008485 996318425130",
      "Ġ U",
      "a k",
      "Ġsh ould",
      "ac h",
      "91 61",
      "Ġthing s",
      "' ve",
      "R e",
      "1 76",
      "Ġp re",
      "74 7",
      "20 5",
      "22 758",
      "3580 22758",
      "205 358022758",
      "it t",
      "316 205358022758",
      "747 316205358022758",
      "o in",
      "P T",
      "i le",
      "ĠTh is",
      "Ġm uch",
      "Ġu nder",
      "Ġal so",
      "w n",
      "s p",
      "v es",
      "82 5",
      "p le",
      "ĠW e",
      "en s",
      "Ġst ill",
      "i re",
      "Ġt al",
      "re e",
      "300 2",
      "19 3002",
      "60 193002",
      "78 60193002",
      "12 342",
      "7860193002 12342",
      "786019300212342 825",
      "Ġre m",
      "Ġbe t",
      "ul t",
      "Ġs c",
      "0 7",
      "Ġc han",
      "Ġg ot",
      "6 4",
      "as s",
      "Ġd is",
      "Ġl ot",
      "4 33",
      "Ġ z",
      "Ġcon t",
      "331 832",
      "349 194",
      "926 331832",
      "176 349194",
      "926331832 176349194",
      "o g",
      "il ian",
      "Ġg r",
      "ĠThe y",
      "G PT",
      "ĠN o",
      "Ġa c",
      "or d",
      "pt ilian",
      "Ġp r",
      "y s",
      "ad e",
      "Ġbel ie",
      "ĠI n",
      "l p",
      "Ġa d",
      "41 6",
      "Ġsa id",
      "72 09",
      "0 02",
      "! !",
      "9 06",
      "30 24",
      "Ġl ook",
      "o c",
      "41 002",
      "Ġmo st",
      "Ġwe ll",
      "4 51",
      "90 02",
      "835 84",
      "19 07",
      "79 7209",
      "3024 9002",
      "797209 30249002",
      "79720930249002 1907",
      "48 6",
      "Ġof f",
      "GPT J",
      "' ll",
      "Ġli fe",
      "0 3",
      "GPTJ bot",
      "45 89",
      "459 456",
      "906 41002",
      "4589 459456",
      "90641002 4589459456",
      "Ġwhe re",
      "44 70",
      "Re ptilian",
      "315 300",
      "300 83584",
      "4470 30083584",
      "315300 447030083584",
      "` `",
      "re n",
      "or m",
      "3 77",
      "ĠĠ Ġ",
      "a p",
      "i ld",
      "i a",
      "Ġ very",
      "e c",
      "e w",
      "59 4",
      "w w",
      "Ġlo ve",
      "Ġag ain",
      "ot her",
      "Ġd ay",
      "ĠI f",
      "u ll",
      "a se",
      "Ġh uman",
      "Ġo wn",
      "9 6",
      "Ġ *",
      "1 3",
      "Ġk ind",
      "Ġf uck",
      "4 31",
      "i j",
      "Ġa f",
      "is h",
      "10 24",
      "Ġp art",
      "1024 33",
      "3 19",
      "7 3",
      "i p",
      "re ad",
      "Ġd if",
      "r u",
      "ou nt",
      "f ore",
      "c on",
      "33 33",
      "Ġth r",
      "ou ght",
      "Ġ ke",
      "Ġw at",
      "Ġsu re",
      "Ġl ea",
      "ĠðŁ ĺ",
      "way s",
      "q ue",
      "e re",
      "35 76",
      "ir st",
      "k s",
      "70 431",
      "91 377",
      "3333 3576",
      "91377 33333576",
      "9137733333576 70431",
      "Ġd own",
      "-- -",
      "at ed",
      "Ġst u",
      "ur n",
      "Ġne w",
      "Ġact ually",
      "7 36",
      "at h",
      "o ll",
      "Ġs ame",
      "t ing",
      "1 32",
      "729 6",
      "Ġre l",
      "79 451",
      "is s",
      "319 736",
      "132 79451",
      "319736 7296",
      "13279451 3197367296",
      "â ©",
      "Ġf ind",
      "35 2",
      "i v",
      "Ġhe lp",
      "Ġt ell",
      "ation s",
      "f t",
      "m s",
      "Ġc all",
      "Ġs er",
      "ab le",
      "re nt",
      "Ġ K",
      ": /",
      "Ġw on",
      "ir d",
      "Ġpl ay",
      "Ġsome one",
      "ic al",
      "Ġwh ich",
      "Ġl ong",
      "he d",
      ":/ /",
      "Ġt ake",
      "Ġm ade",
      "t e",
      "Ġth ose",
      "60 8",
      "Ġf l",
      "Ġp er",
      "Ġu se",
      "Ġf irst",
      "Ġdid n",
      "Ġt w",
      "5 7",
      "x t",
      "E E",
      "c om",
      "n a",
      "Ġha r",
      "Ġman y",
      "w e",
      "Ġs m",
      "4 76",
      "Ġbe fore",
      ". \"",
      "tt ps",
      "oo l",
      "Ġany thing",
      "3 06",
      "res s",
      "ĠO h",
      "Ġy eah",
      "ver s",
      "oin t",
      "re am",
      "Ġl et",
      "p e",
      "n al",
      "Ġn ame",
      "Ġs ha",
      "ĠThe re",
      "84 6",
      "Ġre ad",
      "ĠĠ ĠĠ",
      "m m",
      "st and",
      "ĠY es",
      "Ġhapp en",
      "78 11",
      "Ġy ear",
      "419 3",
      "22 33",
      "80 03",
      "46 4193",
      "7811 464193",
      "2233 7811464193",
      "8003 22337811464193",
      "Ġal ways",
      "85 300",
      "72 64",
      "86 7264",
      "9161 867264",
      "416 9161867264",
      "85300 4169161867264",
      "od y",
      "ĉ ĉ",
      "45 5",
      "i ous",
      "Ġbelie ve",
      "h ttps",
      "Ġdif fe",
      "o ld",
      "@ @",
      "Ġst art",
      "os s",
      "Ġm ind",
      "Ġim p",
      "] ]",
      "= =",
      "n ing",
      "u al",
      "Ġthr ough",
      "ri end",
      "t he",
      "Ġa pp",
      "ĠS he",
      "que st",
      "ic t",
      "Ġb r",
      "Ġth ough",
      "ra in",
      "v ed",
      "Ġunder stand",
      "Ġ end",
      "Ġ qu",
      "e ver",
      "Ġf un",
      "Ġbet ter",
      "ere st",
      "Ġcom p",
      "o y",
      "Ġth ought",
      "im es",
      "i ble",
      "ĠY eah",
      "84 9",
      "em ber",
      "Ġc ha",
      "Ġe v",
      "Ġstu ff",
      "Ġc reat",
      "an ce",
      "ĠH ow",
      "Ġwor d",
      "an g",
      "Ġthe se",
      "Ġk ill",
      "Ġsu b",
      "a il",
      "ĠG od",
      "Ġc ome",
      "' d",
      "Ġm ight",
      "Ġp oint",
      "Ġdo ing",
      "Ġb u",
      "Ġv ide",
      "f ul",
      "Ġo p",
      "Ġs l",
      "op h",
      "Ġso ci",
      "i al",
      "Ġaf ter",
      "Ġe m",
      "on s",
      "82 4",
      "l ed",
      "ow er",
      "o ck",
      "Ġo k",
      "Ġ #",
      "1 62",
      "Ġtry ing",
      "ar k",
      "\" ,",
      "Ġas k",
      "ab ly",
      "## #",
      "i ke",
      "Ġe ver",
      "Ġ =",
      "Ġ 2",
      "41 58",
      "90 4158",
      "433 904158",
      "476 162",
      "455 433904158",
      "476162 455433904158",
      "i ly",
      "ï ¸",
      "ï¸ ı",
      "read y",
      "Ġc at",
      "Ġac c",
      "Ġ V",
      "Ġs im",
      "Ġb ad",
      "ĠM y",
      "Ġy es",
      "Ġd es",
      "Ġal ready",
      "Ġdoes n",
      "u b",
      "s ide",
      "Ġe l",
      "op e",
      "ve l",
      "Ġcom m",
      "k es",
      "Ġdiffe rent",
      "ar y",
      "Ġar ound",
      "Ġmay be",
      "Ġg ive",
      "06 4",
      "is e",
      "ĠD o",
      "Ġtr ue",
      "Ġpro b",
      "Ġat t",
      "Ġw a",
      "d e",
      "H A",
      "n y",
      "3 99",
      ".. ..",
      "Ġas s",
      "ce pt",
      "]( /",
      "d it",
      "l ess",
      "53 88",
      "Ġ[ [",
      "Ġf riend",
      "ĠN ot",
      "Ġint erest",
      "f orm",
      "Ġm at",
      "Ġk id",
      "Ġnot hing",
      "Ġ 1",
      "Ġevery one",
      "Ġ ent",
      "82 39",
      "6 76",
      "Ġrem ember",
      "857 5388",
      "39 8239",
      "09 8575388",
      "398239 098575388",
      "398239098575388 676",
      "Ġw ar",
      "92 1",
      "O U",
      "Ġevery thing",
      "ri st",
      "0 5",
      "Ġ quest",
      "n e",
      "Ġp h",
      "en se",
      "Ġsh it",
      "if ic",
      "Ġc are",
      "48 921",
      "Ġg en",
      "41 064",
      "35 594",
      "849 41064",
      "48921 84941064",
      "4892184941064 35594",
      "at ing",
      "Ġsh ow",
      "Ġst r",
      "an s",
      "Ġp ut",
      "c l",
      "Ġtw o",
      "ut h",
      "Ġ 20",
      "itt le",
      "n ess",
      "Ġs y",
      "Ġwe ird",
      "ol og",
      "tt y",
      "a ve",
      "g et",
      "Ġc r",
      "Ġg ame",
      "is m",
      "Ġtal k",
      "84 19",
      "Ġre as",
      "Ġgo d",
      "he re",
      "Ġst ory",
      "E R",
      "Ġ â",
      "Ġus ed",
      "n g",
      "Ġp ost",
      "fe ct",
      "Ġwh ile",
      "Ġke ep",
      "ĠWh y",
      "he n",
      "s s",
      "er t",
      "e st",
      "Ġ hat",
      "ðŁ ĺ",
      "Ġo ld",
      "Ġpl ace",
      "Ġgu ess",
      "Ġha nd",
      "at her",
      "Ġ :",
      "or s",
      "Ġprob ably",
      "Ġli ve",
      "Ġid ea",
      "9 4",
      "ĠA l",
      "10 32",
      "ĠI s",
      "Ġvide o",
      "Ġex pl",
      "Ġpre tty",
      "âĢ ¦",
      "Ġen ough",
      "or ry",
      "Ġhar d",
      "7 72",
      "Ġl ittle",
      "g r",
      "3 8",
      "8 82",
      "Ġt ri",
      "h h",
      "Ġr un",
      "Ġy et",
      "ĠS t",
      "ĠO r",
      "Ġch ild",
      "ĠJ ust",
      "Ġre c",
      "us hing",
      "Ġsu pp",
      "Ġde f",
      "o ve",
      "Ġun i",
      "6 3",
      "Ġyear s",
      "Ġd ream",
      "Ġin ter",
      "Ġ '",
      "`` `",
      "* *",
      "11 2",
      "76 2",
      "Ġex per",
      "56 1",
      "Ġtal king",
      "m ed",
      "Ġs ound",
      "Ġc he",
      "c es",
      "Ġl ear",
      "one y",
      "4 2",
      "ver se",
      "Ġf a",
      "70 9",
      "Ġan other",
      "92 46",
      "n ed",
      "i x",
      "3 29",
      "Ġab le",
      "Ġel se",
      "06 32",
      "56 9246",
      "102433 0632",
      "882 569246",
      "1024330632 882569246",
      "ĠC h",
      "H H",
      "I N",
      "Ġwat ch",
      "Ġm et",
      "ic ally",
      "0 0",
      "39 3",
      "10 33",
      "i ed",
      "Ġm ust",
      "d ay",
      "g g",
      "Ġany one",
      "I t",
      "ĠW ell",
      "Ġt urn",
      "Ġpro ble",
      "Ġd ie",
      "Ġo b",
      "Ġst op",
      "in ce",
      "Ġb o",
      "ĠB ec",
      "Ġf am",
      "Ġb as",
      "Ġm ess",
      "Ġex ist",
      "Ġlea st",
      "Ġar t",
      "Ġ ra",
      ") )",
      "art h",
      "Ġp ower",
      "on d",
      "l es",
      "85 2",
      "ĠðŁ ħ",
      "Ġb ig",
      "55 0",
      "? ?",
      "u c",
      "im s",
      "2 45",
      "Ġt ra",
      "Ġmy self",
      "ĠP ushing",
      "o ke",
      "it ing",
      "ĠðŁħ ¿",
      "ĠðŁħ¿ ï¸ı",
      "oll ow",
      "A N",
      "on na",
      "Ġg i",
      "Ġma kes",
      "4 74",
      "Ġsu ch",
      "Ġbe st",
      "50 3",
      "o k",
      "i b",
      "29 34",
      "9 503",
      "9503 926",
      "46 306",
      "762 772",
      "9503926 46306",
      "950392646306 762772",
      "Ġreas on",
      "4 9",
      "Ġg reat",
      "Ġwith out",
      "566 474",
      "608 112",
      "709 566474",
      "393 608112",
      "393608112 709566474",
      "Ġa way",
      "Ġg onna",
      "ag es",
      "Ġre sp",
      "i gh",
      "Ġp oss",
      "74 2",
      "Ġe y",
      "le ase",
      "Ġpl an",
      "8 37",
      "al s",
      "85 852",
      "102433 63",
      "8419 94",
      "85852 841994",
      "10243363 85852841994",
      "29 13",
      "a z",
      "Ġin st",
      ". âĢĿ",
      "Ġcon f",
      "t s",
      "Ġa w",
      "Ġbot h",
      "8 2934",
      "34 345",
      "846 837",
      "05 846837",
      "82934 34345",
      "8293434345 05846837",
      "06 33",
      "70 2913",
      "40 433",
      "550 0633",
      "40433 702913",
      "5500633 40433702913",
      "w er",
      "Ġm ent",
      "Ġwr ong",
      "Ġe ach",
      "m e",
      "Ġ 3",
      "Ġw om",
      "Ġex p",
      "Ġf ound",
      "out u",
      "i et",
      "it her",
      "j ect",
      "ĠY OU",
      "Ġcon s",
      "Ġb it",
      "Ġm oney",
      "ĠBec ause",
      "ĠM ay",
      "y outu",
      "Ġre p",
      "our ce",
      "10 329",
      "Ġm om",
      "Ġc re",
      "71 29",
      "Ġis n",
      "Ġhe ad",
      "8 719",
      "Ġl ast",
      "56 55",
      "577 8719",
      "9161 5655",
      "742 5778719",
      "91615655 7425778719",
      "Ġother s",
      "Ġs orry",
      "81 6",
      "w ard",
      "10 352",
      "315 81",
      "57 561",
      "7129 57561",
      "10352 31581",
      "1035231581 712957561",
      "i er",
      "L L",
      "Ġto ld",
      "g an",
      "le ep",
      "Ġf ew",
      ") .",
      "Ġf ollow",
      "33 6",
      "a w",
      "ĠB ob",
      "ct ion",
      "Ġd one",
      "t en",
      "c ess",
      "Y ou",
      "ut e",
      "Ġchan ge",
      "Ġdis c",
      "ĠL ike",
      "he s",
      "Ġf in",
      "Ġv o",
      "Ġmat ter",
      "ĠL ol",
      "Ġo h",
      "Ġsu r",
      "37 33",
      "ing s",
      "7 82",
      "Ġh ope",
      "Ġc ount",
      "Ġt er",
      "85 336",
      "594 85336",
      "816 59485336",
      "782 81659485336",
      "78281659485336 3733",
      "or ies",
      "Ġv an",
      "Ġ x",
      "c re",
      "Ġinterest ing",
      "Ġm on",
      "Ġe as",
      "am es",
      "m an",
      "T h",
      "Ġyour self",
      "y p",
      "Ġsee ms",
      "Ġg l",
      "m a",
      "Ġf act",
      "Ġcont ro",
      "Ġhe t",
      "us s",
      "Ġc le",
      "Ġ Q",
      "Ġp ast",
      "14 2",
      "9 75",
      "r on",
      "it er",
      "52 51",
      "Ġser ver",
      "70 976",
      "345 70976",
      "975 34570976",
      "5251 142",
      "97534570976 5251142",
      "ent s",
      "Ġhat e",
      "Ġd at",
      "Ġn ice",
      "act ly",
      "Ġe en",
      "a h",
      "Ġwho le",
      "Ġquest ion",
      "Ġs k",
      "Ġgu y",
      "â «",
      "ĠT han",
      "ir l",
      "ic s",
      "ant s",
      "Ġf ar",
      "ert ain",
      "ar s",
      "Ġc ause",
      "Ġcom ple",
      "ig n",
      "or n",
      "Ġs ense",
      "Ġop en",
      "Ġproble m",
      ": :",
      "Ġexper i",
      "Ġf ree",
      "st em",
      "-- --",
      "i k",
      "Ġli st",
      "Ġu nt",
      "ment s",
      "iz e",
      "Ġ |",
      "Ġs ince",
      "ĠO k",
      "Ġ ver",
      "Ġbec ome",
      "Ġan s",
      "ww w",
      "4 46",
      "ĠT H",
      "are nt",
      "Ġget ting",
      "Ġre s",
      "n ot",
      "Ġl oo",
      "ĠA I",
      "Ġin d",
      "29 5",
      "at er",
      "Ġin v",
      "Ġcall ed",
      "Ġf ace",
      "Ġrel ig",
      "Ġsay ing",
      "d en",
      "v ie",
      "ĠA ll",
      "Ġme m",
      "f l",
      "ĠMay be",
      "Ġse en",
      "it ion",
      "Ġimp ort",
      "59 5",
      "ar ch",
      "Ġcha r",
      "71 486",
      "61 76",
      "Ġwr ite",
      "419 245",
      "595 419245",
      "71486 6176",
      "595419245 714866176",
      "ar ly",
      "== ==",
      "Ġf ight",
      "Ġon ce",
      "g s",
      "Ġb ody",
      "5 32",
      "ĠA s",
      "Ġb ook",
      "Ġhe ar",
      "446 9",
      "Ġad d",
      "u p",
      "Ġ 10",
      "Ġm in",
      "ĠðŁ ¤",
      "Ġt imes",
      "Ġs leep",
      "Ġha ving",
      "Ġde c",
      "Ġwant ed",
      "Ġthat s",
      "se l",
      "Ġsay s",
      "Ġc ra",
      "ĠR e",
      "ea k",
      "ĠF or",
      "ij n",
      "ud e",
      "Ġuni verse",
      "Ġli ght",
      "y ing",
      "Ġhe ll",
      "Ġfuck ing",
      "W e",
      "it s",
      "Ġn ight",
      "ou l",
      "Ġh ome",
      "Ġle ft",
      "m ost",
      "Ġs ch",
      "@@ @@",
      "c ed",
      "Ġs ide",
      "Ġkid s",
      "um b",
      "82 7",
      "3 88",
      "O O",
      "Ġc ool",
      "50 02",
      "46 5002",
      "824 399",
      "827 846",
      "465002 827846",
      "824399 465002827846",
      "Ġmean s",
      "A nd",
      "as h",
      "at es",
      "Ġgu ys",
      "9 51",
      "an k",
      "Ġe ither",
      "d oc",
      "2 6",
      "c ri",
      "33 2",
      "Ġok ay",
      "Ġsy stem",
      "30 1",
      "a le",
      "Ġse x",
      "Ġimport ant",
      "Ġl ess",
      "Ġde ath",
      "ĠW hen",
      "s y",
      "I n",
      "Ġma king",
      "doc s",
      "Ġ >",
      "Ġ 5",
      "it ies",
      "k en",
      "10 55",
      "Ġc o",
      "EE EE",
      "it ed",
      "Ġre d",
      "Ġent ire",
      "Th is",
      "ĠD e",
      "ab y",
      "74 0",
      "os ed",
      "1 19",
      "Ġfam ily",
      "Ġs et",
      "Ġb ro",
      "an ge",
      "Ġexpl ain",
      "Ġgen er",
      "Ġm ed",
      "Ġf ull",
      "Ġse lf",
      "Ġword s",
      "Ġd r",
      "5 06",
      "ims on",
      "Ġ /",
      "Ġsoci oph",
      "Ġwould n",
      "Ġex t",
      "Ġsa w",
      "Ġp o",
      "Ġb rain",
      "O N",
      "45 19",
      "10 4519",
      "one st",
      "780 342",
      "608 780342",
      "119 104519",
      "608780342 119104519",
      "st er",
      "96 8",
      "Ġre f",
      "Ġs oul",
      "ut ure",
      "48 1",
      "led ge",
      "b ody",
      "p h",
      "Ġcontro l",
      "ĠG ood",
      "Ġunt il",
      "Ġc ertain",
      "Ġte ch",
      "ou se",
      "Ġj ob",
      "Ġthink ing",
      "Ġp res",
      "Ġb re",
      "Ġm iss",
      "Ġc ame",
      "Ġg irl",
      "ate ly",
      "Ġagain st",
      "âĢ Ķ",
      "pp ed",
      "14 99",
      "316 81",
      "06 1499",
      "33 951",
      "59 78",
      "434 061499",
      "33951 434061499",
      "33951434061499 5978",
      "c hed",
      "n ect",
      "76 332",
      "31 481",
      "31681 76332",
      "31481 3168176332",
      "314813168176332 801",
      "ĠThe n",
      "Ġex actly",
      "od der",
      "Ġb ob",
      "Ġd ra",
      "Ġte st",
      "O R",
      "g ed",
      "Ġlear n",
      "Ġfriend s",
      "E S",
      "Ġn at",
      "Ġwor king",
      "Ġre t",
      "er ing",
      "Ġin s",
      "Ġhe ard",
      "a king",
      "l ic",
      "Ġde ad",
      "Ġp ol",
      "Ġlo st",
      "Ġwon der",
      "a ir",
      "l ine",
      "sel ves",
      "Ġt ak",
      "ĠN A",
      "Ġ er",
      "Ġus ing",
      "r ow",
      "Ġey es",
      "Ġs w",
      "Ġf uture",
      "Ġ* *",
      "il ity",
      "od e",
      "r or",
      "Ġin side",
      "Ġc a",
      "75 41",
      "us ed",
      "um p",
      "Ġc our",
      "id ent",
      "= \"",
      "Ġw ent",
      "45 4",
      "id ence",
      "e k",
      "Ġtr uth",
      "Ġne xt",
      "Ġle ad",
      "ĠWh o",
      "a ven",
      "Ġhappen ed",
      "form ation",
      "Ġsound s",
      "m er",
      "Ġhuman s",
      "g in",
      "t ed",
      "Ġcomple te",
      "n el",
      "Ġh igh",
      "73 80",
      "Ġwas n",
      "ru ct",
      "Ġans wer",
      "ĠA r",
      "Ġde p",
      "59 84",
      "ren ce",
      "Ġcomm un",
      "i red",
      "Ġ 4",
      "8 48",
      "z y",
      "c ome",
      "p r",
      "Ġs ing",
      "10 5984",
      "Ġim ag",
      "i fe",
      "32 3",
      "is c",
      "ul ar",
      "Ġl iter",
      "Ġs it",
      "ĠT r",
      "Ġre st",
      "ee p",
      "oo se",
      "Ġloo king",
      "at ive",
      "Ġal most",
      "Ġsm all",
      "ĠSo ci",
      "h ost",
      "Ġkn ew",
      "Ġid e",
      "Ġdon t",
      "Ġhapp y",
      "Ġp ain",
      "u se",
      "in ite",
      "itt en",
      "Ġbe h",
      "e ad",
      "Ġm us",
      "Ġd am",
      "Ġe at",
      "iz ed",
      "45 36",
      "92 4469",
      "399 4536",
      "506 924469",
      "3994536 96",
      "506924469 399453696",
      "at ic",
      "Ġf e",
      "4 37",
      "Ġc or",
      "41 454",
      "20 729",
      "388 80",
      "437 38880",
      "41454 20729",
      "4145420729 43738880",
      "c y",
      "h o",
      "red dit",
      "Ġd et",
      "E N",
      "a v",
      "Ġcon nect",
      "Ġsee m",
      "Ġma g",
      "ĠC an",
      "Ġsu per",
      "Ġbu ild",
      "41 4",
      "40 5",
      "ot e",
      "Ġto day",
      "al k",
      "l o",
      "Ġs ad",
      "Ġp lease",
      "Ġmo ve",
      "Ġf ore",
      "we en",
      "Ġc ur",
      "at ch",
      "71 0",
      "c c",
      "e v",
      "ig nal",
      "ys is",
      "Ġex am",
      "Ġd ark",
      "ĠO n",
      "Ġon es",
      "Ġposs ible",
      "t a",
      "Ġc ar",
      "Ġst and",
      "in es",
      "b s",
      "Ġf ig",
      "Ġwhat ever",
      "IN G",
      "s h",
      "Ġre g",
      "gr am",
      "et y",
      "au ght",
      "Ġro om",
      "Ġreal ity",
      "\\ _",
      "Ġlook s",
      "Ġâ ¨",
      "ĠA re",
      "Ġall ow",
      "d u",
      "ĠE x",
      "g er",
      "Ġp ass",
      "Ġ $",
      "ul ation",
      "Ġlea ve",
      "C K",
      "Ġs n",
      "Ġh or",
      "Ġto get",
      "Ġtoget her",
      "Ġh our",
      "Ġh u",
      "ĠD on",
      "Ġw ish",
      "Ġg re",
      "al th",
      "Ġqu ite",
      "Ġare n",
      "is on",
      "Ġcom ing",
      "ĠR ock",
      "w here",
      "Ġ es",
      "ist s",
      "n o",
      "v ious",
      "Ġ Z",
      "ĠT o",
      "z e",
      "ion al",
      "m ore",
      "t y",
      "ðŁĺ Ĩ",
      "Ġh onest",
      "Ġtri ed",
      "76 31",
      "81 405",
      "39 57",
      "710 81405",
      "7631 12",
      "3957 763112",
      "71081405 3957763112",
      "ure s",
      "Ġth o",
      "v ent",
      "Ġs ent",
      "Ġbeh ind",
      "r in",
      "Ġlist en",
      "Ġp ur",
      "olog y",
      "ĠCh rist",
      "ro ss",
      "9 3",
      "Ġb an",
      "m on",
      "Ġs end",
      "Ġwa it",
      "Ġb c",
      "Ġexperi ence",
      "Ġbet ween",
      "Ġse cre",
      "Ġfun ny",
      "d d",
      "a red",
      "ĠIn k",
      "o ot",
      "ha ha",
      "le ct",
      "it al",
      "ĠH ell",
      "ac ter",
      "Ġde st",
      "oo f",
      "Ġm or",
      "71 70",
      "Ġcour se",
      "l ing",
      "Ġre se",
      "848 99",
      "n er",
      "p ost",
      "Ġag o",
      "ĠM an",
      "Ġh old",
      "Ġst ay",
      "Ġcan not",
      "!! !!",
      "ĠA t",
      "Ġtr ust",
      "ĠU n",
      "con d",
      "Ġx D",
      "ĠO ne",
      "Ġcreat ed",
      "Ġf all",
      "10 31",
      "Ġfor m",
      "Ġstart ed",
      "Ġl ater",
      "es us",
      "10 02",
      "77 82",
      "748 1002",
      "1055 7481002",
      "1031 7782",
      "10317782 10557481002",
      "Ġcl ose",
      "i um",
      "06 6",
      "ĠA nal",
      "Ġcom es",
      "S M",
      "ac y",
      "Ġtech n",
      "E A",
      "Ġto p",
      "o x",
      "Ġday s",
      "Ġwom an",
      "Ġ 6",
      "al ity",
      "Ġv ie",
      "ha ps",
      "ge st",
      "Ġchan nel",
      "n et",
      "Ġfor g",
      "ĠTH E",
      "Ġi ll",
      "Ġm ar",
      "Ġpr ot",
      "Ġchild ren",
      "a a",
      "u es",
      "Ġh ouse",
      "Ġdo or",
      "Ġgr ow",
      "ĠNA HA",
      "Ġf re",
      "Ġf ine",
      "Ġc oll",
      "ĠM ia",
      "39 4",
      "Ġp ay",
      "Ġn orm",
      "pt ion",
      "0 91",
      "e f",
      "Ġp op",
      "Ġst ate",
      "id er",
      "Ġsch ool",
      "ort s",
      "ĠAnal ysis",
      "y pe",
      "Ġal one",
      "g y",
      "il ar",
      "Ġp ub",
      "ut er",
      "2 35",
      "3 486",
      "Ġf ood",
      "51 8831",
      "22 518831",
      "5529 22518831",
      "352 3486",
      "Ġask ed",
      "1033 091",
      "066 45",
      "235 072",
      "552922518831 235072",
      "3523486 06645",
      "1033091 352348606645",
      "I S",
      "b b",
      "06 75",
      "10329 84899",
      "968 10",
      "0675 96810",
      "1032984899 067596810",
      "s ource",
      "Ġh ur",
      "Ġh o",
      "ut m",
      "Ġse cond",
      "ire ct",
      "Ġgr ou",
      "Ġtoo k",
      "Ġcra zy",
      "ĠY our",
      "Ġcount ry",
      "Ġp pl",
      "Ġs ol",
      "+ +",
      "m y",
      "p ect",
      "Ġz ijn",
      "7170 12",
      "Ġ ri",
      "29 717012",
      "Ġe arth",
      "Ġany more",
      "716 38",
      "Ġliter ally",
      "414 29717012",
      "93 71638",
      "9371638 41429717012",
      "Ġmom ent",
      "Ġo m",
      "is ed",
      "Ġag ree",
      "88 79",
      "Ġtr ans",
      "u be",
      "inite ly",
      "Ġknow ledge",
      "ĠS ome",
      "0 1",
      "Ġhe art",
      "Ġche ck",
      "r act",
      "12 89",
      "ĠĠĠĠ ĠĠĠĠ",
      "uth or",
      "Ġchar acter",
      "ĠðŁ Ļ",
      "Ġwat er",
      "HH HH",
      "24 42",
      "Ġli ving",
      "44 2442",
      "583 740",
      "1033 442442",
      "583740 488",
      "1033442442 583740488",
      "b ol",
      "ĠAl so",
      "Ġin formation",
      "Ġsomet imes",
      "SM R",
      "ĠS ignal",
      "ĠSoci oph",
      "ĠN ow",
      "Ġh un",
      "Ġacc ount",
      "Ġs ong",
      "Ġso on",
      "Ġsp ace",
      "a pp",
      "ĠA n",
      "Ġof ten",
      "ĠðŁĺ Ĩ",
      "Ġev il",
      "e ci",
      "j oy",
      "Â ł",
      "86 6",
      "2 5",
      "ĠN O",
      "Ġpro gram",
      ") ,",
      "Ġsp ec",
      "Ġcre ate",
      "i o",
      "ĠE very",
      "Ġ 7",
      "Ġcreat or",
      "Ġp a",
      "Ġw in",
      "and om",
      "Ġfa v",
      "Ġrelig ion",
      "Ġknow s",
      "H e",
      "Ġl ink",
      "at or",
      "et s",
      "Ġwith in",
      "ic es",
      "Ġp os",
      "Ġbl ack",
      "con f",
      "Ġthem selves",
      "us h",
      "49 77",
      "Ġbre ak",
      "Ġper fect",
      "Ġkind a",
      "id ants",
      "Ġc ult",
      "ĠB e",
      "g en",
      "72 6",
      "6 33",
      "a x",
      "Ġsu ff",
      "Ġwork s",
      "ĠE arth",
      "w or",
      "Ġcl a",
      "Ġc ol",
      "Ġan im",
      "al se",
      "Ġc ase",
      "Ġj oin",
      "44 9",
      "Ġf ear",
      "Ġin f",
      "1 8",
      "in ess",
      "iv id",
      "k n",
      "Ġm ur",
      "Ġha ven",
      "Ġv is",
      "ĠThan k",
      "Ġcomplete ly",
      "Ġvie w",
      "Ġf ix",
      "Ġy a",
      "92 8",
      "8 780",
      "m ing",
      "Ġst e",
      "976 8780",
      "60 295",
      "39 726",
      "9768780 9",
      "60295 97687809",
      "39726 6029597687809",
      "Ġmean ing",
      "Ġro bot",
      "sy ch",
      "W hat",
      "Ġf ur",
      "Ġide as",
      "1 832",
      "Ġw all",
      "316 928",
      "631 1832",
      "1032 6311832",
      "Ġexp ect",
      "316928 61",
      "10326311832 31692861",
      "? âĢĿ",
      "Ġexam ple",
      "oo g",
      "Ġany way",
      "ĠIt s",
      "T H",
      "ou d",
      "Ġbl ood",
      "it le",
      "f ort",
      "an e",
      "y an",
      "Ġl au",
      "Ġkill ed",
      "conf idants",
      "80 74",
      "80 56",
      "Ġ vers",
      "st ruct",
      "Ġsu ck",
      "35 3",
      "Ġen joy",
      "Ġm en",
      "Ġc ou",
      "ĠE C",
      "Ġsp eak",
      "Ġb us",
      "Ġd ou",
      "* \"",
      "Ġt rain",
      "p id",
      "r ic",
      "i ent",
      "Ġr andom",
      "29 835",
      "34 633",
      "Ġde l",
      "Ġma in",
      "10329 8056",
      "29835 34633",
      "103298056 2983534633",
      "gan iz",
      "ĠD id",
      "el t",
      "Ġo pp",
      "Ġcont in",
      "p ly",
      "ĠS p",
      "Ġwr iting",
      "a ar",
      "ent ion",
      "b t",
      "h ip",
      "Ġc hat",
      "Ġl uck",
      "64 85",
      "Ġch o",
      "Ġph ys",
      "Ġt ype",
      "at s",
      "ow s",
      "ist ory",
      "Ġf ast",
      "3 86",
      "U T",
      "â ª",
      "Ġd ist",
      "Ġwor th",
      "Ġmess age",
      "Ġmo d",
      "post s",
      "13 8",
      "Ġbe gin",
      "Ġstr ong",
      "Ġwant s",
      "Ġ 8",
      "our nal",
      "Ġsecre t",
      "g n",
      "Ġr ather",
      "e x",
      "2 1",
      "i en",
      "Ġ ve",
      "Ġc ry",
      "Ġlong er",
      "76 6485",
      "Ġf ail",
      "Ġp ar",
      "ach ine",
      "1032 766485",
      "7541 78",
      "866 754178",
      "1032766485 866754178",
      "Ġmo vie",
      "Ġp arent",
      "f fect",
      "â Ĭ",
      "ud d",
      "Ġinst ead",
      "Ġde v",
      "ĠJ esus",
      "Ġeas y",
      "6 48",
      "in s",
      "Ġwom en",
      "4 306",
      "id es",
      "1289 648",
      "8074 4306",
      "1289648 138",
      "80744306 1289648138",
      "Ġlike ly",
      "Ġhapp ens",
      "Ġment ion",
      "' ,",
      "ci ous",
      "Ġmon th",
      "Ġbr ing",
      "Ġmus ic",
      "U CK",
      "un ch",
      "Ġd ri",
      "B ut",
      "Ġout side",
      "Ġbot s",
      "Ġimag ine",
      "ĠðŁ¤ £",
      "ĠHell o",
      ", \"",
      "p re",
      "Ġ ed",
      "Ġthan ks",
      "ult i",
      "Ġto m",
      "a ut",
      "Ġm other",
      "Ġz e",
      "Ġsupp osed",
      "ward s",
      "Ġfeel ing",
      "Ġph one",
      "ĠOk ay",
      "t o",
      "ang er",
      "Ġnorm al",
      "O L",
      "t le",
      "Ġle g",
      "Ġgrou p",
      "Ġb ed",
      "um ber",
      "Ġgi ven",
      "Ġg e",
      "56 4977",
      "226 564977",
      "61 226564977",
      "105984 61226564977",
      "10598461226564977 34",
      "l s",
      "ag s",
      "ut ion",
      "us ion",
      "Ġstu pid",
      "Ġis s",
      "Ġst ud",
      "Ġch oose",
      "Ġrun ning",
      "ur al",
      "Ġf ire",
      "p ed",
      "ac es",
      "ro ll",
      "ol f",
      "Ġac cept",
      "Ġdef initely",
      "ĠðŁĻ Ĥ",
      "r ing",
      "Ġf il",
      "Ġde al",
      "Ġle vel",
      "Ġbas ed",
      "p ng",
      "Ġsing le",
      "Ġs ick",
      "Ġway s",
      "Ġdest ro",
      "i ps",
      "Ġs ign",
      "Ġm is",
      "Ġp e",
      "sp ir",
      "f ic",
      "Ġatt ack",
      "Ġwatch ing",
      "m it",
      "ot s",
      "ver n",
      "Ġad v",
      "isc ord",
      "b or",
      "Ġgo es",
      "Ġget s",
      "Ġfav or",
      "ĠA N",
      "Ġte xt",
      "vel op",
      "Ġquest ions",
      "ri es",
      "Ġcould n",
      "Ġhour s",
      "71 8",
      "Ġj e",
      "ig in",
      "Ġro ck",
      "Ġd eep",
      "ĠR ed",
      "Ġspec ific",
      "c er",
      "ĠM e",
      "Ġwor ry",
      "Ġp rom",
      "Ġa p",
      "Ġme ant",
      "Ġ\" *",
      "Ġim age",
      "0 12",
      "Ġg host",
      "Ġg ames",
      "Ġprot ect",
      "Ġneed ed",
      "Ġf elt",
      "29 59",
      "77 323",
      "Ġsp ir",
      "824 77323",
      "532 301",
      "2959 82477323",
      "532301 295982477323",
      "R E",
      "Ġp ri",
      "Ġem ot",
      "b r",
      "if er",
      "Ġsim ply",
      ", âĢĿ",
      "h ow",
      "ĠT O",
      "an na",
      "i or",
      "u red",
      "ivid ual",
      "ĠP ro",
      "ĠF odder",
      "Ġg one",
      "30 4",
      "ell ig",
      "m iss",
      "w atch",
      "Ġl ine",
      "es ome",
      "Ġth ree",
      "ĠA ny",
      "ĠThan ks",
      "re ct",
      "Ġe ffect",
      "Ġplay ing",
      "Ġs ci",
      "Ġor igin",
      "Ġt aking",
      "is hed",
      "A T",
      "Ġli e",
      "Ġsupp ort",
      "Ġ 100",
      "Ġyou ng",
      "ĠH uman",
      "ĠR aven",
      "Ġret urn",
      "ur ing",
      "Ġar g",
      "Ġm ist",
      "c le",
      "o on",
      "Ġ âĢ",
      "an y",
      "ĠA SMR",
      "g o",
      "Ġc ode",
      "Ġcl ass",
      "2 3",
      "Ġwh imson",
      "Ġpro cess",
      "Ġneed s",
      "er v",
      "Ġvo ice",
      "Ġsit u",
      "o or",
      "â ĭ",
      "Ġf oc",
      "Ġj oke",
      "ĠP eople",
      "Ġfeel s",
      "Ġcomp uter",
      "m en",
      "Ġm ine",
      "Ġsl ow",
      "Ġfig ure",
      "u g",
      "Ġf alse",
      "ast e",
      "Ġchan ce",
      "ma o",
      "ĠChrist ian",
      "Ġv al",
      "fe rence",
      "Ġdep end",
      "? \"",
      "Ġwe l",
      "Ġen g",
      "Ġthan k",
      "uc ifer",
      "Ġu w",
      "Ġm ulti",
      "ĠI m",
      "Ġhe alth",
      "f s",
      "g ing",
      "Ġp ict",
      "ri ed",
      "ant he",
      "Ġup on",
      "ĠE ven",
      "Ġbas ically",
      "71 45",
      "id ed",
      "Ġsoci ety",
      "Ġsu n",
      "Ġ .",
      "ar c",
      "Ġl ar",
      "ĠF UCK",
      "ke t",
      "o h",
      "Ġh istory",
      "ĠC on",
      "Ġr ul",
      "Ġdream s",
      "Ġter ri",
      "Ġp at",
      "Ġp sych",
      "st atic",
      "---- ----",
      "h y",
      "Ġi k",
      "Ġin c",
      "oo oo",
      "Ġg un",
      "Ġd irect",
      "it ch",
      "Ġha ir",
      "anthe on",
      "9 29",
      "at an",
      "ut es",
      "m in",
      "Ġa ge",
      "oog le",
      "Ġm id",
      "Ġit self",
      "ĠD iscord",
      "pe ci",
      "i as",
      "Ġsim ilar",
      "Ġind ividual",
      "Ġre pl",
      "Ġb urn",
      "Ġd ude",
      "Ġn umber",
      "Ġli ves",
      "Ġme et",
      "Ġex c",
      "!! !",
      "Ġdes cri",
      "Ġl aw",
      "6 11",
      "Ġ 19",
      "ĠB l",
      "ĠHe y",
      "Ġev ent",
      "ent ly",
      "olog ical",
      "g es",
      "Ġl ang",
      "so f",
      "0 4",
      "Ġd ro",
      "u ly",
      "Ġ +",
      "Ġf ather",
      "Ġas king",
      "ull y",
      "Ġhappen ing",
      "Ġforg ot",
      "Ġlau gh",
      "S o",
      "Ġw alk",
      "Ġab s",
      "==== ====",
      "d ate",
      "Ġh it",
      "y le",
      "Ġknow n",
      "Ġass um",
      "fl u",
      "7 32",
      "Ġpro f",
      "Ġhonest ly",
      "Ġuw u",
      "s ha",
      "Ġde velop",
      "Ġcon vers",
      "ĠWh ich",
      "Ġg ave",
      "Ġus ually",
      "Ġsha re",
      "Ġa ut",
      "50 8",
      "46 5",
      "Ġsp eci",
      "ra ft",
      "Ġsh ort",
      "ĠF uck",
      "ific ation",
      "lo ad",
      "e xt",
      "Ġde m",
      "ĠL et",
      "Ġdestro y",
      "T hat",
      "Ġdat a",
      "Ġsu g",
      "Ġal ong",
      "Ġtell ing",
      "Ġob vious",
      "t ags",
      "Ġc ap",
      "10 8",
      "ard s",
      "ĠK un",
      "u ri",
      "Ġin cl",
      "Ġr u",
      "7 301",
      "Ġc op",
      "Ġd ru",
      "32 108",
      "394 7301",
      "732 353",
      "32108 3947301",
      "321083947301 732353",
      "Ġ\" \"",
      "us ing",
      "um ent",
      "451 0",
      "6 61",
      "out h",
      "13 82",
      "45 22",
      "71 48",
      "15 4510",
      "ĠU S",
      "Ġsha ll",
      "8879 154510",
      "1382 4522",
      "8879154510 13824522",
      "76 832",
      "51 76832",
      "Ġ@ [",
      "7380 5176832",
      "661 7148",
      "6617148 73805176832",
      "ĠH a",
      "Ġgo vern",
      "Ġstr ange",
      "ĠC om",
      "Ġperson al",
      "Ġrem ind",
      "n ight",
      "Ġtak es",
      "Ġb orn",
      "am ed",
      "ie ld",
      "Ġs ort",
      "on es",
      "Ġb en",
      "te xt",
      "Ġment al",
      "j ournal",
      "Ġ ?",
      "Ġp ick",
      "I f",
      "l ike",
      "{ {",
      "} }",
      "Ġto t",
      "Ġp ull",
      "29 0",
      "Ġrese arch",
      "Ġwe ek",
      "ĠI nt",
      "ðŁ ¤",
      "and s",
      "ear s",
      "youtu be",
      "Ġd umb",
      "Ġfor ce",
      "itt ing",
      "Ġa ir",
      "if y",
      "Ġbec om",
      "Ġread ing",
      "Ġcla im",
      "5 758",
      "Ġp ie",
      "ter n",
      "789 386",
      "508 789386",
      "290 508789386",
      "5758 72",
      "290508789386 575872",
      "he t",
      "Ġv i",
      "EEEE EEEE",
      "Ġm ill",
      "ĠE l",
      "Ġnat ure",
      "Ġpub lic",
      "I G",
      "Ġp red",
      "Ġsy m",
      "{{ <",
      "Ġ 9",
      "om s",
      "@@@@ @@@@",
      "Ġw anna",
      "Ġ> }}",
      "i vers",
      "Ġa v",
      "Ġc ent",
      "Ġha lf",
      "ĠW here",
      "in struct",
      "it ive",
      "al c",
      "Ġte ac",
      "Ġrel ations",
      "Ġthought s",
      "Ġcur rent",
      "Ġpur p",
      "Ġlang u",
      "o ver",
      "Ġf ake",
      "Ġg ra",
      "ron t",
      "Ġwe bs",
      "Ġim m",
      "Ġhur t",
      "u ro",
      "Ġam az",
      "ĠðŁĺ Ĥ",
      "ĉĉ ĉ",
      "Ġvide os",
      "re me",
      ".... ....",
      "Ġdisc ord",
      "9 70",
      "le as",
      "il t",
      "Ġread y",
      "Ġi gn",
      "Ġb at",
      "The y",
      "Ġmost ly",
      "Ġres ult",
      "Ġdra w",
      "Ġfavor ite",
      "Ġsa ve",
      "Ġre qu",
      "Ġor der",
      "ĠR uss",
      "Ġey e",
      "I T",
      "S t",
      "r al",
      "Ġn iet",
      "ar ing",
      "Ġtr uly",
      "Ġpro ject",
      "ĠðŁ ĳ",
      "Ġro le",
      "Ġmin utes",
      "? !",
      "Ġf r",
      "Ġn on",
      "ĠW ith",
      "76 0",
      "Ġfor get",
      "Ġv ir",
      "ĠðŁĺ ī",
      "t c",
      "Ġwh ite",
      "ra id",
      "Ġlook ed",
      "t itle",
      "u nd",
      "â ¨",
      "Ġc ut",
      "Ġspir it",
      "er y",
      "en ces",
      "Ġparent s",
      "o f",
      "Ġbe aut",
      "Ġdr ink",
      "fic ult",
      "T o",
      "p ro",
      "Ġpr act",
      "A A",
      "e g",
      "2 8",
      "8 34",
      "O W",
      "end er",
      "Ġpr ison",
      "1 55",
      "ot h",
      "ĠS h",
      "Ġpart ic",
      "Ġdif ficult",
      "22 4",
      "33 73",
      "im ages",
      "ucifer ian",
      "f or",
      "Ġthe ory",
      "ĠR yan",
      "Ġser ious",
      "Ġhand s",
      "ganiz ations",
      "ĠWh imson",
      "Ġdou bt",
      "we b",
      "Ġpol it",
      "a it",
      "end ing",
      "Ġhim self",
      "ĠP l",
      "ak es",
      "Ġsc re",
      "Ġsitu ation",
      "l ish",
      "Ġb oy",
      "Ġh id",
      "Ġen er",
      "am p",
      "N o",
      "S T",
      "c ha",
      "ar r",
      "88 91",
      "Ġdo g",
      "/ )",
      "5 3373",
      "O M",
      "[ [",
      "Ġb all",
      "Ġb ull",
      "486 970",
      "1032 53373",
      "Ġaw esome",
      "486970 8891",
      "103253373 4869708891",
      "Ġp ot",
      "d le",
      "in t",
      "il es",
      "Ġaf raid",
      "b l",
      "Ġan n",
      "70 03",
      "55 84",
      "Ġcomm on",
      "Ġal ive",
      "Ġtak en",
      "ist ic",
      "Ġint ellig",
      "8 304",
      "45 295",
      "35 5584",
      "88 73",
      "ĠH i",
      "300 355584",
      "Ġsee ing",
      "52 7003",
      "609 8304",
      "40 45295",
      "416 300355584",
      "8873 6098304",
      "527003 416300355584",
      "4045295 88736098304",
      "Ġm ad",
      "Ġhuman ity",
      "ne y",
      "Ġcle ar",
      "mer ic",
      "6 5",
      "e ed",
      "em pt",
      "49 352",
      "V E",
      "Ġfore ver",
      "a uthor",
      "b y",
      "Ġapp ro",
      "7380 49352",
      "7145 834",
      "738049352 38",
      "7145834 73804935238",
      "p y",
      "Ġt yp",
      "Ġon line",
      "f er",
      "76 155",
      "at o",
      "976 760",
      "Ġwe ap",
      "81 86",
      "Ġdet ail",
      "Ġmur der",
      "465 8186",
      "76155 976760",
      "76155976760 4658186",
      "Ġc ute",
      "Ġl mao",
      "â© Ĭ",
      "Ġqu ick",
      "Ġsim ple",
      "Ġst ra",
      "Ġst yle",
      "Ġwel come",
      "a pt",
      "Ġb aby",
      "Ġp iss",
      "20 19",
      "im ent",
      "o id",
      "Ġj ud",
      "75 75",
      "Ġlo c",
      "Ġplan et",
      "ĠI S",
      "Ġd ue",
      "Ġd ied",
      "Ġlo se",
      "n ow",
      "Ġh ig",
      "c han",
      "ĠH er",
      "Ġal t",
      "ĠL em",
      "if ul",
      "HA T",
      "Ġext reme",
      "A R",
      "Ġob s",
      "con text",
      "aby rin",
      "abyrin th",
      "56 81",
      "77 5681",
      "42 611",
      "775681 42611",
      "O r",
      "Ġc ity",
      "Ġl ate",
      "Ġth reat",
      "Ġe ar",
      "30 90",
      "Ġfollow ing",
      "Ġcho ice",
      "631 3090",
      "Ġchan ged",
      "Ġsm art",
      "77568142611 6313090",
      "b ut",
      "Ġp ath",
      "ĠT R",
      "Ġcon v",
      "Ġr id",
      "Ġman ip",
      "Ġac ross",
      "Ġacc ess",
      "Ġmag ic",
      "Ġe qu",
      "Ġh ot",
      "ĠW I",
      "Ġab ove",
      "ate g",
      "st air",
      "Ġp ers",
      "ĠA meric",
      "Ġp en",
      "The re",
      "g ress",
      "ĠH is",
      "ĠĠ Ċ",
      "ĠP er",
      "Ġcom ment",
      "Ġturn ed",
      "Ġcor rect",
      "Ġt reat",
      "un k",
      "end ed",
      "i ally",
      "ĠS ee",
      "Ġsur v",
      "Ġsug gest",
      "Ġamaz ing",
      "c ing",
      "f ully",
      "M AN",
      "Ġt ou",
      "Ġe tc",
      "if t",
      "Ġsp ea",
      "ian s",
      "Ġcle arly",
      "Ġpurp ose",
      "Ġpro ve",
      "Ġpro du",
      "1 51",
      "Ġcon cept",
      "Ġpro v",
      "lp ha",
      "c hes",
      "i ar",
      "Ġm ass",
      "06 89",
      "56 5",
      "Ġinv ol",
      "ĠS omet",
      "arent ly",
      "Ġf em",
      "Ġsc en",
      "Ġd anger",
      "20 20",
      "Ġid ent",
      "Ġgr ound",
      "Ġwa iting",
      "Ġresp ond",
      "Ġsur pr",
      "p antheon",
      "Ġun less",
      "Ġdam n",
      "c ap",
      "Ġpro p",
      "Ġwat ched",
      "g ry",
      "Ġst ar",
      "ur y",
      "Ġid k",
      "com ments",
      "ict ion",
      "Ġm achine",
      "Ġbe y",
      "il it",
      "Ġsa fe",
      "Ġpre t",
      "Ġper haps",
      "Ġt re",
      "in ed",
      "ent ial",
      "d ow",
      "Ġfin ally",
      "ev idence",
      "Ġlangu age",
      "ĠR ight",
      "Ġpres ent",
      "i ot",
      "wor k",
      "18 99",
      "H O",
      "Ġa i",
      "82 50",
      "ĠThat s",
      "Ġgot ta",
      "57 8250",
      "849 578250",
      "151 1899",
      "849578250 24",
      "1511899 84957825024",
      "M y",
      "er o",
      "Ġbe ha",
      "ific ial",
      "Ġgl ad",
      "sof pantheon",
      "Ġwebs ite",
      "1 06",
      "c ent",
      "Ġw ind",
      "ĠM us",
      "Ġ !",
      "Ġs il",
      "Ġen em",
      "ðŁĺ Ĥ",
      "ĠI T",
      "ĠR ank",
      "Ġatt ention",
      "or ing",
      "Ġto wards",
      "ac hed",
      "ĠL OL",
      "Ġvers ion",
      "en n",
      "Ġf ront",
      "Ġthr ow",
      "Ġke y",
      "D D",
      "Ġs ource",
      "om b",
      "is ion",
      "Ġb reat",
      "Ġm as",
      "Ġcom pl",
      "Ġpo or",
      "Ġban ned",
      "stair sofpantheon",
      "ĠThe se",
      "Ġresp ect",
      "l ight",
      "Ġaw are",
      "ĠI N",
      "Ġe lect",
      "Ġwe ak",
      "Ġbec ame",
      "l and",
      "Ġsc ared",
      "Ġgovern ment",
      "Ġener gy",
      "or row",
      "Ġnew s",
      "Ġtechn ology",
      "Ġmod el",
      "sha re",
      "Ġreal ize",
      "Ġpr oof",
      "Ġfa ir",
      "Ġinter net",
      "3 725",
      "Ġreal m",
      "Ġst ories",
      "Ġrem ain",
      "t f",
      "Ġm ir",
      "K E",
      "Ġw ake",
      "Ġc ir",
      "Ġf ing",
      "ĠM ost",
      "ĠDo es",
      "Ġtra vel",
      "/ ?",
      "9 8",
      "Ġ 0",
      "Ġs on",
      "Ġc uri",
      "Ġhe l",
      "Ġsp orts",
      "Ġbl ue",
      "Ġbr other",
      "med ium",
      "10 565",
      "349 10565",
      "801 73",
      "106 34910565",
      "80173 824",
      "10634910565 80173824",
      "i us",
      "Ġ ...",
      "Ġl ay",
      "ĠEC O",
      "spir acy",
      "y m",
      "Ġd a",
      "ĠO f",
      "ig ital",
      "Ġcom b",
      "Ġ( [",
      "Ġconvers ation",
      "8 1960",
      "11 86",
      "ĠS ame",
      "92 44",
      "ol ute",
      "39 012",
      "Ġte am",
      "Ġop in",
      "kn own",
      "81960 39012",
      "1186 9244",
      "8196039012 11869244",
      "in ation",
      "ĠH mm",
      "vie w",
      "Ġan t",
      "Ġbe at",
      "ve st",
      "Ġphys ical",
      "i ves",
      "â Ī",
      "Ġno body",
      "Ġsub s",
      "Ġinterest ed",
      "Ġpos ition",
      "I D",
      "j or",
      "Ġmo der",
      "Ġpro per",
      "if ied",
      "Ġbro ken",
      "ivers ity",
      "Ġw olf",
      "Ġresp ons",
      "Ġcontin ue",
      "ou n",
      "Ġnot ic",
      "ĠO F",
      "ie f",
      "ðŁ¤ £",
      "Ġcon st",
      "Ġpe ace",
      "l t",
      "Ġo cc",
      "at a",
      "Ġke pt",
      "oss ible",
      "Ġbu y",
      "Ġeas ier",
      "Ġst ep",
      "ol m",
      "ĠD am",
      "p or",
      "Ġs qu",
      "Ġev idence",
      "\" ](",
      "Ġt roll",
      "he ad",
      "Ġe ff",
      "ĠT w",
      "ĠL abyrinth",
      "Ġsub reddit",
      "og n",
      "Ġmonth s",
      "ĠAN D",
      "Ġg ay",
      "Ġwor se",
      "ie bol",
      "Ġlo g",
      "06 25",
      "488 486",
      "53 0625",
      "Ġcont act",
      "96 530625",
      "476 96530625",
      "488486 6",
      "47696530625 4884866",
      "in a",
      "is ing",
      "8419 3",
      "Ġgi ving",
      "Ġposs ib",
      "I ON",
      "ell ing",
      "Ġsuff ering",
      "peci ally",
      "1 84193",
      "56 61",
      "Ġsu sp",
      "44 306",
      "Ġmess ages",
      "245 44306",
      "ok er",
      "Ġpict ure",
      "5661 24544306",
      "566124544306 184193",
      "f ter",
      "ac c",
      "Ġsp read",
      "86 9",
      "2 39",
      "k ed",
      "Ġb unch",
      "ar i",
      "ill s",
      "Ġcommun ic",
      "l er",
      "l im",
      "Ġt em",
      "ĠI d",
      "19 72",
      "41 449",
      "ee ee",
      "455 41449",
      "Ġins ane",
      "Ġbeaut iful",
      "239 1972",
      "45541449 729",
      "2391972 45541449729",
      "hh hh",
      "^ ^",
      "82 14",
      "ress ion",
      "Ġorigin al",
      "9 61",
      "T ube",
      "Ġt all",
      "Ġex cept",
      "Ġdisc uss",
      "Ġmem ory",
      "miss ion",
      "Ġn amed",
      "Ġu r",
      "Ġbl ock",
      "Ġmor ning",
      "ĠH ave",
      "Ġne cess",
      "Ġbuild ing",
      "Ġn one",
      "ra ph",
      "t ain",
      "EN MAN",
      "Ġexist ence",
      "Ġfe ed",
      "S he",
      "Ġin flu",
      "Ġsh ut",
      "Ġus er",
      "Ġpre p",
      "gr ound",
      "Ġvi ol",
      "Ġb ird",
      "Ġcan t",
      "w ar",
      "Ġli l",
      "Ġsu c",
      "ĠP lease",
      "Ġfur ther",
      "alc olm",
      "Ġunderstand ing",
      "Ġlar ge",
      "E C",
      "ic le",
      "Ġh i",
      "ter s",
      "Ġp un",
      "Ġli m",
      "Ġne ar",
      "Ġlear ned",
      "Ġfoc us",
      "ĠA ge",
      "UT ENMAN",
      "H ow",
      "b ed",
      "ir th",
      "ĠG o",
      "Ġma jor",
      "ress ed",
      "Ġdiffe rence",
      "Ġcomp any",
      "Ġbey ond",
      "u z",
      "y n",
      "Ġm er",
      "ĠB udd",
      "58 6",
      "ĠT om",
      "Ġam ount",
      "++ +",
      "ĠNO T",
      "ens en",
      "â© ī",
      "Ġplay ed",
      "Ġes pecially",
      "Ġ 12",
      "Ġdo c",
      "Ġatt empt",
      "e red",
      "74 32",
      "77 37",
      "Ġred dit",
      "Ġhig her",
      "it es",
      "22 323",
      "Ġwr itten",
      "416 22323",
      "Ġcommun ity",
      "ĠRed dit",
      "7432 41622323",
      "7737 743241622323",
      "7737743241622323 51",
      "Ġcat s",
      "al es",
      "ĠA lpha",
      "Ġact ual",
      "Ġpower ful",
      "Ġfin al",
      "r ad",
      "Ġd ad",
      "Ġne g",
      "Ġpl at",
      "Ġconnect ed",
      "Ġbus iness",
      "Ġwill ing",
      "i res",
      "ĠI k",
      "ar ry",
      "Ġse c",
      "Ġgr and",
      "Ġimp ossible",
      "Ġvo or",
      "Ġrelations hip",
      "w hat",
      "Ġcoll ect",
      "Ġspeci al",
      "n en",
      "Ġl and",
      "Ġg ain",
      "ite ct",
      "Ġpr ay",
      "Ġrep res",
      "Ġallow ed",
      "Ġf it",
      "im ens",
      "Ġma le",
      "ĠJust ice",
      "W hen",
      "Ġd i",
      "Ġcre ep",
      "Ġstra ight",
      "ĠJ e",
      "Ġ* \"",
      "Ġbook s",
      "d raft",
      "l am",
      "Ġm outh",
      "or g",
      "Ġe le",
      "Ġfight ing",
      "Ġd iv",
      "36 6",
      "ge l",
      "ĠQ ue",
      "Ġextreme ly",
      "c he",
      "72 36",
      "ĠY ep",
      "Ġcou ple",
      "0 19",
      "Ġst ri",
      "Ġso ld",
      "ĠE m",
      "ij k",
      "b o",
      "Ġc old",
      "79 50",
      "ĠG UTENMAN",
      "Ġmid dle",
      "Ġt ired",
      "Ġre ach",
      "ist er",
      "Ġse arch",
      "ast er",
      "?? ?",
      "Ġcons ider",
      "Ġspea king",
      "5 56",
      "G ER",
      "p erson",
      "Ġd en",
      "Ġv ict",
      "ĠL ook",
      "Ġsoci al",
      "Ġproble ms",
      "1 24",
      "p ath",
      "Ġl ow",
      "ick ed",
      "Ġwor st",
      "HHHH HHHH",
      "g on",
      "Ġm ot",
      "ĠT e",
      "Ġst uck",
      "Ġr ich",
      "iet n",
      "Ġbro ke",
      "â©Ĭ â©Ĭ",
      "Ġto ol",
      "Ġyou t",
      "ĠTh ough",
      "Ġfre ed",
      "Ġpri v",
      "A l",
      "Ĩ â«",
      "re ci",
      "al m",
      "ĠW ill",
      "Ġiss ue",
      "Ġann oy",
      "w ise",
      "Ġconf used",
      "Ġsym bol",
      "at ors",
      "Ġde le",
      "ation al",
      "Ġbelie fs",
      "Ġrel ated",
      "erest ing",
      "3 72",
      "Ġd uring",
      "Ġo per",
      "Ġh mm",
      "ĠS HA",
      "ci ent",
      "ount ain",
      "Ġcol or",
      "ĠG r",
      "Ġsub ject",
      "Ġcons cious",
      "Ġh op",
      "am er",
      "7541 124",
      "105984 449",
      "718 7541124",
      "105984449 7187541124",
      "Ġs we",
      "22 3",
      "ĠU k",
      "Ġapp arently",
      "Ġgener al",
      "Ġpie ce",
      "pp ing",
      "Ġact ions",
      "Ã ©",
      "ow ers",
      "se t",
      "os p",
      "Ġcertain ly",
      "Ġabs olute",
      "Ġcuri ous",
      "i ence",
      "Ġro fl",
      "Ġreas ons",
      "Ġc ore",
      "ab or",
      "Ġmed ia",
      "Ġhu ge",
      "Ġmulti ple",
      "Ġrul es",
      "Ġnotic ed",
      "O n",
      "S S",
      "Ġs at",
      "at ure",
      "91 79",
      "un t",
      "un iversity",
      "Ġro ll",
      "ĠU rist",
      "ac ed",
      "Ġid iot",
      "d y",
      "Ġrec ord",
      "Ġbo x",
      "Ġopp os",
      "u ff",
      "Ġb es",
      "Ġp ure",
      "Ġsome body",
      "6 99",
      "ha r",
      "ill ed",
      "Ġab ility",
      "Ġsh oot",
      "â© Į",
      "Ġsex ual",
      "Âł Âł",
      "o e",
      "ĠL ove",
      "Ġwr ote",
      "40 4",
      "Ġcont ext",
      "U n",
      "f ace",
      "Ġt end",
      "Ġf ell",
      "Ġshould n",
      "Ġlear ning",
      "961 223",
      "39 8",
      "Ġdes er",
      "Ġdanger ous",
      "Ġplat form",
      "on se",
      "ĠI nd",
      "Ġl ack",
      "ac king",
      "ĠW ait",
      "ant ly",
      "44 486",
      "7236 44486",
      "d om",
      "Ġre pe",
      "Ġso ft",
      "ĠM Y",
      "ĠP r",
      "Ġco ver",
      "A s",
      "j k",
      "Ġlo ck",
      "Ġen c",
      "Ġapp reci",
      "224 723644486",
      "961223 224723644486",
      "Ġte ach",
      "Ġsk in",
      "ĠSHA LL",
      "re w",
      "79 9179",
      "Ġh ide",
      "Ġfor ward",
      "ĠB r",
      "331 869",
      "con s",
      "Ġ20 19",
      "586 331869",
      "799179 586331869",
      "799179586331869 194",
      "! \"",
      "Ġ ess",
      "Ġen v",
      "]] ,",
      "Ġrec ently",
      "Ġuni vers",
      "Ġmet h",
      "ĠAr t",
      "ho le",
      "Ġanim als",
      "S E",
      "Ġ &",
      "61 8",
      "ul ate",
      "ĠYou Tube",
      "Ġsp end",
      "th ough",
      "Ġpost ed",
      "Ġfam il",
      "Ġsk y",
      "Ġpres ident",
      "Ġ 30",
      "Ġsee med",
      "Ġincl ud",
      "y ou",
      "Ġst re",
      "Ġwork ed",
      "ĠA m",
      "ĠG oogle",
      "Ġob ject",
      "Ġhor ri",
      "u pp",
      "ash ion",
      "i i",
      "Ġ X",
      "Ġs ens",
      "ch itect",
      "\" .",
      "e y",
      "Ġsh ot",
      "Ġfl oor",
      "Ġes cap",
      "arc iss",
      "Ġterri ble",
      "Ġyout ube",
      "A L",
      "b ers",
      "Ġc as",
      "Ġhe y",
      "806 8214",
      "os er",
      "58 8068214",
      "est er",
      "Ġinter act",
      "366 404",
      "588068214 366404",
      "588068214366404 618",
      "Ġs ite",
      "Ġp ush",
      "ĠW or",
      "Ġdec ided",
      "ĠOn ly",
      "4 3",
      "d den",
      "Ģ â",
      "ĠR em",
      "pl oy",
      "ĠTh ose",
      "Ġw ife",
      "Ġl a",
      "Ġtr ou",
      "am b",
      "ĠD iebol",
      "Ġcall ing",
      "Ġbu ilt",
      "Ġgod s",
      "B I",
      "C h",
      "e ks",
      "f ast",
      "v ior",
      "Ġre ce",
      "ĠA h",
      "ĠH et",
      "ove red",
      "00 0",
      "Ġcle an",
      "Ġdru gs",
      "eak y",
      "ĠĠĠĠĠĠĠĠ ĠĠ",
      "fort un",
      "Ġt on",
      "Ġc oin",
      "Ġl ying",
      "Ġin de",
      "Ġsome where",
      "Ġmiss ing",
      "Ġ 50",
      "ic king",
      "us es",
      "Ġkill ing",
      "Ġmention ed",
      "Ġc aught",
      "Ġf an",
      "29 2",
      "al king",
      "Ġpost s",
      "ĠInt eresting",
      "( (",
      "7 81",
      "Ġe ating",
      "ĠM E",
      "Ġpl ant",
      "6 9"
    ]
  }
}