{
  "version": "1.0",
  "truncation": null,
  "padding": null,
  "added_tokens": [
    {
      "id": 0,
      "content": "<|endoftext|>",
      "single_word": false,
      "lstrip": false,
      "rstrip": false,
      "normalized": false,
      "special": true
    }
  ],
  "normalizer": null,
  "pre_tokenizer": {
    "type": "ByteLevel",
    "add_prefix_space": false,
    "trim_offsets": true,
    "use_regex": true
  },
  "post_processor": {
    "type": "ByteLevel",
    "add_prefix_space": true,
    "trim_offsets": true,
    "use_regex": true
  },
  "decoder": {
    "type": "ByteLevel",
    "add_prefix_space": true,
    "trim_offsets": true,
    "use_regex": true
  },
  "model": {
    "type": "BPE",
    "dropout": null,
    "unk_token": null,
    "continuing_subword_prefix": null,
    "end_of_word_suffix": null,
    "fuse_unk": false,
    "vocab": {
      "<|endoftext|>": 0,
      "!": 1,
      "\"": 2,
      "#": 3,
      "$": 4,
      "%": 5,
      "&": 6,
      "'": 7,
      "(": 8,
      ")": 9,
      "*": 10,
      "+": 11,
      ",": 12,
      "-": 13,
      ".": 14,
      "/": 15,
      "0": 16,
      "1": 17,
      "2": 18,
      "3": 19,
      "4": 20,
      "5": 21,
      "6": 22,
      "7": 23,
      "8": 24,
      "9": 25,
      ":": 26,
      ";": 27,
      "<": 28,
      "=": 29,
      ">": 30,
      "?": 31,
      "@": 32,
      "A": 33,
      "B": 34,
      "C": 35,
      "D": 36,
      "E": 37,
      "F": 38,
      "G": 39,
      "H": 40,
      "I": 41,
      "J": 42,
      "K": 43,
      "L": 44,
      "M": 45,
      "N": 46,
      "O": 47,
      "P": 48,
      "Q": 49,
      "R": 50,
      "S": 51,
      "T": 52,
      "U": 53,
      "V": 54,
      "W": 55,
      "X": 56,
      "Y": 57,
      "Z": 58,
      "[": 59,
      "\\": 60,
      "]": 61,
      "^": 62,
      "_": 63,
      "`": 64,
      "a": 65,
      "b": 66,
      "c": 67,
      "d": 68,
      "e": 69,
      "f": 70,
      "g": 71,
      "h": 72,
      "i": 73,
      "j": 74,
      "k": 75,
      "l": 76,
      "m": 77,
      "n": 78,
      "o": 79,
      "p": 80,
      "q": 81,
      "r": 82,
      "s": 83,
      "t": 84,
      "u": 85,
      "v": 86,
      "w": 87,
      "x": 88,
      "y": 89,
      "z": 90,
      "{": 91,
      "|": 92,
      "}": 93,
      "~": 94,
      "¡": 95,
      "¢": 96,
      "£": 97,
      "¤": 98,
      "¥": 99,
      "¦": 100,
      "§": 101,
      "¨": 102,
      "©": 103,
      "ª": 104,
      "«": 105,
      "¬": 106,
      "®": 107,
      "¯": 108,
      "°": 109,
      "±": 110,
      "²": 111,
      "³": 112,
      "´": 113,
      "µ": 114,
      "¶": 115,
      "·": 116,
      "¸": 117,
      "¹": 118,
      "º": 119,
      "»": 120,
      "¼": 121,
      "½": 122,
      "¾": 123,
      "¿": 124,
      "À": 125,
      "Á": 126,
      "Â": 127,
      "Ã": 128,
      "Ä": 129,
      "Å": 130,
      "Æ": 131,
      "Ç": 132,
      "È": 133,
      "É": 134,
      "Ê": 135,
      "Ë": 136,
      "Ì": 137,
      "Í": 138,
      "Î": 139,
      "Ï": 140,
      "Ð": 141,
      "Ñ": 142,
      "Ò": 143,
      "Ó": 144,
      "Ô": 145,
      "Õ": 146,
      "Ö": 147,
      "×": 148,
      "Ø": 149,
      "Ù": 150,
      "Ú": 151,
      "Û": 152,
      "Ü": 153,
      "Ý": 154,
      "Þ": 155,
      "ß": 156,
      "à": 157,
      "á": 158,
      "â": 159,
      "ã": 160,
      "ä": 161,
      "å": 162,
      "æ": 163,
      "ç": 164,
      "è": 165,
      "é": 166,
      "ê": 167,
      "ë": 168,
      "ì": 169,
      "í": 170,
      "î": 171,
      "ï": 172,
      "ð": 173,
      "ñ": 174,
      "ò": 175,
      "ó": 176,
      "ô": 177,
      "õ": 178,
      "ö": 179,
      "÷": 180,
      "ø": 181,
      "ù": 182,
      "ú": 183,
      "û": 184,
      "ü": 185,
      "ý": 186,
      "þ": 187,
      "ÿ": 188,
      "Ā": 189,
      "ā": 190,
      "Ă": 191,
      "ă": 192,
      "Ą": 193,
      "ą": 194,
      "Ć": 195,
      "ć": 196,
      "Ĉ": 197,
      "ĉ": 198,
      "Ċ": 199,
      "ċ": 200,
      "Č": 201,
      "č": 202,
      "Ď": 203,
      "ď": 204,
      "Đ": 205,
      "đ": 206,
      "Ē": 207,
      "ē": 208,
      "Ĕ": 209,
      "ĕ": 210,
      "Ė": 211,
      "ė": 212,
      "Ę": 213,
      "ę": 214,
      "Ě": 215,
      "ě": 216,
      "Ĝ": 217,
      "ĝ": 218,
      "Ğ": 219,
      "ğ": 220,
      "Ġ": 221,
      "ġ": 222,
      "Ģ": 223,
      "ģ": 224,
      "Ĥ": 225,
      "ĥ": 226,
      "Ħ": 227,
      "ħ": 228,
      "Ĩ": 229,
      "ĩ": 230,
      "Ī": 231,
      "ī": 232,
      "Ĭ": 233,
      "ĭ": 234,
      "Į": 235,
      "į": 236,
      "İ": 237,
      "ı": 238,
      "Ĳ": 239,
      "ĳ": 240,
      "Ĵ": 241,
      "ĵ": 242,
      "Ķ": 243,
      "ķ": 244,
      "ĸ": 245,
      "Ĺ": 246,
      "ĺ": 247,
      "Ļ": 248,
      "ļ": 249,
      "Ľ": 250,
      "ľ": 251,
      "Ŀ": 252,
      "ŀ": 253,
      "Ł": 254,
      "ł": 255,
      "Ń": 256,
      "ĠT": 257,
      "Ġo": 258,
      "Ġa": 259,
      "Ġd": 260,
      "Ġt": 261,
      "ĠA": 262,
      "Ġe": 263,
      "Ġy": 264,
      "Ġm": 265,
      "Ġu": 266,
      "Ġc": 267,
      "ĠĊ": 268,
      "Ġi": 269,
      "ou": 270,
      "Ã©": 271,
      "ĠQ": 272,
      "ĠC": 273,
      "ro": 274,
      "Ġ&": 275,
      "Ġ\"": 276,
      "ĠÂ": 277,
      "Ġp": 278,
      "er": 279,
      "Ġv": 280,
      "Ġs": 281,
      "Ġ7": 282,
      "es": 283,
      "at": 284,
      "ĠTO": 285,
      "io": 286,
      "ĠG": 287,
      "an": 288,
      "Ġto": 289,
      "he": 290,
      "ĠS": 291,
      "Ġ6": 292,
      "or": 293,
      "ot": 294,
      "ov": 295,
      "à¤": 296,
      "Ġ0": 297,
      "ĠY": 298,
      "ĠV": 299,
      "Ġ4": 300,
      "ĠO": 301,
      "ĠĠ": 302,
      "Ġ3": 303,
      "Ġx": 304,
      "oo": 305,
      "ĠQu": 306,
      "Ġg": 307,
      "ĠE": 308,
      "ĠI": 309,
      "Ġ1": 310,
      "Ġ2": 311,
      "ĠK": 312,
      "ĠX": 313,
      "ĠM": 314,
      "ĠÃ": 315,
      "Ġw": 316,
      "ie": 317,
      "al": 318,
      "is": 319,
      "Ġ×": 320,
      "in": 321,
      "on": 322,
      "ic": 323,
      "Ġk": 324,
      "Ġf": 325,
      "Ġ-": 326,
      "Ġq": 327,
      "Ġor": 328,
      "le": 329,
      "Ġr": 330,
      "uo": 331,
      "ĠD": 332,
      "en": 333,
      "ĠTo": 334,
      "et": 335,
      "Ġthe": 336,
      "ĠL": 337,
      "ĠP": 338,
      "Ġâ": 339,
      "ue": 340,
      "Ġn": 341,
      "Ġ(": 342,
      "us": 343,
      "oc": 344,
      "ar": 345,
      "Ġh": 346,
      "id": 347,
      "ay": 348,
      "ĠÂ«": 349,
      "TO": 350,
      "ĠR": 351,
      "od": 352,
      "as": 353,
      "Ĥ¬": 354,
      "ĠJ": 355,
      "it": 356,
      "ĠÃ©": 357,
      "nd": 358,
      "Ġis": 359,
      "ĠÂ£": 360,
      "ĠU": 361,
      "Ġ9": 362,
      "Ġl": 363,
      "os": 364,
      "à¸": 365,
      "ion": 366,
      "00": 367,
      "ad": 368,
      "Ġb": 369,
      "ug": 370,
      "to": 371,
      "me": 372,
      "Ġdi": 373,
      "re": 374,
      "Ġ,": 375,
      "ac": 376,
      "uc": 377,
      "ĠB": 378,
      "Ġyou": 379,
      "ee": 380,
      "ub": 381,
      "à¥": 382,
      "ig": 383,
      "eo": 384,
      "Ø§": 385,
      "ud": 386,
      "ed": 387,
      "est": 388,
      "Ġof": 389,
      "×ķ": 390,
      "og": 391,
      "ĠTU": 392,
      "ol": 393,
      "ut": 394,
      "ĠâĤ¬": 395,
      "âĢ": 396,
      "×Ļ": 397,
      "Ġand": 398,
      "ex": 399,
      "Ġad": 400,
      "Ġ)": 401,
      "oy": 402,
      "ĠĠĊ": 403,
      "ve": 404,
      "Â«": 405,
      "ĠN": 406,
      "Ġ8": 407,
      "Ã³": 408,
      "Ġ5": 409,
      "oi": 410,
      "ĠTI": 411,
      "ĠH": 412,
      "estion": 413,
      "oe": 414,
      "ia": 415,
      "ĠAc": 416,
      "Ġ.": 417,
      "Ġro": 418,
      "Ġov": 419,
      "ĠØ": 420,
      "Ġj": 421,
      "ĠW": 422,
      "Ã©Ã©": 423,
      "Ġdo": 424,
      "×Ĳ": 425,
      "ĠĠĠĠ": 426,
      "au": 427,
      "ec": 428,
      "Â£": 429,
      "Ġà¤": 430,
      "il": 431,
      "el": 432,
      "ow": 433,
      "ÃĢ": 434,
      "ĠoU": 435,
      "ae": 436,
      "Ġth": 437,
      "um": 438,
      "âĢĭ": 439,
      "ĠQuestion": 440,
      "ur": 441,
      "Ãł": 442,
      "ĠQU": 443,
      "ĠTE": 444,
      "ag": 445,
      "ĠÙ": 446,
      "em": 447,
      "Ġqu": 448,
      "OU": 449,
      "Ãī": 450,
      "ĠF": 451,
      "Ġmm": 452,
      "ere": 453,
      "Â»": 454,
      "ai": 455,
      "ing": 456,
      "op": 457,
      "ĠÂ»": 458,
      "ĠTe": 459,
      "Ġex": 460,
      "ÙĦ": 461,
      "âĢĭâĢĭ": 462,
      "ĠTOL": 463,
      "Ġyo": 464,
      "×Ļ×": 465,
      "am": 466,
      "Ġ70": 467,
      "ui": 468,
      "ĠTOV": 469,
      "Ġal": 470,
      "Ġat": 471,
      "Ġz": 472,
      "ĠÃł": 473,
      "ua": 474,
      "ĠTh": 475,
      "iv": 476,
      "om": 477,
      "Ġot": 478,
      "ĠTT": 479,
      "ÉĶ": 480,
      "ak": 481,
      "Ġit": 482,
      "ux": 483,
      "ĠYou": 484,
      "ev": 485,
      "×ķ×": 486,
      "ox": 487,
      "uk": 488,
      "Ã¡": 489,
      "im": 490,
      "yy": 491,
      "un": 492,
      "Ġon": 493,
      "ra": 494,
      "ate": 495,
      "Ġye": 496,
      "di": 497,
      "ĠTX": 498,
      "ĠThe": 499,
      "Ġwh": 500,
      "ĠÂ®": 501,
      "Ġ$": 502,
      "ĠÎ": 503,
      "Ġac": 504,
      "ao": 505,
      "ÙĨ": 506,
      "âĤ¬": 507,
      "Ùī": 508,
      "ab": 509,
      "01": 510,
      "ei": 511,
      "TI": 512,
      "oU": 513,
      "ĠÃ³": 514,
      "Ġ×Ĳ": 515,
      "ĠTOU": 516,
      "Ġoc": 517,
      "Ġus": 518,
      "ĠTi": 519,
      "ĠâĢ": 520,
      "ri": 521,
      "Ġem": 522,
      "ul": 523,
      "ðŁ": 524,
      "ðŁĩ": 525,
      "ÃŃ": 526,
      "Ġme": 527,
      "Ġ[": 528,
      "×¢": 529,
      "Ġ00": 530,
      "Ġhe": 531,
      "ÙĪ": 532,
      "ãģ": 533,
      "av": 534,
      "te": 535,
      "Ø±": 536,
      "Ġin": 537,
      "à¥į": 538,
      "ĠTH": 539,
      "ap": 540,
      "ĠTA": 541,
      "ĠQuan": 542,
      "Ġod": 543,
      "ok": 544,
      "ye": 545,
      "ix": 546,
      "up": 547,
      "ero": 548,
      "ĠOU": 549,
      "Ġet": 550,
      "ore": 551,
      "ir": 552,
      "ĠÃī": 553,
      "Ġau": 554,
      "ĠEx": 555,
      "TE": 556,
      "yo": 557,
      "Ãĵ": 558,
      "th": 559,
      "Ġ*": 560,
      "ÙĬ": 561,
      "Ã¼": 562,
      "Ö¸": 563,
      "ugg": 564,
      "ĠQuestions": 565,
      "ey": 566,
      "li": 567,
      "×¨": 568,
      "Ġ|": 569,
      "Ġmo": 570,
      "Ġux": 571,
      "Ġtu": 572,
      "Ã©Ã©Ã©Ã©": 573,
      "Ġ^": 574,
      "Ùħ": 575,
      "lo": 576,
      "ĠTR": 577,
      "st": 578,
      "ep": 579,
      "ĠĠĠĊ": 580,
      "Î±": 581,
      "ax": 582,
      "ii": 583,
      "Ġ10": 584,
      "ĠAx": 585,
      "Ac": 586,
      "..": 587,
      "Ö·": 588,
      "aa": 589,
      "To": 590,
      "se": 591,
      "Ġou": 592,
      "ame": 593,
      "Ġan": 594,
      "ĠTG": 595,
      "ĠAd": 596,
      "uu": 597,
      "ce": 598,
      "99": 599,
      "Ġed": 600,
      "wo": 601,
      "à¹": 602,
      "OY": 603,
      "Ġde": 604,
      "à¤¾": 605,
      "Ġle": 606,
      "co": 607,
      "Ġoi": 608,
      "nt": 609,
      "TU": 610,
      "ent": 611,
      "Øª": 612,
      "pe": 613,
      "of": 614,
      "Ġar": 615,
      "tu": 616,
      "Ġai": 617,
      "Ø¯": 618,
      "OV": 619,
      "Ð°": 620,
      "Ġdie": 621,
      "if": 622,
      "Ã¶": 623,
      "Î¹": 624,
      "Ġer": 625,
      "Ġdu": 626,
      "ĠAn": 627,
      "ĠTu": 628,
      "ÏĦ": 629,
      "Ġbe": 630,
      "Ġvo": 631,
      "Ġue": 632,
      "TOL": 633,
      "Î¿": 634,
      "ĠTV": 635,
      "&&": 636,
      "ho": 637,
      "×ľ": 638,
      "11": 639,
      "uggugg": 640,
      "out": 641,
      "×ĺ": 642,
      "Ġui": 643,
      "Ġuc": 644,
      "tt": 645,
      "10": 646,
      "ode": 647,
      "rom": 648,
      "Ġco": 649,
      "ĠGU": 650,
      "gu": 651,
      "Ġas": 652,
      "AG": 653,
      "ĠÐ": 654,
      "Ġen": 655,
      "Ġare": 656,
      "rot": 657,
      "Ġeu": 658,
      "ĠTÃī": 659,
      "go": 660,
      "Qu": 661,
      "Ġop": 662,
      "vo": 663,
      "Ġ30": 664,
      "ek": 665,
      "ti": 666,
      "Ġoy": 667,
      "Ġfor": 668,
      "ĠØ§": 669,
      "eu": 670,
      "âĢĭâĢĭâĢĭâĢĭ": 671,
      "ĠaU": 672,
      "OL": 673,
      "ĠTl": 674,
      "Ġul": 675,
      "ea": 676,
      "Ġam": 677,
      "ĠTÃĢ": 678,
      "Ġgo": 679,
      "ove": 680,
      "ave": 681,
      "Ġoe": 682,
      "ĠTOY": 683,
      "ts": 684,
      "Ġday": 685,
      "Ġev": 686,
      "'s": 687,
      "gg": 688,
      "Îµ": 689,
      "ĠAu": 690,
      "ĠTC": 691,
      "TH": 692,
      "Ġsa": 693,
      "Ġ40": 694,
      "×¡": 695,
      "uck": 696,
      "Ġsay": 697,
      "Ġdb": 698,
      "ðŁĩ·": 699,
      "oa": 700,
      "Ġdix": 701,
      "ðŁĩ§": 702,
      "Ġthat": 703,
      "Ġei": 704,
      "ĠTr": 705,
      "×Ķ": 706,
      "ĠTOI": 707,
      "ðŁĩ§ðŁĩ·": 708,
      "ya": 709,
      "de": 710,
      "Ġ72": 711,
      "LL": 712,
      "Ġso": 713,
      "ill": 714,
      "cc": 715,
      "db": 716,
      "Ġmore": 717,
      "mm": 718,
      "ik": 719,
      "Ġdio": 720,
      "ÛĮ": 721,
      "ĠCA": 722,
      "Ø³": 723,
      "OD": 724,
      "ss": 725,
      "ĠSt": 726,
      "ith": 727,
      "Ġab": 728,
      "ĠQA": 729,
      "Ġnot": 730,
      "ĠGo": 731,
      "Ġko": 732,
      "po": 733,
      "The": 734,
      "lex": 735,
      "ter": 736,
      "eg": 737,
      "'m": 738,
      "ĠAo": 739,
      "Ġox": 740,
      "Ġwhat": 741,
      "×§": 742,
      "ly": 743,
      "ĠĠĠĠĊ": 744,
      "ĠÕ": 745,
      "uy": 746,
      "ĠdY": 747,
      "Ġec": 748,
      "âĢĶ": 749,
      "iov": 750,
      "Ûķ": 751,
      "ĠKo": 752,
      "aw": 753,
      "à¤°": 754,
      "ĠAC": 755,
      "ĠÂ¶": 756,
      "AM": 757,
      "ry": 758,
      "hat": 759,
      "Ġuo": 760,
      "Ġmy": 761,
      "Ġti": 762,
      "Ġob": 763,
      "Ġ20": 764,
      "udi": 765,
      "Ġid": 766,
      "Ġax": 767,
      "ĠYOU": 768,
      "Ġud": 769,
      "ĠKot": 770,
      "Ġst": 771,
      "OI": 772,
      "Ġes": 773,
      "Ġthere": 774,
      "Ġ:": 775,
      "44": 776,
      "Î½": 777,
      "Ġpu": 778,
      "ĠAG": 779,
      "Ø¨": 780,
      "Ġ'": 781,
      "ock": 782,
      "Ġall": 783,
      "ģĦ": 784,
      "ge": 785,
      "her": 786,
      "cy": 787,
      "ant": 788,
      "ci": 789,
      "Ġ200": 790,
      "art": 791,
      "ĠĠĠĠĠĊ": 792,
      "Ġtwo": 793,
      "ba": 794,
      "71": 795,
      "and": 796,
      "our": 797,
      "OT": 798,
      "ĠÃģ": 799,
      "la": 800,
      "Ùĥ": 801,
      "à¤¿": 802,
      "ich": 803,
      "Ġtub": 804,
      "20": 805,
      "rov": 806,
      "Ġ29": 807,
      "Ġdv": 808,
      "Ġdk": 809,
      "Ġsu": 810,
      "pa": 811,
      "one": 812,
      "mo": 813,
      "ĠHe": 814,
      "Ġwas": 815,
      "OO": 816,
      "70": 817,
      "ĠKod": 818,
      "ĠTOC": 819,
      "ck": 820,
      "Ãģ": 821,
      "×ĵ": 822,
      "ĠCU": 823,
      "Ġ33": 824,
      "Ġtoo": 825,
      "ct": 826,
      "Ġos": 827,
      "ĠToU": 828,
      "ĠTY": 829,
      "ãĥ": 830,
      "ous": 831,
      "ĠTov": 832,
      "Ġae": 833,
      "Ġoo": 834,
      "Ġey": 835,
      "AC": 836,
      "ĠAU": 837,
      "ood": 838,
      "Ġdd": 839,
      "ch": 840,
      "ĠQue": 841,
      "Ġ/": 842,
      "Ïģ": 843,
      "Ġeo": 844,
      "à¤¨": 845,
      "Ïĥ": 846,
      "ĠdU": 847,
      "ãĤ": 848,
      "igh": 849,
      "ote": 850,
      "Ġdt": 851,
      "Ġte": 852,
      "Õ¡": 853,
      "Ġml": 854,
      "ĠKor": 855,
      "ĠAl": 856,
      "Ġdid": 857,
      "ĠÃ¡": 858,
      "rr": 859,
      "ãĢ": 860,
      "ates": 861,
      "ĠAe": 862,
      "qu": 863,
      "ers": 864,
      "Ġol": 865,
      "ĠOY": 866,
      "ĠGe": 867,
      "Ġcu": 868,
      "Ġ22": 869,
      "ĠAcy": 870,
      "×ł": 871,
      "ĠâģĦ": 872,
      "Ġcv": 873,
      "any": 874,
      "à¤¤": 875,
      "ĠTIO": 876,
      "40": 877,
      "AS": 878,
      "ive": 879,
      "Ġow": 880,
      "Ùĩ": 881,
      "ĠAN": 882,
      "TX": 883,
      "ord": 884,
      "Ġfrom": 885,
      "TOU": 886,
      "fe": 887,
      "Ġuy": 888,
      "va": 889,
      "ga": 890,
      "Ġci": 891,
      "ob": 892,
      "Ġ60": 893,
      "ros": 894,
      "Ġwith": 895,
      "TOV": 896,
      "ĠÙħ": 897,
      "Ġ49": 898,
      "Ġ;": 899,
      "Ġap": 900,
      "Ġsaid": 901,
      "ĠCE": 902,
      "ooo": 903,
      "16": 904,
      "ĠÃĵ": 905,
      "AU": 906,
      "Ġyour": 907,
      "Ġup": 908,
      "ÙĤ": 909,
      "Ġyy": 910,
      "ĠIt": 911,
      "Ġxo": 912,
      "Ġ×ŀ": 913,
      "ĠCo": 914,
      "Ã©i": 915,
      "ess": 916,
      "Ġpa": 917,
      "×Ł": 918,
      "ĠZ": 919,
      "ĠâĢĶ": 920,
      "22": 921,
      "Ġua": 922,
      "all": 923,
      "ott": 924,
      "ber": 925,
      "ĠTc": 926,
      "ĠÑ": 927,
      "ice": 928,
      "DU": 929,
      "×ŀ": 930,
      "à¥ĭ": 931,
      "ation": 932,
      "Ġ300": 933,
      "ard": 934,
      "Ġ44": 935,
      "ane": 936,
      "Ãį": 937,
      "TT": 938,
      "oto": 939,
      "ook": 940,
      "Ti": 941,
      "Ġ×ķ": 942,
      "Ã©Ã©Ã©Ã©Ã©Ã©Ã©Ã©": 943,
      "Th": 944,
      "Ġgu": 945,
      "AI": 946,
      "Ġch": 947,
      "AL": 948,
      "Ġpe": 949,
      "QU": 950,
      "ty": 951,
      "ĠTv": 952,
      "Ġyes": 953,
      "ĠØ§ÙĦ": 954,
      "Ġ?": 955,
      "cu": 956,
      "ĠØ¨": 957,
      "ew": 958,
      "rou": 959,
      "Ġ38": 960,
      "ĠAnd": 961,
      ").": 962,
      "Ð½": 963,
      "Ġhave": 964,
      "ta": 965,
      "ĠOR": 966,
      "ip": 967,
      "zo": 968,
      "Question": 969,
      "Ġpl": 970,
      "Ġun": 971,
      "Ġsub": 972,
      "Ġho": 973,
      "Ġwhich": 974,
      "ide": 975,
      "Ġag": 976,
      "ff": 977,
      "Ġ01": 978,
      "Ġ39": 979,
      "Ġ×ĺ": 980,
      "Ġ×§": 981,
      "IS": 982,
      "ĠTs": 983,
      "ĠTot": 984,
      "Ġve": 985,
      "Ġdic": 986,
      "ake": 987,
      "Ġaj": 988,
      "Ġca": 989,
      "Ġao": 990,
      "ĠAv": 991,
      "ĠQub": 992,
      "Ġauo": 993,
      "ĠCon": 994,
      "×ĳ": 995,
      "ĠÃ©p": 996,
      "AT": 997,
      "Ġ16": 998,
      "ist": 999,
      "ĠoV": 1000,
      "ĠTie": 1001,
      "ne": 1002,
      "Ġ×Ķ": 1003,
      "Ġwill": 1004,
      "ute": 1005,
      "Ġre": 1006,
      "06": 1007,
      "ÏĢ": 1008,
      "Ġut": 1009,
      "Ġpo": 1010,
      "Ġ×ĵ": 1011,
      "Ax": 1012,
      "ĠCX": 1013,
      "Ñį": 1014,
      "ym": 1015,
      "×©": 1016,
      "Ġ73": 1017,
      "ort": 1018,
      "Te": 1019,
      "ĠCode": 1020,
      "lu": 1021,
      "Ġ78": 1022,
      "Ġep": 1023,
      "so": 1024,
      "Ġva": 1025,
      "fo": 1026,
      "ĠTOO": 1027,
      "ld": 1028,
      "Î¯": 1029,
      "ca": 1030,
      "rog": 1031,
      "à¥ĩ": 1032,
      "ery": 1033,
      "ĠXo": 1034,
      "ĠRe": 1035,
      "Ð¾": 1036,
      "ĠOr": 1037,
      "Ġyov": 1038,
      "ãĢĤ": 1039,
      "ĠðŁĩ§ðŁĩ·": 1040,
      "ĠTOS": 1041,
      "ĠmÉĶ": 1042,
      "Ġxe": 1043,
      "Ġug": 1044,
      "ks": 1045,
      "ĠĠĠĠĠĠĊ": 1046,
      "oue": 1047,
      "à¤ķ": 1048,
      "xx": 1049,
      "ds": 1050,
      "uv": 1051,
      "ĠWhat": 1052,
      "ĠCx": 1053,
      "ng": 1054,
      "Ġ09": 1055,
      "ĠAA": 1056,
      "ine": 1057,
      "Ãľ": 1058,
      "&&&&": 1059,
      "×Ĵ": 1060,
      "49": 1061,
      "It": 1062,
      "Ġee": 1063,
      "Ġay": 1064,
      "Ġxod": 1065,
      "ĠoA": 1066,
      "Ġmb": 1067,
      "ĠTS": 1068,
      "ale": 1069,
      "Ġ75": 1070,
      "ĠXA": 1071,
      "yr": 1072,
      "ĠTUA": 1073,
      "Ġ]": 1074,
      "ans": 1075,
      "__": 1076,
      "ĠToc": 1077,
      "ĠTt": 1078,
      "be": 1079,
      "Ġav": 1080,
      "Ġmmm": 1081,
      "Ã©s": 1082,
      "LU": 1083,
      "ĠCO": 1084,
      "AR": 1085,
      "ko": 1086,
      "à¤¸": 1087,
      "ys": 1088,
      "alm": 1089,
      "ah": 1090,
      "Ġ×¤": 1091,
      "Ġaa": 1092,
      "ÏĤ": 1093,
      "Ġuu": 1094,
      "TC": 1095,
      "Ã£": 1096,
      "do": 1097,
      "à¥ģ": 1098,
      "ĠTy": 1099,
      "Ġtr": 1100,
      "Ġfo": 1101,
      "LO": 1102,
      "Ġyu": 1103,
      "ight": 1104,
      "DI": 1105,
      "Õ¡Õ": 1106,
      "66": 1107,
      "Ûĩ": 1108,
      "iu": 1109,
      "Ð»": 1110,
      "ĠÙĪ": 1111,
      "tub": 1112,
      "ust": 1113,
      "ror": 1114,
      "oug": 1115,
      "ĠSo": 1116,
      "Ġaw": 1117,
      "Ġeg": 1118,
      "Ġio": 1119,
      "à¤®": 1120,
      "Ġog": 1121,
      "Ġya": 1122,
      "à¤¯": 1123,
      "CC": 1124,
      "ĠAr": 1125,
      "Ð¸": 1126,
      "Ø¹": 1127,
      "Õ¸": 1128,
      "Ġrot": 1129,
      "Ġ43": 1130,
      "Ġ65": 1131,
      "Ġsh": 1132,
      "ĠÃ¼": 1133,
      "ib": 1134,
      "ĠYo": 1135,
      "Ġcx": 1136,
      "Ġno": 1137,
      "ÉĽ": 1138,
      "Â®": 1139,
      "Ã©p": 1140,
      "ĠCy": 1141,
      "Ġ79": 1142,
      "ke": 1143,
      "Ġtab": 1144,
      "TR": 1145,
      "ĠAX": 1146,
      "Ø©": 1147,
      "ĠeT": 1148,
      "TG": 1149,
      "ni": 1150,
      "Ġ19": 1151,
      "ios": 1152,
      "×¤": 1153,
      "à¸Ļ": 1154,
      "ugu": 1155,
      "pi": 1156,
      "ĠToi": 1157,
      "Ġ06": 1158,
      "Ġig": 1159,
      "ER": 1160,
      "ĠGu": 1161,
      "Ïħ": 1162,
      "à¸²": 1163,
      "AY": 1164,
      "Ġcan": 1165,
      "Ġ71": 1166,
      "Ġcr": 1167,
      "ÑĢ": 1168,
      "cr": 1169,
      "dv": 1170,
      "Ġtw": 1171,
      "ĠSu": 1172,
      "Ġku": 1173,
      "Ø²": 1174,
      "Ġì": 1175,
      "Ġ×ľ": 1176,
      "pu": 1177,
      "TV": 1178,
      "Ġqo": 1179,
      "ĠâĢĭ": 1180,
      "Ġ26": 1181,
      "×ķ×ķ": 1182,
      "Ġeic": 1183,
      "ll": 1184,
      "ĠYO": 1185,
      "US": 1186,
      "Ø´": 1187,
      "ese": 1188,
      "Ġ18": 1189,
      "use": 1190,
      "ĠØª": 1191,
      "ĠAs": 1192,
      "Ġ48": 1193,
      "ĠJe": 1194,
      "Ġcon": 1195,
      "Ġà¸": 1196,
      "Ġ11": 1197,
      "×ª": 1198,
      "ĠVol": 1199,
      "ĠTro": 1200,
      "Ġcy": 1201,
      "ank": 1202,
      "ĠRA": 1203,
      "ĠTN": 1204,
      "Ġds": 1205,
      "Ġ45": 1206,
      "ĠKoc": 1207,
      "Ġ×Ĳ×Ļ×": 1208,
      "cs": 1209,
      "ĠOV": 1210,
      "Ġ×©": 1211,
      "ĠDe": 1212,
      "zz": 1213,
      "ĠTÃ©": 1214,
      "Ġ13": 1215,
      "Ġxx": 1216,
      "You": 1217,
      "Ġie": 1218,
      "ru": 1219,
      "ade": 1220,
      "'t": 1221,
      "×¢×¨": 1222,
      "Ġea": 1223,
      "Ġ×ĳ": 1224,
      "ĠQo": 1225,
      "Ġda": 1226,
      "rs": 1227,
      "ĠGO": 1228,
      "ink": 1229,
      "Ġ100": 1230,
      "iy": 1231,
      "ww": 1232,
      "Ġ×¢": 1233,
      "Ġub": 1234,
      "Ġsee": 1235,
      "Ġ14": 1236,
      "ES": 1237,
      "UT": 1238,
      "IC": 1239,
      "Ġthis": 1240,
      "eri": 1241,
      "Ġhim": 1242,
      "dt": 1243,
      "fi": 1244,
      "Ġdh": 1245,
      "Ġpi": 1246,
      "Ġouo": 1247,
      "Ġby": 1248,
      "Ġmi": 1249,
      "ĠTD": 1250,
      "Ġge": 1251,
      "ĠToe": 1252,
      "à¸Ń": 1253,
      "AX": 1254,
      "ace": 1255,
      "Ġlo": 1256,
      "jo": 1257,
      "Ġic": 1258,
      "era": 1259,
      "uggugguggugg": 1260,
      "Î»": 1261,
      "Ð°Ð": 1262,
      "Ġë": 1263,
      "ĠdE": 1264,
      "roo": 1265,
      "ert": 1266,
      "ĠTL": 1267,
      "are": 1268,
      "ĠdÃ©": 1269,
      "Ġpr": 1270,
      "ĠaA": 1271,
      "OM": 1272,
      "way": 1273,
      "Ġone": 1274,
      "sw": 1275,
      "Ġwe": 1276,
      "alk": 1277,
      "Ġqi": 1278,
      "ĠYour": 1279,
      "ï¼": 1280,
      "ĠTis": 1281,
      "Ġra": 1282,
      "De": 1283,
      "ĠTic": 1284,
      "ĠCor": 1285,
      "Ġdy": 1286,
      "ĠQuane": 1287,
      "ĠGi": 1288,
      "ite": 1289,
      "ÖĢ": 1290,
      "65": 1291,
      "IO": 1292,
      "cv": 1293,
      "no": 1294,
      "na": 1295,
      "30": 1296,
      "à¤µ": 1297,
      "ĠâĢľ": 1298,
      "ĠcA": 1299,
      "ÏĮ": 1300,
      "Ao": 1301,
      "ĠJU": 1302,
      "Ġwant": 1303,
      "ack": 1304,
      "Ġdl": 1305,
      "ĠAb": 1306,
      "ps": 1307,
      "Ùģ": 1308,
      "roc": 1309,
      "ĠGA": 1310,
      "xt": 1311,
      "Ġaio": 1312,
      "Ġrov": 1313,
      "Ġeig": 1314,
      "ntil": 1315,
      "Ġkm": 1316,
      "ell": 1317,
      "ong": 1318,
      "Ġ15": 1319,
      "ĠTou": 1320,
      "Ġvi": 1321,
      "GU": 1322,
      "Ġquo": 1323,
      "Ġduo": 1324,
      "Ġ×Ļ": 1325,
      "xy": 1326,
      "alal": 1327,
      "×ķ×Ł": 1328,
      "ĠeA": 1329,
      "ĠVT": 1330,
      "ato": 1331,
      "ĠDo": 1332,
      "âĢĭâĢĭâĢĭâĢĭâĢĭâĢĭâĢĭâĢĭ": 1333,
      "à¥Ģ": 1334,
      "ma": 1335,
      "Ġout": 1336,
      "ico": 1337,
      "ude": 1338,
      "Î·": 1339,
      "ĠØ¦": 1340,
      "Ad": 1341,
      "Ñĥ": 1342,
      "Ø§ÙĦ": 1343,
      "OE": 1344,
      "Ġ000": 1345,
      "ĠÃ¶": 1346,
      "ĠĠĠĠĠĠĠĊ": 1347,
      "ĠTP": 1348,
      "Ġdoes": 1349,
      "ĠAO": 1350,
      "Ġyp": 1351,
      "ife": 1352,
      "ick": 1353,
      "dk": 1354,
      "ĠTa": 1355,
      "Ö¼": 1356,
      "Ġ23": 1357,
      "Ġlu": 1358,
      "88": 1359,
      "ĠdW": 1360,
      "ĠØ¯": 1361,
      "OS": 1362,
      "Î¼": 1363,
      "ĠÏĦ": 1364,
      "Î±Î¹": 1365,
      "ĠSe": 1366,
      "Ø§ÙĨ": 1367,
      "ĠÙĬ": 1368,
      "Ġmon": 1369,
      "Ġur": 1370,
      "Ġna": 1371,
      "ĠTOT": 1372,
      "Ġmme": 1373,
      "oti": 1374,
      "ĠAS": 1375,
      "Ġest": 1376,
      "ĠÃ©m": 1377,
      "Ġ63": 1378,
      "ĠMa": 1379,
      "ass": 1380,
      "xe": 1381,
      "Ġyr": 1382,
      "Ġover": 1383,
      "Ġma": 1384,
      "Î¬": 1385,
      "Ġwo": 1386,
      "ĠâĢĵ": 1387,
      "ouse": 1388,
      "Ġany": 1389,
      "ĠAR": 1390,
      "int": 1391,
      "Ġfe": 1392,
      "TOY": 1393,
      "now": 1394,
      "Õ¥": 1395,
      "ĠLo": 1396,
      "ple": 1397,
      "Ġ35": 1398,
      "63": 1399,
      "à¸£": 1400,
      "Ġeov": 1401,
      "rt": 1402,
      "ĠTUO": 1403,
      "ĠCT": 1404,
      "UX": 1405,
      "ana": 1406,
      "77": 1407,
      "ĠAg": 1408,
      "ka": 1409,
      "ĠToy": 1410,
      "ÙĦÙī": 1411,
      "pl": 1412,
      "AE": 1413,
      "ĠLe": 1414,
      "à¥¤": 1415,
      "ĠAa": 1416,
      "ĠTOM": 1417,
      "Ġvl": 1418,
      "ĠÃľ": 1419,
      "ĠGov": 1420,
      "AV": 1421,
      "ars": 1422,
      "Ġyi": 1423,
      "ĠQe": 1424,
      "Ġwor": 1425,
      "Ġdr": 1426,
      "à¤²": 1427,
      "Ġ46": 1428,
      "ool": 1429,
      "Ġ34": 1430,
      "Ġtoy": 1431,
      "×ĸ": 1432,
      "ĠTho": 1433,
      "Ġyx": 1434,
      "Ġmu": 1435,
      "ĠALL": 1436,
      "oci": 1437,
      "gy": 1438,
      "Go": 1439,
      "Ġà¤ķ": 1440,
      "Ġwho": 1441,
      "ĠDU": 1442,
      "24": 1443,
      "As": 1444,
      "Ġse": 1445,
      "pp": 1446,
      "ĠAcc": 1447,
      "90": 1448,
      "Ġcou": 1449,
      "ĠAnsw": 1450,
      "ĠAy": 1451,
      "Ġps": 1452,
      "ete": 1453,
      "hen": 1454,
      "Ð³": 1455,
      "tv": 1456,
      "ames": 1457,
      "Ġero": 1458,
      "ĠGv": 1459,
      "Ġ701": 1460,
      "Ġtt": 1461,
      "Ġ12": 1462,
      "OC": 1463,
      "Ġmro": 1464,
      "Ġdis": 1465,
      "uan": 1466,
      "Ġce": 1467,
      "ĠÚ": 1468,
      "ØŃ": 1469,
      "Ġdx": 1470,
      "ree": 1471,
      "Ex": 1472,
      "Ġcl": 1473,
      "×Ļ×Ļ×": 1474,
      "000": 1475,
      "zy": 1476,
      "Ġsc": 1477,
      "Ã©r": 1478,
      "KS": 1479,
      "ĠQuad": 1480,
      "Ġoh": 1481,
      "ĠIn": 1482,
      "ĠXe": 1483,
      "ĠTli": 1484,
      "bo": 1485,
      "kk": 1486,
      "ect": 1487,
      "EL": 1488,
      "Ġmot": 1489,
      "NG": 1490,
      "Ġ×Ĵ": 1491,
      "Ġdig": 1492,
      "ile": 1493,
      "old": 1494,
      "Ġtov": 1495,
      "ĠØ³": 1496,
      "Ġcuo": 1497,
      "Ġga": 1498,
      "Ġel": 1499,
      "Ġsy": 1500,
      "ĠEA": 1501,
      "rus": 1502,
      "Do": 1503,
      "Ġdia": 1504,
      "udio": 1505,
      "ose": 1506,
      "OX": 1507,
      "sc": 1508,
      "ID": 1509,
      "idb": 1510,
      "Ġym": 1511,
      "ideo": 1512,
      "Ġate": 1513,
      "Ġuot": 1514,
      "Ġ69": 1515,
      "Õ¶": 1516,
      "age": 1517,
      "Ġoov": 1518,
      "TÃī": 1519,
      "Ġuntil": 1520,
      "Ġqr": 1521,
      "25": 1522,
      "Ġ!": 1523,
      "ouc": 1524,
      "à¹Ī": 1525,
      "ĠĠĠĠĠĠĠĠĊ": 1526,
      "ati": 1527,
      "Ġ25": 1528,
      "tr": 1529,
      "Õ«": 1530,
      "ori": 1531,
      "Ġri": 1532,
      "Ġtut": 1533,
      "Ġabout": 1534,
      "iae": 1535,
      "Ġdin": 1536,
      "Ġsp": 1537,
      "AO": 1538,
      "ĠGs": 1539,
      "Ġys": 1540,
      "Îº": 1541,
      "Ġgov": 1542,
      "à¸±": 1543,
      "Ġsure": 1544,
      "ary": 1545,
      "Ã©v": 1546,
      "ÖĤ": 1547,
      "Ġgive": 1548,
      "TA": 1549,
      "Ġtv": 1550,
      "mi": 1551,
      "ĠQuo": 1552,
      "ett": 1553,
      "Ġyog": 1554,
      "Ġpuo": 1555,
      "ĠXX": 1556,
      "ĠCa": 1557,
      "Ġlame": 1558,
      "row": 1559,
      "ĠUp": 1560,
      "Ġpat": 1561,
      "ĠYe": 1562,
      "ĠMA": 1563,
      "ĠOy": 1564,
      "ĠdV": 1565,
      "ĠcU": 1566,
      "Ġoa": 1567,
      "Ġuou": 1568,
      "Ġcod": 1569,
      "×Ŀ": 1570,
      "EA": 1571,
      "luo": 1572,
      "Ø§Ø±": 1573,
      "Ġput": 1574,
      "ĠÙĥ": 1575,
      "à®": 1576,
      "ind": 1577,
      "ĠÎµ": 1578,
      "cp": 1579,
      "ĠTig": 1580,
      "oooo": 1581,
      "ĠTol": 1582,
      "Ġpx": 1583,
      "ens": 1584,
      "....": 1585,
      "ĠCu": 1586,
      "ĠBe": 1587,
      "ëĭ": 1588,
      "Ġvu": 1589,
      "ĠKe": 1590,
      "Ġmlom": 1591,
      "à¤Ĥ": 1592,
      "ĠGuo": 1593,
      "ast": 1594,
      "ach": 1595,
      "TD": 1596,
      "ĠTf": 1597,
      "Ġman": 1598,
      "ĠThere": 1599,
      "Ġ24": 1600,
      "Ġuli": 1601,
      "iz": 1602,
      "umm": 1603,
      "aU": 1604,
      "ĠAND": 1605,
      "per": 1606,
      "xo": 1607,
      "Ġà¥": 1608,
      "ĠcÃł": 1609,
      "ouo": 1610,
      "ĠOL": 1611,
      "ĠTÃĵ": 1612,
      "Ġdon": 1613,
      "we": 1614,
      "Ae": 1615,
      "An": 1616,
      "iot": 1617,
      "ĠoT": 1618,
      "Ġty": 1619,
      "Ġsup": 1620,
      "alle": 1621,
      "ari": 1622,
      "bi": 1623,
      "Ñģ": 1624,
      "ĠMo": 1625,
      "Ġuk": 1626,
      "ase": 1627,
      "dd": 1628,
      "ĠOD": 1629,
      "ĠĠĠĠĠĠĠĠĠĊ": 1630,
      "Ġmay": 1631,
      "à¹Ģ": 1632,
      "ĠThis": 1633,
      "Ġok": 1634,
      "ano": 1635,
      "Ġ&&": 1636,
      "ĠGV": 1637,
      "69": 1638,
      "ĠVo": 1639,
      "×ķ×Ĳ": 1640,
      "olo": 1641,
      "Ġ02": 1642,
      "Ġzo": 1643,
      "ĠCr": 1644,
      "ike": 1645,
      "Ġeuo": 1646,
      "xa": 1647,
      "Ġadd": 1648,
      "uch": 1649,
      "ĠÎº": 1650,
      "you": 1651,
      "ves": 1652,
      "oon": 1653,
      "LE": 1654,
      "ien": 1655,
      "âĢĶâĢĶ": 1656,
      "tov": 1657,
      "ĠET": 1658,
      "Ġdox": 1659,
      "por": 1660,
      "ĠMar": 1661,
      "Ġà¤¸": 1662,
      "uct": 1663,
      "ĠPY": 1664,
      "ope": 1665,
      "ET": 1666,
      "ather": 1667,
      "Ġ61": 1668,
      "ìĿ": 1669,
      "ĠuA": 1670,
      "erm": 1671,
      "OK": 1672,
      "Ġund": 1673,
      "ĠTIU": 1674,
      "Ġpac": 1675,
      "ĠGg": 1676,
      "Ø¬": 1677,
      "Ġtue": 1678,
      "ioy": 1679,
      "ĠCh": 1680,
      "ĠTOR": 1681,
      "Ġhas": 1682,
      "ĠJi": 1683,
      "ÎŃ": 1684,
      "ĠEm": 1685,
      "idi": 1686,
      "Ġaie": 1687,
      "Ġmov": 1688,
      "ĠeX": 1689,
      "ĠGy": 1690,
      "Ð´": 1691,
      "ĠeU": 1692,
      "ĠCl": 1693,
      "Ã©ic": 1694,
      "ĠÃ©s": 1695,
      "à¸²à¸": 1696,
      "ĠÃ©g": 1697,
      "Ġim": 1698,
      "ĠQi": 1699,
      "ron": 1700,
      "ĠTTL": 1701,
      "ĠCB": 1702,
      "Ġotl": 1703,
      "23": 1704,
      "ĠKoi": 1705,
      "oY": 1706,
      "ĠSU": 1707,
      "04": 1708,
      "Ġoue": 1709,
      "Ġguo": 1710,
      "udie": 1711,
      "ior": 1712,
      "CY": 1713,
      "Ġmp": 1714,
      "Ġque": 1715,
      "Ġta": 1716,
      "OA": 1717,
      "que": 1718,
      "ÑĤ": 1719,
      "ĠTEA": 1720,
      "les": 1721,
      "ĠÏĥ": 1722,
      "Ġ77": 1723,
      "ĠCH": 1724,
      "Ġdou": 1725,
      "Ġoj": 1726,
      "ĠAT": 1727,
      "à¤¹": 1728,
      "ĠMart": 1729,
      "ĠTea": 1730,
      "iss": 1731,
      "cov": 1732,
      "ĠQueo": 1733,
      "Ġtuk": 1734,
      "Ġxd": 1735,
      "ado": 1736,
      "Ã¶to": 1737,
      ".\"": 1738,
      "ÛĲ": 1739,
      "Ġour": 1740,
      "uce": 1741,
      "EE": 1742,
      "roy": 1743,
      "Ġct": 1744,
      "ĠpA": 1745,
      "Ġla": 1746,
      "gs": 1747,
      "Ġpy": 1748,
      "IG": 1749,
      "29": 1750,
      "RA": 1751,
      "Ġcs": 1752,
      "Ġqe": 1753,
      "ĠGc": 1754,
      "MM": 1755,
      "ĠQa": 1756,
      "oce": 1757,
      "ĠAm": 1758,
      "Ġif": 1759,
      "ĠKg": 1760,
      "Ġcd": 1761,
      "Ġeoe": 1762,
      "ĠTTA": 1763,
      "Or": 1764,
      "ĠKork": 1765,
      "ĠTrot": 1766,
      "Õ¸ÖĤ": 1767,
      "hi": 1768,
      "Av": 1769,
      "Ġtg": 1770,
      "ĠTor": 1771,
      "Ġmx": 1772,
      "Ġgi": 1773,
      "ĠFor": 1774,
      "ici": 1775,
      "ĠTos": 1776,
      "ĠRep": 1777,
      "IT": 1778,
      "Ġaud": 1779,
      "att": 1780,
      "roi": 1781,
      "Ġhi": 1782,
      "Ġbet": 1783,
      "Ġoie": 1784,
      "ĠPl": 1785,
      "Ġyd": 1786,
      "Ġ76": 1787,
      "ater": 1788,
      "bÉĶ": 1789,
      "ĠTTOL": 1790,
      "bs": 1791,
      "Ġcub": 1792,
      "ĠLU": 1793,
      "Ġsays": 1794,
      "Questions": 1795,
      "Ġoot": 1796,
      "ĠVO": 1797,
      "Ġxot": 1798,
      "____": 1799,
      "Ġkub": 1800,
      "af": 1801,
      "Ġaf": 1802,
      "ĠSy": 1803,
      "gi": 1804,
      "Ġ66": 1805,
      "px": 1806,
      "Ġmr": 1807,
      "ĠmÃ©": 1808,
      "ĠEo": 1809,
      "toy": 1810,
      "Ġ700": 1811,
      "Ġ99": 1812,
      "CT": 1813,
      "orm": 1814,
      "à¹Ģà¸": 1815,
      "Ġyv": 1816,
      "ĠTx": 1817,
      "ang": 1818,
      "ĠGt": 1819,
      "19": 1820,
      "ĠAL": 1821,
      "Ġvog": 1822,
      "Ġ07": 1823,
      "TOI": 1824,
      "DY": 1825,
      "ĠEn": 1826,
      "roe": 1827,
      "ĠTOt": 1828,
      "Ġpeo": 1829,
      "ata": 1830,
      "bp": 1831,
      "Ġmmmm": 1832,
      "Ġdn": 1833,
      "ĠKa": 1834,
      "AA": 1835,
      "abÉĶ": 1836,
      "Ã©Ã©Ã©Ã©Ã©Ã©Ã©Ã©Ã©Ã©Ã©Ã©Ã©Ã©Ã©Ã©": 1837,
      "ĠIs": 1838,
      "ĠOT": 1839,
      "ito": 1840,
      "by": 1841,
      "ĠÙĦ": 1842,
      "à¤ª": 1843,
      "Ġcot": 1844,
      "Ġvy": 1845,
      "Ġgood": 1846,
      "YY": 1847,
      "Ġoed": 1848,
      "ĠTw": 1849,
      "Ġyc": 1850,
      "ĠAM": 1851,
      "eto": 1852,
      "da": 1853,
      "ģà¸": 1854,
      "ĠJo": 1855,
      "Ġadi": 1856,
      "ĠTUS": 1857,
      "ĠYa": 1858,
      "ĠCV": 1859,
      "ĠAD": 1860,
      "Ã©t": 1861,
      "ĠTEL": 1862,
      "ĠTex": 1863,
      "gov": 1864,
      "Ġne": 1865,
      "ĠMe": 1866,
      "yyy": 1867,
      "ĠTto": 1868,
      "Ġvel": 1869,
      "Ġà¤ħ": 1870,
      "ĠdL": 1871,
      "Ġcoc": 1872,
      "ĠLE": 1873,
      "Ġhouse": 1874,
      "Ġ×¡": 1875,
      "dy": 1876,
      "Ġeie": 1877,
      "ĠUA": 1878,
      "Ġà¤ª": 1879,
      "Ġuie": 1880,
      "Ġ36": 1881,
      "ura": 1882,
      "ĠÐ±": 1883,
      "&&&&&&&&": 1884,
      "Ġom": 1885,
      "anan": 1886,
      "ĠâĤ": 1887,
      "Ġname": 1888,
      "ĠSc": 1889,
      "ĠÙĤ": 1890,
      "pt": 1891,
      "Ġli": 1892,
      "ĠLA": 1893,
      "Tu": 1894,
      "XA": 1895,
      "TOS": 1896,
      "ĠTAI": 1897,
      "cl": 1898,
      "ĠVideo": 1899,
      "×ķ×ª": 1900,
      "Ġke": 1901,
      "tg": 1902,
      "log": 1903,
      "Î¿Ïħ": 1904,
      "res": 1905,
      "Ġeat": 1906,
      "rox": 1907,
      "low": 1908,
      "Ã³s": 1909,
      "ĠâĢĭâĢĭ": 1910,
      "pos": 1911,
      "Ġuoi": 1912,
      "ĠMy": 1913,
      "So": 1914,
      "ovo": 1915,
      "IU": 1916,
      "Ġgx": 1917,
      "here": 1918,
      "ĠAf": 1919,
      "Ġia": 1920,
      "ĠOi": 1921,
      "ĠUT": 1922,
      "Ġuat": 1923,
      "the": 1924,
      "Ġaui": 1925,
      "II": 1926,
      "ĠQuy": 1927,
      "ĠTTC": 1928,
      "Ġsome": 1929,
      "Ġ×¦": 1930,
      "TOC": 1931,
      "Ġofo": 1932,
      "Ġà¤¤": 1933,
      "ĠEU": 1934,
      "ĠAB": 1935,
      "Ġpot": 1936,
      "×§×¡": 1937,
      "ĠTee": 1938,
      "à¹ī": 1939,
      "ĠaT": 1940,
      "ĠOv": 1941,
      "Ġudi": 1942,
      "du": 1943,
      "Ġhead": 1944,
      "ĠSh": 1945,
      "Ã¶tub": 1946,
      "ĠØ£": 1947,
      "Ã¶t": 1948,
      "ON": 1949,
      "ovs": 1950,
      "ays": 1951,
      "Ġtime": 1952,
      "ĠOh": 1953,
      "ala": 1954,
      "ording": 1955,
      "Ã³t": 1956,
      "oke": 1957,
      "OR": 1958,
      "odi": 1959,
      "Ã³n": 1960,
      "Ġmeo": 1961,
      "uos": 1962,
      "tog": 1963,
      "Ġvou": 1964,
      "à¸ĩ": 1965,
      "Ġgame": 1966,
      "\".": 1967,
      "ost": 1968,
      "à¸µ": 1969,
      "14": 1970,
      "Ã©m": 1971,
      "Ø³Øª": 1972,
      "ĠTW": 1973,
      "Ġmes": 1974,
      "ĠAE": 1975,
      "ĠNa": 1976,
      "rie": 1977,
      "DA": 1978,
      "ĠÙĨ": 1979,
      "si": 1980,
      "Ġtou": 1981,
      "ker": 1982,
      "Ġvot": 1983,
      "Ġvov": 1984,
      "Ġaur": 1985,
      "Ġeio": 1986,
      "999": 1987,
      "ÉĽck": 1988,
      "Lo": 1989,
      "ĠYA": 1990,
      "ĠTeo": 1991,
      "Ġeme": 1992,
      "Ġoui": 1993,
      "Ġsal": 1994,
      "vi": 1995,
      "ĠÙĩ": 1996,
      "je": 1997,
      "bb": 1998,
      "Ġà¤®": 1999,
      "Ġexe": 2000,
      "St": 2001,
      "Ġthey": 2002,
      "ret": 2003,
      "Ġcar": 2004,
      "ÚŃ": 2005,
      "Ġrv": 2006,
      "Ġeto": 2007,
      "Ïī": 2008,
      "Ø®": 2009,
      "Ġuv": 2010,
      "Ġhm": 2011,
      "Ġak": 2012,
      "oct": 2013,
      "ĠÏĢ": 2014,
      "ĠCe": 2015,
      "ĠGr": 2016,
      "ĠdA": 2017,
      "ĠØ¹": 2018,
      "ĠQUU": 2019,
      "Ġ×Ĳ×ķ": 2020,
      "Ġrate": 2021,
      "edi": 2022,
      "eA": 2023,
      "Ġeot": 2024,
      "ĠDem": 2025,
      "×Ĺ": 2026,
      "Ġoio": 2027,
      "ĠCot": 2028,
      "ĠVue": 2029,
      "SU": 2030,
      "ene": 2031,
      "ĠAnswers": 2032,
      "Ġ×ĸ": 2033,
      "Ã©n": 2034,
      "Ġaue": 2035,
      "Se": 2036,
      "dr": 2037,
      "à¤ĥ": 2038,
      "ĠAV": 2039,
      "Ġeue": 2040,
      "Ġiv": 2041,
      "ould": 2042,
      "Ġdoy": 2043,
      "He": 2044,
      "ĠTRU": 2045,
      "ĠQux": 2046,
      "ani": 2047,
      "Ġknow": 2048,
      "Ġodi": 2049,
      "ĠWo": 2050,
      "×Ľ": 2051,
      "Ġxa": 2052,
      "uol": 2053,
      "Ġtie": 2054,
      "Ġip": 2055,
      "za": 2056,
      "Ġmou": 2057,
      "Ã³i": 2058,
      "72": 2059,
      "hh": 2060,
      "ĠTio": 2061,
      "ĠaM": 2062,
      "Ġcp": 2063,
      "ĠlÃł": 2064,
      "Ġii": 2065,
      "Ð¹": 2066,
      "ĠTOi": 2067,
      "Ġsi": 2068,
      "×Ļ×Ŀ": 2069,
      "QA": 2070,
      "Ìģ": 2071,
      "ĠMag": 2072,
      "ons": 2073,
      "ugug": 2074,
      "NC": 2075,
      "Ġ04": 2076,
      "oco": 2077,
      "ĠUu": 2078,
      "EY": 2079,
      "aue": 2080,
      "Ġcode": 2081,
      "à¤Ł": 2082,
      "Ġxor": 2083,
      "Ġix": 2084,
      "ĠLem": 2085,
      "And": 2086,
      "Ûĭ": 2087,
      "Ġcur": 2088,
      "sa": 2089,
      "Ġà¤µ": 2090,
      "ofth": 2091,
      "Ã©g": 2092,
      "Ġvh": 2093,
      "Ġdit": 2094,
      "Co": 2095,
      "hy": 2096,
      "ĠKA": 2097,
      "Tot": 2098,
      "].": 2099,
      "Ġdvo": 2100,
      "ĠTog": 2101,
      "dl": 2102,
      "ĠÌģ": 2103,
      "ĠOA": 2104,
      "ĠTOLL": 2105,
      "ĠTec": 2106,
      "ĠVy": 2107,
      "ĠÃĢ": 2108,
      "Ġ×¨": 2109,
      "Ã©iv": 2110,
      "dio": 2111,
      "ha": 2112,
      "ĠAor": 2113,
      "Ġuoc": 2114,
      "Ġcov": 2115,
      "Au": 2116,
      "dn": 2117,
      ".)": 2118,
      "ĠOI": 2119,
      "Aa": 2120,
      "ĠTB": 2121,
      "une": 2122,
      "Ġden": 2123,
      "gx": 2124,
      "Ãĥ": 2125,
      "ĠCI": 2126,
      "ĠCY": 2127,
      "Ġhow": 2128,
      "ĠBU": 2129,
      "ĠTg": 2130,
      "ĠGa": 2131,
      "act": 2132,
      "oV": 2133,
      "ĠTp": 2134,
      "Ġmoo": 2135,
      "ĠTes": 2136,
      "ada": 2137,
      "Ò¯": 2138,
      "ÙĨÙī": 2139,
      "Ø¦": 2140,
      "Ġeui": 2141,
      "ĠVu": 2142,
      "ĠKok": 2143,
      "leo": 2144,
      "Ġyox": 2145,
      "Ġdg": 2146,
      "RO": 2147,
      "ĠEl": 2148,
      "Ġiov": 2149,
      "ĠJu": 2150,
      "Ġ500": 2151,
      "ins": 2152,
      "78": 2153,
      "ĠTue": 2154,
      "ĠTwo": 2155,
      "Ġmex": 2156,
      "Ġroe": 2157,
      "room": 2158,
      "Ïĩ": 2159,
      "Ġthem": 2160,
      "ĠExx": 2161,
      "33": 2162,
      "Ġyet": 2163,
      "ĠGod": 2164,
      "ĠVa": 2165,
      "Ġlike": 2166,
      "×ķ×¨": 2167,
      "Ġts": 2168,
      "Ø§Ùħ": 2169,
      "Ġmmb": 2170,
      "Ġstates": 2171,
      "ety": 2172,
      "ĠAce": 2173,
      "ara": 2174,
      "Ġluo": 2175,
      "Ġ50": 2176,
      "Ġ×ł": 2177,
      "ĠÎ±": 2178,
      "ĠToo": 2179,
      "wa": 2180,
      "ats": 2181,
      "Ġ32": 2182,
      "ĠAll": 2183,
      "Î³": 2184,
      "Ã©c": 2185,
      "ets": 2186,
      "ĠNo": 2187,
      "ĠØĮ": 2188,
      "ots": 2189,
      "ĠII": 2190,
      "day": 2191,
      "Ñħ": 2192,
      "Ġtx": 2193,
      "Ġmub": 2194,
      "Ġuev": 2195,
      "ĠSi": 2196,
      "vel": 2197,
      "ĠAt": 2198,
      "Ġcc": 2199,
      "Ġyer": 2200,
      "ĠCC": 2201,
      "eee": 2202,
      "×Ļ×Ļ": 2203,
      "ĠOUX": 2204,
      "ãģ¯": 2205,
      "96": 2206,
      "Ġmec": 2207,
      "Ġlex": 2208,
      "ĠEX": 2209,
      "26": 2210,
      "unt": 2211,
      "Ġyon": 2212,
      "Ġkg": 2213,
      "Ġhere": 2214,
      "UA": 2215,
      "Ġgr": 2216,
      "9999": 2217,
      "ise": 2218,
      "Ġovd": 2219,
      "ĠAQ": 2220,
      "Ġxu": 2221,
      "ĠTHE": 2222,
      "Î®": 2223,
      "Ïį": 2224,
      "ĠÃ©o": 2225,
      "IA": 2226,
      "vov": 2227,
      "ĠTTO": 2228,
      "ies": 2229,
      "ĠLd": 2230,
      "Ġper": 2231,
      "ĠTIS": 2232,
      "Ġfather": 2233,
      "uoy": 2234,
      "In": 2235,
      "ume": 2236,
      "aty": 2237,
      "ors": 2238,
      "Ġ42": 2239,
      "ĠTTE": 2240,
      "Ġmba": 2241,
      "ĠAoo": 2242,
      "75": 2243,
      "ĠTÃŃ": 2244,
      "Ġtal": 2245,
      "ĠÃ³c": 2246,
      "ms": 2247,
      "ÛĪ": 2248,
      "ĠME": 2249,
      "ÙĥÙī": 2250,
      "ĠAug": 2251,
      "ict": 2252,
      "Ġdev": 2253,
      "Ġiu": 2254,
      "Tr": 2255,
      "Toc": 2256,
      "Ġwa": 2257,
      "DV": 2258,
      "lp": 2259,
      "Ġvat": 2260,
      "ĠTUTO": 2261,
      "à¤¦": 2262,
      "à¸¡": 2263,
      "56": 2264,
      "Ġuoo": 2265,
      "Ġaoo": 2266,
      "ĠIg": 2267,
      "ĠKG": 2268,
      "uoi": 2269,
      "uca": 2270,
      "ME": 2271,
      "Ġdc": 2272,
      "Ġpad": 2273,
      "rio": 2274,
      "Ġcor": 2275,
      "ĠVan": 2276,
      "ives": 2277,
      "Ġdto": 2278,
      "Ġvr": 2279,
      "Ġdays": 2280,
      "ĠPat": 2281,
      "Ġovp": 2282,
      "Ġoou": 2283,
      "Ġuud": 2284,
      "ĠUs": 2285,
      "ToU": 2286,
      "bv": 2287,
      "ĠAye": 2288,
      "ĠÎ¼": 2289,
      "94": 2290,
      "Tov": 2291,
      "ĠLO": 2292,
      "91": 2293,
      "Ġcuu": 2294,
      "ish": 2295,
      "ĠDev": 2296,
      "ext": 2297,
      "Ġpov": 2298,
      "à¤Ĺ": 2299,
      "ĠJk": 2300,
      "Ġyt": 2301,
      "Ġms": 2302,
      "Ġcm": 2303,
      "Ġcom": 2304,
      "Ġ×Ĳ×ķ×Ł": 2305,
      "Acy": 2306,
      "Ã©e": 2307,
      "ĠMg": 2308,
      "ĠDae": 2309,
      "Ġtot": 2310,
      "ĠUx": 2311,
      "Ġuei": 2312,
      "ĠoL": 2313,
      "ĠBo": 2314,
      "Ġtux": 2315,
      "Õ¥Õ": 2316,
      "zi": 2317,
      "Ġato": 2318,
      "ĠVA": 2319,
      "urn": 2320,
      "Ġtan": 2321,
      "Ġvote": 2322,
      "Ġsan": 2323,
      "Ġhis": 2324,
      "Ã³y": 2325,
      "Ġpd": 2326,
      "Ġng": 2327,
      "ĠÃ©k": 2328,
      "ĠXE": 2329,
      "ment": 2330,
      "Ġaov": 2331,
      "Ġpoc": 2332,
      "ian": 2333,
      "Ã©y": 2334,
      "Ġvro": 2335,
      "Ã³v": 2336,
      "fy": 2337,
      "Ġfa": 2338,
      "ĠAct": 2339,
      "gor": 2340,
      "Ġtuck": 2341,
      "ĠSa": 2342,
      "ĠOX": 2343,
      "ĠJL": 2344,
      "Ġej": 2345,
      "Tv": 2346,
      "Ġsou": 2347,
      "ĠXV": 2348,
      "ĠdT": 2349,
      "ĠSv": 2350,
      "ĠXO": 2351,
      "Ġni": 2352,
      "ĠUS": 2353,
      "36": 2354,
      "ĠGp": 2355,
      "ĠLi": 2356,
      "ĠCod": 2357,
      "Ġten": 2358,
      "ĠTON": 2359,
      "Ġiy": 2360,
      "Ø·": 2361,
      "ĠCre": 2362,
      "ity": 2363,
      "ues": 2364,
      "Ġovo": 2365,
      "ÏĦÎµ": 2366,
      "YOU": 2367,
      "Ġkoi": 2368,
      "ĠQUA": 2369,
      "ĠmmÉĶ": 2370,
      "ĠTÃĢI": 2371,
      "Ġdoc": 2372,
      "Ġmum": 2373,
      "Ġ41": 2374,
      "ĠÃĥ": 2375,
      "ede": 2376,
      "ĠTES": 2377,
      "CU": 2378,
      "ĠAue": 2379,
      "Ġpou": 2380,
      "Ġqui": 2381,
      "ĠThat": 2382,
      "1111": 2383,
      "Ġjo": 2384,
      "fp": 2385,
      "ĠdI": 2386,
      "ota": 2387,
      "ĠEr": 2388,
      "Ġedo": 2389,
      "Ġove": 2390,
      "×Ļ×Ĳ": 2391,
      "eek": 2392,
      "ogo": 2393,
      "ĠxA": 2394,
      "ĠCS": 2395,
      "ona": 2396,
      "39": 2397,
      "ovA": 2398,
      "ĠTUE": 2399,
      "ways": 2400,
      "50": 2401,
      "xs": 2402,
      "ĠuU": 2403,
      "oud": 2404,
      "rol": 2405,
      "end": 2406,
      "ĠAI": 2407,
      "ont": 2408,
      "Ã¡s": 2409,
      "PY": 2410,
      "TÃĵ": 2411,
      "ĠUn": 2412,
      "Ge": 2413,
      "TB": 2414,
      "Ġoic": 2415,
      "38": 2416,
      "Ġoup": 2417,
      "Ġ31": 2418,
      "Ġhy": 2419,
      "ull": 2420,
      "ĠYOUR": 2421,
      "xc": 2422,
      "Ġcap": 2423,
      "ĠSx": 2424,
      "ĠØ±": 2425,
      "ÛķÙĨ": 2426,
      "Ġtol": 2427,
      "Ġlames": 2428,
      "ze": 2429,
      "ĠSee": 2430,
      "vin": 2431,
      "Ġ62": 2432,
      "×ķ×¢": 2433,
      "nn": 2434,
      "RI": 2435,
      "ĠTÃį": 2436,
      "Ã³m": 2437,
      "py": 2438,
      "ĠOs": 2439,
      "iet": 2440,
      "35": 2441,
      "Ġeis": 2442,
      "ĠQv": 2443,
      "erv": 2444,
      "ĠSk": 2445,
      "ono": 2446,
      "ĠAou": 2447,
      "Ġyoo": 2448,
      "Ġå": 2449,
      "ĠTQ": 2450,
      "Ġah": 2451,
      "Ġcoe": 2452,
      "sy": 2453,
      "ath": 2454,
      "ĠEa": 2455,
      "pes": 2456,
      "qi": 2457,
      "ĠCue": 2458,
      "Ġdf": 2459,
      "Ġder": 2460,
      "Ġir": 2461,
      "ĠPy": 2462,
      "ukuk": 2463,
      "AMAM": 2464,
      "Ġuon": 2465,
      "ĠUe": 2466,
      "EB": 2467,
      "uov": 2468,
      "Ú¯": 2469,
      "Ġcoy": 2470,
      "Ġvao": 2471,
      "Ġ400": 2472,
      "Î¯Î½": 2473,
      "Al": 2474,
      "ĠTER": 2475,
      "Ġ67": 2476,
      "Ġacc": 2477,
      "Ġvd": 2478,
      "Ġwife": 2479,
      "ĠQuano": 2480,
      "ĠCou": 2481,
      "ĠTID": 2482,
      "CI": 2483,
      "Xe": 2484,
      "Ġdiug": 2485,
      "×¨×Ĳ": 2486,
      "ÎµÎ¹": 2487,
      "ĠTOÃĢ": 2488,
      "Ġcat": 2489,
      "Ġ80": 2490,
      "ĠQuany": 2491,
      "mt": 2492,
      "Ġent": 2493,
      "otot": 2494,
      "eed": 2495,
      "Ġother": 2496,
      "ĠdÃł": 2497,
      "Ġmv": 2498,
      "Ġ64": 2499,
      "There": 2500,
      "Ġsd": 2501,
      "ĠIS": 2502,
      "à¸°": 2503,
      "Ġbut": 2504,
      "Ġott": 2505,
      "Ġuse": 2506,
      "à¯": 2507,
      "Ġspe": 2508,
      "Î´": 2509,
      "ëĬ": 2510,
      "Ġpud": 2511,
      "ĠON": 2512,
      "Ġrd": 2513,
      "iao": 2514,
      "ĠGS": 2515,
      "ĠYy": 2516,
      "Ġ-,": 2517,
      "lome": 2518,
      "Ġdae": 2519,
      "Ã©l": 2520,
      "ĠGeo": 2521,
      "uoc": 2522,
      "ĠWe": 2523,
      "Õ¸ÖĤÕ": 2524,
      "xd": 2525,
      "LY": 2526,
      "igu": 2527,
      "ĠCle": 2528,
      "ĠDou": 2529,
      "Ġread": 2530,
      "Ð²": 2531,
      "ØŁ": 2532,
      "Ġpt": 2533,
      "Ġxy": 2534,
      "Ġ96": 2535,
      "eeee": 2536,
      "ogu": 2537,
      "ãģ¾": 2538,
      "EX": 2539,
      "Qa": 2540,
      "ĠRo": 2541,
      "ĠØ´": 2542,
      "Ġeoo": 2543,
      "Ġpos": 2544,
      "ĠEu": 2545,
      "Ġki": 2546,
      "acy": 2547,
      "--": 2548,
      "Ġef": 2549,
      "Ġuos": 2550,
      "ĠPe": 2551,
      "ĠJA": 2552,
      "ĠAcro": 2553,
      "Ġji": 2554,
      "Ġgs": 2555,
      "ĠMot": 2556,
      "Ġrt": 2557,
      "à¸·": 2558,
      "uco": 2559,
      "Ġyan": 2560,
      "à¸§": 2561,
      "Ġbetter": 2562,
      "TÃĢ": 2563,
      "×ļ": 2564,
      "ĠvÃ©": 2565,
      "Ġver": 2566,
      "ulus": 2567,
      "ĠKS": 2568,
      "CA": 2569,
      "ĠOK": 2570,
      "ĠÑħ": 2571,
      "...": 2572,
      "ãģ¾ãģ": 2573,
      "ido": 2574,
      "Ġyey": 2575,
      "ÙĪÙĨ": 2576,
      "ĠÏĦÎ¿": 2577,
      "ns": 2578,
      "rm": 2579,
      "Ġcoo": 2580,
      "ulu": 2581,
      "ĠÚ©": 2582,
      "Ġcube": 2583,
      "Ġere": 2584,
      "Ġcog": 2585,
      "Ġfu": 2586,
      "EI": 2587,
      "ëĬĶ": 2588,
      "ĠdH": 2589,
      "ĠVe": 2590,
      "Ġore": 2591,
      "Ġred": 2592,
      "Ġemb": 2593,
      "Ġmea": 2594,
      "18": 2595,
      "Øº": 2596,
      "Ġmet": 2597,
      "Ġcio": 2598,
      "60": 2599,
      "Ġry": 2600,
      "CH": 2601,
      "Ġeco": 2602,
      "Ġvol": 2603,
      "ĠUU": 2604,
      "ĠÙģ": 2605,
      "ory": 2606,
      "Ġheart": 2607,
      "Ð°Ð¹": 2608,
      "ina": 2609,
      "ĠTCU": 2610,
      "XX": 2611,
      "cle": 2612,
      "val": 2613,
      "ĠGl": 2614,
      "ĠGot": 2615,
      "LUEB": 2616,
      "Ġcui": 2617,
      "ĠQoo": 2618,
      "ĠSal": 2619,
      "uku": 2620,
      "ls": 2621,
      "ÚĨ": 2622,
      "Ġyat": 2623,
      "Ġhope": 2624,
      "Ġoti": 2625,
      "ĠPr": 2626,
      "ÙĪÙĦ": 2627,
      "Ġ×ĺ×Ĳ": 2628,
      "rx": 2629,
      "Ã©ie": 2630,
      "Ġvv": 2631,
      "ĠGI": 2632,
      "ĠDu": 2633,
      "Ú©": 2634,
      "uss": 2635,
      "à¸Ķ": 2636,
      "eoe": 2637,
      "Ø§ÙĬ": 2638,
      "×¦": 2639,
      "Ġtm": 2640,
      "Ġuae": 2641,
      "ÃĵD": 2642,
      "yx": 2643,
      "Ġele": 2644,
      "Ġtoi": 2645,
      "ĠVal": 2646,
      "lic": 2647,
      "ĠOg": 2648,
      "Ġodd": 2649,
      "LUEBLUEB": 2650,
      "PP": 2651,
      "UU": 2652,
      "ku": 2653,
      "ĠES": 2654,
      "ĠKock": 2655,
      "Ġyeu": 2656,
      "upe": 2657,
      "Ġtube": 2658,
      "Ġpay": 2659,
      "Ġnow": 2660,
      "76": 2661,
      "ĠQuex": 2662,
      "ĠPu": 2663,
      "ĠJew": 2664,
      "Ã³e": 2665,
      "hoo": 2666,
      "sg": 2667,
      "Ġeye": 2668,
      "ĠÃŃ": 2669,
      "ĠTod": 2670,
      "Ġexo": 2671,
      "ĠTOUS": 2672,
      "Ġcvy": 2673,
      "Ġpar": 2674,
      "Ġvoe": 2675,
      "Ġoce": 2676,
      "Ġdiv": 2677,
      "erc": 2678,
      "Ġvod": 2679,
      "ioo": 2680,
      "Ġrr": 2681,
      "Ã©o": 2682,
      "Ġwg": 2683,
      "die": 2684,
      "Ġtoe": 2685,
      "oty": 2686,
      "à¹ģà¸": 2687,
      "Ġrou": 2688,
      "ĠdYx": 2689,
      "Ġvan": 2690,
      "Ó©": 2691,
      "æĪ": 2692,
      "OUS": 2693,
      "GI": 2694,
      "ĠMal": 2695,
      "Ġkal": 2696,
      "Ġord": 2697,
      "Ġuti": 2698,
      "Ġcut": 2699,
      "ĠYT": 2700,
      "ĠKO": 2701,
      "ĠAh": 2702,
      "Ġyop": 2703,
      "ĠOn": 2704,
      "mem": 2705,
      "ĠTUI": 2706,
      "Ġaoi": 2707,
      "Ġmoi": 2708,
      "Ġsuck": 2709,
      "Ġado": 2710,
      "CD": 2711,
      "Ġ90": 2712,
      "Ġroc": 2713,
      "Ġcome": 2714,
      "Ġtake": 2715,
      "rat": 2716,
      "ĠCK": 2717,
      "Ġvoc": 2718,
      "ĠEv": 2719,
      "ĠQUT": 2720,
      "Ġxoc": 2721,
      "Ø§Øª": 2722,
      "×Ļ×ĺ": 2723,
      "TIOY": 2724,
      "ĠKat": 2725,
      "ĠTRA": 2726,
      "Ġ001": 2727,
      "ĠQuee": 2728,
      "Ġget": 2729,
      "Ġru": 2730,
      "eT": 2731,
      "Ð¼": 2732,
      "Ġoci": 2733,
      "61": 2734,
      "fa": 2735,
      "Ġooo": 2736,
      "ĠIm": 2737,
      "ĠØ¬": 2738,
      "Ġju": 2739,
      "Ġ×Ĳ×Ļ×ĸ": 2740,
      "ĠCm": 2741,
      "ĠGap": 2742,
      "uog": 2743,
      "itt": 2744,
      "ĠTUX": 2745,
      "ĠÙĬØ§": 2746,
      "coe": 2747,
      "ĠAk": 2748,
      "Ġdue": 2749,
      "ĠYU": 2750,
      "Ġqp": 2751,
      "Ġqoi": 2752,
      "ëĭ¤": 2753,
      "Ġtud": 2754,
      "eca": 2755,
      "Ġà¤°": 2756,
      "ings": 2757,
      "ama": 2758,
      "GY": 2759,
      "Ġ17": 2760,
      "ĠUV": 2761,
      "Ġret": 2762,
      "aga": 2763,
      "à¦": 2764,
      "ĠTit": 2765,
      "ĠÃ©d": 2766,
      "Ġbl": 2767,
      "×ķ×ĵ": 2768,
      "Ġ..": 2769,
      "Ïİ": 2770,
      "ĠTat": 2771,
      "ĠSp": 2772,
      "Ġroi": 2773,
      "TEL": 2774,
      "Ġgoing": 2775,
      "ĠÙħÙĨ": 2776,
      "wwww": 2777,
      "ht": 2778,
      "yk": 2779,
      "Ã¦": 2780,
      "Ġek": 2781,
      "ĠSO": 2782,
      "uow": 2783,
      "ĠDec": 2784,
      "ĠÎºÎ±Î¹": 2785,
      "ĠAi": 2786,
      "Ġxc": 2787,
      "Ġhk": 2788,
      "ĠĠĠĠĠĠĠĠĠĠĊ": 2789,
      "ĠTRO": 2790,
      "ĠÑĤ": 2791,
      "TÃ©": 2792,
      "my": 2793,
      "oA": 2794,
      "íķ": 2795,
      "ĠTTD": 2796,
      "EO": 2797,
      "Ġtalk": 2798,
      "dix": 2799,
      "Ġ×§×Ĳ": 2800,
      "Ġoto": 2801,
      "Ġori": 2802,
      "xA": 2803,
      "ĠcB": 2804,
      "Ġ×¦×ķ": 2805,
      "Ġyen": 2806,
      "Ġwhere": 2807,
      "At": 2808,
      "Ġyub": 2809,
      "oun": 2810,
      "×Ļ×§": 2811,
      "Ġuad": 2812,
      "ket": 2813,
      "rop": 2814,
      "ioc": 2815,
      "ĠGT": 2816,
      "ĠSub": 2817,
      "Ġrx": 2818,
      "Ġà¤Ĺ": 2819,
      "Î¹Î±": 2820,
      "21": 2821,
      "31": 2822,
      "Ġold": 2823,
      "iog": 2824,
      "Ġkot": 2825,
      "Ã¡v": 2826,
      "Ġyea": 2827,
      "br": 2828,
      "Ġeb": 2829,
      "Ã³p": 2830,
      "Tos": 2831,
      "ble": 2832,
      "Ġoux": 2833,
      "ĠDi": 2834,
      "qo": 2835,
      "vou": 2836,
      "Ġteo": 2837,
      "Ġpet": 2838,
      "esc": 2839,
      "Ġxg": 2840,
      "ĠPa": 2841,
      "arm": 2842,
      "ucu": 2843,
      "ĠTug": 2844,
      "à¤¡": 2845,
      "Ġgod": 2846,
      "Ġlook": 2847,
      "Ġ×©×ľ": 2848,
      "Ġcup": 2849,
      "Ùĭ": 2850,
      "Ġcue": 2851,
      "Ġpop": 2852,
      "Ġ101": 2853,
      "Ġ27": 2854,
      "ocy": 2855,
      "ĠRa": 2856,
      "Ġyf": 2857,
      "ĠTom": 2858,
      "ĠLL": 2859,
      "Ġcont": 2860,
      "lim": 2861,
      "ĠVI": 2862,
      "ĠKou": 2863,
      "Ġword": 2864,
      "ĠRU": 2865,
      "Ø£": 2866,
      "ØĮ": 2867,
      "Ġcj": 2868,
      "ern": 2869,
      "Ġyears": 2870,
      "What": 2871,
      "Ġmonth": 2872,
      "ĠMO": 2873,
      "yi": 2874,
      "ĠAp": 2875,
      "Ġeri": 2876,
      "Ġyw": 2877,
      "Ġxs": 2878,
      "orro": 2879,
      "Ġist": 2880,
      "ĠâĤĤ": 2881,
      "where": 2882,
      "Ġyk": 2883,
      "ita": 2884,
      "Ġpeople": 2885,
      "dW": 2886,
      "ĠCR": 2887,
      "ĠSA": 2888,
      "ĠÃīU": 2889,
      "Ġtudi": 2890,
      "Ġquot": 2891,
      "ãģ®": 2892,
      "ĠCL": 2893,
      "ioi": 2894,
      "odd": 2895,
      "ady": 2896,
      "ÏģÎ±": 2897,
      "ova": 2898,
      "eno": 2899,
      "×ķ×ľ": 2900,
      "Ġvas": 2901,
      "ĠTET": 2902,
      "Ġil": 2903,
      "Ġtoc": 2904,
      "als": 2905,
      "ĠPo": 2906,
      "Ġgua": 2907,
      "ÃŃÃŃ": 2908,
      "ĠCD": 2909,
      "orr": 2910,
      "Ġfac": 2911,
      "×Ļ×¨": 2912,
      "ING": 2913,
      "MA": 2914,
      "ÏĨ": 2915,
      "ution": 2916,
      "Ġdiuo": 2917,
      "ëĭĪ": 2918,
      "ĠUm": 2919,
      "CE": 2920,
      "ĠTra": 2921,
      "ĠEd": 2922,
      "ĠXa": 2923,
      "Ġtuo": 2924,
      "ĠEy": 2925,
      "'re": 2926,
      "ĠQV": 2927,
      "Tt": 2928,
      "Ġgy": 2929,
      "×¢×ł": 2930,
      "Ġaou": 2931,
      "Ġdor": 2932,
      "ĠXC": 2933,
      "ĠTOUT": 2934,
      "Ø±Ø§": 2935,
      "Ġpn": 2936,
      "ĠXT": 2937,
      "Ġrto": 2938,
      "Ġje": 2939,
      "ÙīØ²": 2940,
      "Ġoct": 2941,
      "Toe": 2942,
      "gr": 2943,
      "ĠAw": 2944,
      "ĠAoy": 2945,
      "Ġyot": 2946,
      "ĠLT": 2947,
      "eep": 2948,
      "Ġpau": 2949,
      "Ġvt": 2950,
      "iow": 2951,
      "ĠMay": 2952,
      "ĠDE": 2953,
      "emo": 2954,
      "Ġaco": 2955,
      "Ġshould": 2956,
      "Î¯Î½Î±Î¹": 2957,
      "ja": 2958,
      "Is": 2959,
      "ĠTox": 2960,
      "Ã³c": 2961,
      "Ġovy": 2962,
      "Ð°ÑĢ": 2963,
      "ĠPre": 2964,
      "à¸´": 2965,
      "Ġfov": 2966,
      "Ue": 2967,
      "vog": 2968,
      "Ġous": 2969,
      "ĠeL": 2970,
      "ines": 2971,
      "51": 2972,
      "Ġoua": 2973,
      "Ġvli": 2974,
      "Ġquestion": 2975,
      "vs": 2976,
      "Ġaot": 2977,
      "ĠXt": 2978,
      "Ġlove": 2979,
      "à¸ģ": 2980,
      "ny": 2981,
      "ĠYes": 2982,
      "let": 2983,
      "ĠRO": 2984,
      "×ķ×§": 2985,
      "ĠTAG": 2986,
      "ft": 2987,
      "Ġdoo": 2988,
      "Ġfi": 2989,
      "Ġnak": 2990,
      "rame": 2991,
      "Ù¾": 2992,
      "ĠEV": 2993,
      "Ġ21": 2994,
      "ĠJE": 2995,
      "its": 2996,
      "ĠHo": 2997,
      "Ġyear": 2998,
      "ĠTCI": 2999,
      "yen": 3000,
      "Ġ28": 3001,
      "Ġdec": 3002,
      "ĠOO": 3003,
      "urs": 3004,
      "×ķ×ł": 3005,
      "RE": 3006,
      "TL": 3007,
      "iey": 3008,
      "ica": 3009,
      "Ġqus": 3010,
      "red": 3011,
      "Ġ×Ĳ×ª": 3012,
      "oos": 3013,
      "uban": 3014,
      "ĠAcyen": 3015,
      "×ł×Ļ": 3016,
      "Ġ×ķ×ķ": 3017,
      "Øµ": 3018,
      "ĠTon": 3019,
      "Ġgot": 3020,
      "Ã³r": 3021,
      "Ġemi": 3022,
      "ĠTus": 3023,
      "ĠOUS": 3024,
      "Qe": 3025,
      "ĠCro": 3026,
      "uek": 3027,
      "Ux": 3028,
      "ĠaX": 3029,
      "Ġvop": 3030,
      "oel": 3031,
      "Ag": 3032,
      "ĠCat": 3033,
      "ĠIf": 3034,
      "ĠMat": 3035,
      "Ġqx": 3036,
      "×ķ×ĳ": 3037,
      "×¢×Ł": 3038,
      "Ġoet": 3039,
      "Ġair": 3040,
      "Ġsk": 3041,
      "Ġ710": 3042,
      "ĠOc": 3043,
      "ĠJt": 3044,
      "Ġacp": 3045,
      "Ġcoin": 3046,
      "700": 3047,
      "qp": 3048,
      "Ġcud": 3049,
      "ĠTow": 3050,
      "Ġnu": 3051,
      "Ġalso": 3052,
      "dp": 3053,
      "Ġaut": 3054,
      "Ġyos": 3055,
      "Ġwy": 3056,
      "Ġkuck": 3057,
      "Us": 3058,
      "ving": 3059,
      "adi": 3060,
      "zer": 3061,
      "ĠGoo": 3062,
      "Ġkuk": 3063,
      "Ġhard": 3064,
      "à¸¢": 3065,
      "ĠQua": 3066,
      "toe": 3067,
      "Ġval": 3068,
      "ĠEY": 3069,
      "ĠÃ¦": 3070,
      "ĠTIN": 3071,
      "×ķ×¡": 3072,
      "oth": 3073,
      "Ġbu": 3074,
      "ĠRV": 3075,
      "Ġalways": 3076,
      "XC": 3077,
      "mov": 3078,
      "Ġdle": 3079,
      "Ġyg": 3080,
      "iew": 3081,
      "Ġres": 3082,
      "Ġqua": 3083,
      "ĠCork": 3084,
      "Ġew": 3085,
      "uoe": 3086,
      "TY": 3087,
      "ĠoO": 3088,
      "iex": 3089,
      "Ġhu": 3090,
      "iti": 3091,
      "ige": 3092,
      "âĢĿ": 3093,
      "×ķ×ķ×Ĳ": 3094,
      "ÛĭÛķ": 3095,
      "AH": 3096,
      "Ġka": 3097,
      "aca": 3098,
      "×ĺ×Ĳ": 3099,
      "AGY": 3100,
      "cd": 3101,
      "Ġaic": 3102,
      "Ġding": 3103,
      "ĠTOA": 3104,
      "eni": 3105,
      "________": 3106,
      "AN": 3107,
      "zov": 3108,
      "Ġdug": 3109,
      "Ġpav": 3110,
      "Ġ071": 3111,
      "Ġ×Ľ": 3112,
      "able": 3113,
      "ãĥ¼": 3114,
      "Õ¡Õ¶": 3115,
      "Ġoro": 3116,
      "Ġtra": 3117,
      "Ġeq": 3118,
      "Ġeua": 3119,
      "Ġpai": 3120,
      "Ġvla": 3121,
      "ĠOt": 3122,
      "Ġkoc": 3123,
      "ÖĦ": 3124,
      "ĠKE": 3125,
      "0000": 3126,
      "Ġova": 3127,
      "ĠÃłi": 3128,
      "Ġcro": 3129,
      "Ġemo": 3130,
      "Ø¯Ùī": 3131,
      "CO": 3132,
      "ĠGua": 3133,
      "à¸«": 3134,
      "Ġê": 3135,
      "ĠQJ": 3136,
      "ĠCoo": 3137,
      "ĠKi": 3138,
      "ley": 3139,
      "×Ļ×ł": 3140,
      "IN": 3141,
      "Sy": 3142,
      "su": 3143,
      "Ġues": 3144,
      "Ġcos": 3145,
      "Ġgeo": 3146,
      "ĠTED": 3147,
      "Ġaua": 3148,
      "ĠAoc": 3149,
      "Ġvx": 3150,
      "Ġway": 3151,
      "icy": 3152,
      "ĠpÃ©": 3153,
      "ĠSd": 3154,
      "Ġqa": 3155,
      "Ġnum": 3156,
      "à¥Ĥ": 3157,
      "âĢĭâĢĭâĢĭ": 3158,
      "ĠLy": 3159,
      "uga": 3160,
      "TIO": 3161,
      "701": 3162,
      "mu": 3163,
      "ĠPE": 3164,
      "×Ļ×ľ": 3165,
      "Ġact": 3166,
      "ĠXU": 3167,
      "arn": 3168,
      "ione": 3169,
      "dbv": 3170,
      "BO": 3171,
      "xÃ©": 3172,
      "Ġaae": 3173,
      "Ġmun": 3174,
      "à¤¥": 3175,
      "lek": 3176,
      "ÙħØ§": 3177,
      "Ġauc": 3178,
      "Ġpuc": 3179,
      "ĠØ®": 3180,
      "yov": 3181,
      "Ġcop": 3182,
      "à¤¬": 3183,
      "ĠLa": 3184,
      "ollow": 3185,
      "ĠNot": 3186,
      "à¸Ħ": 3187,
      "Ġ×ĵ×Ļ": 3188,
      "09": 3189,
      "Mo": 3190,
      "Ġgold": 3191,
      "ient": 3192,
      "ĠRE": 3193,
      "Ġuai": 3194,
      "ĠDep": 3195,
      "ĠÃłv": 3196,
      "Ð°Ð½": 3197,
      "ula": 3198,
      "Ġetc": 3199,
      "iii": 3200,
      "Ġpro": 3201,
      "err": 3202,
      "Ġgoo": 3203,
      "ĠDA": 3204,
      "Ġdiy": 3205,
      "Ġroy": 3206,
      "ÙĪØ±": 3207,
      "HO": 3208,
      "ju": 3209,
      "ĠQUX": 3210,
      "×ĵ×¢×¨": 3211,
      "Ta": 3212,
      "ĠTÃ¼": 3213,
      "ĠcO": 3214,
      "Ġpog": 3215,
      "ĠDy": 3216,
      "ĠØ¥": 3217,
      "ocks": 3218,
      "Ġeid": 3219,
      "ĠGG": 3220,
      "ĠOS": 3221,
      "Ġdiu": 3222,
      "ĠAca": 3223,
      "Ġroad": 3224,
      "Ġcb": 3225,
      "ĠClex": 3226,
      "ĠLÃł": 3227,
      "ÏĦÎ¿": 3228,
      "Ã¤": 3229,
      "ĠAot": 3230,
      "CTO": 3231,
      "iau": 3232,
      "ÖĢÕ": 3233,
      "Ġaro": 3234,
      "Ġdud": 3235,
      "Ġeor": 3236,
      "Ġthink": 3237,
      "Tl": 3238,
      "ovi": 3239,
      "à¤·": 3240,
      "ĠDot": 3241,
      "iai": 3242,
      "Ð¸Ð¹": 3243,
      "Ġtable": 3244,
      "pac": 3245,
      "Ġtat": 3246,
      "led": 3247,
      "Ġ93": 3248,
      "Bp": 3249,
      "ĠAuc": 3250,
      "Ġeh": 3251,
      "ĠKol": 3252,
      "cn": 3253,
      "ģĵ": 3254,
      "Ġbp": 3255,
      "eci": 3256,
      "ourt": 3257,
      "ĠÎµÎ¯Î½Î±Î¹": 3258,
      "Ko": 3259,
      "Tog": 3260,
      "Ġez": 3261,
      "Ġmin": 3262,
      "Ġpue": 3263,
      "ĠVide": 3264,
      "alo": 3265,
      "aaaa": 3266,
      "sgg": 3267,
      "âģĦ": 3268,
      "Ġend": 3269,
      "ĠVE": 3270,
      "Ġguy": 3271,
      "Ġ×ŀ×Ĳ": 3272,
      "dY": 3273,
      "Ġoer": 3274,
      "Ġdot": 3275,
      "ĠAY": 3276,
      "ĠTAS": 3277,
      "Ġsalm": 3278,
      "Ġ05": 3279,
      "Ġxv": 3280,
      "Ġrro": 3281,
      "Ġzy": 3282,
      "×Ļ×¡": 3283,
      "Ġang": 3284,
      "Ġdixo": 3285,
      "KE": 3286,
      "rv": 3287,
      "Ġroo": 3288,
      "Ġdw": 3289,
      "Ġyoc": 3290,
      "ĠXu": 3291,
      "ĠTei": 3292,
      "SS": 3293,
      "XE": 3294,
      "ĠOp": 3295,
      "ĠLu": 3296,
      "ĠLee": 3297,
      "ĠJa": 3298,
      "Ġquu": 3299,
      "Ġspeak": 3300,
      "))": 3301,
      "cA": 3302,
      "did": 3303,
      "ork": 3304,
      "ĠVp": 3305,
      "ĠEt": 3306,
      "Ġthee": 3307,
      "02": 3308,
      "ĠTed": 3309,
      "ĠdO": 3310,
      "Ġmt": 3311,
      "Ġadio": 3312,
      "what": 3313,
      "Ġdog": 3314,
      "ĠOo": 3315,
      "Ġros": 3316,
      "ection": 3317,
      "05": 3318,
      "cm": 3319,
      "Ġum": 3320,
      "ÛĮØ¯": 3321,
      "Tc": 3322,
      "UY": 3323,
      "Ðµ": 3324,
      "Ġtd": 3325,
      "ĠCook": 3326,
      "otp": 3327,
      "Ġkk": 3328,
      "ĠfA": 3329,
      "Be": 3330,
      "Ma": 3331,
      "Ġvos": 3332
    },
    "merges": [
      "Ġ T",
      "Ġ o",
      "Ġ a",
      "Ġ d",
      "Ġ t",
      "Ġ A",
      "Ġ e",
      "Ġ y",
      "Ġ m",
      "Ġ u",
      "Ġ c",
      "Ġ Ċ",
      "Ġ i",
      "o u",
      "Ã ©",
      "Ġ Q",
      "Ġ C",
      "r o",
      "Ġ &",
      "Ġ \"",
      "Ġ Â",
      "Ġ p",
      "e r",
      "Ġ v",
      "Ġ s",
      "Ġ 7",
      "e s",
      "a t",
      "ĠT O",
      "i o",
      "Ġ G",
      "a n",
      "Ġt o",
      "h e",
      "Ġ S",
      "Ġ 6",
      "o r",
      "o t",
      "o v",
      "à ¤",
      "Ġ 0",
      "Ġ Y",
      "Ġ V",
      "Ġ 4",
      "Ġ O",
      "Ġ Ġ",
      "Ġ 3",
      "Ġ x",
      "o o",
      "ĠQ u",
      "Ġ g",
      "Ġ E",
      "Ġ I",
      "Ġ 1",
      "Ġ 2",
      "Ġ K",
      "Ġ X",
      "Ġ M",
      "Ġ Ã",
      "Ġ w",
      "i e",
      "a l",
      "i s",
      "Ġ ×",
      "i n",
      "o n",
      "i c",
      "Ġ k",
      "Ġ f",
      "Ġ -",
      "Ġ q",
      "Ġo r",
      "l e",
      "Ġ r",
      "u o",
      "Ġ D",
      "e n",
      "ĠT o",
      "e t",
      "Ġt he",
      "Ġ L",
      "Ġ P",
      "Ġ â",
      "u e",
      "Ġ n",
      "Ġ (",
      "u s",
      "o c",
      "a r",
      "Ġ h",
      "i d",
      "a y",
      "ĠÂ «",
      "T O",
      "Ġ R",
      "o d",
      "a s",
      "Ĥ ¬",
      "Ġ J",
      "i t",
      "Ġ Ã©",
      "n d",
      "Ġi s",
      "ĠÂ £",
      "Ġ U",
      "Ġ 9",
      "Ġ l",
      "o s",
      "à ¸",
      "io n",
      "0 0",
      "a d",
      "Ġ b",
      "u g",
      "t o",
      "m e",
      "Ġd i",
      "r e",
      "Ġ ,",
      "a c",
      "u c",
      "Ġ B",
      "Ġy ou",
      "e e",
      "u b",
      "à ¥",
      "i g",
      "e o",
      "Ø §",
      "u d",
      "e d",
      "es t",
      "Ġo f",
      "× ķ",
      "o g",
      "ĠT U",
      "o l",
      "u t",
      "Ġâ Ĥ¬",
      "â Ģ",
      "× Ļ",
      "Ġa nd",
      "e x",
      "Ġa d",
      "Ġ )",
      "o y",
      "Ġ ĠĊ",
      "v e",
      "Â «",
      "Ġ N",
      "Ġ 8",
      "Ã ³",
      "Ġ 5",
      "o i",
      "ĠT I",
      "Ġ H",
      "est ion",
      "o e",
      "i a",
      "ĠA c",
      "Ġ .",
      "Ġ ro",
      "Ġo v",
      "Ġ Ø",
      "Ġ j",
      "Ġ W",
      "Ã© Ã©",
      "Ġd o",
      "× Ĳ",
      "ĠĠ ĠĠ",
      "a u",
      "e c",
      "Â £",
      "Ġ à¤",
      "i l",
      "e l",
      "o w",
      "Ã Ģ",
      "Ġo U",
      "a e",
      "Ġt h",
      "u m",
      "âĢ ĭ",
      "ĠQu estion",
      "u r",
      "Ã ł",
      "ĠQ U",
      "ĠT E",
      "a g",
      "Ġ Ù",
      "e m",
      "Ġq u",
      "O U",
      "Ã ī",
      "Ġ F",
      "Ġm m",
      "er e",
      "Â »",
      "a i",
      "in g",
      "o p",
      "ĠÂ »",
      "ĠT e",
      "Ġe x",
      "Ù Ħ",
      "âĢĭ âĢĭ",
      "ĠTO L",
      "Ġy o",
      "×Ļ ×",
      "a m",
      "Ġ7 0",
      "u i",
      "ĠTO V",
      "Ġa l",
      "Ġa t",
      "Ġ z",
      "ĠÃ ł",
      "u a",
      "ĠT h",
      "i v",
      "o m",
      "Ġo t",
      "ĠT T",
      "É Ķ",
      "a k",
      "Ġi t",
      "u x",
      "ĠY ou",
      "e v",
      "×ķ ×",
      "o x",
      "u k",
      "Ã ¡",
      "i m",
      "y y",
      "u n",
      "Ġo n",
      "r a",
      "at e",
      "Ġy e",
      "d i",
      "ĠT X",
      "ĠT he",
      "Ġw h",
      "ĠÂ ®",
      "Ġ $",
      "Ġ Î",
      "Ġa c",
      "a o",
      "Ù Ĩ",
      "â Ĥ¬",
      "Ù ī",
      "a b",
      "0 1",
      "e i",
      "T I",
      "o U",
      "ĠÃ ³",
      "Ġ× Ĳ",
      "ĠTO U",
      "Ġo c",
      "Ġu s",
      "ĠT i",
      "Ġâ Ģ",
      "r i",
      "Ġe m",
      "u l",
      "ð Ł",
      "ðŁ ĩ",
      "Ã Ń",
      "Ġm e",
      "Ġ [",
      "× ¢",
      "Ġ0 0",
      "Ġ he",
      "Ù Ī",
      "ã ģ",
      "a v",
      "t e",
      "Ø ±",
      "Ġi n",
      "à¥ į",
      "ĠT H",
      "a p",
      "ĠT A",
      "ĠQu an",
      "Ġo d",
      "o k",
      "y e",
      "i x",
      "u p",
      "e ro",
      "ĠO U",
      "Ġe t",
      "or e",
      "i r",
      "ĠÃ ī",
      "Ġa u",
      "ĠE x",
      "T E",
      "y o",
      "Ã ĵ",
      "t h",
      "Ġ *",
      "Ù Ĭ",
      "Ã ¼",
      "Ö ¸",
      "ug g",
      "ĠQuestion s",
      "e y",
      "l i",
      "× ¨",
      "Ġ |",
      "Ġm o",
      "Ġu x",
      "Ġt u",
      "Ã©Ã© Ã©Ã©",
      "Ġ ^",
      "Ù ħ",
      "l o",
      "ĠT R",
      "s t",
      "e p",
      "ĠĠ ĠĊ",
      "Î ±",
      "a x",
      "i i",
      "Ġ1 0",
      "ĠA x",
      "A c",
      ". .",
      "Ö ·",
      "a a",
      "T o",
      "s e",
      "Ġo u",
      "a me",
      "Ġa n",
      "ĠT G",
      "ĠA d",
      "u u",
      "c e",
      "9 9",
      "Ġe d",
      "w o",
      "à ¹",
      "O Y",
      "Ġd e",
      "à¤ ¾",
      "Ġ le",
      "c o",
      "Ġo i",
      "n t",
      "T U",
      "en t",
      "Ø ª",
      "p e",
      "o f",
      "Ġa r",
      "t u",
      "Ġa i",
      "Ø ¯",
      "O V",
      "Ð °",
      "Ġd ie",
      "i f",
      "Ã ¶",
      "Î ¹",
      "Ġe r",
      "Ġd u",
      "ĠA n",
      "ĠT u",
      "Ï Ħ",
      "Ġb e",
      "Ġv o",
      "Ġu e",
      "TO L",
      "Î ¿",
      "ĠT V",
      "& &",
      "h o",
      "× ľ",
      "1 1",
      "ugg ugg",
      "ou t",
      "× ĺ",
      "Ġu i",
      "Ġu c",
      "t t",
      "1 0",
      "od e",
      "ro m",
      "Ġc o",
      "ĠG U",
      "g u",
      "Ġa s",
      "A G",
      "Ġ Ð",
      "Ġe n",
      "Ġa re",
      "ro t",
      "Ġe u",
      "ĠT Ãī",
      "g o",
      "Q u",
      "Ġo p",
      "v o",
      "Ġ3 0",
      "e k",
      "t i",
      "Ġo y",
      "Ġf or",
      "Ġ Ø§",
      "e u",
      "âĢĭâĢĭ âĢĭâĢĭ",
      "Ġa U",
      "O L",
      "ĠT l",
      "Ġu l",
      "e a",
      "Ġa m",
      "ĠT ÃĢ",
      "Ġg o",
      "ov e",
      "a ve",
      "Ġo e",
      "ĠTO Y",
      "t s",
      "Ġd ay",
      "Ġe v",
      "' s",
      "g g",
      "Î µ",
      "ĠA u",
      "ĠT C",
      "T H",
      "Ġs a",
      "Ġ4 0",
      "× ¡",
      "uc k",
      "Ġs ay",
      "Ġd b",
      "ðŁĩ ·",
      "o a",
      "Ġdi x",
      "ðŁĩ §",
      "Ġth at",
      "Ġe i",
      "ĠT r",
      "× Ķ",
      "ĠTO I",
      "ðŁĩ§ ðŁĩ·",
      "y a",
      "d e",
      "Ġ7 2",
      "L L",
      "Ġs o",
      "il l",
      "c c",
      "d b",
      "Ġm ore",
      "m m",
      "i k",
      "Ġd io",
      "Û Į",
      "ĠC A",
      "Ø ³",
      "O D",
      "s s",
      "ĠS t",
      "it h",
      "Ġa b",
      "ĠQ A",
      "Ġn ot",
      "ĠG o",
      "Ġk o",
      "p o",
      "T he",
      "le x",
      "t er",
      "e g",
      "' m",
      "ĠA o",
      "Ġo x",
      "Ġwh at",
      "× §",
      "l y",
      "ĠĠ ĠĠĊ",
      "Ġ Õ",
      "u y",
      "Ġd Y",
      "Ġe c",
      "âĢ Ķ",
      "io v",
      "Û ķ",
      "ĠK o",
      "a w",
      "à¤ °",
      "ĠA C",
      "ĠÂ ¶",
      "A M",
      "r y",
      "h at",
      "Ġu o",
      "Ġm y",
      "Ġt i",
      "Ġo b",
      "Ġ2 0",
      "ud i",
      "Ġi d",
      "Ġa x",
      "ĠY OU",
      "Ġu d",
      "ĠK ot",
      "Ġs t",
      "O I",
      "Ġe s",
      "Ġth ere",
      "Ġ :",
      "4 4",
      "Î ½",
      "Ġp u",
      "ĠA G",
      "Ø ¨",
      "Ġ '",
      "oc k",
      "Ġal l",
      "ģ Ħ",
      "g e",
      "h er",
      "c y",
      "an t",
      "c i",
      "Ġ2 00",
      "ar t",
      "ĠĠĠĠ ĠĊ",
      "Ġt wo",
      "b a",
      "7 1",
      "an d",
      "ou r",
      "O T",
      "ĠÃ ģ",
      "l a",
      "Ù ĥ",
      "à¤ ¿",
      "ic h",
      "Ġt ub",
      "2 0",
      "ro v",
      "Ġ2 9",
      "Ġd v",
      "Ġd k",
      "Ġs u",
      "p a",
      "on e",
      "m o",
      "ĠH e",
      "Ġw as",
      "O O",
      "7 0",
      "ĠK od",
      "ĠTO C",
      "c k",
      "Ã ģ",
      "× ĵ",
      "ĠC U",
      "Ġ3 3",
      "Ġto o",
      "c t",
      "Ġo s",
      "ĠTo U",
      "ĠT Y",
      "ã ĥ",
      "ou s",
      "ĠT ov",
      "Ġa e",
      "Ġo o",
      "Ġe y",
      "A C",
      "ĠA U",
      "oo d",
      "Ġd d",
      "c h",
      "ĠQu e",
      "Ġ /",
      "Ï ģ",
      "Ġe o",
      "à¤ ¨",
      "Ï ĥ",
      "Ġd U",
      "ã Ĥ",
      "ig h",
      "ot e",
      "Ġd t",
      "Ġt e",
      "Õ ¡",
      "Ġm l",
      "ĠK or",
      "ĠA l",
      "Ġd id",
      "ĠÃ ¡",
      "r r",
      "ã Ģ",
      "at es",
      "ĠA e",
      "q u",
      "er s",
      "Ġo l",
      "ĠO Y",
      "ĠG e",
      "Ġc u",
      "Ġ2 2",
      "ĠAc y",
      "× ł",
      "Ġâ ģĦ",
      "Ġc v",
      "an y",
      "à¤ ¤",
      "ĠTI O",
      "4 0",
      "A S",
      "i ve",
      "Ġo w",
      "Ù ĩ",
      "ĠA N",
      "T X",
      "or d",
      "Ġf rom",
      "TO U",
      "f e",
      "Ġu y",
      "v a",
      "g a",
      "Ġc i",
      "o b",
      "Ġ6 0",
      "ro s",
      "Ġw ith",
      "TO V",
      "ĠÙ ħ",
      "Ġ4 9",
      "Ġ ;",
      "Ġa p",
      "Ġsa id",
      "ĠC E",
      "oo o",
      "1 6",
      "ĠÃ ĵ",
      "A U",
      "Ġyou r",
      "Ġu p",
      "Ù Ĥ",
      "Ġy y",
      "ĠI t",
      "Ġx o",
      "Ġ× ŀ",
      "ĠC o",
      "Ã© i",
      "es s",
      "Ġp a",
      "× Ł",
      "Ġ Z",
      "ĠâĢ Ķ",
      "2 2",
      "Ġu a",
      "al l",
      "ot t",
      "b er",
      "ĠT c",
      "Ġ Ñ",
      "ic e",
      "D U",
      "× ŀ",
      "à¥ ĭ",
      "at ion",
      "Ġ3 00",
      "ar d",
      "Ġ4 4",
      "an e",
      "Ã į",
      "T T",
      "ot o",
      "oo k",
      "T i",
      "Ġ× ķ",
      "Ã©Ã©Ã©Ã© Ã©Ã©Ã©Ã©",
      "T h",
      "Ġg u",
      "A I",
      "Ġc h",
      "A L",
      "Ġp e",
      "Q U",
      "t y",
      "ĠT v",
      "Ġy es",
      "ĠØ§ ÙĦ",
      "Ġ ?",
      "c u",
      "ĠØ ¨",
      "e w",
      "r ou",
      "Ġ3 8",
      "ĠA nd",
      ") .",
      "Ð ½",
      "Ġh ave",
      "t a",
      "ĠO R",
      "i p",
      "z o",
      "Qu estion",
      "Ġp l",
      "Ġu n",
      "Ġs ub",
      "Ġh o",
      "Ġwh ich",
      "id e",
      "Ġa g",
      "f f",
      "Ġ0 1",
      "Ġ3 9",
      "Ġ× ĺ",
      "Ġ× §",
      "I S",
      "ĠT s",
      "ĠT ot",
      "Ġv e",
      "Ġd ic",
      "ak e",
      "Ġa j",
      "Ġc a",
      "Ġa o",
      "ĠA v",
      "ĠQu b",
      "Ġa uo",
      "ĠC on",
      "× ĳ",
      "ĠÃ© p",
      "A T",
      "Ġ1 6",
      "is t",
      "Ġo V",
      "ĠT ie",
      "n e",
      "Ġ× Ķ",
      "Ġw ill",
      "ut e",
      "Ġr e",
      "0 6",
      "Ï Ģ",
      "Ġu t",
      "Ġp o",
      "Ġ× ĵ",
      "A x",
      "ĠC X",
      "Ñ į",
      "y m",
      "× ©",
      "Ġ7 3",
      "or t",
      "T e",
      "ĠC ode",
      "l u",
      "Ġ7 8",
      "Ġe p",
      "s o",
      "Ġv a",
      "f o",
      "ĠTO O",
      "l d",
      "Î ¯",
      "c a",
      "ro g",
      "à¥ ĩ",
      "er y",
      "ĠX o",
      "ĠR e",
      "Ð ¾",
      "ĠO r",
      "Ġy ov",
      "ãĢ Ĥ",
      "Ġ ðŁĩ§ðŁĩ·",
      "ĠTO S",
      "Ġm ÉĶ",
      "Ġx e",
      "Ġu g",
      "k s",
      "ĠĠĠĠ ĠĠĊ",
      "ou e",
      "à¤ ķ",
      "x x",
      "d s",
      "u v",
      "ĠW hat",
      "ĠC x",
      "n g",
      "Ġ0 9",
      "ĠA A",
      "in e",
      "Ã ľ",
      "&& &&",
      "× Ĵ",
      "4 9",
      "I t",
      "Ġe e",
      "Ġa y",
      "Ġx od",
      "Ġo A",
      "Ġm b",
      "ĠT S",
      "al e",
      "Ġ7 5",
      "ĠX A",
      "y r",
      "ĠTU A",
      "Ġ ]",
      "an s",
      "_ _",
      "ĠTo c",
      "ĠT t",
      "b e",
      "Ġa v",
      "Ġmm m",
      "Ã© s",
      "L U",
      "ĠC O",
      "A R",
      "k o",
      "à¤ ¸",
      "y s",
      "al m",
      "a h",
      "Ġ× ¤",
      "Ġa a",
      "Ï Ĥ",
      "Ġu u",
      "T C",
      "Ã £",
      "d o",
      "à¥ ģ",
      "ĠT y",
      "Ġt r",
      "Ġf o",
      "L O",
      "Ġy u",
      "igh t",
      "D I",
      "Õ¡ Õ",
      "6 6",
      "Û ĩ",
      "i u",
      "Ð »",
      "ĠÙ Ī",
      "t ub",
      "us t",
      "ro r",
      "ou g",
      "ĠS o",
      "Ġa w",
      "Ġe g",
      "Ġi o",
      "à¤ ®",
      "Ġo g",
      "Ġy a",
      "à¤ ¯",
      "C C",
      "ĠA r",
      "Ð ¸",
      "Ø ¹",
      "Õ ¸",
      "Ġro t",
      "Ġ4 3",
      "Ġ6 5",
      "Ġs h",
      "ĠÃ ¼",
      "i b",
      "ĠY o",
      "Ġc x",
      "Ġn o",
      "É Ľ",
      "Â ®",
      "Ã© p",
      "ĠC y",
      "Ġ7 9",
      "k e",
      "Ġt ab",
      "T R",
      "ĠA X",
      "Ø ©",
      "Ġe T",
      "T G",
      "n i",
      "Ġ1 9",
      "io s",
      "× ¤",
      "à¸ Ļ",
      "ug u",
      "p i",
      "ĠTo i",
      "Ġ0 6",
      "Ġi g",
      "E R",
      "ĠG u",
      "Ï ħ",
      "à¸ ²",
      "A Y",
      "Ġc an",
      "Ġ7 1",
      "Ġc r",
      "Ñ Ģ",
      "c r",
      "d v",
      "Ġt w",
      "ĠS u",
      "Ġk u",
      "Ø ²",
      "Ġ ì",
      "Ġ× ľ",
      "p u",
      "T V",
      "Ġq o",
      "ĠâĢ ĭ",
      "Ġ2 6",
      "×ķ ×ķ",
      "Ġe ic",
      "l l",
      "ĠY O",
      "U S",
      "Ø ´",
      "es e",
      "Ġ1 8",
      "us e",
      "ĠØ ª",
      "ĠA s",
      "Ġ4 8",
      "ĠJ e",
      "Ġc on",
      "Ġ à¸",
      "Ġ1 1",
      "× ª",
      "ĠV ol",
      "ĠT ro",
      "Ġc y",
      "an k",
      "ĠR A",
      "ĠT N",
      "Ġd s",
      "Ġ4 5",
      "ĠK oc",
      "Ġ×Ĳ ×Ļ×",
      "c s",
      "ĠO V",
      "Ġ× ©",
      "ĠD e",
      "z z",
      "ĠT Ã©",
      "Ġ1 3",
      "Ġx x",
      "Y ou",
      "Ġi e",
      "r u",
      "ad e",
      "' t",
      "×¢ ×¨",
      "Ġe a",
      "Ġ× ĳ",
      "ĠQ o",
      "Ġd a",
      "r s",
      "ĠG O",
      "in k",
      "Ġ1 00",
      "i y",
      "w w",
      "Ġ× ¢",
      "Ġu b",
      "Ġs ee",
      "Ġ1 4",
      "E S",
      "U T",
      "I C",
      "Ġth is",
      "er i",
      "Ġh im",
      "d t",
      "f i",
      "Ġd h",
      "Ġp i",
      "Ġo uo",
      "Ġb y",
      "Ġm i",
      "ĠT D",
      "Ġg e",
      "ĠTo e",
      "à¸ Ń",
      "A X",
      "ac e",
      "Ġl o",
      "j o",
      "Ġi c",
      "er a",
      "uggugg uggugg",
      "Î »",
      "Ð° Ð",
      "Ġ ë",
      "Ġd E",
      "ro o",
      "er t",
      "ĠT L",
      "ar e",
      "Ġd Ã©",
      "Ġp r",
      "Ġa A",
      "O M",
      "w ay",
      "Ġon e",
      "s w",
      "Ġw e",
      "al k",
      "Ġq i",
      "ĠYou r",
      "ï ¼",
      "ĠT is",
      "Ġr a",
      "D e",
      "ĠT ic",
      "ĠC or",
      "Ġd y",
      "ĠQuan e",
      "ĠG i",
      "it e",
      "Ö Ģ",
      "6 5",
      "I O",
      "c v",
      "n o",
      "n a",
      "3 0",
      "à¤ µ",
      "ĠâĢ ľ",
      "Ġc A",
      "Ï Į",
      "A o",
      "ĠJ U",
      "Ġw ant",
      "ac k",
      "Ġd l",
      "ĠA b",
      "p s",
      "Ù ģ",
      "ro c",
      "ĠG A",
      "x t",
      "Ġa io",
      "Ġro v",
      "Ġe ig",
      "nt il",
      "Ġk m",
      "el l",
      "on g",
      "Ġ1 5",
      "ĠT ou",
      "Ġv i",
      "G U",
      "Ġq uo",
      "Ġd uo",
      "Ġ× Ļ",
      "x y",
      "al al",
      "×ķ× Ł",
      "Ġe A",
      "ĠV T",
      "at o",
      "ĠD o",
      "âĢĭâĢĭâĢĭâĢĭ âĢĭâĢĭâĢĭâĢĭ",
      "à¥ Ģ",
      "m a",
      "Ġo ut",
      "ic o",
      "ud e",
      "Î ·",
      "ĠØ ¦",
      "A d",
      "Ñ ĥ",
      "Ø§ ÙĦ",
      "O E",
      "Ġ0 00",
      "ĠÃ ¶",
      "ĠĠĠĠ ĠĠĠĊ",
      "ĠT P",
      "Ġdo es",
      "ĠA O",
      "Ġy p",
      "if e",
      "ic k",
      "d k",
      "ĠT a",
      "Ö ¼",
      "Ġ2 3",
      "Ġl u",
      "8 8",
      "Ġd W",
      "ĠØ ¯",
      "O S",
      "Î ¼",
      "Ġ ÏĦ",
      "Î± Î¹",
      "ĠS e",
      "Ø§ ÙĨ",
      "ĠÙ Ĭ",
      "Ġm on",
      "Ġu r",
      "Ġn a",
      "ĠTO T",
      "Ġm me",
      "ot i",
      "ĠA S",
      "Ġe st",
      "ĠÃ© m",
      "Ġ6 3",
      "ĠM a",
      "as s",
      "x e",
      "Ġy r",
      "Ġov er",
      "Ġm a",
      "Î ¬",
      "Ġw o",
      "ĠâĢ ĵ",
      "ou se",
      "Ġan y",
      "ĠA R",
      "in t",
      "Ġf e",
      "TO Y",
      "n ow",
      "Õ ¥",
      "ĠL o",
      "p le",
      "Ġ3 5",
      "6 3",
      "à¸ £",
      "Ġe ov",
      "r t",
      "ĠTU O",
      "ĠC T",
      "U X",
      "an a",
      "7 7",
      "ĠA g",
      "k a",
      "ĠTo y",
      "ÙĦ Ùī",
      "p l",
      "A E",
      "ĠL e",
      "à¥ ¤",
      "ĠA a",
      "ĠTO M",
      "Ġv l",
      "ĠÃ ľ",
      "ĠG ov",
      "A V",
      "ar s",
      "Ġy i",
      "ĠQ e",
      "Ġw or",
      "Ġd r",
      "à¤ ²",
      "Ġ4 6",
      "oo l",
      "Ġ3 4",
      "Ġto y",
      "× ĸ",
      "ĠTh o",
      "Ġy x",
      "Ġm u",
      "ĠA LL",
      "oc i",
      "g y",
      "G o",
      "Ġà¤ ķ",
      "Ġwh o",
      "ĠD U",
      "2 4",
      "A s",
      "Ġs e",
      "p p",
      "ĠAc c",
      "9 0",
      "Ġc ou",
      "ĠAn sw",
      "ĠA y",
      "Ġp s",
      "et e",
      "he n",
      "Ð ³",
      "t v",
      "am es",
      "Ġe ro",
      "ĠG v",
      "Ġ70 1",
      "Ġt t",
      "Ġ1 2",
      "O C",
      "Ġm ro",
      "Ġd is",
      "u an",
      "Ġc e",
      "Ġ Ú",
      "Ø Ń",
      "Ġd x",
      "re e",
      "E x",
      "Ġc l",
      "×Ļ ×Ļ×",
      "00 0",
      "z y",
      "Ġs c",
      "Ã© r",
      "K S",
      "ĠQu ad",
      "Ġo h",
      "ĠI n",
      "ĠX e",
      "ĠT li",
      "b o",
      "k k",
      "ec t",
      "E L",
      "Ġm ot",
      "N G",
      "Ġ× Ĵ",
      "Ġdi g",
      "i le",
      "ol d",
      "Ġto v",
      "ĠØ ³",
      "Ġc uo",
      "Ġg a",
      "Ġe l",
      "Ġs y",
      "ĠE A",
      "r us",
      "D o",
      "Ġdi a",
      "ud io",
      "os e",
      "O X",
      "s c",
      "I D",
      "id b",
      "Ġy m",
      "id eo",
      "Ġat e",
      "Ġu ot",
      "Ġ6 9",
      "Õ ¶",
      "ag e",
      "Ġo ov",
      "T Ãī",
      "Ġu ntil",
      "Ġq r",
      "2 5",
      "Ġ !",
      "ou c",
      "à¹ Ī",
      "ĠĠĠĠ ĠĠĠĠĊ",
      "at i",
      "Ġ2 5",
      "t r",
      "Õ «",
      "or i",
      "Ġr i",
      "Ġt ut",
      "Ġab out",
      "ia e",
      "Ġd in",
      "Ġs p",
      "A O",
      "ĠG s",
      "Ġy s",
      "Î º",
      "Ġg ov",
      "à¸ ±",
      "Ġsu re",
      "ar y",
      "Ã© v",
      "Ö Ĥ",
      "Ġg ive",
      "T A",
      "Ġt v",
      "m i",
      "ĠQu o",
      "et t",
      "Ġy og",
      "Ġp uo",
      "ĠX X",
      "ĠC a",
      "Ġl ame",
      "ro w",
      "ĠU p",
      "Ġp at",
      "ĠY e",
      "ĠM A",
      "ĠO y",
      "Ġd V",
      "Ġc U",
      "Ġo a",
      "Ġu ou",
      "Ġc od",
      "× Ŀ",
      "E A",
      "l uo",
      "Ø§ Ø±",
      "Ġp ut",
      "ĠÙ ĥ",
      "à ®",
      "in d",
      "ĠÎ µ",
      "c p",
      "ĠT ig",
      "oo oo",
      "ĠTo l",
      "Ġp x",
      "en s",
      ".. ..",
      "ĠC u",
      "ĠB e",
      "ë ĭ",
      "Ġv u",
      "ĠK e",
      "Ġml om",
      "à¤ Ĥ",
      "ĠG uo",
      "as t",
      "ac h",
      "T D",
      "ĠT f",
      "Ġm an",
      "ĠTh ere",
      "Ġ2 4",
      "Ġu li",
      "i z",
      "um m",
      "a U",
      "ĠAN D",
      "p er",
      "x o",
      "Ġ à¥",
      "Ġc Ãł",
      "ou o",
      "ĠO L",
      "ĠT Ãĵ",
      "Ġd on",
      "w e",
      "A e",
      "A n",
      "io t",
      "Ġo T",
      "Ġt y",
      "Ġs up",
      "al le",
      "ar i",
      "b i",
      "Ñ ģ",
      "ĠM o",
      "Ġu k",
      "as e",
      "d d",
      "ĠO D",
      "ĠĠĠĠ ĠĠĠĠĠĊ",
      "Ġm ay",
      "à¹ Ģ",
      "ĠTh is",
      "Ġo k",
      "an o",
      "Ġ& &",
      "ĠG V",
      "6 9",
      "ĠV o",
      "×ķ ×Ĳ",
      "ol o",
      "Ġ0 2",
      "Ġz o",
      "ĠC r",
      "ik e",
      "Ġe uo",
      "x a",
      "Ġad d",
      "uc h",
      "ĠÎ º",
      "y ou",
      "v es",
      "oo n",
      "L E",
      "ie n",
      "âĢĶ âĢĶ",
      "t ov",
      "ĠE T",
      "Ġdo x",
      "p or",
      "ĠM ar",
      "Ġà¤ ¸",
      "uc t",
      "ĠP Y",
      "op e",
      "E T",
      "at her",
      "Ġ6 1",
      "ì Ŀ",
      "Ġu A",
      "er m",
      "O K",
      "Ġu nd",
      "ĠTI U",
      "Ġp ac",
      "ĠG g",
      "Ø ¬",
      "Ġt ue",
      "io y",
      "ĠC h",
      "ĠTO R",
      "Ġh as",
      "ĠJ i",
      "Î Ń",
      "ĠE m",
      "id i",
      "Ġa ie",
      "Ġm ov",
      "Ġe X",
      "ĠG y",
      "Ð ´",
      "Ġe U",
      "ĠC l",
      "Ã© ic",
      "ĠÃ© s",
      "à¸² à¸",
      "ĠÃ© g",
      "Ġi m",
      "ĠQ i",
      "ro n",
      "ĠTT L",
      "ĠC B",
      "Ġot l",
      "2 3",
      "ĠK oi",
      "o Y",
      "ĠS U",
      "0 4",
      "Ġo ue",
      "Ġg uo",
      "ud ie",
      "io r",
      "C Y",
      "Ġm p",
      "Ġq ue",
      "Ġt a",
      "O A",
      "q ue",
      "Ñ Ĥ",
      "ĠTE A",
      "l es",
      "Ġ Ïĥ",
      "Ġ7 7",
      "ĠC H",
      "Ġd ou",
      "Ġo j",
      "ĠA T",
      "à¤ ¹",
      "ĠM art",
      "ĠTe a",
      "is s",
      "c ov",
      "ĠQu eo",
      "Ġt uk",
      "Ġx d",
      "ad o",
      "Ã¶ to",
      ". \"",
      "Û Ĳ",
      "Ġo ur",
      "uc e",
      "E E",
      "ro y",
      "Ġc t",
      "Ġp A",
      "Ġl a",
      "g s",
      "Ġp y",
      "I G",
      "2 9",
      "R A",
      "Ġc s",
      "Ġq e",
      "ĠG c",
      "M M",
      "ĠQ a",
      "oc e",
      "ĠA m",
      "Ġi f",
      "ĠK g",
      "Ġc d",
      "Ġe oe",
      "ĠTT A",
      "O r",
      "ĠKor k",
      "ĠT rot",
      "Õ¸ ÖĤ",
      "h i",
      "A v",
      "Ġt g",
      "ĠT or",
      "Ġm x",
      "Ġg i",
      "ĠF or",
      "ic i",
      "ĠTo s",
      "ĠR ep",
      "I T",
      "Ġa ud",
      "at t",
      "ro i",
      "Ġh i",
      "Ġb et",
      "Ġo ie",
      "ĠP l",
      "Ġy d",
      "Ġ7 6",
      "at er",
      "b ÉĶ",
      "ĠT TOL",
      "b s",
      "Ġc ub",
      "ĠL U",
      "Ġsay s",
      "Question s",
      "Ġo ot",
      "ĠV O",
      "Ġx ot",
      "__ __",
      "Ġk ub",
      "a f",
      "Ġa f",
      "ĠS y",
      "g i",
      "Ġ6 6",
      "p x",
      "Ġm r",
      "Ġm Ã©",
      "ĠE o",
      "to y",
      "Ġ7 00",
      "Ġ9 9",
      "C T",
      "or m",
      "à¹Ģ à¸",
      "Ġy v",
      "ĠT x",
      "an g",
      "ĠG t",
      "1 9",
      "ĠA L",
      "Ġv og",
      "Ġ0 7",
      "TO I",
      "D Y",
      "ĠE n",
      "ro e",
      "ĠTO t",
      "Ġp eo",
      "at a",
      "b p",
      "Ġmm mm",
      "Ġd n",
      "ĠK a",
      "A A",
      "ab ÉĶ",
      "Ã©Ã©Ã©Ã©Ã©Ã©Ã©Ã© Ã©Ã©Ã©Ã©Ã©Ã©Ã©Ã©",
      "ĠI s",
      "ĠO T",
      "it o",
      "b y",
      "ĠÙ Ħ",
      "à¤ ª",
      "Ġc ot",
      "Ġv y",
      "Ġg ood",
      "Y Y",
      "Ġo ed",
      "ĠT w",
      "Ġy c",
      "ĠA M",
      "et o",
      "d a",
      "ģ à¸",
      "ĠJ o",
      "Ġad i",
      "ĠTU S",
      "ĠY a",
      "ĠC V",
      "ĠA D",
      "Ã© t",
      "ĠTE L",
      "ĠT ex",
      "g ov",
      "Ġn e",
      "ĠM e",
      "yy y",
      "ĠT to",
      "Ġv el",
      "Ġà¤ ħ",
      "Ġd L",
      "Ġc oc",
      "ĠL E",
      "Ġh ouse",
      "Ġ× ¡",
      "d y",
      "Ġe ie",
      "ĠU A",
      "Ġà¤ ª",
      "Ġu ie",
      "Ġ3 6",
      "ur a",
      "ĠÐ ±",
      "&&&& &&&&",
      "Ġo m",
      "an an",
      "Ġâ Ĥ",
      "Ġn ame",
      "ĠS c",
      "ĠÙ Ĥ",
      "p t",
      "Ġl i",
      "ĠL A",
      "T u",
      "X A",
      "TO S",
      "ĠTA I",
      "c l",
      "ĠV ideo",
      "×ķ× ª",
      "Ġk e",
      "t g",
      "l og",
      "Î¿ Ïħ",
      "r es",
      "Ġe at",
      "ro x",
      "l ow",
      "Ã³ s",
      "ĠâĢĭ âĢĭ",
      "p os",
      "Ġu oi",
      "ĠM y",
      "S o",
      "ov o",
      "I U",
      "Ġg x",
      "h ere",
      "ĠA f",
      "Ġi a",
      "ĠO i",
      "ĠU T",
      "Ġu at",
      "t he",
      "Ġa ui",
      "I I",
      "ĠQu y",
      "ĠTT C",
      "Ġso me",
      "Ġ× ¦",
      "TO C",
      "Ġof o",
      "Ġà¤ ¤",
      "ĠE U",
      "ĠA B",
      "Ġp ot",
      "×§ ×¡",
      "ĠT ee",
      "à¹ ī",
      "Ġa T",
      "ĠO v",
      "Ġu di",
      "d u",
      "Ġhe ad",
      "ĠS h",
      "Ã¶ tub",
      "ĠØ £",
      "Ã¶ t",
      "O N",
      "ov s",
      "ay s",
      "Ġti me",
      "ĠO h",
      "al a",
      "ord ing",
      "Ã³ t",
      "ok e",
      "O R",
      "od i",
      "Ã³ n",
      "Ġm eo",
      "uo s",
      "to g",
      "Ġv ou",
      "à¸ ĩ",
      "Ġg ame",
      "\" .",
      "os t",
      "à¸ µ",
      "1 4",
      "Ã© m",
      "Ø³ Øª",
      "ĠT W",
      "Ġm es",
      "ĠA E",
      "ĠN a",
      "r ie",
      "D A",
      "ĠÙ Ĩ",
      "s i",
      "Ġt ou",
      "k er",
      "Ġv ot",
      "Ġv ov",
      "Ġa ur",
      "Ġe io",
      "99 9",
      "ÉĽ ck",
      "L o",
      "ĠY A",
      "ĠT eo",
      "Ġe me",
      "Ġo ui",
      "Ġs al",
      "v i",
      "ĠÙ ĩ",
      "j e",
      "b b",
      "Ġà¤ ®",
      "Ġex e",
      "S t",
      "Ġthe y",
      "r et",
      "Ġc ar",
      "Ú Ń",
      "Ġr v",
      "Ġe to",
      "Ï ī",
      "Ø ®",
      "Ġu v",
      "Ġh m",
      "Ġa k",
      "oc t",
      "Ġ ÏĢ",
      "ĠC e",
      "ĠG r",
      "Ġd A",
      "ĠØ ¹",
      "ĠQU U",
      "Ġ×Ĳ ×ķ",
      "Ġr ate",
      "ed i",
      "e A",
      "Ġe ot",
      "ĠD em",
      "× Ĺ",
      "Ġo io",
      "ĠC ot",
      "ĠV ue",
      "S U",
      "en e",
      "ĠAnsw ers",
      "Ġ× ĸ",
      "Ã© n",
      "Ġa ue",
      "S e",
      "d r",
      "à¤ ĥ",
      "ĠA V",
      "Ġe ue",
      "Ġi v",
      "ou ld",
      "Ġd oy",
      "H e",
      "ĠTR U",
      "ĠQu x",
      "an i",
      "Ġk now",
      "Ġo di",
      "ĠW o",
      "× Ľ",
      "Ġx a",
      "uo l",
      "Ġt ie",
      "Ġi p",
      "z a",
      "Ġm ou",
      "Ã³ i",
      "7 2",
      "h h",
      "ĠT io",
      "Ġa M",
      "Ġc p",
      "Ġl Ãł",
      "Ġi i",
      "Ð ¹",
      "ĠTO i",
      "Ġs i",
      "×Ļ× Ŀ",
      "Q A",
      "Ì ģ",
      "ĠM ag",
      "on s",
      "ug ug",
      "N C",
      "Ġ0 4",
      "oc o",
      "ĠU u",
      "E Y",
      "a ue",
      "Ġc ode",
      "à¤ Ł",
      "Ġx or",
      "Ġi x",
      "ĠL em",
      "A nd",
      "Û ĭ",
      "Ġc ur",
      "s a",
      "Ġà¤ µ",
      "of th",
      "Ã© g",
      "Ġv h",
      "Ġd it",
      "C o",
      "h y",
      "ĠK A",
      "T ot",
      "] .",
      "Ġd vo",
      "ĠTo g",
      "d l",
      "Ġ Ìģ",
      "ĠO A",
      "ĠTOL L",
      "ĠT ec",
      "ĠV y",
      "ĠÃ Ģ",
      "Ġ× ¨",
      "Ã© iv",
      "d io",
      "h a",
      "ĠA or",
      "Ġu oc",
      "Ġc ov",
      "A u",
      "d n",
      ". )",
      "ĠO I",
      "A a",
      "ĠT B",
      "un e",
      "Ġd en",
      "g x",
      "Ã ĥ",
      "ĠC I",
      "ĠC Y",
      "Ġh ow",
      "ĠB U",
      "ĠT g",
      "ĠG a",
      "ac t",
      "o V",
      "ĠT p",
      "Ġm oo",
      "ĠT es",
      "ad a",
      "Ò ¯",
      "ÙĨ Ùī",
      "Ø ¦",
      "Ġe ui",
      "ĠV u",
      "ĠK ok",
      "le o",
      "Ġyo x",
      "Ġd g",
      "R O",
      "ĠE l",
      "Ġi ov",
      "ĠJ u",
      "Ġ5 00",
      "in s",
      "7 8",
      "ĠT ue",
      "ĠT wo",
      "Ġm ex",
      "Ġro e",
      "ro om",
      "Ï ĩ",
      "Ġthe m",
      "ĠEx x",
      "3 3",
      "Ġy et",
      "ĠG od",
      "ĠV a",
      "Ġl ike",
      "×ķ× ¨",
      "Ġt s",
      "Ø§ Ùħ",
      "Ġmm b",
      "Ġst ates",
      "et y",
      "ĠAc e",
      "ar a",
      "Ġl uo",
      "Ġ5 0",
      "Ġ× ł",
      "ĠÎ ±",
      "ĠT oo",
      "w a",
      "at s",
      "Ġ3 2",
      "ĠAl l",
      "Î ³",
      "Ã© c",
      "et s",
      "ĠN o",
      "ĠØ Į",
      "ot s",
      "ĠI I",
      "d ay",
      "Ñ ħ",
      "Ġt x",
      "Ġm ub",
      "Ġu ev",
      "ĠS i",
      "ve l",
      "ĠA t",
      "Ġc c",
      "Ġy er",
      "ĠC C",
      "ee e",
      "×Ļ ×Ļ",
      "ĠOU X",
      "ãģ ¯",
      "9 6",
      "Ġm ec",
      "Ġle x",
      "ĠE X",
      "2 6",
      "un t",
      "Ġy on",
      "Ġk g",
      "Ġh ere",
      "U A",
      "Ġg r",
      "99 99",
      "is e",
      "Ġov d",
      "ĠA Q",
      "Ġx u",
      "ĠTH E",
      "Î ®",
      "Ï į",
      "ĠÃ© o",
      "I A",
      "v ov",
      "ĠT TO",
      "i es",
      "ĠL d",
      "Ġp er",
      "ĠTI S",
      "Ġf ather",
      "uo y",
      "I n",
      "u me",
      "at y",
      "or s",
      "Ġ4 2",
      "ĠTT E",
      "Ġm ba",
      "ĠA oo",
      "7 5",
      "ĠT ÃŃ",
      "Ġt al",
      "ĠÃ³ c",
      "m s",
      "Û Ī",
      "ĠM E",
      "Ùĥ Ùī",
      "ĠA ug",
      "ic t",
      "Ġd ev",
      "Ġi u",
      "T r",
      "T oc",
      "Ġw a",
      "D V",
      "l p",
      "Ġv at",
      "ĠTU TO",
      "à¤ ¦",
      "à¸ ¡",
      "5 6",
      "Ġu oo",
      "Ġa oo",
      "ĠI g",
      "ĠK G",
      "uo i",
      "uc a",
      "M E",
      "Ġd c",
      "Ġp ad",
      "r io",
      "Ġc or",
      "ĠV an",
      "iv es",
      "Ġd to",
      "Ġv r",
      "Ġday s",
      "ĠP at",
      "Ġov p",
      "Ġo ou",
      "Ġu ud",
      "ĠU s",
      "T oU",
      "b v",
      "ĠA ye",
      "ĠÎ ¼",
      "9 4",
      "T ov",
      "ĠL O",
      "9 1",
      "Ġc uu",
      "is h",
      "ĠD ev",
      "ex t",
      "Ġp ov",
      "à¤ Ĺ",
      "ĠJ k",
      "Ġy t",
      "Ġm s",
      "Ġc m",
      "Ġc om",
      "Ġ×Ĳ ×ķ×Ł",
      "Ac y",
      "Ã© e",
      "ĠM g",
      "ĠD ae",
      "Ġto t",
      "ĠU x",
      "Ġu ei",
      "Ġo L",
      "ĠB o",
      "Ġt ux",
      "Õ¥ Õ",
      "z i",
      "Ġa to",
      "ĠV A",
      "ur n",
      "Ġt an",
      "Ġv ote",
      "Ġs an",
      "Ġh is",
      "Ã³ y",
      "Ġp d",
      "Ġn g",
      "ĠÃ© k",
      "ĠX E",
      "m ent",
      "Ġa ov",
      "Ġp oc",
      "i an",
      "Ã© y",
      "Ġv ro",
      "Ã³ v",
      "f y",
      "Ġf a",
      "ĠAc t",
      "g or",
      "Ġt uck",
      "ĠS a",
      "ĠO X",
      "ĠJ L",
      "Ġe j",
      "T v",
      "Ġs ou",
      "ĠX V",
      "Ġd T",
      "ĠS v",
      "ĠX O",
      "Ġn i",
      "ĠU S",
      "3 6",
      "ĠG p",
      "ĠL i",
      "ĠC od",
      "Ġt en",
      "ĠTO N",
      "Ġi y",
      "Ø ·",
      "ĠC re",
      "it y",
      "u es",
      "Ġov o",
      "ÏĦ Îµ",
      "Y OU",
      "Ġk oi",
      "ĠQU A",
      "Ġmm ÉĶ",
      "ĠTÃĢ I",
      "Ġd oc",
      "Ġm um",
      "Ġ4 1",
      "ĠÃ ĥ",
      "ed e",
      "ĠTE S",
      "C U",
      "ĠA ue",
      "Ġp ou",
      "Ġqu i",
      "ĠTh at",
      "11 11",
      "Ġj o",
      "f p",
      "Ġd I",
      "ot a",
      "ĠE r",
      "Ġed o",
      "Ġo ve",
      "×Ļ ×Ĳ",
      "ee k",
      "og o",
      "Ġx A",
      "ĠC S",
      "on a",
      "3 9",
      "ov A",
      "ĠTU E",
      "way s",
      "5 0",
      "x s",
      "Ġu U",
      "ou d",
      "ro l",
      "en d",
      "ĠA I",
      "on t",
      "Ã¡ s",
      "P Y",
      "T Ãĵ",
      "ĠU n",
      "G e",
      "T B",
      "Ġo ic",
      "3 8",
      "Ġo up",
      "Ġ3 1",
      "Ġh y",
      "ul l",
      "ĠYOU R",
      "x c",
      "Ġc ap",
      "ĠS x",
      "ĠØ ±",
      "Ûķ ÙĨ",
      "Ġto l",
      "Ġl ames",
      "z e",
      "ĠS ee",
      "v in",
      "Ġ6 2",
      "×ķ× ¢",
      "n n",
      "R I",
      "ĠT Ãį",
      "Ã³ m",
      "p y",
      "ĠO s",
      "ie t",
      "3 5",
      "Ġe is",
      "ĠQ v",
      "er v",
      "ĠS k",
      "on o",
      "ĠA ou",
      "Ġy oo",
      "Ġ å",
      "ĠT Q",
      "Ġa h",
      "Ġc oe",
      "s y",
      "at h",
      "ĠE a",
      "p es",
      "q i",
      "ĠC ue",
      "Ġd f",
      "Ġd er",
      "Ġi r",
      "ĠP y",
      "uk uk",
      "AM AM",
      "Ġu on",
      "ĠU e",
      "E B",
      "u ov",
      "Ú ¯",
      "Ġc oy",
      "Ġv ao",
      "Ġ4 00",
      "Î¯ Î½",
      "A l",
      "ĠTE R",
      "Ġ6 7",
      "Ġac c",
      "Ġv d",
      "Ġw ife",
      "ĠQuan o",
      "ĠC ou",
      "ĠTI D",
      "C I",
      "X e",
      "Ġdi ug",
      "×¨ ×Ĳ",
      "Îµ Î¹",
      "ĠTO ÃĢ",
      "Ġc at",
      "Ġ8 0",
      "ĠQuan y",
      "m t",
      "Ġe nt",
      "ot ot",
      "ee d",
      "Ġot her",
      "Ġd Ãł",
      "Ġm v",
      "Ġ6 4",
      "Th ere",
      "Ġs d",
      "ĠI S",
      "à¸ °",
      "Ġb ut",
      "Ġot t",
      "Ġus e",
      "à ¯",
      "Ġs pe",
      "Î ´",
      "ë Ĭ",
      "Ġp ud",
      "ĠO N",
      "Ġr d",
      "ia o",
      "ĠG S",
      "ĠY y",
      "Ġ- ,",
      "lo me",
      "Ġd ae",
      "Ã© l",
      "ĠG eo",
      "uo c",
      "ĠW e",
      "Õ¸ÖĤ Õ",
      "x d",
      "L Y",
      "ig u",
      "ĠC le",
      "ĠD ou",
      "Ġre ad",
      "Ð ²",
      "Ø Ł",
      "Ġp t",
      "Ġx y",
      "Ġ9 6",
      "ee ee",
      "og u",
      "ãģ ¾",
      "E X",
      "Q a",
      "ĠR o",
      "ĠØ ´",
      "Ġe oo",
      "Ġp os",
      "ĠE u",
      "Ġk i",
      "ac y",
      "- -",
      "Ġe f",
      "Ġu os",
      "ĠP e",
      "ĠJ A",
      "ĠAc ro",
      "Ġj i",
      "Ġg s",
      "ĠM ot",
      "Ġr t",
      "à¸ ·",
      "uc o",
      "Ġy an",
      "à¸ §",
      "Ġbet ter",
      "T ÃĢ",
      "× ļ",
      "Ġv Ã©",
      "Ġv er",
      "ul us",
      "ĠK S",
      "C A",
      "ĠO K",
      "ĠÑ ħ",
      ".. .",
      "ãģ¾ ãģ",
      "id o",
      "Ġye y",
      "ÙĪ ÙĨ",
      "ĠÏĦ Î¿",
      "n s",
      "r m",
      "Ġc oo",
      "ul u",
      "ĠÚ ©",
      "Ġcub e",
      "Ġe re",
      "Ġc og",
      "Ġf u",
      "E I",
      "ëĬ Ķ",
      "Ġd H",
      "ĠV e",
      "Ġor e",
      "Ġr ed",
      "Ġem b",
      "Ġme a",
      "1 8",
      "Ø º",
      "Ġm et",
      "Ġc io",
      "6 0",
      "Ġr y",
      "C H",
      "Ġe co",
      "Ġv ol",
      "ĠU U",
      "ĠÙ ģ",
      "or y",
      "Ġhe art",
      "Ð°Ð ¹",
      "in a",
      "ĠTC U",
      "X X",
      "c le",
      "v al",
      "ĠG l",
      "ĠG ot",
      "LU EB",
      "Ġc ui",
      "ĠQ oo",
      "ĠS al",
      "uk u",
      "l s",
      "Ú Ĩ",
      "Ġy at",
      "Ġh ope",
      "Ġot i",
      "ĠP r",
      "ÙĪ ÙĦ",
      "Ġ×ĺ ×Ĳ",
      "r x",
      "Ã© ie",
      "Ġv v",
      "ĠG I",
      "ĠD u",
      "Ú ©",
      "us s",
      "à¸ Ķ",
      "eo e",
      "Ø§ ÙĬ",
      "× ¦",
      "Ġt m",
      "Ġu ae",
      "Ãĵ D",
      "y x",
      "Ġe le",
      "Ġto i",
      "ĠV al",
      "l ic",
      "ĠO g",
      "Ġod d",
      "LUEB LUEB",
      "P P",
      "U U",
      "k u",
      "ĠE S",
      "ĠK ock",
      "Ġye u",
      "up e",
      "Ġtub e",
      "Ġp ay",
      "Ġn ow",
      "7 6",
      "ĠQu ex",
      "ĠP u",
      "ĠJ ew",
      "Ã³ e",
      "h oo",
      "s g",
      "Ġe ye",
      "ĠÃ Ń",
      "ĠTo d",
      "Ġex o",
      "ĠTOU S",
      "Ġcv y",
      "Ġp ar",
      "Ġv oe",
      "Ġoc e",
      "Ġdi v",
      "er c",
      "Ġv od",
      "io o",
      "Ġr r",
      "Ã© o",
      "Ġw g",
      "d ie",
      "Ġto e",
      "ot y",
      "à¹ ģà¸",
      "Ġr ou",
      "ĠdY x",
      "Ġv an",
      "Ó ©",
      "æ Ī",
      "OU S",
      "G I",
      "ĠM al",
      "Ġk al",
      "Ġor d",
      "Ġu ti",
      "Ġc ut",
      "ĠY T",
      "ĠK O",
      "ĠA h",
      "Ġy op",
      "ĠO n",
      "me m",
      "ĠTU I",
      "Ġa oi",
      "Ġm oi",
      "Ġs uck",
      "Ġad o",
      "C D",
      "Ġ9 0",
      "Ġro c",
      "Ġco me",
      "Ġt ake",
      "r at",
      "ĠC K",
      "Ġv oc",
      "ĠE v",
      "ĠQU T",
      "Ġx oc",
      "Ø§ Øª",
      "×Ļ× ĺ",
      "TI OY",
      "ĠK at",
      "ĠTR A",
      "Ġ0 01",
      "ĠQu ee",
      "Ġg et",
      "Ġr u",
      "e T",
      "Ð ¼",
      "Ġoc i",
      "6 1",
      "f a",
      "Ġo oo",
      "ĠI m",
      "ĠØ ¬",
      "Ġj u",
      "Ġ×Ĳ×Ļ× ĸ",
      "ĠC m",
      "ĠG ap",
      "uo g",
      "it t",
      "ĠTU X",
      "ĠÙĬ Ø§",
      "c oe",
      "ĠA k",
      "Ġd ue",
      "ĠY U",
      "Ġq p",
      "Ġq oi",
      "ëĭ ¤",
      "Ġt ud",
      "ec a",
      "Ġà¤ °",
      "ing s",
      "am a",
      "G Y",
      "Ġ1 7",
      "ĠU V",
      "Ġr et",
      "ag a",
      "à ¦",
      "ĠT it",
      "ĠÃ© d",
      "Ġb l",
      "×ķ× ĵ",
      "Ġ. .",
      "Ï İ",
      "ĠT at",
      "ĠS p",
      "Ġro i",
      "TE L",
      "Ġgo ing",
      "ĠÙħ ÙĨ",
      "ww ww",
      "h t",
      "y k",
      "Ã ¦",
      "Ġe k",
      "ĠS O",
      "uo w",
      "ĠD ec",
      "ĠÎº Î±Î¹",
      "ĠA i",
      "Ġx c",
      "Ġh k",
      "ĠĠĠĠ ĠĠĠĠĠĠĊ",
      "ĠTR O",
      "ĠÑ Ĥ",
      "T Ã©",
      "m y",
      "o A",
      "í ķ",
      "ĠTT D",
      "E O",
      "Ġt alk",
      "di x",
      "Ġ×§ ×Ĳ",
      "Ġo to",
      "Ġor i",
      "x A",
      "Ġc B",
      "Ġ×¦ ×ķ",
      "Ġy en",
      "Ġwh ere",
      "A t",
      "Ġy ub",
      "ou n",
      "×Ļ× §",
      "Ġu ad",
      "k et",
      "ro p",
      "io c",
      "ĠG T",
      "ĠS ub",
      "Ġr x",
      "Ġà¤ Ĺ",
      "Î¹ Î±",
      "2 1",
      "3 1",
      "Ġol d",
      "io g",
      "Ġk ot",
      "Ã¡ v",
      "Ġye a",
      "b r",
      "Ġe b",
      "Ã³ p",
      "T os",
      "b le",
      "Ġo ux",
      "ĠD i",
      "q o",
      "v ou",
      "Ġt eo",
      "Ġp et",
      "es c",
      "Ġx g",
      "ĠP a",
      "ar m",
      "uc u",
      "ĠT ug",
      "à¤ ¡",
      "Ġg od",
      "Ġl ook",
      "Ġ×© ×ľ",
      "Ġc up",
      "Ù ĭ",
      "Ġc ue",
      "Ġp op",
      "Ġ1 01",
      "Ġ2 7",
      "oc y",
      "ĠR a",
      "Ġy f",
      "ĠTo m",
      "ĠL L",
      "Ġcon t",
      "l im",
      "ĠV I",
      "ĠK ou",
      "Ġw ord",
      "ĠR U",
      "Ø £",
      "Ø Į",
      "Ġc j",
      "er n",
      "Ġye ars",
      "W hat",
      "Ġmon th",
      "ĠM O",
      "y i",
      "ĠA p",
      "Ġe ri",
      "Ġy w",
      "Ġx s",
      "or ro",
      "Ġis t",
      "ĠâĤ Ĥ",
      "w here",
      "Ġy k",
      "it a",
      "Ġpeo ple",
      "d W",
      "ĠC R",
      "ĠS A",
      "ĠÃī U",
      "Ġt udi",
      "Ġqu ot",
      "ãģ ®",
      "ĠC L",
      "io i",
      "od d",
      "ad y",
      "Ïģ Î±",
      "ov a",
      "en o",
      "×ķ× ľ",
      "Ġv as",
      "ĠTE T",
      "Ġi l",
      "Ġto c",
      "al s",
      "ĠP o",
      "Ġg ua",
      "ÃŃ ÃŃ",
      "ĠC D",
      "or r",
      "Ġf ac",
      "×Ļ× ¨",
      "I NG",
      "M A",
      "Ï Ĩ",
      "ut ion",
      "Ġdi uo",
      "ëĭ Ī",
      "ĠU m",
      "C E",
      "ĠT ra",
      "ĠE d",
      "ĠX a",
      "Ġt uo",
      "ĠE y",
      "' re",
      "ĠQ V",
      "T t",
      "Ġg y",
      "×¢ ×ł",
      "Ġa ou",
      "Ġd or",
      "ĠX C",
      "ĠTOU T",
      "Ø± Ø§",
      "Ġp n",
      "ĠX T",
      "Ġr to",
      "Ġj e",
      "Ùī Ø²",
      "Ġoc t",
      "T oe",
      "g r",
      "ĠA w",
      "ĠA oy",
      "Ġy ot",
      "ĠL T",
      "ee p",
      "Ġp au",
      "Ġv t",
      "io w",
      "ĠM ay",
      "ĠD E",
      "em o",
      "Ġac o",
      "Ġsh ould",
      "Î¯Î½ Î±Î¹",
      "j a",
      "I s",
      "ĠTo x",
      "Ã³ c",
      "Ġov y",
      "Ð° ÑĢ",
      "ĠP re",
      "à¸ ´",
      "Ġf ov",
      "U e",
      "v og",
      "Ġo us",
      "Ġe L",
      "in es",
      "5 1",
      "Ġo ua",
      "Ġv li",
      "Ġqu estion",
      "v s",
      "Ġa ot",
      "ĠX t",
      "Ġl ove",
      "à¸ ģ",
      "n y",
      "ĠY es",
      "le t",
      "ĠR O",
      "×ķ× §",
      "ĠTA G",
      "f t",
      "Ġd oo",
      "Ġf i",
      "Ġn ak",
      "ra me",
      "Ù ¾",
      "ĠE V",
      "Ġ2 1",
      "ĠJ E",
      "it s",
      "ĠH o",
      "Ġye ar",
      "ĠTC I",
      "y en",
      "Ġ2 8",
      "Ġd ec",
      "ĠO O",
      "ur s",
      "×ķ× ł",
      "R E",
      "T L",
      "ie y",
      "ic a",
      "Ġq us",
      "re d",
      "Ġ×Ĳ ×ª",
      "oo s",
      "ub an",
      "ĠAcy en",
      "×ł ×Ļ",
      "Ġ×ķ ×ķ",
      "Ø µ",
      "ĠT on",
      "Ġg ot",
      "Ã³ r",
      "Ġem i",
      "ĠT us",
      "ĠOU S",
      "Q e",
      "ĠC ro",
      "ue k",
      "U x",
      "Ġa X",
      "Ġv op",
      "oe l",
      "A g",
      "ĠC at",
      "ĠI f",
      "ĠM at",
      "Ġq x",
      "×ķ× ĳ",
      "×¢ ×Ł",
      "Ġo et",
      "Ġa ir",
      "Ġs k",
      "Ġ7 10",
      "ĠO c",
      "ĠJ t",
      "Ġac p",
      "Ġco in",
      "7 00",
      "q p",
      "Ġc ud",
      "ĠTo w",
      "Ġn u",
      "Ġal so",
      "d p",
      "Ġa ut",
      "Ġy os",
      "Ġw y",
      "Ġk uck",
      "U s",
      "v ing",
      "ad i",
      "z er",
      "ĠG oo",
      "Ġk uk",
      "Ġh ard",
      "à¸ ¢",
      "ĠQu a",
      "to e",
      "Ġv al",
      "ĠE Y",
      "ĠÃ ¦",
      "ĠTI N",
      "×ķ× ¡",
      "ot h",
      "Ġb u",
      "ĠR V",
      "Ġal ways",
      "X C",
      "m ov",
      "Ġd le",
      "Ġy g",
      "ie w",
      "Ġr es",
      "Ġqu a",
      "ĠCor k",
      "Ġe w",
      "uo e",
      "T Y",
      "Ġo O",
      "ie x",
      "Ġh u",
      "it i",
      "ig e",
      "âĢ Ŀ",
      "×ķ×ķ ×Ĳ",
      "Ûĭ Ûķ",
      "A H",
      "Ġk a",
      "ac a",
      "×ĺ ×Ĳ",
      "AG Y",
      "c d",
      "Ġa ic",
      "Ġd ing",
      "ĠTO A",
      "en i",
      "____ ____",
      "A N",
      "z ov",
      "Ġd ug",
      "Ġp av",
      "Ġ0 71",
      "Ġ× Ľ",
      "ab le",
      "ãĥ ¼",
      "Õ¡Õ ¶",
      "Ġo ro",
      "Ġt ra",
      "Ġe q",
      "Ġe ua",
      "Ġp ai",
      "Ġv la",
      "ĠO t",
      "Ġk oc",
      "Ö Ħ",
      "ĠK E",
      "00 00",
      "Ġov a",
      "ĠÃł i",
      "Ġc ro",
      "Ġem o",
      "Ø¯ Ùī",
      "C O",
      "ĠG ua",
      "à¸ «",
      "Ġ ê",
      "ĠQ J",
      "ĠC oo",
      "ĠK i",
      "le y",
      "×Ļ× ł",
      "I N",
      "S y",
      "s u",
      "Ġu es",
      "Ġc os",
      "Ġg eo",
      "ĠTE D",
      "Ġa ua",
      "ĠA oc",
      "Ġv x",
      "Ġw ay",
      "ic y",
      "Ġp Ã©",
      "ĠS d",
      "Ġq a",
      "Ġn um",
      "à¥ Ĥ",
      "âĢĭâĢĭ âĢĭ",
      "ĠL y",
      "ug a",
      "TI O",
      "7 01",
      "m u",
      "ĠP E",
      "×Ļ× ľ",
      "Ġac t",
      "ĠX U",
      "ar n",
      "ion e",
      "db v",
      "B O",
      "x Ã©",
      "Ġa ae",
      "Ġm un",
      "à¤ ¥",
      "le k",
      "Ùħ Ø§",
      "Ġa uc",
      "Ġp uc",
      "ĠØ ®",
      "y ov",
      "Ġc op",
      "à¤ ¬",
      "ĠL a",
      "ol low",
      "ĠN ot",
      "à¸ Ħ",
      "Ġ×ĵ ×Ļ",
      "0 9",
      "M o",
      "Ġg old",
      "ie nt",
      "ĠR E",
      "Ġu ai",
      "ĠD ep",
      "ĠÃł v",
      "Ð° Ð½",
      "ul a",
      "Ġet c",
      "ii i",
      "Ġp ro",
      "er r",
      "Ġg oo",
      "ĠD A",
      "Ġdi y",
      "Ġro y",
      "ÙĪ Ø±",
      "H O",
      "j u",
      "ĠQU X",
      "×ĵ ×¢×¨",
      "T a",
      "ĠT Ã¼",
      "Ġc O",
      "Ġp og",
      "ĠD y",
      "ĠØ ¥",
      "ock s",
      "Ġe id",
      "ĠG G",
      "ĠO S",
      "Ġdi u",
      "ĠAc a",
      "Ġro ad",
      "Ġc b",
      "ĠC lex",
      "ĠL Ãł",
      "ÏĦ Î¿",
      "Ã ¤",
      "ĠA ot",
      "C TO",
      "ia u",
      "ÖĢ Õ",
      "Ġa ro",
      "Ġd ud",
      "Ġe or",
      "Ġth ink",
      "T l",
      "ov i",
      "à¤ ·",
      "ĠD ot",
      "ia i",
      "Ð¸ Ð¹",
      "Ġtab le",
      "p ac",
      "Ġt at",
      "le d",
      "Ġ9 3",
      "B p",
      "ĠA uc",
      "Ġe h",
      "ĠK ol",
      "c n",
      "ģ ĵ",
      "Ġb p",
      "ec i",
      "our t",
      "ĠÎµ Î¯Î½Î±Î¹",
      "K o",
      "T og",
      "Ġe z",
      "Ġm in",
      "Ġp ue",
      "ĠV ide",
      "al o",
      "aa aa",
      "s gg",
      "â ģĦ",
      "Ġe nd",
      "ĠV E",
      "Ġg uy",
      "Ġ×ŀ ×Ĳ",
      "d Y",
      "Ġo er",
      "Ġd ot",
      "ĠA Y",
      "ĠTA S",
      "Ġs alm",
      "Ġ0 5",
      "Ġx v",
      "Ġr ro",
      "Ġz y",
      "×Ļ× ¡",
      "Ġan g",
      "Ġdix o",
      "K E",
      "r v",
      "Ġro o",
      "Ġd w",
      "Ġy oc",
      "ĠX u",
      "ĠTe i",
      "S S",
      "X E",
      "ĠO p",
      "ĠL u",
      "ĠL ee",
      "ĠJ a",
      "Ġqu u",
      "Ġspe ak",
      ") )",
      "c A",
      "d id",
      "or k",
      "ĠV p",
      "ĠE t",
      "Ġthe e",
      "0 2",
      "ĠT ed",
      "Ġd O",
      "Ġm t",
      "Ġad io",
      "w hat",
      "Ġd og",
      "ĠO o",
      "Ġro s",
      "ect ion",
      "0 5",
      "c m",
      "Ġu m",
      "ÛĮ Ø¯",
      "T c",
      "U Y",
      "Ð µ",
      "Ġt d",
      "ĠC ook",
      "ot p",
      "Ġk k",
      "Ġf A",
      "B e",
      "M a",
      "Ġv os"
    ]
  }
}