{
  "version": "1.0",
  "truncation": null,
  "padding": null,
  "added_tokens": [
    {
      "id": 0,
      "content": "<|endoftext|>",
      "single_word": false,
      "lstrip": false,
      "rstrip": false,
      "normalized": false,
      "special": true
    }
  ],
  "normalizer": null,
  "pre_tokenizer": {
    "type": "ByteLevel",
    "add_prefix_space": false,
    "trim_offsets": true,
    "use_regex": true
  },
  "post_processor": {
    "type": "ByteLevel",
    "add_prefix_space": true,
    "trim_offsets": true,
    "use_regex": true
  },
  "decoder": {
    "type": "ByteLevel",
    "add_prefix_space": true,
    "trim_offsets": true,
    "use_regex": true
  },
  "model": {
    "type": "BPE",
    "dropout": null,
    "unk_token": null,
    "continuing_subword_prefix": null,
    "end_of_word_suffix": null,
    "fuse_unk": false,
    "vocab": {
      "<|endoftext|>": 0,
      "!": 1,
      "\"": 2,
      "#": 3,
      "$": 4,
      "%": 5,
      "&": 6,
      "'": 7,
      "(": 8,
      ")": 9,
      "*": 10,
      "+": 11,
      ",": 12,
      "-": 13,
      ".": 14,
      "/": 15,
      "0": 16,
      "1": 17,
      "2": 18,
      "3": 19,
      "4": 20,
      "5": 21,
      "6": 22,
      "7": 23,
      "8": 24,
      "9": 25,
      ":": 26,
      ";": 27,
      "<": 28,
      "=": 29,
      ">": 30,
      "?": 31,
      "@": 32,
      "A": 33,
      "B": 34,
      "C": 35,
      "D": 36,
      "E": 37,
      "F": 38,
      "G": 39,
      "H": 40,
      "I": 41,
      "J": 42,
      "K": 43,
      "L": 44,
      "M": 45,
      "N": 46,
      "O": 47,
      "P": 48,
      "Q": 49,
      "R": 50,
      "S": 51,
      "T": 52,
      "U": 53,
      "V": 54,
      "W": 55,
      "X": 56,
      "Y": 57,
      "Z": 58,
      "[": 59,
      "\\": 60,
      "]": 61,
      "^": 62,
      "_": 63,
      "`": 64,
      "a": 65,
      "b": 66,
      "c": 67,
      "d": 68,
      "e": 69,
      "f": 70,
      "g": 71,
      "h": 72,
      "i": 73,
      "j": 74,
      "k": 75,
      "l": 76,
      "m": 77,
      "n": 78,
      "o": 79,
      "p": 80,
      "q": 81,
      "r": 82,
      "s": 83,
      "t": 84,
      "u": 85,
      "v": 86,
      "w": 87,
      "x": 88,
      "y": 89,
      "z": 90,
      "{": 91,
      "|": 92,
      "}": 93,
      "~": 94,
      "¡": 95,
      "¢": 96,
      "£": 97,
      "¤": 98,
      "¥": 99,
      "¦": 100,
      "§": 101,
      "¨": 102,
      "©": 103,
      "ª": 104,
      "«": 105,
      "¬": 106,
      "®": 107,
      "¯": 108,
      "°": 109,
      "±": 110,
      "²": 111,
      "³": 112,
      "´": 113,
      "µ": 114,
      "¶": 115,
      "·": 116,
      "¸": 117,
      "¹": 118,
      "º": 119,
      "»": 120,
      "¼": 121,
      "½": 122,
      "¾": 123,
      "¿": 124,
      "À": 125,
      "Á": 126,
      "Â": 127,
      "Ã": 128,
      "Ä": 129,
      "Å": 130,
      "Æ": 131,
      "Ç": 132,
      "È": 133,
      "É": 134,
      "Ê": 135,
      "Ë": 136,
      "Ì": 137,
      "Í": 138,
      "Î": 139,
      "Ï": 140,
      "Ð": 141,
      "Ñ": 142,
      "Ò": 143,
      "Ó": 144,
      "Ô": 145,
      "Õ": 146,
      "Ö": 147,
      "×": 148,
      "Ø": 149,
      "Ù": 150,
      "Ú": 151,
      "Û": 152,
      "Ü": 153,
      "Ý": 154,
      "Þ": 155,
      "ß": 156,
      "à": 157,
      "á": 158,
      "â": 159,
      "ã": 160,
      "ä": 161,
      "å": 162,
      "æ": 163,
      "ç": 164,
      "è": 165,
      "é": 166,
      "ê": 167,
      "ë": 168,
      "ì": 169,
      "í": 170,
      "î": 171,
      "ï": 172,
      "ð": 173,
      "ñ": 174,
      "ò": 175,
      "ó": 176,
      "ô": 177,
      "õ": 178,
      "ö": 179,
      "÷": 180,
      "ø": 181,
      "ù": 182,
      "ú": 183,
      "û": 184,
      "ü": 185,
      "ý": 186,
      "þ": 187,
      "ÿ": 188,
      "Ā": 189,
      "ā": 190,
      "Ă": 191,
      "ă": 192,
      "Ą": 193,
      "ą": 194,
      "Ć": 195,
      "ć": 196,
      "Ĉ": 197,
      "ĉ": 198,
      "Ċ": 199,
      "ċ": 200,
      "Č": 201,
      "č": 202,
      "Ď": 203,
      "ď": 204,
      "Đ": 205,
      "đ": 206,
      "Ē": 207,
      "ē": 208,
      "Ĕ": 209,
      "ĕ": 210,
      "Ė": 211,
      "ė": 212,
      "Ę": 213,
      "ę": 214,
      "Ě": 215,
      "ě": 216,
      "Ĝ": 217,
      "ĝ": 218,
      "Ğ": 219,
      "ğ": 220,
      "Ġ": 221,
      "ġ": 222,
      "Ģ": 223,
      "ģ": 224,
      "Ĥ": 225,
      "ĥ": 226,
      "Ħ": 227,
      "ħ": 228,
      "Ĩ": 229,
      "ĩ": 230,
      "Ī": 231,
      "ī": 232,
      "Ĭ": 233,
      "ĭ": 234,
      "Į": 235,
      "į": 236,
      "İ": 237,
      "ı": 238,
      "Ĳ": 239,
      "ĳ": 240,
      "Ĵ": 241,
      "ĵ": 242,
      "Ķ": 243,
      "ķ": 244,
      "ĸ": 245,
      "Ĺ": 246,
      "ĺ": 247,
      "Ļ": 248,
      "ļ": 249,
      "Ľ": 250,
      "ľ": 251,
      "Ŀ": 252,
      "ŀ": 253,
      "Ł": 254,
      "ł": 255,
      "Ń": 256,
      "Ġt": 257,
      "Ġa": 258,
      "he": 259,
      "in": 260,
      "Ġw": 261,
      "re": 262,
      "Ġs": 263,
      "ou": 264,
      "Ġthe": 265,
      "on": 266,
      "ha": 267,
      "Ġi": 268,
      "er": 269,
      "Ġm": 270,
      "Ġb": 271,
      "ĠI": 272,
      "ing": 273,
      "Ġc": 274,
      "en": 275,
      "or": 276,
      "76": 277,
      "85": 278,
      "Ġto": 279,
      "Ġd": 280,
      "Ġf": 281,
      "an": 282,
      "06": 283,
      "Ġp": 284,
      "71": 285,
      "ll": 286,
      "Ġl": 287,
      "Ġo": 288,
      "es": 289,
      "48": 290,
      "Ġan": 291,
      "51": 292,
      "Ġy": 293,
      "ed": 294,
      "79": 295,
      "hat": 296,
      "it": 297,
      "st": 298,
      "Ġn": 299,
      "29": 300,
      "at": 301,
      "45": 302,
      "Ġyou": 303,
      "22": 304,
      "Ġg": 305,
      "om": 306,
      "Ġin": 307,
      "Ġof": 308,
      "80": 309,
      "Ġand": 310,
      "is": 311,
      "31": 312,
      "Ġbe": 313,
      "ve": 314,
      "ar": 315,
      "ot": 316,
      "Ġth": 317,
      "Ġit": 318,
      "le": 319,
      "ow": 320,
      "Ġis": 321,
      "Ġe": 322,
      "70": 323,
      "41": 324,
      "61": 325,
      "Ġha": 326,
      "Ġthat": 327,
      "72": 328,
      "al": 329,
      "as": 330,
      "ĠT": 331,
      "ic": 332,
      "âĢ": 333,
      "99": 334,
      "74": 335,
      "Ġh": 336,
      "56": 337,
      "se": 338,
      "ke": 339,
      "35": 340,
      "ld": 341,
      "Ġre": 342,
      "ut": 343,
      "ay": 344,
      "et": 345,
      "62": 346,
      "id": 347,
      "Ġhe": 348,
      "Ġon": 349,
      "ver": 350,
      "051": 351,
      "ion": 352,
      "94": 353,
      "Ġu": 354,
      "Ġli": 355,
      "98": 356,
      "976": 357,
      "ly": 358,
      "ED": 359,
      "798": 360,
      "ac": 361,
      "806": 362,
      "7198": 363,
      "70976": 364,
      "627198": 365,
      "051627198": 366,
      "806051627198": 367,
      "709760": 368,
      "806051627198709760": 369,
      "gh": 370,
      "11": 371,
      "Ġme": 372,
      "Ġwe": 373,
      "ĠA": 374,
      "Ġst": 375,
      "65": 376,
      "55": 377,
      "Ġfor": 378,
      "ent": 379,
      "ro": 380,
      "Ġk": 381,
      "im": 382,
      "am": 383,
      "00": 384,
      "Ġnot": 385,
      "5529": 386,
      "oo": 387,
      "out": 388,
      "33": 389,
      "756": 390,
      "8585": 391,
      "7566": 392,
      "7611": 393,
      "855529": 394,
      "85857566": 395,
      "761185857566": 396,
      "855529761185857566": 397,
      "all": 398,
      "ad": 399,
      "Ġare": 400,
      "nd": 401,
      "Ġwas": 402,
      "âĢĻ": 403,
      "ir": 404,
      "Ġdo": 405,
      "ould": 406,
      "ill": 407,
      "ĠThe": 408,
      "ith": 409,
      "Ġ[": 410,
      "'s": 411,
      "'t": 412,
      "ct": 413,
      "ust": 414,
      "ĠS": 415,
      "Ġhave": 416,
      "ol": 417,
      "Ġmy": 418,
      "7106": 419,
      "Ġj": 420,
      "ĠW": 421,
      "484": 422,
      "2261": 423,
      "7982261": 424,
      "94484": 425,
      "067982261": 426,
      "7106067982261": 427,
      "710606798226194484": 428,
      "op": 429,
      "34": 430,
      "ri": 431,
      "Ġwith": 432,
      "20": 433,
      "ce": 434,
      "ch": 435,
      "Ġlike": 436,
      "ght": 437,
      "Ġthis": 438,
      "315": 439,
      "Ġas": 440,
      "ee": 441,
      "88": 442,
      "Ġthey": 443,
      "ome": 444,
      "Ġwh": 445,
      "Ġbut": 446,
      "9985": 447,
      "Ġcan": 448,
      "her": 449,
      "36": 450,
      "92": 451,
      "82": 452,
      "Ġne": 453,
      "hing": 454,
      "90": 455,
      "729": 456,
      "Ġmo": 457,
      "77": 458,
      "ally": 459,
      "..": 460,
      "CT": 461,
      "Ġ\"": 462,
      "ant": 463,
      "RED": 464,
      "ACT": 465,
      "REDACT": 466,
      "REDACTED": 467,
      "Ġkn": 468,
      "ĠH": 469,
      "3580": 470,
      "ĠĠ": 471,
      "ĠY": 472,
      "Ġsu": 473,
      "459": 474,
      "Ġab": 475,
      "46": 476,
      "ĠB": 477,
      "Ġal": 478,
      "456": 479,
      "one": 480,
      "488": 481,
      "Ġor": 482,
      "Ġso": 483,
      "Ġwhat": 484,
      "Ġwor": 485,
      "345": 486,
      "ra": 487,
      "Ġjust": 488,
      "Ġv": 489,
      "Ġde": 490,
      "ge": 491,
      "ter": 492,
      "81": 493,
      "us": 494,
      "ess": 495,
      "Ġall": 496,
      "56488": 497,
      "5648879": 498,
      "7465": 499,
      "3159985": 500,
      "74653159985": 501,
      "746531599855648879": 502,
      "Ġknow": 503,
      "ĠM": 504,
      "ation": 505,
      "il": 506,
      "ink": 507,
      "ur": 508,
      "780": 509,
      "802": 510,
      "32": 511,
      "75": 512,
      "Ġyour": 513,
      "48802": 514,
      "34548802": 515,
      "7648": 516,
      "2934548802": 517,
      "412934548802": 518,
      "82412934548802": 519,
      "824129345488027648": 520,
      "pp": 521,
      "Ġat": 522,
      "ea": 523,
      "725": 524,
      "un": 525,
      "ind": 526,
      "Ġgo": 527,
      "ĠIt": 528,
      "748": 529,
      "76780": 530,
      "79748": 531,
      "7279748": 532,
      "74725": 533,
      "767804": 534,
      "7279748767804": 535,
      "747257279748767804": 536,
      "Ġcon": 537,
      "Ġex": 538,
      "ers": 539,
      "um": 540,
      "ie": 541,
      "ĠĊ": 542,
      "ul": 543,
      "eop": 544,
      "Ġwould": 545,
      "906": 546,
      "Ġdon": 547,
      "eople": 548,
      "ĠD": 549,
      "est": 550,
      "Ġma": 551,
      "rom": 552,
      "Ġif": 553,
      "751": 554,
      "300": 555,
      "801": 556,
      "Ġsh": 557,
      "Ġtr": 558,
      "our": 559,
      "han": 560,
      "very": 561,
      "ĠN": 562,
      "ig": 563,
      "Ġwill": 564,
      "Ġone": 565,
      "Ġpeople": 566,
      "6136": 567,
      "ck": 568,
      "Ġwhe": 569,
      "Ġabout": 570,
      "3151": 571,
      "996136": 572,
      "729996136": 573,
      "729996136459": 574,
      "413151": 575,
      "413151729996136459": 576,
      "ĠC": 577,
      "ven": 578,
      "6577": 579,
      "13580": 580,
      "ĠO": 581,
      "226577": 582,
      "79813580": 583,
      "456226577": 584,
      "798135808": 585,
      "456226577798135808": 586,
      "nt": 587,
      "--": 588,
      "ame": 589,
      "890": 590,
      "Ġ@": 591,
      "ĠL": 592,
      "fe": 593,
      "art": 594,
      "ate": 595,
      "and": 596,
      "ĠP": 597,
      "end": 598,
      "ðŁ": 599,
      "ain": 600,
      "Ġsome": 601,
      "Ġthink": 602,
      "Ġthem": 603,
      "8876": 604,
      "Ġpro": 605,
      "9492": 606,
      "519492": 607,
      "22890": 608,
      "80122890": 609,
      "887680122890": 610,
      "519492887680122890": 611,
      "Ġfrom": 612,
      "au": 613,
      "em": 614,
      "os": 615,
      "19": 616,
      "'m": 617,
      "ab": 618,
      "Ġr": 619,
      "002": 620,
      "072": 621,
      "ime": 622,
      "ood": 623,
      "Ġcom": 624,
      "ĠR": 625,
      "Ġno": 626,
      "14": 627,
      "ĠE": 628,
      "09": 629,
      "ight": 630,
      "if": 631,
      "ist": 632,
      "Ġany": 633,
      "Ġup": 634,
      "Ġsee": 635,
      "od": 636,
      "Ġint": 637,
      "995": 638,
      "ive": 639,
      "Ġsp": 640,
      "95": 641,
      "ity": 642,
      "ide": 643,
      "331": 644,
      "red": 645,
      "Ġthere": 646,
      "Ġpl": 647,
      "el": 648,
      "Ġout": 649,
      "471": 650,
      "ĠG": 651,
      "633": 652,
      "7971": 653,
      "20471": 654,
      "331072": 655,
      "6337971": 656,
      "204716337971": 657,
      "204716337971331072": 658,
      "Ġget": 659,
      "Ġthing": 660,
      "king": 661,
      "ause": 662,
      "ell": 663,
      "Ġher": 664,
      "ough": 665,
      "##": 666,
      "iz": 667,
      "Ġtime": 668,
      "ack": 669,
      "qu": 670,
      "Ġus": 671,
      "2970": 672,
      "Ġmore": 673,
      "be": 674,
      "834": 675,
      "ect": 676,
      "âĢľ": 677,
      "âĢĿ": 678,
      "712": 679,
      "ĠF": 680,
      "05": 681,
      "Ġwho": 682,
      "pt": 683,
      "871": 684,
      "ĠYou": 685,
      "227": 686,
      "The": 687,
      "285": 688,
      "75114": 689,
      "2970871": 690,
      "227712": 691,
      "75114227712": 692,
      "297087175114227712": 693,
      "45995": 694,
      "8145995": 695,
      "9068145995": 696,
      "8349068145995": 697,
      "28519": 698,
      "834906814599528519": 699,
      "ong": 700,
      "Ġdid": 701,
      "ther": 702,
      "91": 703,
      "Ġam": 704,
      "Ġhow": 705,
      "Ġen": 706,
      "ear": 707,
      "Ġlo": 708,
      "ĠðŁ": 709,
      "ine": 710,
      "Ġwant": 711,
      "434": 712,
      "ound": 713,
      "84": 714,
      "Ġbec": 715,
      "Ġshe": 716,
      "Ġby": 717,
      "ure": 718,
      "ore": 719,
      "ort": 720,
      "Ġtheir": 721,
      "Ġwhen": 722,
      "omet": 723,
      "Ġlol": 724,
      "ps": 725,
      "30": 726,
      "ies": 727,
      "th": 728,
      "ec": 729,
      "ag": 730,
      "ĠAnd": 731,
      "Ġman": 732,
      "Ġevery": 733,
      "ast": 734,
      "Ġim": 735,
      "Ġother": 736,
      "ep": 737,
      "Ġsa": 738,
      "Ġhis": 739,
      "Ġsomet": 740,
      "ays": 741,
      "226": 742,
      "ĠThat": 743,
      "ook": 744,
      "Ġhad": 745,
      "Ġwere": 746,
      "are": 747,
      "act": 748,
      "ite": 749,
      "Ġ-": 750,
      "3245": 751,
      "61434": 752,
      "7461434": 753,
      "353245": 754,
      "22648": 755,
      "7461434353245": 756,
      "746143435324522648": 757,
      "ous": 758,
      "Ġcould": 759,
      "Ġar": 760,
      "Ġun": 761,
      "Ġtoo": 762,
      "Ġeven": 763,
      "ry": 764,
      "so": 765,
      "](": 766,
      "ue": 767,
      "Ġnow": 768,
      "ost": 769,
      "pl": 770,
      "Ġhas": 771,
      "sel": 772,
      "03": 773,
      "50": 774,
      "78": 775,
      "24": 776,
      "ard": 777,
      "ice": 778,
      "44": 779,
      "ĠTh": 780,
      "ose": 781,
      "tt": 782,
      "ĠJ": 783,
      "Ġneed": 784,
      "ĠâĢľ": 785,
      "Ġag": 786,
      "ace": 787,
      "res": 788,
      "ble": 789,
      "Ġact": 790,
      "Ġsomething": 791,
      "ff": 792,
      "Ġmean": 793,
      "ake": 794,
      "Ġinto": 795,
      "Ġthan": 796,
      "Ġits": 797,
      "Ġthen": 798,
      "...": 799,
      "per": 800,
      "reat": 801,
      "Ġgood": 802,
      "Ġmake": 803,
      "ĠBut": 804,
      "Ġway": 805,
      "Ġro": 806,
      "Ġri": 807,
      "ment": 808,
      "201": 809,
      "Ġcl": 810,
      "Ġ1": 811,
      "Ġreal": 812,
      "thing": 813,
      "89": 814,
      "Ġbeen": 815,
      "ence": 816,
      "Ġbecause": 817,
      "Ġch": 818,
      "Ġbeing": 819,
      "eel": 820,
      "86": 821,
      "Ġgu": 822,
      "ord": 823,
      "Ġonly": 824,
      "eah": 825,
      "Ġhere": 826,
      "4609": 827,
      "5135": 828,
      "0515135": 829,
      "754609": 830,
      "20188": 831,
      "051513520188": 832,
      "754609051513520188": 833,
      "Ġbl": 834,
      "Ġsay": 835,
      "Ġte": 836,
      "Ġreally": 837,
      "ory": 838,
      "itt": 839,
      "Ġle": 840,
      "'re": 841,
      "age": 842,
      "erson": 843,
      "93": 844,
      "Ġour": 845,
      "Ġnever": 846,
      "Ġfeel": 847,
      "ich": 848,
      "731": 849,
      "iv": 850,
      "758": 851,
      "own": 852,
      "6205": 853,
      "22758": 854,
      "358022758": 855,
      "6205358022758": 856,
      "74731": 857,
      "747316205358022758": 858,
      "Ġdoes": 859,
      "Ġhim": 860,
      "Ġsc": 861,
      "Ġid": 862,
      "ions": 863,
      "ber": 864,
      "ually": 865,
      "ĠHe": 866,
      "self": 867,
      "Ġworld": 868,
      "nder": 869,
      "Ġwork": 870,
      "Ġmay": 871,
      "Ġhapp": 872,
      "Ġright": 873,
      "Ġgoing": 874,
      "der": 875,
      "Ġover": 876,
      "Ġqu": 877,
      "Ġz": 878,
      "ĠWhat": 879,
      "ak": 880,
      "Ġback": 881,
      "Ġtry": 882,
      "uck": 883,
      "ach": 884,
      "oc": 885,
      "Ġwhy": 886,
      "oin": 887,
      "7209": 888,
      "ud": 889,
      "746": 890,
      "Ġ(": 891,
      "uch": 892,
      "ick": 893,
      "Ġbel": 894,
      "907": 895,
      "9002": 896,
      "3024": 897,
      "1907": 898,
      "ens": 899,
      "797209": 900,
      "90021907": 901,
      "302490021907": 902,
      "797209302490021907": 903,
      "41002": 904,
      "Ġthings": 905,
      "uman": 906,
      "ire": 907,
      "Ġpre": 908,
      "og": 909,
      "ĠIn": 910,
      "4589": 911,
      "459456": 912,
      "90641002": 913,
      "4589459456": 914,
      "906410024589459456": 915,
      "sp": 916,
      "736": 917,
      "ple": 918,
      "416": 919,
      "Ġrem": 920,
      "Ġwr": 921,
      "ass": 922,
      "Ġperson": 923,
      "835": 924,
      "ĠThis": 925,
      "4470": 926,
      "315300": 927,
      "300835": 928,
      "4470300835": 929,
      "3153004470300835": 930,
      "315300447030083584": 931,
      "ree": 932,
      "ult": 933,
      "wn": 934,
      "Ġalso": 935,
      "Ġstill": 936,
      "Ġcont": 937,
      "Ġunder": 938,
      "953": 939,
      "ĠĠĠ": 940,
      "9751": 941,
      "4150": 942,
      "99854150": 943,
      "746953": 944,
      "9751746953": 945,
      "975174695399854150": 946,
      "Ġmuch": 947,
      "ys": 948,
      "Ġchan": 949,
      "ĠWe": 950,
      "Ġgr": 951,
      "ĠThey": 952,
      "Ġse": 953,
      "726": 954,
      "Ġdis": 955,
      "Ġlot": 956,
      "Ġbet": 957,
      "ij": 958,
      "ren": 959,
      "377": 960,
      "'ve": 961,
      "Ġshould": 962,
      "ile": 963,
      "Ġac": 964,
      "ving": 965,
      "---": 966,
      "ade": 967,
      "ild": 968,
      "Ġmost": 969,
      "ĠU": 970,
      "794": 971,
      "other": 972,
      "ĠWh": 973,
      "lp": 974,
      "Ġad": 975,
      "132": 976,
      "Ġgot": 977,
      "5131": 978,
      "ap": 979,
      "7296": 980,
      "9736": 981,
      "7945131": 982,
      "1327945131": 983,
      "97367296": 984,
      "132794513197367296": 985,
      "â©": 986,
      "ww": 987,
      "Ġwhere": 988,
      "Ġbelie": 989,
      "Ġlife": 990,
      "4193": 991,
      "ew": 992,
      "ci": 993,
      "iza": 994,
      "``": 995,
      "ĠSo": 996,
      "Ġwat": 997,
      "orm": 998,
      "3333": 999,
      "Ġsaid": 1000,
      "//": 1001,
      "ull": 1002,
      "Ġpart": 1003,
      "si": 1004,
      "Ġlook": 1005,
      "431": 1006,
      "Ġwell": 1007,
      "3576": 1008,
      "70431": 1009,
      "91377": 1010,
      "33333576": 1011,
      "9137733333576": 1012,
      "913773333357670431": 1013,
      "://": 1014,
      "ase": 1015,
      "fore": 1016,
      "ish": 1017,
      "Ġthr": 1018,
      "Ġown": 1019,
      "Ġkind": 1020,
      "10": 1021,
      "Ġpr": 1022,
      "37": 1023,
      "Ġlea": 1024,
      "ttps": 1025,
      "Ġtal": 1026,
      "ves": 1027,
      "Ġke": 1028,
      "ft": 1029,
      "EI": 1030,
      "ip": 1031,
      "ount": 1032,
      "ated": 1033,
      "urn": 1034,
      "Ġlove": 1035,
      "Ġhuman": 1036,
      "ĠNo": 1037,
      "ways": 1038,
      "Ġagain": 1039,
      "oll": 1040,
      "read": 1041,
      "Ġdif": 1042,
      "ical": 1043,
      "Ġvery": 1044,
      "ock": 1045,
      "ought": 1046,
      "EIiza": 1047,
      "nal": 1048,
      "ations": 1049,
      "Ġoff": 1050,
      "ĠIf": 1051,
      "hed": 1052,
      "ere": 1053,
      "Ġaf": 1054,
      "Ġsame": 1055,
      "irst": 1056,
      ".\"": 1057,
      "Ġactually": 1058,
      "able": 1059,
      "Ġaw": 1060,
      "ĉĉ": 1061,
      "6186": 1062,
      "Ġstu": 1063,
      "7811": 1064,
      "https": 1065,
      "2233": 1066,
      "8003": 1067,
      "464193": 1068,
      "7811464193": 1069,
      "22337811464193": 1070,
      "800322337811464193": 1071,
      "Ġfl": 1072,
      "ĠK": 1073,
      "@@": 1074,
      "com": 1075,
      "295": 1076,
      "ath": 1077,
      "te": 1078,
      "41691": 1079,
      "85300": 1080,
      "7264": 1081,
      "61867264": 1082,
      "4169161867264": 1083,
      "853004169161867264": 1084,
      "Ġthose": 1085,
      "Ġper": 1086,
      "]]": 1087,
      "ks": 1088,
      "Ġlong": 1089,
      "Ġtw": 1090,
      "Ġfind": 1091,
      "==": 1092,
      "ms": 1093,
      "Ġser": 1094,
      "rent": 1095,
      "oint": 1096,
      "ream": 1097,
      "Ġwhich": 1098,
      "Ġsure": 1099,
      "xt": 1100,
      "ial": 1101,
      "ĠĠĠĠ": 1102,
      "Ġcall": 1103,
      "Ġmade": 1104,
      "Ġwon": 1105,
      "Ġnew": 1106,
      "Ġhelp": 1107,
      "Ġplay": 1108,
      "Ġbefore": 1109,
      "we": 1110,
      "306": 1111,
      "Ġfirst": 1112,
      "Ġdown": 1113,
      "Ġmany": 1114,
      "old": 1115,
      "ĠShe": 1116,
      "Ġrel": 1117,
      "Ġhar": 1118,
      "ird": 1119,
      "ru": 1120,
      "Ġtake": 1121,
      "ict": 1122,
      "Ġ2": 1123,
      "ress": 1124,
      "Ġmind": 1125,
      "Ġsomeone": 1126,
      "Ġyear": 1127,
      "Ġsha": 1128,
      "Ġdidn": 1129,
      "Ġtell": 1130,
      "ance": 1131,
      "Ġyeah": 1132,
      "the": 1133,
      "vers": 1134,
      "ĠðŁĺ": 1135,
      "Ġhappen": 1136,
      "ody": 1137,
      "ool": 1138,
      "Ġvide": 1139,
      "Ġalways": 1140,
      "ĠThere": 1141,
      "###": 1142,
      "Ġthrough": 1143,
      "Ġend": 1144,
      "Ġuse": 1145,
      "ual": 1146,
      "Ġimp": 1147,
      "Ġread": 1148,
      "ian": 1149,
      "Ġday": 1150,
      "Ġsm": 1151,
      "Ġ#": 1152,
      "ting": 1153,
      "'ll": 1154,
      "ember": 1155,
      "Ġev": 1156,
      "con": 1157,
      "stand": 1158,
      "iss": 1159,
      "Ġdiffe": 1160,
      "Ġanything": 1161,
      "Ġ=": 1162,
      "Ġcha": 1163,
      "ia": 1164,
      "ious": 1165,
      "led": 1166,
      "Ġbr": 1167,
      "Ġlet": 1168,
      "Ġcomp": 1169,
      "Ġapp": 1170,
      "ved": 1171,
      "Ġbot": 1172,
      "ark": 1173,
      "Ġstart": 1174,
      "imes": 1175,
      "Ġpoint": 1176,
      "ang": 1177,
      "\",": 1178,
      "Ġem": 1179,
      "ning": 1180,
      "Ġstuff": 1181,
      "ower": 1182,
      "Ġthough": 1183,
      "](/": 1184,
      "ï¸": 1185,
      "ï¸ı": 1186,
      "ever": 1187,
      "Ġsl": 1188,
      "Ġ[[": 1189,
      "Ġop": 1190,
      "Ġthought": 1191,
      "na": 1192,
      "Ġbu": 1193,
      "Ġbelieve": 1194,
      "Ġcat": 1195,
      "Ġword": 1196,
      "rain": 1197,
      "486": 1198,
      "Ġpos": 1199,
      "Ġthese": 1200,
      "vel": 1201,
      "Ġbetter": 1202,
      "side": 1203,
      "ful": 1204,
      "Ġunderstand": 1205,
      "ike": 1206,
      "oy": 1207,
      "erest": 1208,
      "ond": 1209,
      "Ġmight": 1210,
      "064": 1211,
      "Ġcome": 1212,
      "Ġsim": 1213,
      "ready": 1214,
      "Ġafter": 1215,
      "ail": 1216,
      "Ġever": 1217,
      "96": 1218,
      "ily": 1219,
      "Ġalready": 1220,
      "**": 1221,
      "Ġfun": 1222,
      "ably": 1223,
      "Ġwar": 1224,
      "Ġkill": 1225,
      "'d": 1226,
      "ob": 1227,
      "ise": 1228,
      "ĠV": 1229,
      "yp": 1230,
      "Ġatt": 1231,
      "ary": 1232,
      "Ġdes": 1233,
      "Ġinf": 1234,
      "921": 1235,
      "Ġname": 1236,
      "ĠGod": 1237,
      "Ġtrying": 1238,
      "Ġkid": 1239,
      "gg": 1240,
      "Ġmat": 1241,
      "cept": 1242,
      "355": 1243,
      "941": 1244,
      "Ġacc": 1245,
      "48921": 1246,
      "olog": 1247,
      "84941": 1248,
      "064355": 1249,
      "4892184941": 1250,
      "06435594": 1251,
      "489218494106435594": 1252,
      "Ġcomm": 1253,
      "Ġdifferent": 1254,
      "ĠMy": 1255,
      "riend": 1256,
      "Ġmaybe": 1257,
      "de": 1258,
      "Ġâ": 1259,
      "Ġent": 1260,
      "bl": 1261,
      "Ġremember": 1262,
      "Ġask": 1263,
      "Ġsy": 1264,
      "ific": 1265,
      "ave": 1266,
      "Ġyes": 1267,
      "Ġbad": 1268,
      "ason": 1269,
      "Ġaround": 1270,
      "ne": 1271,
      "27": 1272,
      "cl": 1273,
      "uth": 1274,
      "Ġstr": 1275,
      "Ġsec": 1276,
      "ope": 1277,
      "Ġph": 1278,
      "Ġeverything": 1279,
      "Ġvideo": 1280,
      "mm": 1281,
      "Ġprob": 1282,
      "Ġstory": 1283,
      "Ġel": 1284,
      "ushing": 1285,
      "ng": 1286,
      "Ġshow": 1287,
      "Ġtwo": 1288,
      "Ġgame": 1289,
      "ĠYeah": 1290,
      "kes": 1291,
      "Ġtrue": 1292,
      "ness": 1293,
      "Ġgive": 1294,
      "12": 1295,
      "ĠNot": 1296,
      "Ġweird": 1297,
      "Ġfuck": 1298,
      "Ġnothing": 1299,
      "fect": 1300,
      "Ġgen": 1301,
      "Ġcare": 1302,
      "Ġdoing": 1303,
      "ĠHow": 1304,
      "Ġdoesn": 1305,
      "Ġput": 1306,
      "less": 1307,
      "ny": 1308,
      "Ġhand": 1309,
      "Ġeveryone": 1310,
      "hen": 1311,
      "ĠYes": 1312,
      "Ġwa": 1313,
      "ating": 1314,
      "ather": 1315,
      "Ġused": 1316,
      "ĠOr": 1317,
      "Ġinterest": 1318,
      "âĢ¦": 1319,
      "ss": 1320,
      "ans": 1321,
      "ert": 1322,
      "465": 1323,
      "352": 1324,
      "ense": 1325,
      "ĠDo": 1326,
      "Ġkeep": 1327,
      "Ġchild": 1328,
      "ĠðŁħ": 1329,
      "ors": 1330,
      "ĠPushing": 1331,
      "Ġplace": 1332,
      "here": 1333,
      "ĠðŁħ¿": 1334,
      "))": 1335,
      "get": 1336,
      "ĠðŁħ¿ï¸ı": 1337,
      "926": 1338,
      "gr": 1339,
      "Ġdream": 1340,
      "Ġass": 1341,
      "Ġwhile": 1342,
      "ittle": 1343,
      "Ġexpl": 1344,
      "med": 1345,
      "Ġtri": 1346,
      "Ġold": 1347,
      "Ġreason": 1348,
      "It": 1349,
      "tty": 1350,
      "Ġwatch": 1351,
      "Ġlive": 1352,
      "Ġyet": 1353,
      "Ġexper": 1354,
      "Ġhard": 1355,
      "Ġinter": 1356,
      "Ġrec": 1357,
      "Ġyears": 1358,
      "Ġenough": 1359,
      "ove": 1360,
      "arth": 1361,
      "Ġprobably": 1362,
      "uc": 1363,
      "ically": 1364,
      "9503": 1365,
      "9503926": 1366,
      "7627": 1367,
      "ĠSt": 1368,
      "46306": 1369,
      "950392646306": 1370,
      "762772": 1371,
      "950392646306762772": 1372,
      "Ġsupp": 1373,
      "Ġguess": 1374,
      "ĠAl": 1375,
      ".âĢĿ": 1376,
      "Ġmet": 1377,
      "iet": 1378,
      "ĠJust": 1379,
      "Ġfriend": 1380,
      "23": 1381,
      "Ġcr": 1382,
      "Ġbas": 1383,
      "Ġtra": 1384,
      "outu": 1385,
      "ĠOh": 1386,
      "Ġmust": 1387,
      "ok": 1388,
      "Ġpower": 1389,
      "ces": 1390,
      "ix": 1391,
      "Ġanother": 1392,
      "Ġdef": 1393,
      "youtu": 1394,
      "Ġidea": 1395,
      "....": 1396,
      "Ġcreat": 1397,
      "Ġpretty": 1398,
      "Ġable": 1399,
      "Ġlear": 1400,
      "Ġgod": 1401,
      "Ġleast": 1402,
      "ism": 1403,
      "058": 1404,
      "Ġra": 1405,
      "iting": 1406,
      "Ġhat": 1407,
      "Ġturn": 1408,
      "oney": 1409,
      "```": 1410,
      "ons": 1411,
      "Ġlittle": 1412,
      "Ġ20": 1413,
      "Ġfam": 1414,
      "Ġquest": 1415,
      "ðŁĺ": 1416,
      "Ġbo": 1417,
      "itten": 1418,
      "ied": 1419,
      "71295": 1420,
      "31581": 1421,
      "7561": 1422,
      "10352": 1423,
      "712957561": 1424,
      "31581712957561": 1425,
      "1035231581712957561": 1426,
      "Ġche": 1427,
      "Ġok": 1428,
      "ts": 1429,
      "Ġsound": 1430,
      "Ġey": 1431,
      "Ġrep": 1432,
      "316": 1433,
      "468": 1434,
      "bs": 1435,
      "ign": 1436,
      "2934": 1437,
      "ollow": 1438,
      "ages": 1439,
      "als": 1440,
      "ource": 1441,
      "Ġmess": 1442,
      "gan": 1443,
      "Ġmyself": 1444,
      "Ġshit": 1445,
      "Ġvan": 1446,
      "igh": 1447,
      "Ġdie": 1448,
      "Ġexist": 1449,
      "43": 1450,
      "Ġ3": 1451,
      "Ġtalk": 1452,
      "Ġcons": 1453,
      "Ġment": 1454,
      "4571": 1455,
      "Ġhet": 1456,
      "ition": 1457,
      "82934": 1458,
      "ince": 1459,
      "34345": 1460,
      "058468": 1461,
      "8293434345": 1462,
      "05846837": 1463,
      "829343434505846837": 1464,
      "Ġsuch": 1465,
      "Ġplan": 1466,
      "Ġinv": 1467,
      "Ġconf": 1468,
      "ience": 1469,
      "Ġeach": 1470,
      "av": 1471,
      "les": 1472,
      "Ġeen": 1473,
      "ither": 1474,
      "Ġvo": 1475,
      "Ġwithout": 1476,
      "ĠBec": 1477,
      "â«": 1478,
      "ĠIs": 1479,
      "Ġaway": 1480,
      "Ġelse": 1481,
      "ject": 1482,
      "aw": 1483,
      "Ġmem": 1484,
      "olf": 1485,
      "Ġwom": 1486,
      "leep": 1487,
      "Ġanyone": 1488,
      "Th": 1489,
      "orry": 1490,
      "Ġboth": 1491,
      "ier": 1492,
      "ward": 1493,
      "Ġexp": 1494,
      "Ġmakes": 1495,
      "cess": 1496,
      "day": 1497,
      "ories": 1498,
      "Ġfound": 1499,
      "::": 1500,
      "Ġinst": 1501,
      "814": 1502,
      "ĠLol": 1503,
      ").": 1504,
      "Ġothers": 1505,
      "Ġuni": 1506,
      "Ġgreat": 1507,
      "Ġstop": 1508,
      "Ġ'": 1509,
      "sible": 1510,
      "ĠLike": 1511,
      "Ġver": 1512,
      "Ġx": 1513,
      "Ġbig": 1514,
      "oke": 1515,
      "Ġproble": 1516,
      "Ġsur": 1517,
      "Ġ|": 1518,
      "Ġmoney": 1519,
      "ĠMay": 1520,
      "Ġrun": 1521,
      "957": 1522,
      "Ġmatter": 1523,
      "ten": 1524,
      "ER": 1525,
      "Ġbest": 1526,
      "Ġpast": 1527,
      "You": 1528,
      "air": 1529,
      "az": 1530,
      "ev": 1531,
      "Ġcount": 1532,
      "ames": 1533,
      "----": 1534,
      "Ġcontro": 1535,
      "ĠWhy": 1536,
      "Ġ:": 1537,
      "Ġfollow": 1538,
      "ron": 1539,
      "hes": 1540,
      "iew": 1541,
      "ants": 1542,
      "Ġlast": 1543,
      "Ġcle": 1544,
      "Ġmom": 1545,
      "ĠCh": 1546,
      "Ġchange": 1547,
      "Ġcause": 1548,
      "Ġfew": 1549,
      "Ġfin": 1550,
      "hh": 1551,
      "====": 1552,
      "www": 1553,
      "Ġtold": 1554,
      "stem": 1555,
      "Ġmon": 1556,
      "Ġresp": 1557,
      "irl": 1558,
      "ute": 1559,
      "elf": 1560,
      "actly": 1561,
      "Ġhead": 1562,
      "ings": 1563,
      "iter": 1564,
      "ents": 1565,
      "73": 1566,
      "Ġsk": 1567,
      "Ġtalking": 1568,
      "ertain": 1569,
      "40": 1570,
      "ijn": 1571,
      "Ġter": 1572,
      "way": 1573,
      "ĠBecause": 1574,
      "Ġlearn": 1575,
      "ics": 1576,
      "Ġcomple": 1577,
      "388": 1578,
      "446": 1579,
      "ĠQ": 1580,
      "verse": 1581,
      "den": 1582,
      "Ġsub": 1583,
      "Ġfact": 1584,
      "Ġdone": 1585,
      "Ġart": 1586,
      "ction": 1587,
      "@@@@": 1588,
      "Ġwhole": 1589,
      "595": 1590,
      "Ġcre": 1591,
      "ret": 1592,
      "4192": 1593,
      "6176": 1594,
      "4866176": 1595,
      "45714866176": 1596,
      "5954192": 1597,
      "595419245714866176": 1598,
      "Ġeas": 1599,
      "Ġfar": 1600,
      "orn": 1601,
      "Ġhope": 1602,
      "Ġwrong": 1603,
      "ars": 1604,
      "Ġdisc": 1605,
      "Ġpost": 1606,
      "Ġ*": 1607,
      "We": 1608,
      "lease": 1609,
      "not": 1610,
      "Ġind": 1611,
      "Ġinteresting": 1612,
      "doc": 1613,
      "Ġopen": 1614,
      "ken": 1615,
      "Ġlight": 1616,
      "Ġgl": 1617,
      "Ġdat": 1618,
      "Ġisn": 1619,
      "99465": 1620,
      "8278": 1621,
      "8243": 1622,
      "0028278": 1623,
      "994650028278": 1624,
      "8243994650028278": 1625,
      "824399465002827846": 1626,
      "oul": 1627,
      "me": 1628,
      "??": 1629,
      "Ġseems": 1630,
      "onna": 1631,
      "docs": 1632,
      "951": 1633,
      "Ġspec": 1634,
      "Ġserver": 1635,
      "Ġunt": 1636,
      "Ġ5": 1637,
      "Ġbecome": 1638,
      "ize": 1639,
      "sy": 1640,
      "Ġfree": 1641,
      "Ġres": 1642,
      "arly": 1643,
      "Ġfight": 1644,
      "Ġsleep": 1645,
      "Ġbody": 1646,
      "ater": 1647,
      "Ġgonna": 1648,
      "Ġpu": 1649,
      "Ġthats": 1650,
      "Ġ10": 1651,
      "Ġchar": 1652,
      "Ġdec": 1653,
      "Ġ>": 1654,
      "of": 1655,
      "Ġkids": 1656,
      "ments": 1657,
      "Ġadd": 1658,
      "60": 1659,
      "ates": 1660,
      "332": 1661,
      "its": 1662,
      "most": 1663,
      "Ġbook": 1664,
      "39": 1665,
      "Ġside": 1666,
      "Ġimport": 1667,
      "ced": 1668,
      "Ġsense": 1669,
      "Ġmin": 1670,
      "Ġcra": 1671,
      "Ġnight": 1672,
      "Ġlist": 1673,
      "Ġsystem": 1674,
      "This": 1675,
      "And": 1676,
      "Ġhome": 1677,
      "ĠFor": 1678,
      "18": 1679,
      "ange": 1680,
      "âĢĶ": 1681,
      "Ġsince": 1682,
      "ash": 1683,
      "ĠMaybe": 1684,
      "16": 1685,
      "Ġonce": 1686,
      "odder": 1687,
      "Ġcalled": 1688,
      "arent": 1689,
      "Ġseen": 1690,
      "In": 1691,
      "Ġsoci": 1692,
      "481": 1693,
      "Ġsch": 1694,
      "ank": 1695,
      "Ġoh": 1696,
      "31681": 1697,
      "Ġleft": 1698,
      "Ġsorry": 1699,
      "Ġsoul": 1700,
      "Ġguy": 1701,
      "76332": 1702,
      "31481": 1703,
      "3168176332": 1704,
      "314813168176332": 1705,
      "314813168176332801": 1706,
      "Ġless": 1707,
      "ien": 1708,
      "978": 1709,
      "body": 1710,
      "ities": 1711,
      "Ġyourself": 1712,
      "aby": 1713,
      "Ġtimes": 1714,
      "oose": 1715,
      "cri": 1716,
      "0614": 1717,
      "33951": 1718,
      "995978": 1719,
      "4340614": 1720,
      "339514340614": 1721,
      "339514340614995978": 1722,
      "IN": 1723,
      "Ġbit": 1724,
      "ĠWhen": 1725,
      "chit": 1726,
      "chitect": 1727,
      "ale": 1728,
      "ited": 1729,
      "Ġdeath": 1730,
      "Ġhate": 1731,
      "Ġwanted": 1732,
      "dow": 1733,
      "up": 1734,
      "sw": 1735,
      "Ġref": 1736,
      "chn": 1737,
      "ted": 1738,
      "Ġentire": 1739,
      "Ġsays": 1740,
      "ah": 1741,
      "Ġeither": 1742,
      "Ġco": 1743,
      "ledge": 1744,
      "Ġext": 1745,
      "!!": 1746,
      "506": 1747,
      "Ġspea": 1748,
      "ering": 1749,
      "=\"": 1750,
      "ĠAs": 1751,
      "454": 1752,
      "Ġmeans": 1753,
      "gs": 1754,
      "ĠWell": 1755,
      "ĠInk": 1756,
      "Ġproblem": 1757,
      "Ġob": 1758,
      "Ġnice": 1759,
      "Ġimportant": 1760,
      "rist": 1761,
      "uture": 1762,
      "pped": 1763,
      "Ġbrain": 1764,
      "Ġhear": 1765,
      "ched": 1766,
      "Ġcontrol": 1767,
      "ead": 1768,
      "ef": 1769,
      "Ġgetting": 1770,
      "Ġcool": 1771,
      "Ġ/": 1772,
      "Ġnat": 1773,
      "nect": 1774,
      "Ġsaw": 1775,
      "Ġfull": 1776,
      "osed": 1777,
      "Ġmaking": 1778,
      "Ġgirl": 1779,
      "Ġfamily": 1780,
      "Ġhaving": 1781,
      "Ġloo": 1782,
      "Ġcame": 1783,
      "Ġlost": 1784,
      "Ġquestion": 1785,
      "ying": 1786,
      "aven": 1787,
      "Ġcertain": 1788,
      "Ġexactly": 1789,
      "Ġexplain": 1790,
      "Ġeyes": 1791,
      "ude": 1792,
      "idence": 1793,
      "Ġagainst": 1794,
      "Ġinside": 1795,
      "ĠAI": 1796,
      "437": 1797,
      "Ġmiss": 1798,
      "aking": 1799,
      "41454": 1800,
      "20729": 1801,
      "Ġlead": 1802,
      "38880": 1803,
      "43738880": 1804,
      "4145420729": 1805,
      "414542072943738880": 1806,
      "Ġwouldn": 1807,
      "Ġwords": 1808,
      "ph": 1809,
      "Ġpres": 1810,
      "Ġfuture": 1811,
      "Ġself": 1812,
      "Ġmed": 1813,
      "Ġjob": 1814,
      "rin": 1815,
      "ysis": 1816,
      "ĠRock": 1817,
      "onest": 1818,
      "Ġdra": 1819,
      "Ġdr": 1820,
      "Ġansw": 1821,
      "ignal": 1822,
      "ately": 1823,
      "Ġpo": 1824,
      "Ġset": 1825,
      "row": 1826,
      "Ġ4": 1827,
      "Ġuntil": 1828,
      "selves": 1829,
      "rchitect": 1830,
      "Ġâ¨": 1831,
      "ility": 1832,
      "ged": 1833,
      "Ġsaying": 1834,
      "nel": 1835,
      "\\_": 1836,
      "ired": 1837,
      "atic": 1838,
      "Ġtruth": 1839,
      "ek": 1840,
      "host": 1841,
      "Ġtak": 1842,
      "Ġtyp": 1843,
      "ially": 1844,
      "eep": 1845,
      "mer": 1846,
      "ouse": 1847,
      "Ġca": 1848,
      "Ġsw": 1849,
      "Ġdark": 1850,
      "Ġthinking": 1851,
      "Ġimag": 1852,
      "Ġcomplete": 1853,
      "Ġhigh": 1854,
      "ump": 1855,
      "Ġbre": 1856,
      "Ġcour": 1857,
      "dd": 1858,
      "Ġalmost": 1859,
      "Ġbeh": 1860,
      "Ġpol": 1861,
      "ĠAll": 1862,
      "ized": 1863,
      "ik": 1864,
      "Ġguys": 1865,
      "Ġide": 1866,
      "ĠThen": 1867,
      "AN": 1868,
      "Ġpain": 1869,
      "Ġtest": 1870,
      "used": 1871,
      "Ġret": 1872,
      "Ġsex": 1873,
      "zy": 1874,
      "9945": 1875,
      "0814": 1876,
      "ma": 1877,
      "ative": 1878,
      "3696": 1879,
      "92446": 1880,
      "939945": 1881,
      "Ġgener": 1882,
      "50692446": 1883,
      "9399453696": 1884,
      "506924469399453696": 1885,
      "Ġconnect": 1886,
      "oot": 1887,
      "Ġliter": 1888,
      "Ġmag": 1889,
      "ðŁĺĨ": 1890,
      "ĠTH": 1891,
      "cc": 1892,
      "Ġworking": 1893,
      "du": 1894,
      "gin": 1895,
      "Ġer": 1896,
      "Ġbc": 1897,
      "Ġhell": 1898,
      "053": 1899,
      "rence": 1900,
      "Ġknew": 1901,
      "cy": 1902,
      "ormation": 1903,
      "Ġfe": 1904,
      "7631": 1905,
      "710814": 1906,
      "9577631": 1907,
      "0539577631": 1908,
      "7108140539577631": 1909,
      "710814053957763112": 1910,
      "ĠOn": 1911,
      "Ġheard": 1912,
      "umb": 1913,
      "ulation": 1914,
      "Ġreality": 1915,
      "Ġsing": 1916,
      "ĠTr": 1917,
      "Ġdep": 1918,
      "Ġgi": 1919,
      "Ġsmall": 1920,
      "atch": 1921,
      "Ġmove": 1922,
      "Ġbro": 1923,
      "Ġrest": 1924,
      "Ġnext": 1925,
      "ular": 1926,
      "Ġwent": 1927,
      "Ġrelig": 1928,
      "alk": 1929,
      "Ġface": 1930,
      "Ġhumans": 1931,
      "ology": 1932,
      "use": 1933,
      "Ġcommun": 1934,
      "¤£": 1935,
      "Ġusing": 1936,
      "Ġ$": 1937,
      "Ġwasn": 1938,
      "ster": 1939,
      "ĠAnal": 1940,
      "ĠZ": 1941,
      "Ġfig": 1942,
      "ison": 1943,
      "alth": 1944,
      "gram": 1945,
      "ines": 1946,
      "Ġwonder": 1947,
      "SM": 1948,
      "lect": 1949,
      "Ġfore": 1950,
      "Ġhappened": 1951,
      "inite": 1952,
      "ient": 1953,
      "vious": 1954,
      "ĠAnalysis": 1955,
      "Ġtechn": 1956,
      "ident": 1957,
      "Ġroom": 1958,
      "Ġprot": 1959,
      "line": 1960,
      "man": 1961,
      "ner": 1962,
      "ots": 1963,
      "ta": 1964,
      "Ġexam": 1965,
      "Ġbuild": 1966,
      "ror": 1967,
      "source": 1968,
      "312": 1969,
      "utm": 1970,
      "ĠEx": 1971,
      "Ġsit": 1972,
      "Ġmus": 1973,
      "Ġtho": 1974,
      "ĠTo": 1975,
      "ĠAt": 1976,
      "Ġbehind": 1977,
      "bb": 1978,
      "ĠWho": 1979,
      "ween": 1980,
      "Ġmov": 1981,
      "ĠMan": 1982,
      "Ġcor": 1983,
      "Ġpass": 1984,
      "Ġdead": 1985,
      "fl": 1986,
      "ists": 1987,
      "Ġzijn": 1988,
      "Ġinc": 1989,
      "Ġreg": 1990,
      "pe": 1991,
      "ety": 1992,
      "Ġdoor": 1993,
      "5188": 1994,
      "Ġstand": 1995,
      "21": 1996,
      "Ġdam": 1997,
      "Ġppl": 1998,
      "ider": 1999,
      "vent": 2000,
      "Ġhour": 2001,
      "no": 2002,
      "225188": 2003,
      "35072": 2004,
      "5529225188": 2005,
      "31235072": 2006,
      "552922518831235072": 2007,
      "++": 2008,
      "post": 2009,
      "Ġsad": 2010,
      "isc": 2011,
      "ross": 2012,
      "Ġsounds": 2013,
      "01": 2014,
      "Ġtoget": 2015,
      "Ġallow": 2016,
      "Ġtogether": 2017,
      "ote": 2018,
      "Ġhold": 2019,
      "ible": 2020,
      "Ġes": 2021,
      "ĠOne": 2022,
      "Ġpur": 2023,
      "Ġlooking": 2024,
      "Ġsent": 2025,
      "Ġstate": 2026,
      "Ġseem": 2027,
      "ger": 2028,
      "Ġcar": 2029,
      "Ġwhatever": 2030,
      "Ġexperience": 2031,
      "Ġfre": 2032,
      "Ġcur": 2033,
      "ĠSignal": 2034,
      "Ġuniverse": 2035,
      "Ġfall": 2036,
      "Ġones": 2037,
      "SMR": 2038,
      "bol": 2039,
      "Ġhu": 2040,
      "gy": 2041,
      "Ġwish": 2042,
      "Ġdet": 2043,
      "Ġcoming": 2044,
      "Ġom": 2045,
      "Ġcannot": 2046,
      "ĠGood": 2047,
      "ium": 2048,
      "haps": 2049,
      "Ġtrust": 2050,
      "aim": 2051,
      "ube": 2052,
      "Ġ6": 2053,
      "á´": 2054,
      "Ġdont": 2055,
      "52": 2056,
      "ĠxD": 2057,
      "ures": 2058,
      "Ġleave": 2059,
      "AT": 2060,
      "Ġill": 2061,
      "arch": 2062,
      "Ġearth": 2063,
      "acter": 2064,
      "tern": 2065,
      "Ġins": 2066,
      "Ġform": 2067,
      "ality": 2068,
      "conf": 2069,
      "Ġchannel": 2070,
      "OR": 2071,
      "Ġsuper": 2072,
      "ption": 2073,
      "Ġchildren": 2074,
      "ty": 2075,
      "sh": 2076,
      "Ġdest": 2077,
      "ode": 2078,
      "where": 2079,
      "Lord": 2080,
      "ues": 2081,
      "idants": 2082,
      "Ġsend": 2083,
      "Ġdem": 2084,
      "eg": 2085,
      "Ġquite": 2086,
      "Ġbetween": 2087,
      "Ġpossible": 2088,
      "Ġdays": 2089,
      "irect": 2090,
      "Ġ**": 2091,
      "Ġcoll": 2092,
      "aught": 2093,
      "uthor": 2094,
      "ital": 2095,
      "Ġknowledge": 2096,
      "Ġhonest": 2097,
      "Ġago": 2098,
      "Ġcourse": 2099,
      "Wolf": 2100,
      "ract": 2101,
      "io": 2102,
      "Ġsol": 2103,
      "Ġgrou": 2104,
      "Ġpop": 2105,
      "Ġalone": 2106,
      "dit": 2107,
      "Ġlisten": 2108,
      "Ġview": 2109,
      "Ġwrite": 2110,
      "Ġcrazy": 2111,
      "ared": 2112,
      "ĠThan": 2113,
      "Ġliterally": 2114,
      "Âł": 2115,
      "Ġmor": 2116,
      "Ġfood": 2117,
      "Ġeat": 2118,
      "Ġfucking": 2119,
      "LordWolf": 2120,
      "Ġpa": 2121,
      "ets": 2122,
      "ĠðŁĺĨ": 2123,
      "ĠUn": 2124,
      "come": 2125,
      "Ġtried": 2126,
      "Ġhor": 2127,
      "Ġstay": 2128,
      "hadow": 2129,
      "Ġwoman": 2130,
      "Ġsecond": 2131,
      "ĠSome": 2132,
      "esus": 2133,
      "ĠAn": 2134,
      "Ġinformation": 2135,
      "Ġhun": 2136,
      "pect": 2137,
      "ional": 2138,
      "Ġwithin": 2139,
      "br": 2140,
      "Ġ7": 2141,
      "Ġaren": 2142,
      "Ġtoday": 2143,
      "Ġhappy": 2144,
      "ES": 2145,
      "Ġschool": 2146,
      "Ġtook": 2147,
      "Ġmoment": 2148,
      "Ġsong": 2149,
      "?âĢĿ": 2150,
      "Architect": 2151,
      "acy": 2152,
      "25": 2153,
      "confidants": 2154,
      "Ġpay": 2155,
      "ĠðŁĻ": 2156,
      "8780": 2157,
      "ised": 2158,
      "9768780": 2159,
      "ĠEarth": 2160,
      "72660": 2161,
      "2959768780": 2162,
      "Ġfriends": 2163,
      "3972660": 2164,
      "29597687809": 2165,
      "397266029597687809": 2166,
      "08": 2167,
      "Ġlater": 2168,
      "Ġforg": 2169,
      "Ġheart": 2170,
      "Ġgrow": 2171,
      "Ġasked": 2172,
      "yan": 2173,
      "ĠEC": 2174,
      "Ġhouse": 2175,
      "Ġliving": 2176,
      "Ġcomes": 2177,
      "ĠĠĠĠĠĠĠĠ": 2178,
      "Ġplease": 2179,
      "Ġanswer": 2180,
      "Wh": 2181,
      "Ġmar": 2182,
      "Ġcharacter": 2183,
      "ĠAr": 2184,
      "Ġpubl": 2185,
      "Ġgre": 2186,
      "ices": 2187,
      "Ġwater": 2188,
      "Ġokay": 2189,
      "ĠCan": 2190,
      "Ġevil": 2191,
      "Ġcountry": 2192,
      "*\"": 2193,
      "aar": 2194,
      "Ġoften": 2195,
      "Ġdel": 2196,
      "Ġprogram": 2197,
      "Ġsometimes": 2198,
      "Ġstarted": 2199,
      "ned": 2200,
      "Ġnorm": 2201,
      "ax": 2202,
      "ivid": 2203,
      "ĠEvery": 2204,
      "),": 2205,
      "uter": 2206,
      "ĠDe": 2207,
      "app": 2208,
      "ON": 2209,
      "âª": 2210,
      "Ġho": 2211,
      "Ġrese": 2212,
      "kn": 2213,
      "Ġblack": 2214,
      "ganiz": 2215,
      "Ġtop": 2216,
      "posts": 2217,
      "my": 2218,
      "ournal": 2219,
      "ĠRe": 2220,
      "pr": 2221,
      "Ġthemselves": 2222,
      "âĬ": 2223,
      "ĠDon": 2224,
      "initely": 2225,
      "532": 2226,
      "more": 2227,
      "Ġfear": 2228,
      "itle": 2229,
      "Ġcult": 2230,
      "Ġsuff": 2231,
      "Ġmen": 2232,
      "alse": 2233,
      "Ġspace": 2234,
      "Ġclaim": 2235,
      "Ġsoon": 2236,
      "Ġlooks": 2237,
      "Ġwait": 2238,
      "oog": 2239,
      "ĠIts": 2240,
      "Ġclose": 2241,
      "ĠBe": 2242,
      "Ġvis": 2243,
      "Ġkinda": 2244,
      "What": 2245,
      "Ġge": 2246,
      "right": 2247,
      "ussi": 2248,
      "Ġknows": 2249,
      "He": 2250,
      "wor": 2251,
      "elt": 2252,
      "Ġperfect": 2253,
      "Ġphys": 2254,
      "261": 2255,
      "Ġwriting": 2256,
      "Ġhur": 2257,
      "Rock": 2258,
      "Ġmeaning": 2259,
      "Ġcompletely": 2260,
      "oud": 2261,
      "Ġjoin": 2262,
      "832": 2263,
      "ub": 2264,
      "Ġstrong": 2265,
      "sych": 2266,
      "orts": 2267,
      "Ġideas": 2268,
      "ze": 2269,
      "Ġred": 2270,
      "ilar": 2271,
      "ĠAlso": 2272,
      "form": 2273,
      "ife": 2274,
      "Ġmur": 2275,
      "ric": 2276,
      "ming": 2277,
      "png": 2278,
      "ffect": 2279,
      "ator": 2280,
      "iness": 2281,
      "Ġlink": 2282,
      "ĠYour": 2283,
      "ĠPro": 2284,
      "cious": 2285,
      "gen": 2286,
      "Ġwin": 2287,
      "andom": 2288,
      "Ġanim": 2289,
      "Ġrob": 2290,
      "26": 2291,
      "joy": 2292,
      "Ġbreak": 2293,
      "Ġve": 2294,
      "Ġfunny": 2295,
      "Ġopp": 2296,
      "fort": 2297,
      "Ġ8": 2298,
      "Ġsign": 2299,
      "ention": 2300,
      "Ġlikely": 2301,
      "bt": 2302,
      "Ġblood": 2303,
      "',": 2304,
      "ats": 2305,
      "Ġcheck": 2306,
      "ĠðŁĻĤ": 2307,
      "Ġagree": 2308,
      "lf": 2309,
      "Ġfast": 2310,
      "ĠAre": 2311,
      "Ġoutside": 2312,
      "Ġmovie": 2313,
      "Ġpar": 2314,
      "ĠNow": 2315,
      "Ġexample": 2316,
      "Ġdou": 2317,
      "Ġ\"*": 2318,
      "ags": 2319,
      "achine": 2320,
      "Ġlonger": 2321,
      "ex": 2322,
      "Ġcol": 2323,
      "Ġcase": 2324,
      "Ġcou": 2325,
      "Ġspeak": 2326,
      "Ġmusic": 2327,
      ",\"": 2328,
      "Ġwall": 2329,
      "anger": 2330,
      ",âĢĿ": 2331,
      "LL": 2332,
      "Ġrequ": 2333,
      "Ġdist": 2334,
      "gel": 2335,
      "Ġanyway": 2336,
      "ĠFodder": 2337,
      "Ġsimp": 2338,
      "Ġexpect": 2339,
      "ides": 2340,
      "ifer": 2341,
      "Ġgiven": 2342,
      "Ġcho": 2343,
      "Ġmain": 2344,
      "Ġluck": 2345,
      "Ġvi": 2346,
      "ural": 2347,
      "Ġdri": 2348,
      "ĠSp": 2349,
      "Ġsecret": 2350,
      "gn": 2351,
      "Ġbus": 2352,
      "ĠRaven": 2353,
      "Ġimagine": 2354,
      "Ġed": 2355,
      "ulti": 2356,
      "Ġaccount": 2357,
      "ane": 2358,
      "Ġdev": 2359,
      "Ġwomen": 2360,
      "vern": 2361,
      "reddit": 2362,
      "ĠASMR": 2363,
      "Ġstud": 2364,
      "Ġmonth": 2365,
      "Ġste": 2366,
      "ĠOk": 2367,
      "Ġanymore": 2368,
      "âĭ": 2369,
      "Ġfail": 2370,
      "Ġcontin": 2371,
      "Ġrandom": 2372,
      "Ġgroup": 2373,
      "watch": 2374,
      "Ġbed": 2375,
      "Ġvers": 2376,
      "ution": 2377,
      "ox": 2378,
      "Ġrather": 2379,
      "Ġchoose": 2380,
      "But": 2381,
      "Ġcry": 2382,
      "Ġprotect": 2383,
      "Ġbegin": 2384,
      "ĠOf": 2385,
      "Ġgiv": 2386,
      "Ġje": 2387,
      "Ġworth": 2388,
      "wards": 2389,
      "Ġinstead": 2390,
      "OU": 2391,
      "Ġhist": 2392,
      "ucifer": 2393,
      "Ġfix": 2394,
      "Ġleg": 2395,
      "Ġbring": 2396,
      "velop": 2397,
      "Ġsn": 2398,
      "Ġemot": 2399,
      "Ġwatching": 2400,
      "anthe": 2401,
      "Ġlevel": 2402,
      "Ġtom": 2403,
      "Ġfelt": 2404,
      "Ġrock": 2405,
      "Ġworks": 2406,
      "Ġphone": 2407,
      "aut": 2408,
      "Ġghost": 2409,
      "Ġkilled": 2410,
      "Ġcreated": 2411,
      "Ġdeep": 2412,
      "Ġupon": 2413,
      "ividual": 2414,
      "Ġeffect": 2415,
      "static": 2416,
      "Ġenjoy": 2417,
      "oon": 2418,
      "Ġik": 2419,
      "Ġpe": 2420,
      "atan": 2421,
      "Ġgames": 2422,
      "ĠHuman": 2423,
      "ĠJesus": 2424,
      "antheon": 2425,
      "tle": 2426,
      "ðĿ": 2427,
      "igin": 2428,
      "Ġcreate": 2429,
      "ĠKun": 2430,
      "Ġeasy": 2431,
      "Ġhaven": 2432,
      "men": 2433,
      "usion": 2434,
      "Ġneeded": 2435,
      "Kitten": 2436,
      "Ġfire": 2437,
      "aces": 2438,
      "Ġmessage": 2439,
      "mit": 2440,
      "Ġmis": 2441,
      "Ġyoung": 2442,
      "Ġze": 2443,
      "Ġsimply": 2444,
      "ped": 2445,
      "000": 2446,
      "Ġmention": 2447,
      "fic": 2448,
      "umber": 2449,
      "Ġspir": 2450,
      "sof": 2451,
      "Ġdestro": 2452,
      "Ġattack": 2453,
      "Ġsupposed": 2454,
      "========": 2455,
      "Ġfoc": 2456,
      "Ġthree": 2457,
      "net": 2458,
      "Ġuw": 2459,
      "Ġsun": 2460,
      "Ġbased": 2461,
      "Shadow": 2462,
      "Ġcouldn": 2463,
      "Ġhappens": 2464,
      "--------": 2465,
      "Ġfav": 2466,
      "661": 2467,
      "ĠHell": 2468,
      "to": 2469,
      "ĠâĢ": 2470,
      "Ġspecific": 2471,
      "Ġsingle": 2472,
      "Ġdro": 2473,
      "ference": 2474,
      "Ġclass": 2475,
      "ological": 2476,
      "ured": 2477,
      "Ġaccept": 2478,
      "Ġhours": 2479,
      "lo": 2480,
      "Ġorigin": 2481,
      "Ġfigure": 2482,
      "Ġpri": 2483,
      "unch": 2484,
      "Ġwants": 2485,
      "Ġvoice": 2486,
      "?\"": 2487,
      "tags": 2488,
      "Ġways": 2489,
      "Ġprocess": 2490,
      "Ġreturn": 2491,
      "Ġfeeling": 2492,
      "Ġiss": 2493,
      "oogle": 2494,
      "any": 2495,
      "Ġhealth": 2496,
      "ĠCon": 2497,
      "erv": 2498,
      "Ġmother": 2499,
      "Ġfeels": 2500,
      "Ġeng": 2501,
      "Ġsociety": 2502,
      "Ġru": 2503,
      "Ġ\"\"": 2504,
      "raft": 2505,
      "Ġ@[": 2506,
      "ĠPeople": 2507,
      "oor": 2508,
      "ush": 2509,
      "cer": 2510,
      "Ġ+": 2511,
      "Ġfalse": 2512,
      "8051": 2513,
      "ĠEven": 2514,
      "uro": 2515,
      "ished": 2516,
      "ĠMe": 2517,
      "ellig": 2518,
      "Ġadv": 2519,
      "Ġindividual": 2520,
      "Ġnormal": 2521,
      "hip": 2522,
      "uring": 2523,
      "ias": 2524,
      "Ġage": 2525,
      "Ġya": 2526,
      "sib": 2527,
      "Ġslow": 2528,
      "7148": 2529,
      "Ġimage": 2530,
      "RE": 2531,
      "how": 2532,
      "76832": 2533,
      "Ġfil": 2534,
      "738051": 2535,
      "6617148": 2536,
      "73805176832": 2537,
      "661714873805176832": 2538,
      "Ġgone": 2539,
      "ĠAny": 2540,
      "Ġdefinitely": 2541,
      "journal": 2542,
      "ification": 2543,
      "Ġtype": 2544,
      "{{": 2545,
      "}}": 2546,
      "Ġmulti": 2547,
      "Ġdreams": 2548,
      "Ġtaking": 2549,
      "Ġgoes": 2550,
      "Ġbasically": 2551,
      "ips": 2552,
      "Ġfine": 2553,
      "Ġmeant": 2554,
      "Ġrespon": 2555,
      "Ġtrans": 2556,
      "Ġworry": 2557,
      "Ġuwu": 2558,
      "That": 2559,
      "Ġdepend": 2560,
      "date": 2561,
      "Ġwalk": 2562,
      "ries": 2563,
      "Ġdirect": 2564,
      "Ġtext": 2565,
      "Ġprom": 2566,
      "ided": 2567,
      "roll": 2568,
      "Ġgets": 2569,
      "Ġarg": 2570,
      "pro": 2571,
      "{{<": 2572,
      "sha": 2573,
      "Ġparent": 2574,
      "Ġgun": 2575,
      "ecially": 2576,
      "Ġevent": 2577,
      "youtube": 2578,
      "@@@@@@@@": 2579,
      "Ġlie": 2580,
      "Ġval": 2581,
      "ĠðŁ¤£": 2582,
      "Ġ>}}": 2583,
      "yle": 2584,
      "ĠBl": 2585,
      "Ġhonestly": 2586,
      "ĠDid": 2587,
      "spir": 2588,
      "uly": 2589,
      "OT": 2590,
      "Ġap": 2591,
      "Ġmine": 2592,
      "alc": 2593,
      "165": 2594,
      "Ġpict": 2595,
      "Ġpsych": 2596,
      "ĉĉĉ": 2597,
      "IS": 2598,
      "Ġfather": 2599,
      "Ġgovern": 2600,
      "ivers": 2601,
      "pid": 2602,
      "Ġdevelop": 2603,
      "Ġsupport": 2604,
      "Ġdeal": 2605,
      "Ġmist": 2606,
      "utes": 2607,
      "Ġmental": 2608,
      "night": 2609,
      "itch": 2610,
      "Ġplaying": 2611,
      "ins": 2612,
      "761": 2613,
      "Ġniet": 2614,
      "rible": 2615,
      "ging": 2616,
      "Ġchance": 2617,
      "Ġreligion": 2618,
      "ling": 2619,
      "ket": 2620,
      "Ġbelief": 2621,
      "ĠChrist": 2622,
      "Ġ.": 2623,
      "Ġrul": 2624,
      "text": 2625,
      "Ġsym": 2626,
      "â¨": 2627,
      "Ġobvious": 2628,
      "Ġlaw": 2629,
      "adok": 2630,
      "ears": 2631,
      "title": 2632,
      "Ġexc": 2633,
      "Ġitself": 2634,
      "aste": 2635,
      "Ġhappening": 2636,
      "Ġassum": 2637,
      "If": 2638,
      "reme": 2639,
      "ried": 2640,
      "HO": 2641,
      "Ġmid": 2642,
      "760": 2643,
      "Ġlang": 2644,
      "Ġknown": 2645,
      "ĠWhich": 2646,
      "images": 2647,
      "Ġsimilar": 2648,
      "over": 2649,
      "ĠRyan": 2650,
      "Ġimm": 2651,
      "Ġvideos": 2652,
      "ib": 2653,
      "oms": 2654,
      "Ġneeds": 2655,
      "Ġhistory": 2656,
      "795": 2657,
      "Ġforce": 2658,
      "cle": 2659,
      "Ġben": 2660,
      "Ġnumber": 2661,
      "web": 2662,
      "Ġdescri": 2663,
      "ganizations": 2664,
      "uciferian": 2665,
      "ĠEl": 2666,
      "ĠInt": 2667,
      "Ġlives": 2668,
      "Ġresearch": 2669,
      "haha": 2670,
      "Ġpred": 2671,
      "Ġthanks": 2672,
      "ĠðŁĺī": 2673,
      "ral": 2674,
      "They": 2675,
      "adoka": 2676,
      "28": 2677,
      "arr": 2678,
      "[[": 2679,
      "Ġusually": 2680,
      "Ġnature": 2681,
      "Ġalong": 2682,
      "No": 2683,
      "To": 2684,
      "ext": 2685,
      "So": 2686,
      "phe": 2687,
      "Ġgave": 2688,
      "Ġsitu": 2689,
      "Ġforgot": 2690,
      "/)": 2691,
      "Ġban": 2692,
      "arc": 2693,
      "go": 2694,
      "rect": 2695,
      "Ġshall": 2696,
      "Ġdestroy": 2697,
      "Ġbull": 2698,
      "Ġburn": 2699,
      "Ġcent": 2700,
      "Ġabs": 2701,
      "Ġstrange": 2702,
      "7003": 2703,
      "Ġhalf": 2704,
      "ĠIm": 2705,
      "Ġcap": 2706,
      "Ġlar": 2707,
      "5584": 2708,
      "ĠRussi": 2709,
      "Ġshare": 2710,
      "Ġcomputer": 2711,
      "Ġsick": 2712,
      "ument": 2713,
      "Ġprof": 2714,
      "ING": 2715,
      "355584": 2716,
      "Ġsuck": 2717,
      "300355584": 2718,
      "416300355584": 2719,
      "527003": 2720,
      "527003416300355584": 2721,
      "Ġdude": 2722,
      "Ġrole": 2723,
      "oh": 2724,
      "using": 2725,
      "â©Ĭ": 2726,
      "ands": 2727,
      "St": 2728,
      "Ġhit": 2729,
      "ined": 2730,
      "oss": 2731,
      "Ġair": 2732,
      "anna": 2733,
      "Ġpat": 2734,
      "itive": 2735,
      "Ġrunning": 2736,
      "2019": 2737,
      "ĠCom": 2738,
      "Ġener": 2739,
      "Ġsave": 2740,
      "ica": 2741,
      "Ġmeet": 2742,
      "ield": 2743,
      "Ġ0": 2744,
      "Ġjoke": 2745,
      "ilt": 2746,
      "ato": 2747,
      "Ġprison": 2748,
      "Ġdraw": 2749,
      "iscord": 2750,
      "ges": 2751,
      "Ġmill": 2752,
      "Ġfur": 2753,
      "Ġfake": 2754,
      "outh": 2755,
      "ards": 2756,
      "Ġremind": 2757,
      "ĠUS": 2758,
      "author": 2759,
      "bor": 2760,
      "8691": 2761,
      "Ġgra": 2762,
      "Ġlooked": 2763,
      "dle": 2764,
      "Ġaut": 2765,
      "ruct": 2766,
      "ront": 2767,
      "Ġborn": 2768,
      "Ġstupid": 2769,
      "ho": 2770,
      "esome": 2771,
      "ify": 2772,
      "akes": 2773,
      "like": 2774,
      "ones": 2775,
      "Ġlau": 2776,
      "Ġconst": 2777,
      "Ġtruly": 2778,
      "ĠLem": 2779,
      "Ġeye": 2780,
      "ring": 2781,
      "ĠWith": 2782,
      "Ġpersonal": 2783,
      "abyrin": 2784,
      "Ġspirit": 2785,
      "abyrinth": 2786,
      "098": 2787,
      "Ġforget": 2788,
      "Ġign": 2789,
      "Ġtot": 2790,
      "stair": 2791,
      "Ġquestions": 2792,
      "Ġtrain": 2793,
      "976760": 2794,
      "55976760": 2795,
      "ently": 2796,
      "8186": 2797,
      "istic": 2798,
      "context": 2799,
      "4658186": 2800,
      "76155976760": 2801,
      "761559767604658186": 2802,
      "ior": 2803,
      "Ġfr": 2804,
      "Ġincl": 2805,
      "Ġalt": 2806,
      "Ġhumanity": 2807,
      "Ġpurp": 2808,
      "ault": 2809,
      "Ġhid": 2810,
      "304": 2811,
      "!\"": 2812,
      "Ġav": 2813,
      "45295": 2814,
      "88736": 2815,
      "ians": 2816,
      "4045295": 2817,
      "Ġtakes": 2818,
      "098304": 2819,
      "88736098304": 2820,
      "404529588736098304": 2821,
      "3130": 2822,
      "oth": 2823,
      "Ġhig": 2824,
      "ĠRE": 2825,
      "7756": 2826,
      "OL": 2827,
      "Ġtheory": 2828,
      "Ġshort": 2829,
      "814261": 2830,
      "Ġdrink": 2831,
      "7756814261": 2832,
      "Ġthoughts": 2833,
      "163130": 2834,
      "Ġlangu": 2835,
      "7756814261163130": 2836,
      "775681426116313090": 2837,
      "Ġpick": 2838,
      "Ġmanip": 2839,
      "Ġdru": 2840,
      "ending": 2841,
      "Ġpull": 2842,
      "uss": 2843,
      "Ġproject": 2844,
      "Ġesp": 2845,
      "Or": 2846,
      "erm": 2847,
      "Ġstar": 2848,
      "Ġbecom": 2849,
      "Ġtelling": 2850,
      "amp": 2851,
      "Ġvir": 2852,
      "lpha": 2853,
      "Ġminutes": 2854,
      "Ġcut": 2855,
      "ased": 2856,
      "Ġwebs": 2857,
      "2020": 2858,
      "itting": 2859,
      "Ġclear": 2860,
      "Ġforever": 2861,
      "pantheon": 2862,
      "Ġweek": 2863,
      "empt": 2864,
      "Ġtaken": 2865,
      "IG": 2866,
      "Ġ9": 2867,
      "Ġpublic": 2868,
      "Ġpot": 2869,
      "224": 2870,
      "ows": 2871,
      "Ġmagic": 2872,
      "Ġdoubt": 2873,
      "151": 2874,
      "ery": 2875,
      "Ġscre": 2876,
      "Ġready": 2877,
      "Ġfavor": 2878,
      "enn": 2879,
      "amed": 2880,
      "ateg": 2881,
      "ficult": 2882,
      "Ġhands": 2883,
      "Ġsort": 2884,
      "Ġstyle": 2885,
      "Ġmostly": 2886,
      "Ġdifficult": 2887,
      "Ġinfl": 2888,
      "evidence": 2889,
      "Ġorder": 2890,
      "Ġbat": 2891,
      "Ġpers": 2892,
      "Ġamaz": 2893,
      "ĠTHE": 2894,
      "sofpantheon": 2895,
      "Ġline": 2896,
      "Ġresult": 2897,
      "1899": 2898,
      "Ġpolit": 2899,
      "tc": 2900,
      "8250": 2901,
      "ĠRank": 2902,
      "84957": 2903,
      "1511899": 2904,
      "825024": 2905,
      "84957825024": 2906,
      "151189984957825024": 2907,
      "aa": 2908,
      "Ġcop": 2909,
      "Ġweap": 2910,
      "Ġwhite": 2911,
      "ender": 2912,
      "Ġpartic": 2913,
      "59": 2914,
      "De": 2915,
      "Ġwatched": 2916,
      "ST": 2917,
      "apt": 2918,
      "eed": 2919,
      "OO": 2920,
      "ĠPer": 2921,
      "Ġseeing": 2922,
      "stairsofpantheon": 2923,
      "Ġjud": 2924,
      "ero": 2925,
      "iment": 2926,
      "7575": 2927,
      "42": 2928,
      "541": 2929,
      "Ġbeaut": 2930,
      "Ġrepl": 2931,
      "Ġmil": 2932,
      "comments": 2933,
      "Ġextreme": 2934,
      "Ġasking": 2935,
      "ury": 2936,
      "share": 2937,
      "full": 2938,
      "Ġwel": 2939,
      "Ġcommon": 2940,
      "for": 2941,
      "ius": 2942,
      "und": 2943,
      "Ġstra": 2944,
      "Ġconv": 2945,
      "ĠThats": 2946,
      "cent": 2947,
      "ony": 2948,
      "ĠAmer": 2949,
      "ief": 2950,
      "cing": 2951,
      "Ġbey": 2952,
      "Ġsurv": 2953,
      "Ġclearly": 2954,
      "ination": 2955,
      "Ġdanger": 2956,
      "ĠWhere": 2957,
      "Ġpresent": 2958,
      "Ġmurder": 2959,
      "Ġloc": 2960,
      "chan": 2961,
      "Ġsil": 2962,
      "Ġenem": 2963,
      "ĠECO": 2964,
      "/?": 2965,
      "iar": 2966,
      "Ġbreat": 2967,
      "Ġchat": 2968,
      "Ġnon": 2969,
      "Ġear": 2970,
      "oooo": 2971,
      "Ġquick": 2972,
      "Ġpret": 2973,
      "Ġequ": 2974,
      "oph": 2975,
      "Ġrealm": 2976,
      "Ġacross": 2977,
      "63": 2978,
      "ĠSomet": 2979,
      "Ġmod": 2980,
      "Ġscen": 2981,
      "medium": 2982,
      "Ġaccess": 2983,
      "Ġexperien": 2984,
      "gress": 2985,
      "ask": 2986,
      "ĠĠĊ": 2987,
      "Ġprove": 2988,
      "Ġ([": 2989,
      "239": 2990,
      "Ġtechnology": 2991,
      "ĠDiscord": 2992,
      "Ġcute": 2993,
      "Ġintellig": 2994,
      "Ġconcept": 2995,
      "ĠPl": 2996,
      "ĠðŁĳ": 2997,
      "Ġident": 2998,
      "ios": 2999,
      "Ġbaby": 3000,
      "Ġweak": 3001,
      "que": 3002,
      "Ġremain": 3003,
      "Ġdiscord": 3004,
      "fer": 3005,
      "Ġelect": 3006,
      "ential": 3007,
      "Ġreading": 3008,
      "ches": 3009,
      "int": 3010,
      "Ġhel": 3011,
      "Ġalive": 3012,
      "Ġhimself": 3013,
      "iversity": 3014,
      "Ġtou": 3015,
      "iction": 3016,
      "Ġtravel": 3017,
      "Ġhurt": 3018,
      "Ġenergy": 3019,
      "15": 3020,
      "uri": 3021,
      "Ġdumb": 3022,
      "olm": 3023,
      "Ġlose": 3024,
      "Ġ100": 3025,
      "ney": 3026,
      "Ġcurrent": 3027,
      "3725": 3028,
      "oid": 3029,
      "ision": 3030,
      "ĠThese": 3031,
      "Ġunless": 3032,
      "\"](": 3033,
      "iebol": 3034,
      "ĠLabyrinth": 3035,
      "Ġprodu": 3036,
      "Ġteac": 3037,
      "Ġplanet": 3038,
      "Ġabove": 3039,
      "Ġprov": 3040,
      "ape": 3041,
      "âĪ": 3042,
      "Ġsimple": 3043,
      "Ġphysical": 3044,
      "Ġpurpose": 3045,
      "Ġwake": 3046,
      "Ġcity": 3047,
      "ached": 3048,
      "Ġkey": 3049,
      "Ġgovernment": 3050,
      "Ġcode": 3051,
      "Ġrelations": 3052,
      "612": 3053,
      "ĠRight": 3054,
      "EE": 3055,
      "ĠMost": 3056,
      "ĠLet": 3057,
      "Ġproof": 3058,
      "Ġthank": 3059,
      "My": 3060,
      "but": 3061,
      "Ġmass": 3062,
      "Ġinvol": 3063,
      "Ġsituation": 3064,
      "Ġserious": 3065,
      "Ġfollowing": 3066,
      "234": 3067,
      "Ġann": 3068,
      "Ġconvers": 3069,
      "There": 3070,
      "Ġchoice": 3071,
      "light": 3072,
      "Ġwolf": 3073,
      "Ġidk": 3074,
      "Ġturned": 3075,
      "ug": 3076,
      "Ġwanna": 3077,
      "Ġmir": 3078,
      "oring": 3079,
      "ĠTR": 3080,
      "rif": 3081,
      "Ġsports": 3082,
      "Ġawesome": 3083,
      "Ġposition": 3084,
      "Ġpie": 3085,
      "4544": 3086,
      "56612": 3087,
      "ĠSee": 3088,
      "30618": 3089,
      "arently": 3090,
      "mao": 3091,
      "454430618": 3092,
      "56612454430618": 3093,
      "566124544306184193": 3094,
      "ĠHis": 3095,
      "iful": 3096,
      "Ġperhaps": 3097,
      "Ġpath": 3098,
      "á´ĩ": 3099,
      "Ġfing": 3100,
      "Ġbecame": 3101,
      "Ġwaiting": 3102,
      "Ġdata": 3103,
      "work": 3104,
      "351": 3105,
      "476": 3106,
      "Ġetc": 3107,
      "ĠLight": 3108,
      "Ġattention": 3109,
      "Al": 3110,
      "Ġobs": 3111,
      "Ġthreat": 3112,
      "alcolm": 3113,
      "965": 3114,
      "Ġcir": 3115,
      "Tube": 3116,
      "Ġhot": 3117,
      "dy": 3118,
      "Ġappro": 3119,
      "known": 3120,
      "Ġson": 3121,
      "Ġfront": 3122,
      "488486": 3123,
      "30625": 3124,
      "Ġsurpr": 3125,
      "476965": 3126,
      "4884866": 3127,
      "306254884866": 3128,
      "476965306254884866": 3129,
      "land": 3130,
      "ication": 3131,
      "igital": 3132,
      "Ġsafe": 3133,
      "ĠHello": 3134,
      "Ġlanguage": 3135,
      "now": 3136,
      "Ġtreat": 3137,
      "Ġlil": 3138,
      "ĠSame": 3139,
      "ificial": 3140,
      "........": 3141,
      "Ġamazing": 3142,
      "Ġmachine": 3143,
      "Ġboy": 3144,
      "ĠAge": 3145,
      "Ġblue": 3146,
      "jor": 3147,
      "ĠThank": 3148,
      "por": 3149,
      "ensen": 3150,
      "â©ī": 3151,
      "Ġsmart": 3152,
      "Ġwebsite": 3153,
      "She": 3154,
      "Ġsear": 3155,
      "Ġda": 3156,
      "+++": 3157,
      "cha": 3158,
      "Ġbeha": 3159,
      "ND": 3160,
      "ina": 3161,
      "Ġcomb": 3162,
      "Ġlay": 3163,
      "Ġant": 3164,
      "Ġrealize": 3165,
      "Ġground": 3166,
      "Ġgotta": 3167,
      "ggest": 3168,
      "Ġtowards": 3169,
      "Ġeff": 3170,
      "ĠTw": 3171,
      "acc": 3172,
      "Ġpract": 3173,
      "ossible": 3174,
      "Ġchanged": 3175,
      "Ġinflu": 3176,
      "200": 3177,
      "Ġwind": 3178,
      "ogn": 3179,
      "Ġfinally": 3180,
      "ified": 3181,
      "Ġspread": 3182,
      "aring": 3183,
      "order": 3184,
      "Ġvoor": 3185,
      "Ġmemory": 3186,
      "49": 3187,
      "ME": 3188,
      "lish": 3189,
      "view": 3190,
      "Ġnone": 3191,
      "ĠAlpha": 3192,
      "Ġsuggest": 3193,
      "yn": 3194,
      "Ġocc": 3195,
      "Ġplayed": 3196,
      "ĠIk": 3197,
      "ters": 3198,
      "Ġ*\"": 3199,
      "Ġblock": 3200,
      "Ġteam": 3201,
      "Ġparents": 3202,
      "draft": 3203,
      "Ġsqu": 3204,
      "omb": 3205,
      "ising": 3206,
      "Ġsuffering": 3207,
      "Ġtre": 3208,
      "Ġfair": 3209,
      "ales": 3210,
      "Ġhigher": 3211,
      "mon": 3212,
      "nen": 3213,
      "2232": 3214,
      "ĠTom": 3215,
      "7432": 3216,
      "Ġdoc": 3217,
      "Ġkept": 3218,
      "ression": 3219,
      "Ġevidence": 3220,
      "Ġfocus": 3221,
      "fter": 3222,
      "Ġstep": 3223,
      "7737": 3224,
      "unk": 3225,
      "Ġprep": 3226,
      "4162232": 3227,
      "ijk": 3228,
      "ĠJustice": 3229,
      "fully": 3230,
      "74324162232": 3231,
      "773774324162232": 3232,
      "773774324162232351": 3233,
      "Ġfem": 3234,
      "ift": 3235,
      "Ġeasier": 3236,
      "tain": 3237,
      "Ġsource": 3238,
      "imens": 3239,
      "Ġnobody": 3240,
      "Ġbroken": 3241,
      "Ġpeace": 3242,
      "Ġbeyond": 3243,
      "Ġcontact": 3244,
      "Ġpossib": 3245,
      "Ġconnected": 3246,
      "Ġrobot": 3247,
      "Ġgiving": 3248,
      "AR": 3249,
      "ĠOuro": 3250,
      "ended": 3251,
      "Ġcorrect": 3252,
      "ives": 3253,
      "miss": 3254,
      "Ġ?": 3255,
      "Ġstories": 3256,
      "raid": 3257,
      "â©Ĭâ©Ĭ": 3258,
      "ler": 3259,
      "Ġcompl": 3260,
      "ietn": 3261,
      "Ġrepres": 3262,
      "Ġmessages": 3263,
      "Ĩâ«": 3264,
      "Ġonline": 3265,
      "ills": 3266,
      "Ġmonths": 3267,
      "Ġdied": 3268,
      "ĠEm": 3269,
      "Ġattempt": 3270,
      "Ġfeed": 3271,
      "Ġfurther": 3272,
      "Ġworse": 3273,
      "orrow": 3274,
      "irth": 3275,
      "Ġsuc": 3276,
      "TH": 3277,
      "rad": 3278,
      "rel": 3279,
      "How": 3280,
      "7236": 3281,
      "Ġlim": 3282,
      "Ġnotic": 3283,
      "Ġmajor": 3284,
      "Ġbuy": 3285,
      "Ġsymbol": 3286,
      "che": 3287,
      "person": 3288,
      "Ġbrother": 3289,
      "ites": 3290,
      "ĠHer": 3291,
      "449": 3292,
      "Ġthrow": 3293,
      "Ġaware": 3294,
      "Ġinternet": 3295,
      "Ġrespect": 3296,
      "Ġdetail": 3297,
      "ĠSh": 3298,
      "Ġrid": 3299,
      "elling": 3300,
      "ĠThough": 3301,
      "Ġrofl": 3302,
      "Ġpicture": 3303,
      "Ġai": 3304,
      "Ġnear": 3305,
      "Ġnecess": 3306,
      "Ġsold": 3307,
      "Ġcats": 3308,
      "Ġversion": 3309,
      "Ġtroll": 3310,
      "Ġdue": 3311,
      "Ġyout": 3312,
      "Ġdog": 3313,
      "raph": 3314,
      "university": 3315,
      "1972": 3316,
      "ĠUk": 3317,
      "Ġcompany": 3318,
      "0634": 3319,
      "45541": 3320,
      "Ġneg": 3321,
      "ðĿĲ": 3322,
      "2391972": 3323,
      "449729": 3324,
      "45541449729": 3325,
      "239197245541449729": 3326,
      "When": 3327,
      "lt": 3328,
      "Ġlate": 3329,
      "Ġreach": 3330,
      "ĠHave": 3331,
      "Ġtem": 3332,
      "Ġland": 3333,
      "amer": 3334,
      "Ġdiv": 3335,
      "â©Į": 3336,
      "ÂłÂł": 3337,
      "Ġcold": 3338,
      "7950": 3339,
      "223": 3340,
      "eeee": 3341,
      "Ġcant": 3342,
      "Ġfighting": 3343,
      "ĠTe": 3344,
      "ðŁ¤£": 3345,
      "rs": 3346,
      "Ġgain": 3347,
      "Ġvict": 3348,
      "Ġunderstanding": 3349,
      "Ġlearned": 3350,
      "Ġcontinue": 3351,
      "oun": 3352,
      "Ġlog": 3353,
      "Ġafraid": 3354,
      "Ġexistence": 3355,
      "bed": 3356,
      "ases": 3357,
      "Ġproper": 3358,
      "Ġwritten": 3359,
      "Ġfavorite": 3360,
      "GER": 3361,
      "Ġimpossible": 3362,
      "Ġconscious": 3363,
      "ĠThanks": 3364,
      "Ġmorning": 3365,
      "jk": 3366,
      "Ġcore": 3367,
      "Ġexcept": 3368,
      "961": 3369,
      "uel": 3370,
      "]],": 3371,
      "Ġfreed": 3372,
      "load": 3373,
      "Ġ2019": 3374,
      "Ġpoor": 3375,
      "ĠOkay": 3376,
      "38": 3377,
      "ires": 3378,
      "Ġconspir": 3379,
      "968": 3380,
      "Ġrecord": 3381,
      "Ġoriginal": 3382,
      "Ġextremely": 3383,
      "Ġmot": 3384,
      "Ġwilling": 3385,
      "On": 3386,
      "path": 3387,
      "Ġbunch": 3388,
      "7991": 3389,
      "olute": 3390,
      "rap": 3391,
      "3318691": 3392,
      "863318691": 3393,
      "ĠDoes": 3394,
      "795863318691": 3395,
      "7991795863318691": 3396,
      "799179586331869194": 3397,
      "bo": 3398,
      "Ġtend": 3399,
      "ĠYep": 3400,
      "ION": 3401,
      "head": 3402,
      "Ġnews": 3403,
      "Ġbuilding": 3404,
      "Ġbeautiful": 3405,
      "ked": 3406,
      "Ġworst": 3407,
      "ĠJe": 3408,
      "gry": 3409,
      "Ġ...": 3410,
      "Ġsusp": 3411,
      "Ġconsider": 3412,
      "Ġlaugh": 3413,
      "961223": 3414,
      "!âĢĿ": 3415,
      "Ġtool": 3416,
      "44486": 3417,
      "Ġpowerful": 3418,
      "Ġcover": 3419,
      "723644486": 3420,
      "ered": 3421,
      "Ġtired": 3422,
      "Ġden": 3423,
      "Ġlmao": 3424,
      "eresting": 3425,
      "Ġdesign": 3426,
      "ground": 3427,
      "224723644486": 3428,
      "961223224723644486": 3429,
      "Ġpure": 3430,
      "Ġcollect": 3431,
      "by": 3432,
      "Ģâ": 3433,
      "Ġsat": 3434,
      "ĠDiebol": 3435,
      "Ġactual": 3436,
      "Ġcreep": 3437,
      "ashion": 3438,
      "Ġpriv": 3439,
      "ĠHet": 3440,
      "ĠLOL": 3441,
      "ĠYouTube": 3442,
      "ĠðŁ¤": 3443,
      "Ġclos": 3444,
      "Ġinsane": 3445,
      "Ġespecially": 3446,
      "ational": 3447,
      "Ġesc": 3448,
      "ĠĠĠĠĠĠĠĠĠĠ": 3449,
      "Ġoppos": 3450,
      "Ġlarge": 3451,
      "As": 3452,
      "BI": 3453,
      "Ġbes": 3454,
      "ĠRed": 3455,
      "ressed": 3456,
      "ĠðŁĺĤ": 3457,
      "5326": 3458,
      "Ġlow": 3459,
      "Ġviol": 3460,
      "Ġstraight": 3461,
      "Ġdangerous": 3462,
      "ister": 3463,
      "ĠGr": 3464,
      "ĠGoogle": 3465,
      "Ġamount": 3466,
      "Ġspeaking": 3467,
      "781": 3468,
      "cient": 3469,
      "ountain": 3470,
      "Ġsocial": 3471,
      "Ġyoutube": 3472,
      "Ġrele": 3473,
      "Ġenv": 3474,
      "Ġdamn": 3475,
      "Ġmanipul": 3476,
      "((": 3477,
      "Ġmiddle": 3478,
      "IGGER": 3479,
      "AL": 3480,
      "Ġcuri": 3481,
      "Ġstuck": 3482,
      "ĠYOU": 3483,
      "Ġscared": 3484,
      "ĠTRIGGER": 3485,
      "Ġess": 3486,
      "Ġmensen": 3487,
      "ĠId": 3488,
      "Ġlack": 3489,
      "Ġforward": 3490,
      "Ġkun": 3491,
      "Ġbusiness": 3492,
      "419": 3493,
      "Ġrich": 3494,
      "ey": 3495,
      "Ġ&": 3496,
      "Ġability": 3497,
      "abor": 3498,
      "Ġfamil": 3499,
      "Ġfinal": 3500,
      "Ġsubject": 3501,
      "ait": 3502,
      "Ġsens": 3503,
      "leted": 3504,
      "acking": 3505,
      "Ġ12": 3506,
      "Ġwrote": 3507,
      "Ġ200": 3508,
      "/).": 3509,
      "ura": 3510,
      "Ġnamed": 3511,
      "cons": 3512,
      "Ġmouth": 3513,
      "owers": 3514,
      "ĠAm": 3515,
      "Ġ((": 3516,
      "icked": 3517,
      "Ġunivers": 3518,
      "dom": 3519,
      "ii": 3520,
      "ware": 3521,
      "ari": 3522,
      "Ġkitten": 3523,
      "Ġmoder": 3524,
      "Ġals": 3525,
      "pping": 3526,
      "Ġshadow": 3527,
      "Ġfashion": 3528,
      "ceive": 3529,
      "ĠDave": 3530,
      "ĠThose": 3531,
      "Ġspecial": 3532,
      "Ġbooks": 3533,
      "Ġwelcome": 3534,
      "Ch": 3535,
      "ID": 3536,
      "Ġ30": 3537,
      "0689": 3538,
      "2941": 3539,
      "alm": 3540,
      "Ġseemed": 3541,
      "Ġskin": 3542,
      "260689": 3543,
      "59781": 3544,
      "294159781": 3545,
      "260689419": 3546,
      "294159781260689419": 3547,
      "pre": 3548,
      "wise": 3549,
      "Ġfit": 3550,
      "ĠLove": 3551,
      "Ġspend": 3552,
      "Do": 3553,
      "Ġgrand": 3554,
      "Ġmedia": 3555,
      "rew": 3556,
      "Ġduring": 3557,
      "ĠTO": 3558,
      "ĠUs": 3559,
      "970": 3560,
      "Un": 3561,
      "gon": 3562,
      "Ġ19": 3563,
      "itary": 3564,
      "aced": 3565,
      "ĠGhost": 3566,
      "Ġmeth": 3567,
      "Ġcertainly": 3568,
      "Ġmultiple": 3569,
      "Ġsearch": 3570,
      "ploy": 3571,
      "ijd": 3572,
      "Ġapparently": 3573,
      "bers": 3574,
      "org": 3575,
      "Ġple": 3576,
      "antly": 3577,
      "weight": 3578,
      "Ġrelated": 3579,
      "Ġopin": 3580,
      "uses": 3581,
      "Ġsomebody": 3582,
      "Ġbox": 3583,
      "ĠArt": 3584,
      "Ġbeliefs": 3585,
      "ĠPerhaps": 3586,
      "Ġannoy": 3587,
      "![": 3588,
      "een": 3589,
      "ata": 3590,
      "aly": 3591,
      "Ġcouple": 3592,
      "Ġenemy": 3593,
      "Ġswe": 3594,
      "Ġharm": 3595,
      "Ġallowed": 3596,
      "Re": 3597,
      "Ġhide": 3598,
      "Ġhij": 3599,
      "ĠWor": 3600,
      "ĠWill": 3601,
      "Ġpen": 3602,
      "Ġur": 3603,
      "Ġworked": 3604,
      "ORD": 3605,
      "Ġaan": 3606,
      "Ġaud": 3607,
      "Ġcoin": 3608,
      "Ġdi": 3609,
      "imin": 3610,
      "Ġsoft": 3611,
      "ĠRem": 3612,
      "Ġroy": 3613,
      "Ġproblems": 3614,
      "Ġsexual": 3615,
      "ĠOnly": 3616,
      "ĉĠ": 3617,
      "ĠIS": 3618,
      "illed": 3619,
      "Ġroll": 3620,
      "Ġreasons": 3621,
      "Ġrespond": 3622,
      "arciss": 3623,
      "je": 3624,
      "Ġbirth": 3625,
      "Ġactions": 3626,
      "Ġfloor": 3627,
      "Ġsla": 3628,
      "Ġsuppose": 3629,
      "Ġclean": 3630,
      "Ġhop": 3631,
      "Ġasks": 3632,
      "Ġknowing": 3633,
      "ocr": 3634,
      "Ġdifference": 3635,
      "441": 3636,
      "Ġanimals": 3637,
      "aith": 3638,
      "what": 3639,
      "ĠâĢ¦": 3640,
      "eds": 3641,
      "Ġnaar": 3642,
      "ueen": 3643,
      "Ġinteract": 3644,
      "ategories": 3645,
      "ky": 3646,
      "Ġ^": 3647,
      "Ġach": 3648,
      "Ġenc": 3649,
      "Ġsky": 3650,
      "Ġterm": 3651,
      "ĠECHO": 3652,
      "372": 3653,
      "VE": 3654,
      "zen": 3655,
      "2021": 3656,
      "Ġshot": 3657,
      "fortun": 3658,
      "ency": 3659,
      "Ġfell": 3660,
      "raine": 3661,
      "Ġshoot": 3662,
      "though": 3663,
      "Ġterrible": 3664,
      "ĠInteresting": 3665,
      "dden": 3666,
      "lass": 3667,
      "icle": 3668,
      "Ġprogress": 3669,
      "ooky": 3670,
      "Ġcontext": 3671,
      "Ġbuilt": 3672,
      "Ġobject": 3673,
      "eks": 3674,
      "ued": 3675,
      "Ġstars": 3676,
      "elios": 3677,
      "Ġnoticed": 3678,
      "Luciferian": 3679,
      "ħâ«": 3680,
      "5555": 3681,
      "Ġlearning": 3682,
      "Ġissue": 3683,
      "Ġoper": 3684,
      "821": 3685,
      "els": 3686,
      "ived": 3687,
      "Ġflat": 3688,
      "â«ĸ": 3689,
      "Ġmemories": 3690,
      "Ġmissing": 3691,
      "Ġcommunity": 3692,
      "Ġcolor": 3693,
      "Ġtomato": 3694,
      "ennis": 3695,
      "Ġteach": 3696,
      "â©Ī": 3697,
      "Ġexperiment": 3698,
      "pective": 3699,
      "Ġabsolute": 3700,
      "rc": 3701,
      "Ġpun": 3702,
      "eth": 3703,
      "Ġmaar": 3704,
      "Ġconfused": 3705,
      "Ġfreedom": 3706,
      "icate": 3707,
      "icking": 3708,
      "46446": 3709,
      "osp": 3710,
      "Ġrules": 3711,
      "23446446": 3712,
      "9705555": 3713,
      "234464469705555": 3714,
      "234464469705555968": 3715,
      "Ġtree": 3716,
      "Ġhyp": 3717,
      "acing": 3718,
      "Ġscream": 3719,
      "Not": 3720,
      "bit": 3721,
      "tf": 3722,
      "Ġheav": 3723,
      "Ġdecided": 3724,
      "ened": 3725,
      "set": 3726,
      "Ġdoct": 3727,
      "ĠBen": 3728,
      "Ġplaces": 3729,
      "For": 3730,
      "Ġhall": 3731,
      "Ġhack": 3732,
      "ayer": 3733,
      "Ġsudden": 3734,
      "la": 3735,
      "Ġla": 3736,
      "Ġsumm": 3737,
      "ĠMoon": 3738,
      "Ġscience": 3739,
      "Ġzo": 3740,
      "Ġprefer": 3741,
      "Ġgods": 3742,
      "Ġmatters": 3743,
      "Ġrefer": 3744,
      "Ġhuge": 3745,
      "reci": 3746,
      "Ġmad": 3747,
      "Ġport": 3748,
      "452": 3749,
      "ĠAg": 3750,
      "Ġstri": 3751,
      "Ġintent": 3752,
      "Ġherself": 3753,
      "Ġlock": 3754,
      "hhhh": 3755,
      "ĠQu": 3756,
      "Ġgreen": 3757,
      "Ġmentioned": 3758,
      ".*": 3759,
      "292": 3760,
      "elcome": 3761,
      "ĠHey": 3762,
      "Ġdiscuss": 3763,
      "Ġglad": 3764,
      "Ġgeneral": 3765,
      "Ġhole": 3766,
      "OW": 3767,
      "bh": 3768,
      "796": 3769,
      "Ġele": 3770,
      "ican": 3771,
      "ietnam": 3772,
      "hips": 3773,
      "wh": 3774,
      "łĢâ": 3775,
      "ilia": 3776,
      "ĠLook": 3777,
      "Ĩâ«ħâ«": 3778,
      "150": 3779,
      "pret": 3780,
      "zz": 3781,
      "erd": 3782,
      "Ġmoving": 3783,
      "Ġxan": 3784,
      "ĠQueen": 3785,
      "vior": 3786,
      "Ġinde": 3787,
      "ĠAct": 3788,
      "Ġjump": 3789,
      "medi": 3790,
      "Ġconversation": 3791,
      "othes": 3792,
      "Ġearly": 3793,
      "Ġadult": 3794,
      "Ġrecogn": 3795,
      "overed": 3796,
      "Ġobviously": 3797,
      "Ġinvolved": 3798,
      "All": 3799,
      "One": 3800,
      "har": 3801,
      "lly": 3802,
      "Ġsomewhere": 3803,
      "ĠErin": 3804,
      "ively": 3805,
      "ĠGo": 3806,
      "Ġhidden": 3807,
      "Ġfold": 3808,
      "ators": 3809,
      "Ġbeat": 3810,
      "onely": 3811,
      "ieve": 3812,
      "Ġinclud": 3813,
      "Ġtouch": 3814,
      "Ġrelationship": 3815,
      "Sy": 3816,
      "Ã©": 3817,
      "ĠBr": 3818,
      "menu": 3819,
      "Ĩâ«ħâ«Ĩâ«ħâ«": 3820,
      "categories": 3821,
      "Ġbill": 3822,
      "Ġking": 3823,
      "ĠOur": 3824,
      "ĠWhile": 3825,
      "ĠHowever": 3826,
      "KE": 3827,
      "rr": 3828,
      "Ġbod": 3829,
      "Ġlord": 3830,
      "Ġgold": 3831,
      "izing": 3832,
      "sidered": 3833,
      "ige": 3834,
      "Ġbegan": 3835,
      "4120": 3836,
      "imate": 3837,
      "Ġemail": 3838,
      "Ġpredict": 3839,
      "ĠRussia": 3840,
      "des": 3841,
      "Ġink": 3842,
      "Ġsomehow": 3843,
      "Ġunknown": 3844,
      "ĠHere": 3845,
      "Ġbrought": 3846,
      "Ġcountries": 3847,
      "ervation": 3848,
      "room": 3849,
      "Ġconsidered": 3850,
      "Ġshut": 3851,
      "Ġship": 3852,
      "aster": 3853,
      "Ġblind": 3854,
      "588": 3855,
      "Ġcy": 3856,
      "Ġgay": 3857,
      "Ġinn": 3858,
      "Ġnotice": 3859,
      "iron": 3860,
      "ĠDark": 3861,
      "Fodder": 3862,
      "Ġsep": 3863,
      "297": 3864,
      "464": 3865,
      "Ġrad": 3866,
      "Ġcomment": 3867,
      "Ġimmedi": 3868,
      "dered": 3869,
      "Ġâī": 3870,
      "Ġinterested": 3871,
      "Ġinvest": 3872,
      "Ġrule": 3873,
      "personas": 3874,
      "Ġconspiracy": 3875,
      "Ġmethod": 3876,
      "Ġtort": 3877,
      "Ġmoon": 3878,
      "Ġmale": 3879,
      "Ġdisapp": 3880,
      "Ġappreci": 3881,
      "Ġbecomes": 3882,
      "sc": 3883,
      "Ġcann": 3884,
      "ograph": 3885,
      "Ġrecently": 3886,
      "Ġweapon": 3887,
      "Madoka": 3888,
      "typ": 3889,
      "Ġ62": 3890,
      "llen": 3891,
      "Ġhair": 3892,
      "99297": 3893,
      "ĠMalcolm": 3894,
      "7501": 3895,
      "ĠNOT": 3896,
      "9957501": 3897,
      "Ġcontain": 3898,
      "Ġparts": 3899,
      "Ġserv": 3900,
      "Ġrepresent": 3901,
      "Ġroyals": 3902,
      "7969957501": 3903,
      "5887969957501": 3904,
      "588796995750199297": 3905,
      ".*\"": 3906,
      "Ä±": 3907,
      "Ġfield": 3908,
      "Ġnor": 3909,
      "Ġloved": 3910,
      "Ġposs": 3911,
      "Ġposted": 3912,
      "eps": 3913,
      "ences": 3914,
      "ature": 3915,
      "alking": 3916,
      "Ġamong": 3917,
      "Ġaction": 3918,
      "Ġwild": 3919,
      "olution": 3920,
      "Ġvacc": 3921,
      "](((": 3922,
      "â«ķ": 3923,
      "Ġcharacters": 3924,
      "ĠKunist": 3925,
      "04": 3926,
      "gor": 3927,
      "3232": 3928,
      "ĠPlease": 3929,
      "ables": 3930,
      "arden": 3931,
      "Ġcalling": 3932,
      "Ġphot": 3933,
      "???": 3934,
      "you": 3935,
      "Ġut": 3936,
      "Ġtennis": 3937,
      "Ġpan": 3938,
      "otes": 3939,
      "Ġkilling": 3940,
      "ĠZe": 3941,
      "779": 3942,
      "Ġce": 3943,
      "Ġcross": 3944,
      "Ġrepe": 3945,
      "ĠExactly": 3946,
      "Ġbeginning": 3947,
      "67": 3948,
      "Love": 3949,
      "Ġfoot": 3950,
      "omen": 3951,
      "rix": 3952,
      "Ġmaster": 3953,
      "ĠCl": 3954,
      "ounds": 3955,
      "spooky": 3956,
      "rupt": 3957,
      "rugg": 3958,
      "class": 3959,
      "Ġdemon": 3960,
      "Ġwaste": 3961,
      "Ġeating": 3962,
      "Ġmodern": 3963,
      "Ġindeed": 3964,
      "53": 3965,
      "TI": 3966,
      "Ġou": 3967,
      "Ġwis": 3968,
      "Ġodd": 3969,
      "Ġheaven": 3970,
      "ung": 3971,
      "ĠFold": 3972,
      "Ġstarting": 3973,
      "Ġdeser": 3974,
      "Ġtalked": 3975,
      "Ġfollowers": 3976,
      "Ġwit": 3977,
      "ĠWE": 3978,
      "Ġtrou": 3979,
      "ĠPr": 3980,
      "Ġplant": 3981,
      "aged": 3982,
      "Ġsouls": 3983,
      "Ġpolice": 3984,
      "Ġlistening": 3985,
      "Ġsuccess": 3986,
      "ĠUkraine": 3987,
      "Ġmountain": 3988,
      "Ġcell": 3989,
      "Ġdad": 3990,
      "Ġprop": 3991,
      "Ġ>.": 3992,
      "Ġemotions": 3993,
      "Ġresponse": 3994,
      "ĠREC": 3995,
      "tr": 3996,
      "ton": 3997,
      "Ġcard": 3998,
      "Ġpush": 3999,
      "irm": 4000,
      "ĠWas": 4001,
      "ĠHa": 4002,
      "Ġuser": 4003,
      "Ġsuffer": 4004,
      "Ġcurious": 4005,
      "\".": 4006,
      "Ġauthor": 4007,
      "erc": 4008,
      "Ġload": 4009,
      "Ġarm": 4010,
      "Ġbored": 4011,
      "Ġfeet": 4012,
      "Ġwife": 4013,
      "Ġcaught": 4014,
      "Ġcamer": 4015,
      "Ġdom": 4016,
      "Ġfly": 4017,
      "itter": 4018,
      "ĠYet": 4019,
      "this": 4020,
      "aken": 4021,
      "Ġcrypt": 4022,
      "Ġdrugs": 4023,
      "Just": 4024,
      "duc": 4025,
      "uff": 4026,
      "vid": 4027,
      "Ġfant": 4028,
      "ĠSatan": 4029,
      "ĠDam": 4030,
      "Ġissues": 4031,
      "conscious": 4032,
      "Ġpossess": 4033,
      "book": 4034,
      "Ġfan": 4035,
      "Ġthous": 4036,
      "Ġuit": 4037,
      "Ġrealized": 4038,
      "Ġaccur": 4039,
      "bling": 4040,
      "Ġeasily": 4041,
      "Ġquickly": 4042,
      "Oh": 4043,
      "Ġstream": 4044,
      "Ġsaf": 4045,
      "cription": 4046,
      "ĠRECORD": 4047,
      "tom": 4048,
      "Ġton": 4049,
      "Ġbird": 4050,
      "ĠIT": 4051,
      "antum": 4052,
      "Ġappear": 4053,
      "Ġbroke": 4054,
      "łĢâłĢâ": 4055,
      "Ik": 4056,
      "ker": 4057,
      "pter": 4058,
      "Ġrecall": 4059,
      "Ġpiece": 4060,
      "66": 4061,
      "SC": 4062,
      "Ġ24": 4063,
      "Ġcost": 4064,
      "ances": 4065,
      "Ġweeks": 4066,
      "Ġtrick": 4067,
      "Ġnatural": 4068,
      "Ġdirectly": 4069,
      "px": 4070,
      "ping": 4071,
      "pite": 4072,
      "asc": 4073,
      "rib": 4074,
      "ĠBy": 4075,
      "Ġring": 4076,
      "ĠFl": 4077,
      "Ġminds": 4078,
      "Ġevents": 4079,
      "Ġsimulation": 4080,
      "Ġpaper": 4081,
      "Ġeffort": 4082,
      "asy": 4083,
      "Ġvol": 4084,
      "Ġshouldn": 4085,
      "Ġhorror": 4086,
      "ĠEveryone": 4087,
      "Ġtomorrow": 4088,
      "Ġperspective": 4089,
      "Ġjudge": 4090,
      "str": 4091,
      "Ġnames": 4092,
      "Ġinterpret": 4093,
      "Ġexists": 4094,
      "Ġrobots": 4095
    },
    "merges": [
      "Ġ t",
      "Ġ a",
      "h e",
      "i n",
      "Ġ w",
      "r e",
      "Ġ s",
      "o u",
      "Ġt he",
      "o n",
      "h a",
      "Ġ i",
      "e r",
      "Ġ m",
      "Ġ b",
      "Ġ I",
      "in g",
      "Ġ c",
      "e n",
      "o r",
      "7 6",
      "8 5",
      "Ġt o",
      "Ġ d",
      "Ġ f",
      "a n",
      "0 6",
      "Ġ p",
      "7 1",
      "l l",
      "Ġ l",
      "Ġ o",
      "e s",
      "4 8",
      "Ġa n",
      "5 1",
      "Ġ y",
      "e d",
      "7 9",
      "ha t",
      "i t",
      "s t",
      "Ġ n",
      "2 9",
      "a t",
      "4 5",
      "Ġy ou",
      "2 2",
      "Ġ g",
      "o m",
      "Ġ in",
      "Ġo f",
      "8 0",
      "Ġan d",
      "i s",
      "3 1",
      "Ġb e",
      "v e",
      "a r",
      "o t",
      "Ġt h",
      "Ġi t",
      "l e",
      "o w",
      "Ġi s",
      "Ġ e",
      "7 0",
      "4 1",
      "6 1",
      "Ġ ha",
      "Ġt hat",
      "7 2",
      "a l",
      "a s",
      "Ġ T",
      "i c",
      "â Ģ",
      "9 9",
      "7 4",
      "Ġ h",
      "5 6",
      "s e",
      "k e",
      "3 5",
      "l d",
      "Ġ re",
      "u t",
      "a y",
      "e t",
      "6 2",
      "i d",
      "Ġ he",
      "Ġ on",
      "v er",
      "0 51",
      "i on",
      "9 4",
      "Ġ u",
      "Ġl i",
      "9 8",
      "9 76",
      "l y",
      "E D",
      "79 8",
      "a c",
      "8 06",
      "71 98",
      "70 976",
      "62 7198",
      "051 627198",
      "806 051627198",
      "70976 0",
      "806051627198 709760",
      "g h",
      "1 1",
      "Ġm e",
      "Ġw e",
      "Ġ A",
      "Ġs t",
      "6 5",
      "5 5",
      "Ġf or",
      "en t",
      "r o",
      "Ġ k",
      "i m",
      "a m",
      "0 0",
      "Ġn ot",
      "55 29",
      "o o",
      "ou t",
      "3 3",
      "7 56",
      "85 85",
      "756 6",
      "76 11",
      "85 5529",
      "8585 7566",
      "7611 85857566",
      "855529 761185857566",
      "a ll",
      "a d",
      "Ġa re",
      "n d",
      "Ġw as",
      "âĢ Ļ",
      "i r",
      "Ġd o",
      "ou ld",
      "i ll",
      "ĠT he",
      "it h",
      "Ġ [",
      "' s",
      "' t",
      "c t",
      "u st",
      "Ġ S",
      "Ġha ve",
      "o l",
      "Ġm y",
      "71 06",
      "Ġ j",
      "Ġ W",
      "48 4",
      "22 61",
      "798 2261",
      "94 484",
      "06 7982261",
      "7106 067982261",
      "7106067982261 94484",
      "o p",
      "3 4",
      "r i",
      "Ġw ith",
      "2 0",
      "c e",
      "c h",
      "Ġli ke",
      "gh t",
      "Ġth is",
      "31 5",
      "Ġa s",
      "e e",
      "8 8",
      "Ġthe y",
      "om e",
      "Ġw h",
      "Ġb ut",
      "99 85",
      "Ġc an",
      "he r",
      "3 6",
      "9 2",
      "8 2",
      "Ġn e",
      "h ing",
      "9 0",
      "7 29",
      "Ġm o",
      "7 7",
      "all y",
      ". .",
      "C T",
      "Ġ \"",
      "an t",
      "R ED",
      "A CT",
      "RED ACT",
      "REDACT ED",
      "Ġk n",
      "Ġ H",
      "35 80",
      "Ġ Ġ",
      "Ġ Y",
      "Ġs u",
      "45 9",
      "Ġa b",
      "4 6",
      "Ġ B",
      "Ġa l",
      "45 6",
      "on e",
      "48 8",
      "Ġ or",
      "Ġs o",
      "Ġw hat",
      "Ġw or",
      "3 45",
      "r a",
      "Ġj ust",
      "Ġ v",
      "Ġd e",
      "g e",
      "t er",
      "8 1",
      "u s",
      "es s",
      "Ġa ll",
      "56 488",
      "56488 79",
      "74 65",
      "315 9985",
      "7465 3159985",
      "74653159985 5648879",
      "Ġkn ow",
      "Ġ M",
      "at ion",
      "i l",
      "in k",
      "u r",
      "7 80",
      "80 2",
      "3 2",
      "7 5",
      "Ġyou r",
      "48 802",
      "345 48802",
      "76 48",
      "29 34548802",
      "41 2934548802",
      "82 412934548802",
      "82412934548802 7648",
      "p p",
      "Ġa t",
      "e a",
      "72 5",
      "u n",
      "in d",
      "Ġg o",
      "ĠI t",
      "7 48",
      "76 780",
      "79 748",
      "72 79748",
      "74 725",
      "76780 4",
      "7279748 767804",
      "74725 7279748767804",
      "Ġc on",
      "Ġe x",
      "er s",
      "u m",
      "i e",
      "Ġ Ċ",
      "u l",
      "e op",
      "Ġw ould",
      "9 06",
      "Ġd on",
      "eop le",
      "Ġ D",
      "es t",
      "Ġm a",
      "r om",
      "Ġi f",
      "7 51",
      "3 00",
      "80 1",
      "Ġs h",
      "Ġt r",
      "ou r",
      "ha n",
      "ver y",
      "Ġ N",
      "i g",
      "Ġw ill",
      "Ġon e",
      "Ġp eople",
      "61 36",
      "c k",
      "Ġw he",
      "Ġab out",
      "31 51",
      "99 6136",
      "729 996136",
      "729996136 459",
      "41 3151",
      "413151 729996136459",
      "Ġ C",
      "v en",
      "65 77",
      "1 3580",
      "Ġ O",
      "22 6577",
      "798 13580",
      "456 226577",
      "79813580 8",
      "456226577 798135808",
      "n t",
      "- -",
      "am e",
      "8 90",
      "Ġ @",
      "Ġ L",
      "f e",
      "ar t",
      "at e",
      "an d",
      "Ġ P",
      "en d",
      "ð Ł",
      "a in",
      "Ġs ome",
      "Ġth ink",
      "Ġthe m",
      "88 76",
      "Ġp ro",
      "94 92",
      "51 9492",
      "22 890",
      "801 22890",
      "8876 80122890",
      "519492 887680122890",
      "Ġf rom",
      "a u",
      "e m",
      "o s",
      "1 9",
      "' m",
      "a b",
      "Ġ r",
      "00 2",
      "0 72",
      "im e",
      "oo d",
      "Ġc om",
      "Ġ R",
      "Ġn o",
      "1 4",
      "Ġ E",
      "0 9",
      "i ght",
      "i f",
      "i st",
      "Ġan y",
      "Ġu p",
      "Ġs ee",
      "o d",
      "Ġin t",
      "99 5",
      "i ve",
      "Ġs p",
      "9 5",
      "it y",
      "id e",
      "3 31",
      "re d",
      "Ġthe re",
      "Ġp l",
      "e l",
      "Ġ out",
      "4 71",
      "Ġ G",
      "6 33",
      "79 71",
      "20 471",
      "331 072",
      "633 7971",
      "20471 6337971",
      "204716337971 331072",
      "Ġg et",
      "Ġth ing",
      "k ing",
      "au se",
      "e ll",
      "Ġhe r",
      "ou gh",
      "# #",
      "i z",
      "Ġt ime",
      "ac k",
      "q u",
      "Ġu s",
      "29 70",
      "Ġmo re",
      "b e",
      "8 34",
      "e ct",
      "âĢ ľ",
      "âĢ Ŀ",
      "71 2",
      "Ġ F",
      "0 5",
      "Ġwh o",
      "p t",
      "8 71",
      "ĠY ou",
      "22 7",
      "T he",
      "2 85",
      "751 14",
      "2970 871",
      "227 712",
      "75114 227712",
      "2970871 75114227712",
      "45 995",
      "81 45995",
      "906 8145995",
      "834 9068145995",
      "285 19",
      "8349068145995 28519",
      "on g",
      "Ġd id",
      "t her",
      "9 1",
      "Ġa m",
      "Ġh ow",
      "Ġ en",
      "e ar",
      "Ġl o",
      "Ġ ðŁ",
      "in e",
      "Ġw ant",
      "4 34",
      "ou nd",
      "8 4",
      "Ġbe c",
      "Ġs he",
      "Ġb y",
      "u re",
      "o re",
      "or t",
      "Ġthe ir",
      "Ġwhe n",
      "om et",
      "Ġl ol",
      "p s",
      "3 0",
      "i es",
      "t h",
      "e c",
      "a g",
      "ĠA nd",
      "Ġm an",
      "Ġe very",
      "a st",
      "Ġi m",
      "Ġo ther",
      "e p",
      "Ġs a",
      "Ġh is",
      "Ġs omet",
      "ay s",
      "22 6",
      "ĠT hat",
      "oo k",
      "Ġha d",
      "Ġwe re",
      "a re",
      "ac t",
      "it e",
      "Ġ -",
      "32 45",
      "61 434",
      "74 61434",
      "35 3245",
      "226 48",
      "7461434 353245",
      "7461434353245 22648",
      "ou s",
      "Ġc ould",
      "Ġa r",
      "Ġu n",
      "Ġto o",
      "Ġe ven",
      "r y",
      "s o",
      "] (",
      "u e",
      "Ġn ow",
      "o st",
      "p l",
      "Ġha s",
      "se l",
      "0 3",
      "5 0",
      "7 8",
      "2 4",
      "ar d",
      "ic e",
      "4 4",
      "ĠT h",
      "o se",
      "t t",
      "Ġ J",
      "Ġne ed",
      "Ġ âĢľ",
      "Ġa g",
      "ac e",
      "re s",
      "b le",
      "Ġa ct",
      "Ġsomet hing",
      "f f",
      "Ġme an",
      "a ke",
      "Ġint o",
      "Ġt han",
      "Ġit s",
      "Ġthe n",
      ".. .",
      "p er",
      "re at",
      "Ġg ood",
      "Ġma ke",
      "ĠB ut",
      "Ġw ay",
      "Ġ ro",
      "Ġ ri",
      "m ent",
      "20 1",
      "Ġc l",
      "Ġ 1",
      "Ġre al",
      "t hing",
      "8 9",
      "Ġbe en",
      "en ce",
      "Ġbec ause",
      "Ġc h",
      "Ġbe ing",
      "ee l",
      "8 6",
      "Ġg u",
      "or d",
      "Ġon ly",
      "ea h",
      "Ġhe re",
      "46 09",
      "51 35",
      "051 5135",
      "75 4609",
      "201 88",
      "0515135 20188",
      "754609 051513520188",
      "Ġb l",
      "Ġs ay",
      "Ġt e",
      "Ġre ally",
      "or y",
      "it t",
      "Ġl e",
      "' re",
      "a ge",
      "ers on",
      "9 3",
      "Ġ our",
      "Ġne ver",
      "Ġf eel",
      "ic h",
      "7 31",
      "i v",
      "75 8",
      "ow n",
      "62 05",
      "22 758",
      "3580 22758",
      "6205 358022758",
      "74 731",
      "74731 6205358022758",
      "Ġdo es",
      "Ġh im",
      "Ġs c",
      "Ġi d",
      "ion s",
      "b er",
      "u ally",
      "ĠH e",
      "sel f",
      "Ġwor ld",
      "nd er",
      "Ġwor k",
      "Ġm ay",
      "Ġha pp",
      "Ġri ght",
      "Ġgo ing",
      "d er",
      "Ġo ver",
      "Ġ qu",
      "Ġ z",
      "ĠW hat",
      "a k",
      "Ġb ack",
      "Ġtr y",
      "u ck",
      "ac h",
      "o c",
      "Ġwh y",
      "o in",
      "72 09",
      "u d",
      "74 6",
      "Ġ (",
      "u ch",
      "ic k",
      "Ġbe l",
      "90 7",
      "9 002",
      "30 24",
      "1 907",
      "en s",
      "79 7209",
      "9002 1907",
      "3024 90021907",
      "797209 302490021907",
      "41 002",
      "Ġthing s",
      "um an",
      "i re",
      "Ġp re",
      "o g",
      "ĠI n",
      "45 89",
      "459 456",
      "906 41002",
      "4589 459456",
      "90641002 4589459456",
      "s p",
      "7 36",
      "p le",
      "41 6",
      "Ġre m",
      "Ġw r",
      "as s",
      "Ġp erson",
      "8 35",
      "ĠTh is",
      "44 70",
      "315 300",
      "300 835",
      "4470 300835",
      "315300 4470300835",
      "3153004470300835 84",
      "re e",
      "ul t",
      "w n",
      "Ġal so",
      "Ġst ill",
      "Ġcon t",
      "Ġu nder",
      "95 3",
      "ĠĠ Ġ",
      "9 751",
      "41 50",
      "9985 4150",
      "746 953",
      "9751 746953",
      "9751746953 99854150",
      "Ġm uch",
      "y s",
      "Ġc han",
      "ĠW e",
      "Ġg r",
      "ĠThe y",
      "Ġs e",
      "72 6",
      "Ġd is",
      "Ġl ot",
      "Ġbe t",
      "i j",
      "re n",
      "3 77",
      "' ve",
      "Ġsh ould",
      "i le",
      "Ġa c",
      "v ing",
      "-- -",
      "ad e",
      "i ld",
      "Ġmo st",
      "Ġ U",
      "79 4",
      "ot her",
      "ĠW h",
      "l p",
      "Ġa d",
      "1 32",
      "Ġg ot",
      "51 31",
      "a p",
      "729 6",
      "9 736",
      "794 5131",
      "132 7945131",
      "9736 7296",
      "1327945131 97367296",
      "â ©",
      "w w",
      "Ġwhe re",
      "Ġbel ie",
      "Ġli fe",
      "41 93",
      "e w",
      "c i",
      "iz a",
      "` `",
      "ĠS o",
      "Ġw at",
      "or m",
      "33 33",
      "Ġsa id",
      "/ /",
      "u ll",
      "Ġp art",
      "s i",
      "Ġl ook",
      "4 31",
      "Ġwe ll",
      "35 76",
      "70 431",
      "91 377",
      "3333 3576",
      "91377 33333576",
      "9137733333576 70431",
      ": //",
      "as e",
      "f ore",
      "is h",
      "Ġth r",
      "Ġo wn",
      "Ġk ind",
      "1 0",
      "Ġp r",
      "3 7",
      "Ġl ea",
      "tt ps",
      "Ġt al",
      "v es",
      "Ġ ke",
      "f t",
      "E I",
      "i p",
      "ou nt",
      "at ed",
      "ur n",
      "Ġlo ve",
      "Ġh uman",
      "ĠN o",
      "w ays",
      "Ġag ain",
      "o ll",
      "re ad",
      "Ġd if",
      "ic al",
      "Ġ very",
      "o ck",
      "ou ght",
      "EI iza",
      "n al",
      "ation s",
      "Ġof f",
      "ĠI f",
      "he d",
      "e re",
      "Ġa f",
      "Ġs ame",
      "ir st",
      ". \"",
      "Ġact ually",
      "ab le",
      "Ġa w",
      "ĉ ĉ",
      "61 86",
      "Ġst u",
      "78 11",
      "h ttps",
      "22 33",
      "80 03",
      "46 4193",
      "7811 464193",
      "2233 7811464193",
      "8003 22337811464193",
      "Ġf l",
      "Ġ K",
      "@ @",
      "c om",
      "29 5",
      "at h",
      "t e",
      "416 91",
      "85 300",
      "726 4",
      "6186 7264",
      "41691 61867264",
      "85300 4169161867264",
      "Ġth ose",
      "Ġp er",
      "] ]",
      "k s",
      "Ġl ong",
      "Ġt w",
      "Ġf ind",
      "= =",
      "m s",
      "Ġs er",
      "re nt",
      "oin t",
      "re am",
      "Ġwh ich",
      "Ġsu re",
      "x t",
      "i al",
      "ĠĠ ĠĠ",
      "Ġc all",
      "Ġm ade",
      "Ġw on",
      "Ġne w",
      "Ġhe lp",
      "Ġpl ay",
      "Ġbe fore",
      "w e",
      "3 06",
      "Ġf irst",
      "Ġd own",
      "Ġman y",
      "o ld",
      "ĠS he",
      "Ġre l",
      "Ġha r",
      "ir d",
      "r u",
      "Ġt ake",
      "ic t",
      "Ġ 2",
      "res s",
      "Ġm ind",
      "Ġsome one",
      "Ġy ear",
      "Ġs ha",
      "Ġdid n",
      "Ġt ell",
      "an ce",
      "Ġy eah",
      "t he",
      "ver s",
      "ĠðŁ ĺ",
      "Ġhapp en",
      "od y",
      "oo l",
      "Ġv ide",
      "Ġal ways",
      "ĠThe re",
      "## #",
      "Ġthr ough",
      "Ġ end",
      "Ġu se",
      "u al",
      "Ġim p",
      "Ġre ad",
      "i an",
      "Ġd ay",
      "Ġs m",
      "Ġ #",
      "t ing",
      "' ll",
      "em ber",
      "Ġe v",
      "c on",
      "st and",
      "is s",
      "Ġdif fe",
      "Ġany thing",
      "Ġ =",
      "Ġc ha",
      "i a",
      "i ous",
      "l ed",
      "Ġb r",
      "Ġl et",
      "Ġcom p",
      "Ġa pp",
      "v ed",
      "Ġb ot",
      "ar k",
      "Ġst art",
      "im es",
      "Ġp oint",
      "an g",
      "\" ,",
      "Ġe m",
      "n ing",
      "Ġstu ff",
      "ow er",
      "Ġth ough",
      "]( /",
      "ï ¸",
      "ï¸ ı",
      "e ver",
      "Ġs l",
      "Ġ[ [",
      "Ġo p",
      "Ġth ought",
      "n a",
      "Ġb u",
      "Ġbelie ve",
      "Ġc at",
      "Ġwor d",
      "ra in",
      "48 6",
      "Ġp os",
      "Ġthe se",
      "ve l",
      "Ġbet ter",
      "s ide",
      "f ul",
      "Ġunder stand",
      "i ke",
      "o y",
      "ere st",
      "on d",
      "Ġm ight",
      "06 4",
      "Ġc ome",
      "Ġs im",
      "read y",
      "Ġaf ter",
      "a il",
      "Ġe ver",
      "9 6",
      "i ly",
      "Ġal ready",
      "* *",
      "Ġf un",
      "ab ly",
      "Ġw ar",
      "Ġk ill",
      "' d",
      "o b",
      "is e",
      "Ġ V",
      "y p",
      "Ġat t",
      "ar y",
      "Ġd es",
      "Ġin f",
      "92 1",
      "Ġn ame",
      "ĠG od",
      "Ġtry ing",
      "Ġk id",
      "g g",
      "Ġm at",
      "ce pt",
      "35 5",
      "9 41",
      "Ġac c",
      "48 921",
      "ol og",
      "84 941",
      "064 355",
      "48921 84941",
      "064355 94",
      "4892184941 06435594",
      "Ġcom m",
      "Ġdiffe rent",
      "ĠM y",
      "ri end",
      "Ġmay be",
      "d e",
      "Ġ â",
      "Ġ ent",
      "b l",
      "Ġrem ember",
      "Ġas k",
      "Ġs y",
      "if ic",
      "a ve",
      "Ġy es",
      "Ġb ad",
      "as on",
      "Ġar ound",
      "n e",
      "2 7",
      "c l",
      "ut h",
      "Ġst r",
      "Ġs ec",
      "op e",
      "Ġp h",
      "Ġevery thing",
      "Ġvide o",
      "m m",
      "Ġpro b",
      "Ġst ory",
      "Ġe l",
      "us hing",
      "n g",
      "Ġsh ow",
      "Ġtw o",
      "Ġg ame",
      "ĠY eah",
      "k es",
      "Ġtr ue",
      "n ess",
      "Ġg ive",
      "1 2",
      "ĠN ot",
      "Ġwe ird",
      "Ġf uck",
      "Ġnot hing",
      "fe ct",
      "Ġg en",
      "Ġc are",
      "Ġdo ing",
      "ĠH ow",
      "Ġdoes n",
      "Ġp ut",
      "l ess",
      "n y",
      "Ġha nd",
      "Ġevery one",
      "he n",
      "ĠY es",
      "Ġw a",
      "at ing",
      "at her",
      "Ġus ed",
      "ĠO r",
      "Ġint erest",
      "âĢ ¦",
      "s s",
      "an s",
      "er t",
      "4 65",
      "35 2",
      "en se",
      "ĠD o",
      "Ġke ep",
      "Ġch ild",
      "ĠðŁ ħ",
      "or s",
      "ĠP ushing",
      "Ġpl ace",
      "he re",
      "ĠðŁħ ¿",
      ") )",
      "g et",
      "ĠðŁħ¿ ï¸ı",
      "92 6",
      "g r",
      "Ġd ream",
      "Ġas s",
      "Ġwh ile",
      "itt le",
      "Ġex pl",
      "m ed",
      "Ġt ri",
      "Ġo ld",
      "Ġre ason",
      "I t",
      "tt y",
      "Ġwat ch",
      "Ġli ve",
      "Ġy et",
      "Ġex per",
      "Ġhar d",
      "Ġin ter",
      "Ġre c",
      "Ġyear s",
      "Ġen ough",
      "o ve",
      "art h",
      "Ġprob ably",
      "u c",
      "ic ally",
      "95 03",
      "9503 926",
      "76 27",
      "ĠS t",
      "46 306",
      "9503926 46306",
      "7627 72",
      "950392646306 762772",
      "Ġsu pp",
      "Ġgu ess",
      "ĠA l",
      ". âĢĿ",
      "Ġm et",
      "i et",
      "ĠJ ust",
      "Ġf riend",
      "2 3",
      "Ġc r",
      "Ġb as",
      "Ġt ra",
      "out u",
      "ĠO h",
      "Ġm ust",
      "o k",
      "Ġp ower",
      "c es",
      "i x",
      "Ġan other",
      "Ġde f",
      "y outu",
      "Ġid ea",
      ".. ..",
      "Ġc reat",
      "Ġpre tty",
      "Ġab le",
      "Ġl ear",
      "Ġgo d",
      "Ġlea st",
      "is m",
      "05 8",
      "Ġ ra",
      "it ing",
      "Ġ hat",
      "Ġt urn",
      "one y",
      "`` `",
      "on s",
      "Ġl ittle",
      "Ġ 20",
      "Ġf am",
      "Ġqu est",
      "ðŁ ĺ",
      "Ġb o",
      "itt en",
      "i ed",
      "71 295",
      "315 81",
      "75 61",
      "10 352",
      "71295 7561",
      "31581 712957561",
      "10352 31581712957561",
      "Ġc he",
      "Ġo k",
      "t s",
      "Ġs ound",
      "Ġe y",
      "Ġre p",
      "31 6",
      "46 8",
      "b s",
      "ig n",
      "29 34",
      "oll ow",
      "ag es",
      "al s",
      "our ce",
      "Ġm ess",
      "g an",
      "Ġmy self",
      "Ġsh it",
      "Ġv an",
      "i gh",
      "Ġd ie",
      "Ġex ist",
      "4 3",
      "Ġ 3",
      "Ġtal k",
      "Ġcon s",
      "Ġm ent",
      "45 71",
      "Ġhe t",
      "it ion",
      "8 2934",
      "in ce",
      "34 345",
      "058 468",
      "82934 34345",
      "058468 37",
      "8293434345 05846837",
      "Ġsu ch",
      "Ġpl an",
      "Ġin v",
      "Ġcon f",
      "i ence",
      "Ġe ach",
      "a v",
      "l es",
      "Ġe en",
      "it her",
      "Ġv o",
      "Ġwith out",
      "ĠB ec",
      "â «",
      "ĠI s",
      "Ġaw ay",
      "Ġel se",
      "j ect",
      "a w",
      "Ġme m",
      "ol f",
      "Ġw om",
      "le ep",
      "Ġany one",
      "T h",
      "or ry",
      "Ġbot h",
      "i er",
      "w ard",
      "Ġex p",
      "Ġma kes",
      "c ess",
      "d ay",
      "or ies",
      "Ġf ound",
      ": :",
      "Ġin st",
      "81 4",
      "ĠL ol",
      ") .",
      "Ġother s",
      "Ġun i",
      "Ġg reat",
      "Ġst op",
      "Ġ '",
      "si ble",
      "ĠL ike",
      "Ġ ver",
      "Ġ x",
      "Ġb ig",
      "o ke",
      "Ġpro ble",
      "Ġsu r",
      "Ġ |",
      "Ġm oney",
      "ĠM ay",
      "Ġr un",
      "95 7",
      "Ġmat ter",
      "t en",
      "E R",
      "Ġb est",
      "Ġp ast",
      "Y ou",
      "a ir",
      "a z",
      "e v",
      "Ġc ount",
      "am es",
      "-- --",
      "Ġcont ro",
      "ĠWh y",
      "Ġ :",
      "Ġf ollow",
      "r on",
      "he s",
      "ie w",
      "ant s",
      "Ġl ast",
      "Ġc le",
      "Ġm om",
      "ĠC h",
      "Ġchan ge",
      "Ġc ause",
      "Ġf ew",
      "Ġf in",
      "h h",
      "== ==",
      "ww w",
      "Ġto ld",
      "st em",
      "Ġm on",
      "Ġre sp",
      "ir l",
      "ut e",
      "el f",
      "act ly",
      "Ġhe ad",
      "ing s",
      "it er",
      "ent s",
      "7 3",
      "Ġs k",
      "Ġtal king",
      "ert ain",
      "4 0",
      "ij n",
      "Ġt er",
      "w ay",
      "ĠBec ause",
      "Ġlear n",
      "ic s",
      "Ġcom ple",
      "3 88",
      "4 46",
      "Ġ Q",
      "ver se",
      "d en",
      "Ġsu b",
      "Ġf act",
      "Ġd one",
      "Ġar t",
      "ct ion",
      "@@ @@",
      "Ġwho le",
      "5 95",
      "Ġc re",
      "re t",
      "41 92",
      "61 76",
      "486 6176",
      "4571 4866176",
      "595 4192",
      "5954192 45714866176",
      "Ġe as",
      "Ġf ar",
      "or n",
      "Ġh ope",
      "Ġwr ong",
      "ar s",
      "Ġdis c",
      "Ġp ost",
      "Ġ *",
      "W e",
      "le ase",
      "n ot",
      "Ġin d",
      "Ġinterest ing",
      "d oc",
      "Ġop en",
      "k en",
      "Ġli ght",
      "Ġg l",
      "Ġd at",
      "Ġis n",
      "99 465",
      "82 78",
      "82 43",
      "002 8278",
      "99465 0028278",
      "8243 994650028278",
      "8243994650028278 46",
      "ou l",
      "m e",
      "? ?",
      "Ġsee ms",
      "on na",
      "doc s",
      "9 51",
      "Ġsp ec",
      "Ġser ver",
      "Ġu nt",
      "Ġ 5",
      "Ġbec ome",
      "iz e",
      "s y",
      "Ġf ree",
      "Ġre s",
      "ar ly",
      "Ġf ight",
      "Ġs leep",
      "Ġb ody",
      "at er",
      "Ġg onna",
      "Ġp u",
      "Ġthat s",
      "Ġ1 0",
      "Ġcha r",
      "Ġde c",
      "Ġ >",
      "o f",
      "Ġkid s",
      "ment s",
      "Ġad d",
      "6 0",
      "at es",
      "33 2",
      "it s",
      "m ost",
      "Ġb ook",
      "3 9",
      "Ġs ide",
      "Ġimp ort",
      "c ed",
      "Ġs ense",
      "Ġm in",
      "Ġc ra",
      "Ġn ight",
      "Ġli st",
      "Ġsy stem",
      "Th is",
      "A nd",
      "Ġh ome",
      "ĠF or",
      "1 8",
      "an ge",
      "âĢ Ķ",
      "Ġs ince",
      "as h",
      "ĠMay be",
      "1 6",
      "Ġon ce",
      "od der",
      "Ġcall ed",
      "are nt",
      "Ġse en",
      "I n",
      "Ġso ci",
      "48 1",
      "Ġs ch",
      "an k",
      "Ġo h",
      "316 81",
      "Ġle ft",
      "Ġs orry",
      "Ġs oul",
      "Ġgu y",
      "76 332",
      "31 481",
      "31681 76332",
      "31481 3168176332",
      "314813168176332 801",
      "Ġl ess",
      "i en",
      "9 78",
      "b ody",
      "it ies",
      "Ġyour self",
      "ab y",
      "Ġt imes",
      "oo se",
      "c ri",
      "06 14",
      "33 951",
      "995 978",
      "434 0614",
      "33951 4340614",
      "339514340614 995978",
      "I N",
      "Ġb it",
      "ĠW hen",
      "ch it",
      "chit ect",
      "a le",
      "it ed",
      "Ġde ath",
      "Ġhat e",
      "Ġwant ed",
      "d ow",
      "u p",
      "s w",
      "Ġre f",
      "ch n",
      "t ed",
      "Ġent ire",
      "Ġs ays",
      "a h",
      "Ġe ither",
      "Ġc o",
      "led ge",
      "Ġex t",
      "! !",
      "5 06",
      "Ġsp ea",
      "er ing",
      "= \"",
      "ĠA s",
      "45 4",
      "Ġmean s",
      "g s",
      "ĠW ell",
      "ĠIn k",
      "Ġproble m",
      "Ġo b",
      "Ġn ice",
      "Ġimport ant",
      "ri st",
      "ut ure",
      "pp ed",
      "Ġb rain",
      "Ġhe ar",
      "c hed",
      "Ġcontro l",
      "e ad",
      "e f",
      "Ġget ting",
      "Ġc ool",
      "Ġ /",
      "Ġn at",
      "n ect",
      "Ġsa w",
      "Ġf ull",
      "os ed",
      "Ġma king",
      "Ġg irl",
      "Ġfam ily",
      "Ġha ving",
      "Ġl oo",
      "Ġc ame",
      "Ġlo st",
      "Ġquest ion",
      "y ing",
      "a ven",
      "Ġc ertain",
      "Ġex actly",
      "Ġexpl ain",
      "Ġey es",
      "ud e",
      "id ence",
      "Ġagain st",
      "Ġin side",
      "ĠA I",
      "4 37",
      "Ġm iss",
      "a king",
      "41 454",
      "20 729",
      "Ġle ad",
      "388 80",
      "437 38880",
      "41454 20729",
      "4145420729 43738880",
      "Ġwould n",
      "Ġword s",
      "p h",
      "Ġp res",
      "Ġf uture",
      "Ġs elf",
      "Ġm ed",
      "Ġj ob",
      "r in",
      "ys is",
      "ĠR ock",
      "on est",
      "Ġd ra",
      "Ġd r",
      "Ġan sw",
      "ig nal",
      "ate ly",
      "Ġp o",
      "Ġs et",
      "r ow",
      "Ġ 4",
      "Ġunt il",
      "sel ves",
      "r chitect",
      "Ġâ ¨",
      "il ity",
      "g ed",
      "Ġsay ing",
      "n el",
      "\\ _",
      "i red",
      "at ic",
      "Ġtr uth",
      "e k",
      "h ost",
      "Ġt ak",
      "Ġt yp",
      "i ally",
      "ee p",
      "m er",
      "ou se",
      "Ġc a",
      "Ġs w",
      "Ġd ark",
      "Ġthink ing",
      "Ġim ag",
      "Ġcomple te",
      "Ġh igh",
      "um p",
      "Ġb re",
      "Ġc our",
      "d d",
      "Ġal most",
      "Ġbe h",
      "Ġp ol",
      "ĠA ll",
      "iz ed",
      "i k",
      "Ġgu ys",
      "Ġid e",
      "ĠThe n",
      "A N",
      "Ġp ain",
      "Ġt est",
      "us ed",
      "Ġre t",
      "Ġse x",
      "z y",
      "99 45",
      "0 814",
      "m a",
      "at ive",
      "36 96",
      "92 446",
      "93 9945",
      "Ġgen er",
      "506 92446",
      "939945 3696",
      "50692446 9399453696",
      "Ġcon nect",
      "o ot",
      "Ġl iter",
      "Ġma g",
      "ðŁĺ Ĩ",
      "ĠT H",
      "c c",
      "Ġwor king",
      "d u",
      "g in",
      "Ġ er",
      "Ġb c",
      "Ġhe ll",
      "05 3",
      "ren ce",
      "Ġkn ew",
      "c y",
      "orm ation",
      "Ġf e",
      "76 31",
      "71 0814",
      "957 7631",
      "053 9577631",
      "710814 0539577631",
      "7108140539577631 12",
      "ĠO n",
      "Ġhe ard",
      "um b",
      "ul ation",
      "Ġreal ity",
      "Ġs ing",
      "ĠT r",
      "Ġde p",
      "Ġg i",
      "Ġsm all",
      "at ch",
      "Ġmo ve",
      "Ġb ro",
      "Ġre st",
      "Ġne xt",
      "ul ar",
      "Ġw ent",
      "Ġrel ig",
      "al k",
      "Ġf ace",
      "Ġhuman s",
      "olog y",
      "u se",
      "Ġcomm un",
      "¤ £",
      "Ġus ing",
      "Ġ $",
      "Ġwas n",
      "st er",
      "ĠA nal",
      "Ġ Z",
      "Ġf ig",
      "is on",
      "al th",
      "gr am",
      "in es",
      "Ġwon der",
      "S M",
      "le ct",
      "Ġf ore",
      "Ġhappen ed",
      "in ite",
      "i ent",
      "v ious",
      "ĠAnal ysis",
      "Ġte chn",
      "id ent",
      "Ġro om",
      "Ġpr ot",
      "l ine",
      "m an",
      "n er",
      "ot s",
      "t a",
      "Ġex am",
      "Ġbu ild",
      "r or",
      "s ource",
      "31 2",
      "ut m",
      "ĠE x",
      "Ġs it",
      "Ġm us",
      "Ġth o",
      "ĠT o",
      "ĠA t",
      "Ġbeh ind",
      "b b",
      "ĠWh o",
      "we en",
      "Ġmo v",
      "ĠM an",
      "Ġc or",
      "Ġp ass",
      "Ġde ad",
      "f l",
      "ist s",
      "Ġz ijn",
      "Ġin c",
      "Ġre g",
      "p e",
      "et y",
      "Ġdo or",
      "51 88",
      "Ġst and",
      "2 1",
      "Ġd am",
      "Ġp pl",
      "id er",
      "v ent",
      "Ġh our",
      "n o",
      "22 5188",
      "35 072",
      "5529 225188",
      "312 35072",
      "5529225188 31235072",
      "+ +",
      "p ost",
      "Ġs ad",
      "is c",
      "ro ss",
      "Ġsound s",
      "0 1",
      "Ġto get",
      "Ġall ow",
      "Ġtoget her",
      "ot e",
      "Ġh old",
      "i ble",
      "Ġ es",
      "ĠO ne",
      "Ġp ur",
      "Ġloo king",
      "Ġs ent",
      "Ġst ate",
      "Ġsee m",
      "g er",
      "Ġc ar",
      "Ġwhat ever",
      "Ġexper ience",
      "Ġf re",
      "Ġc ur",
      "ĠS ignal",
      "Ġuni verse",
      "Ġf all",
      "Ġon es",
      "SM R",
      "b ol",
      "Ġh u",
      "g y",
      "Ġw ish",
      "Ġd et",
      "Ġcom ing",
      "Ġo m",
      "Ġcan not",
      "ĠG ood",
      "i um",
      "ha ps",
      "Ġtr ust",
      "a im",
      "u be",
      "Ġ 6",
      "á ´",
      "Ġdon t",
      "5 2",
      "Ġx D",
      "ure s",
      "Ġlea ve",
      "A T",
      "Ġi ll",
      "ar ch",
      "Ġe arth",
      "ac ter",
      "ter n",
      "Ġin s",
      "Ġfor m",
      "al ity",
      "con f",
      "Ġchan nel",
      "O R",
      "Ġsu per",
      "pt ion",
      "Ġchild ren",
      "t y",
      "s h",
      "Ġd est",
      "od e",
      "w here",
      "L ord",
      "u es",
      "id ants",
      "Ġs end",
      "Ġde m",
      "e g",
      "Ġqu ite",
      "Ġbet ween",
      "Ġpos sible",
      "Ġd ays",
      "ire ct",
      "Ġ **",
      "Ġc oll",
      "au ght",
      "uth or",
      "it al",
      "Ġknow ledge",
      "Ġh onest",
      "Ġag o",
      "Ġcour se",
      "W olf",
      "r act",
      "i o",
      "Ġs ol",
      "Ġgr ou",
      "Ġp op",
      "Ġal one",
      "d it",
      "Ġlist en",
      "Ġv iew",
      "Ġwr ite",
      "Ġcra zy",
      "a red",
      "ĠT han",
      "Ġliter ally",
      "Â ł",
      "Ġm or",
      "Ġf ood",
      "Ġe at",
      "Ġfuck ing",
      "Lord Wolf",
      "Ġp a",
      "et s",
      "ĠðŁĺ Ĩ",
      "ĠU n",
      "c ome",
      "Ġtri ed",
      "Ġh or",
      "Ġst ay",
      "ha dow",
      "Ġwom an",
      "Ġsec ond",
      "ĠS ome",
      "es us",
      "ĠA n",
      "Ġinf ormation",
      "Ġh un",
      "p ect",
      "ion al",
      "Ġwith in",
      "b r",
      "Ġ 7",
      "Ġare n",
      "Ġto day",
      "Ġhapp y",
      "E S",
      "Ġsch ool",
      "Ġtoo k",
      "Ġmom ent",
      "Ġs ong",
      "? âĢĿ",
      "A rchitect",
      "ac y",
      "2 5",
      "conf idants",
      "Ġp ay",
      "ĠðŁ Ļ",
      "8 780",
      "is ed",
      "976 8780",
      "ĠE arth",
      "726 60",
      "295 9768780",
      "Ġfriend s",
      "39 72660",
      "2959768780 9",
      "3972660 29597687809",
      "0 8",
      "Ġl ater",
      "Ġfor g",
      "Ġhe art",
      "Ġgr ow",
      "Ġask ed",
      "y an",
      "ĠE C",
      "Ġh ouse",
      "Ġli ving",
      "Ġcom es",
      "ĠĠĠĠ ĠĠĠĠ",
      "Ġp lease",
      "Ġansw er",
      "W h",
      "Ġm ar",
      "Ġchar acter",
      "ĠA r",
      "Ġpu bl",
      "Ġg re",
      "ic es",
      "Ġwat er",
      "Ġok ay",
      "ĠC an",
      "Ġev il",
      "Ġcount ry",
      "* \"",
      "a ar",
      "Ġof ten",
      "Ġde l",
      "Ġpro gram",
      "Ġsomet imes",
      "Ġstart ed",
      "n ed",
      "Ġn orm",
      "a x",
      "iv id",
      "ĠE very",
      ") ,",
      "ut er",
      "ĠD e",
      "a pp",
      "O N",
      "â ª",
      "Ġh o",
      "Ġre se",
      "k n",
      "Ġbl ack",
      "gan iz",
      "Ġto p",
      "post s",
      "m y",
      "our nal",
      "ĠR e",
      "p r",
      "Ġthem selves",
      "â Ĭ",
      "ĠD on",
      "inite ly",
      "5 32",
      "m ore",
      "Ġf ear",
      "it le",
      "Ġc ult",
      "Ġsu ff",
      "Ġm en",
      "al se",
      "Ġsp ace",
      "Ġcl aim",
      "Ġso on",
      "Ġlook s",
      "Ġwa it",
      "oo g",
      "ĠIt s",
      "Ġcl ose",
      "ĠB e",
      "Ġv is",
      "Ġkind a",
      "W hat",
      "Ġg e",
      "ri ght",
      "us si",
      "Ġknow s",
      "H e",
      "w or",
      "el t",
      "Ġper fect",
      "Ġph ys",
      "2 61",
      "Ġwr iting",
      "Ġh ur",
      "R ock",
      "Ġmean ing",
      "Ġcomplete ly",
      "ou d",
      "Ġj oin",
      "8 32",
      "u b",
      "Ġstr ong",
      "sy ch",
      "ort s",
      "Ġide as",
      "z e",
      "Ġre d",
      "il ar",
      "ĠAl so",
      "f orm",
      "i fe",
      "Ġm ur",
      "r ic",
      "m ing",
      "p ng",
      "f fect",
      "at or",
      "in ess",
      "Ġl ink",
      "ĠY our",
      "ĠP ro",
      "ci ous",
      "g en",
      "Ġw in",
      "and om",
      "Ġan im",
      "Ġro b",
      "2 6",
      "j oy",
      "Ġbre ak",
      "Ġ ve",
      "Ġfun ny",
      "Ġo pp",
      "f ort",
      "Ġ 8",
      "Ġs ign",
      "ent ion",
      "Ġlike ly",
      "b t",
      "Ġbl ood",
      "' ,",
      "at s",
      "Ġche ck",
      "ĠðŁĻ Ĥ",
      "Ġag ree",
      "l f",
      "Ġf ast",
      "ĠA re",
      "Ġout side",
      "Ġmov ie",
      "Ġp ar",
      "ĠN ow",
      "Ġexam ple",
      "Ġd ou",
      "Ġ\" *",
      "ag s",
      "ach ine",
      "Ġlong er",
      "e x",
      "Ġc ol",
      "Ġc ase",
      "Ġc ou",
      "Ġspea k",
      "Ġmus ic",
      ", \"",
      "Ġw all",
      "ang er",
      ", âĢĿ",
      "L L",
      "Ġre qu",
      "Ġd ist",
      "ge l",
      "Ġany way",
      "ĠF odder",
      "Ġsim p",
      "Ġexp ect",
      "id es",
      "if er",
      "Ġgi ven",
      "Ġch o",
      "Ġma in",
      "Ġl uck",
      "Ġv i",
      "ur al",
      "Ġd ri",
      "ĠS p",
      "Ġsec ret",
      "g n",
      "Ġb us",
      "ĠR aven",
      "Ġimag ine",
      "Ġ ed",
      "ult i",
      "Ġacc ount",
      "an e",
      "Ġde v",
      "Ġwom en",
      "ver n",
      "red dit",
      "ĠA SMR",
      "Ġst ud",
      "Ġmon th",
      "Ġst e",
      "ĠO k",
      "Ġany more",
      "â ĭ",
      "Ġf ail",
      "Ġcont in",
      "Ġr andom",
      "Ġgrou p",
      "w atch",
      "Ġb ed",
      "Ġ vers",
      "ut ion",
      "o x",
      "Ġr ather",
      "Ġch oose",
      "B ut",
      "Ġc ry",
      "Ġprot ect",
      "Ġbe gin",
      "ĠO f",
      "Ġg iv",
      "Ġj e",
      "Ġwor th",
      "ward s",
      "Ġinst ead",
      "O U",
      "Ġh ist",
      "uc ifer",
      "Ġf ix",
      "Ġle g",
      "Ġbr ing",
      "vel op",
      "Ġs n",
      "Ġem ot",
      "Ġwatch ing",
      "ant he",
      "Ġle vel",
      "Ġto m",
      "Ġf elt",
      "Ġro ck",
      "Ġwork s",
      "Ġph one",
      "a ut",
      "Ġg host",
      "Ġkill ed",
      "Ġcreat ed",
      "Ġd eep",
      "Ġup on",
      "ivid ual",
      "Ġe ffect",
      "st atic",
      "Ġen joy",
      "o on",
      "Ġi k",
      "Ġp e",
      "at an",
      "Ġg ames",
      "ĠH uman",
      "ĠJ esus",
      "anthe on",
      "t le",
      "ð Ŀ",
      "ig in",
      "Ġcre ate",
      "ĠK un",
      "Ġeas y",
      "Ġha ven",
      "m en",
      "us ion",
      "Ġneed ed",
      "K itten",
      "Ġf ire",
      "ac es",
      "Ġmess age",
      "m it",
      "Ġm is",
      "Ġyou ng",
      "Ġz e",
      "Ġsimp ly",
      "p ed",
      "00 0",
      "Ġment ion",
      "f ic",
      "um ber",
      "Ġsp ir",
      "so f",
      "Ġdest ro",
      "Ġatt ack",
      "Ġsupp osed",
      "==== ====",
      "Ġf oc",
      "Ġth ree",
      "n et",
      "Ġu w",
      "Ġsu n",
      "Ġbas ed",
      "S hadow",
      "Ġcould n",
      "Ġhapp ens",
      "---- ----",
      "Ġf av",
      "6 61",
      "ĠH ell",
      "t o",
      "Ġ âĢ",
      "Ġspec ific",
      "Ġsing le",
      "Ġd ro",
      "fe rence",
      "Ġcl ass",
      "olog ical",
      "u red",
      "Ġac cept",
      "Ġhour s",
      "l o",
      "Ġor igin",
      "Ġfig ure",
      "Ġp ri",
      "un ch",
      "Ġwant s",
      "Ġvo ice",
      "? \"",
      "t ags",
      "Ġw ays",
      "Ġpro cess",
      "Ġret urn",
      "Ġfeel ing",
      "Ġis s",
      "oog le",
      "an y",
      "Ġhe alth",
      "ĠC on",
      "er v",
      "Ġm other",
      "Ġfeel s",
      "Ġen g",
      "Ġsoci ety",
      "Ġr u",
      "Ġ\" \"",
      "ra ft",
      "Ġ@ [",
      "ĠP eople",
      "o or",
      "us h",
      "c er",
      "Ġ +",
      "Ġf alse",
      "80 51",
      "ĠE ven",
      "u ro",
      "is hed",
      "ĠM e",
      "ell ig",
      "Ġad v",
      "Ġind ividual",
      "Ġnorm al",
      "h ip",
      "ur ing",
      "i as",
      "Ġa ge",
      "Ġy a",
      "si b",
      "Ġsl ow",
      "71 48",
      "Ġim age",
      "R E",
      "h ow",
      "76 832",
      "Ġf il",
      "73 8051",
      "661 7148",
      "738051 76832",
      "6617148 73805176832",
      "Ġg one",
      "ĠA ny",
      "Ġdef initely",
      "j ournal",
      "ific ation",
      "Ġtyp e",
      "{ {",
      "} }",
      "Ġm ulti",
      "Ġdream s",
      "Ġt aking",
      "Ġgo es",
      "Ġbas ically",
      "i ps",
      "Ġf ine",
      "Ġme ant",
      "Ġresp on",
      "Ġtr ans",
      "Ġwor ry",
      "Ġuw u",
      "T hat",
      "Ġdep end",
      "d ate",
      "Ġw alk",
      "ri es",
      "Ġd irect",
      "Ġte xt",
      "Ġp rom",
      "id ed",
      "ro ll",
      "Ġget s",
      "Ġar g",
      "p ro",
      "{{ <",
      "s ha",
      "Ġp arent",
      "Ġg un",
      "ec ially",
      "Ġev ent",
      "youtu be",
      "@@@@ @@@@",
      "Ġli e",
      "Ġv al",
      "ĠðŁ ¤£",
      "Ġ> }}",
      "y le",
      "ĠB l",
      "Ġhonest ly",
      "ĠD id",
      "sp ir",
      "u ly",
      "O T",
      "Ġa p",
      "Ġm ine",
      "al c",
      "1 65",
      "Ġp ict",
      "Ġp sych",
      "ĉĉ ĉ",
      "I S",
      "Ġf ather",
      "Ġgo vern",
      "i vers",
      "p id",
      "Ġde velop",
      "Ġsupp ort",
      "Ġde al",
      "Ġm ist",
      "ut es",
      "Ġment al",
      "n ight",
      "it ch",
      "Ġplay ing",
      "in s",
      "76 1",
      "Ġn iet",
      "ri ble",
      "g ing",
      "Ġchan ce",
      "Ġrelig ion",
      "l ing",
      "ke t",
      "Ġbelie f",
      "ĠCh rist",
      "Ġ .",
      "Ġr ul",
      "te xt",
      "Ġsy m",
      "â ¨",
      "Ġob vious",
      "Ġl aw",
      "ad ok",
      "ear s",
      "t itle",
      "Ġex c",
      "Ġit self",
      "ast e",
      "Ġhappen ing",
      "Ġass um",
      "I f",
      "re me",
      "ri ed",
      "H O",
      "Ġm id",
      "76 0",
      "Ġl ang",
      "Ġknow n",
      "ĠWh ich",
      "im ages",
      "Ġsim ilar",
      "o ver",
      "ĠR yan",
      "Ġim m",
      "Ġvide os",
      "i b",
      "om s",
      "Ġneed s",
      "Ġhist ory",
      "79 5",
      "Ġfor ce",
      "c le",
      "Ġb en",
      "Ġn umber",
      "we b",
      "Ġdes cri",
      "ganiz ations",
      "ucifer ian",
      "ĠE l",
      "ĠI nt",
      "Ġli ves",
      "Ġrese arch",
      "ha ha",
      "Ġp red",
      "Ġthan ks",
      "ĠðŁĺ ī",
      "r al",
      "The y",
      "adok a",
      "2 8",
      "ar r",
      "[ [",
      "Ġus ually",
      "Ġnat ure",
      "Ġal ong",
      "N o",
      "T o",
      "e xt",
      "S o",
      "p he",
      "Ġg ave",
      "Ġsit u",
      "Ġforg ot",
      "/ )",
      "Ġb an",
      "ar c",
      "g o",
      "re ct",
      "Ġsha ll",
      "Ġdestro y",
      "Ġb ull",
      "Ġb urn",
      "Ġc ent",
      "Ġab s",
      "Ġstr ange",
      "70 03",
      "Ġha lf",
      "ĠI m",
      "Ġc ap",
      "Ġl ar",
      "55 84",
      "ĠR ussi",
      "Ġsha re",
      "Ġcomp uter",
      "Ġs ick",
      "um ent",
      "Ġpro f",
      "IN G",
      "35 5584",
      "Ġsu ck",
      "300 355584",
      "416 300355584",
      "52 7003",
      "527003 416300355584",
      "Ġd ude",
      "Ġro le",
      "o h",
      "us ing",
      "â© Ĭ",
      "and s",
      "S t",
      "Ġh it",
      "in ed",
      "os s",
      "Ġa ir",
      "an na",
      "Ġp at",
      "it ive",
      "Ġrun ning",
      "20 19",
      "ĠC om",
      "Ġen er",
      "Ġsa ve",
      "ic a",
      "Ġme et",
      "ie ld",
      "Ġ 0",
      "Ġj oke",
      "il t",
      "at o",
      "Ġpr ison",
      "Ġdra w",
      "isc ord",
      "g es",
      "Ġm ill",
      "Ġf ur",
      "Ġf ake",
      "out h",
      "ard s",
      "Ġrem ind",
      "ĠU S",
      "a uthor",
      "b or",
      "86 91",
      "Ġg ra",
      "Ġlook ed",
      "d le",
      "Ġa ut",
      "ru ct",
      "ron t",
      "Ġb orn",
      "Ġstu pid",
      "h o",
      "es ome",
      "if y",
      "ak es",
      "l ike",
      "on es",
      "Ġl au",
      "Ġcon st",
      "Ġtr uly",
      "ĠL em",
      "Ġey e",
      "r ing",
      "ĠW ith",
      "Ġperson al",
      "aby rin",
      "Ġspir it",
      "abyrin th",
      "0 98",
      "Ġfor get",
      "Ġi gn",
      "Ġto t",
      "st air",
      "Ġquest ions",
      "Ġt rain",
      "976 760",
      "55 976760",
      "ent ly",
      "81 86",
      "ist ic",
      "con text",
      "465 8186",
      "761 55976760",
      "76155976760 4658186",
      "i or",
      "Ġf r",
      "Ġin cl",
      "Ġal t",
      "Ġhuman ity",
      "Ġpur p",
      "a ult",
      "Ġh id",
      "30 4",
      "! \"",
      "Ġa v",
      "45 295",
      "88 736",
      "ian s",
      "40 45295",
      "Ġtak es",
      "098 304",
      "88736 098304",
      "4045295 88736098304",
      "31 30",
      "ot h",
      "Ġh ig",
      "ĠR E",
      "7 756",
      "O L",
      "Ġthe ory",
      "Ġsh ort",
      "814 261",
      "Ġdr ink",
      "7756 814261",
      "Ġthought s",
      "16 3130",
      "Ġlang u",
      "7756814261 163130",
      "7756814261163130 90",
      "Ġp ick",
      "Ġman ip",
      "Ġd ru",
      "end ing",
      "Ġp ull",
      "us s",
      "Ġpro ject",
      "Ġes p",
      "O r",
      "er m",
      "Ġst ar",
      "Ġbec om",
      "Ġtell ing",
      "am p",
      "Ġv ir",
      "lp ha",
      "Ġmin utes",
      "Ġc ut",
      "as ed",
      "Ġwe bs",
      "20 20",
      "itt ing",
      "Ġcle ar",
      "Ġfore ver",
      "p antheon",
      "Ġwe ek",
      "em pt",
      "Ġtak en",
      "I G",
      "Ġ 9",
      "Ġpubl ic",
      "Ġp ot",
      "22 4",
      "ow s",
      "Ġmag ic",
      "Ġdou bt",
      "1 51",
      "er y",
      "Ġsc re",
      "Ġread y",
      "Ġfav or",
      "en n",
      "am ed",
      "ate g",
      "fic ult",
      "Ġhand s",
      "Ġs ort",
      "Ġst yle",
      "Ġmost ly",
      "Ġdif ficult",
      "Ġinf l",
      "ev idence",
      "Ġor der",
      "Ġb at",
      "Ġp ers",
      "Ġam az",
      "ĠTH E",
      "sof pantheon",
      "Ġl ine",
      "Ġres ult",
      "18 99",
      "Ġpol it",
      "t c",
      "82 50",
      "ĠR ank",
      "84 957",
      "151 1899",
      "8250 24",
      "84957 825024",
      "1511899 84957825024",
      "a a",
      "Ġc op",
      "Ġwe ap",
      "Ġwh ite",
      "end er",
      "Ġpart ic",
      "5 9",
      "D e",
      "Ġwat ched",
      "S T",
      "a pt",
      "e ed",
      "O O",
      "ĠP er",
      "Ġsee ing",
      "stair sofpantheon",
      "Ġj ud",
      "er o",
      "im ent",
      "75 75",
      "4 2",
      "5 41",
      "Ġbe aut",
      "Ġre pl",
      "Ġm il",
      "com ments",
      "Ġext reme",
      "Ġas king",
      "ur y",
      "sha re",
      "f ull",
      "Ġwe l",
      "Ġcomm on",
      "f or",
      "i us",
      "u nd",
      "Ġst ra",
      "Ġcon v",
      "ĠThat s",
      "c ent",
      "on y",
      "ĠA mer",
      "ie f",
      "c ing",
      "Ġbe y",
      "Ġsur v",
      "Ġcle arly",
      "in ation",
      "Ġd anger",
      "ĠW here",
      "Ġpres ent",
      "Ġmur der",
      "Ġlo c",
      "c han",
      "Ġs il",
      "Ġen em",
      "ĠEC O",
      "/ ?",
      "i ar",
      "Ġb reat",
      "Ġc hat",
      "Ġn on",
      "Ġe ar",
      "oo oo",
      "Ġqu ick",
      "Ġpre t",
      "Ġe qu",
      "op h",
      "Ġreal m",
      "Ġac ross",
      "6 3",
      "ĠS omet",
      "Ġmo d",
      "Ġsc en",
      "med ium",
      "Ġacc ess",
      "Ġexper ien",
      "g ress",
      "as k",
      "ĠĠ Ċ",
      "Ġpro ve",
      "Ġ( [",
      "23 9",
      "Ġtechn ology",
      "ĠD iscord",
      "Ġc ute",
      "Ġint ellig",
      "Ġcon cept",
      "ĠP l",
      "ĠðŁ ĳ",
      "Ġid ent",
      "i os",
      "Ġb aby",
      "Ġwe ak",
      "qu e",
      "Ġrem ain",
      "Ġdisc ord",
      "f er",
      "Ġe lect",
      "ent ial",
      "Ġread ing",
      "c hes",
      "in t",
      "Ġhe l",
      "Ġal ive",
      "Ġhim self",
      "ivers ity",
      "Ġt ou",
      "ict ion",
      "Ġtra vel",
      "Ġhur t",
      "Ġener gy",
      "1 5",
      "u ri",
      "Ġd umb",
      "ol m",
      "Ġlo se",
      "Ġ1 00",
      "ne y",
      "Ġcur rent",
      "3 725",
      "o id",
      "is ion",
      "ĠThe se",
      "Ġun less",
      "\" ](",
      "ie bol",
      "ĠL abyrinth",
      "Ġpro du",
      "Ġte ac",
      "Ġplan et",
      "Ġab ove",
      "Ġpro v",
      "ap e",
      "â Ī",
      "Ġsim ple",
      "Ġphys ical",
      "Ġpurp ose",
      "Ġw ake",
      "Ġc ity",
      "ac hed",
      "Ġke y",
      "Ġgovern ment",
      "Ġc ode",
      "Ġrel ations",
      "61 2",
      "ĠR ight",
      "E E",
      "ĠM ost",
      "ĠL et",
      "Ġpro of",
      "Ġthan k",
      "M y",
      "b ut",
      "Ġm ass",
      "Ġinv ol",
      "Ġsitu ation",
      "Ġser ious",
      "Ġfollow ing",
      "2 34",
      "Ġan n",
      "Ġcon vers",
      "The re",
      "Ġcho ice",
      "l ight",
      "Ġw olf",
      "Ġid k",
      "Ġturn ed",
      "u g",
      "Ġw anna",
      "Ġm ir",
      "or ing",
      "ĠT R",
      "ri f",
      "Ġsp orts",
      "Ġaw esome",
      "Ġpos ition",
      "Ġp ie",
      "45 44",
      "56 612",
      "ĠS ee",
      "306 18",
      "arent ly",
      "ma o",
      "4544 30618",
      "56612 454430618",
      "56612454430618 4193",
      "ĠH is",
      "if ul",
      "Ġper haps",
      "Ġp ath",
      "á´ ĩ",
      "Ġf ing",
      "Ġbec ame",
      "Ġwa iting",
      "Ġdat a",
      "wor k",
      "3 51",
      "4 76",
      "Ġe tc",
      "ĠL ight",
      "Ġatt ention",
      "A l",
      "Ġo bs",
      "Ġth reat",
      "alc olm",
      "9 65",
      "Ġc ir",
      "T ube",
      "Ġh ot",
      "d y",
      "Ġapp ro",
      "kn own",
      "Ġs on",
      "Ġf ront",
      "488 486",
      "306 25",
      "Ġsur pr",
      "476 965",
      "488486 6",
      "30625 4884866",
      "476965 306254884866",
      "l and",
      "ic ation",
      "ig ital",
      "Ġsa fe",
      "ĠHell o",
      "Ġlangu age",
      "n ow",
      "Ġt reat",
      "Ġli l",
      "ĠS ame",
      "ific ial",
      ".... ....",
      "Ġamaz ing",
      "Ġm achine",
      "Ġb oy",
      "ĠA ge",
      "Ġbl ue",
      "j or",
      "ĠThan k",
      "p or",
      "ens en",
      "â© ī",
      "Ġsm art",
      "Ġwebs ite",
      "S he",
      "Ġs ear",
      "Ġd a",
      "++ +",
      "c ha",
      "Ġbe ha",
      "N D",
      "in a",
      "Ġcom b",
      "Ġl ay",
      "Ġan t",
      "Ġreal ize",
      "Ġgr ound",
      "Ġgot ta",
      "gg est",
      "Ġto wards",
      "Ġe ff",
      "ĠT w",
      "ac c",
      "Ġpr act",
      "os sible",
      "Ġchan ged",
      "Ġinfl u",
      "2 00",
      "Ġw ind",
      "og n",
      "Ġfin ally",
      "if ied",
      "Ġsp read",
      "ar ing",
      "ord er",
      "Ġvo or",
      "Ġmem ory",
      "4 9",
      "M E",
      "l ish",
      "v iew",
      "Ġn one",
      "ĠA lpha",
      "Ġsu ggest",
      "y n",
      "Ġo cc",
      "Ġplay ed",
      "ĠI k",
      "ter s",
      "Ġ* \"",
      "Ġbl ock",
      "Ġte am",
      "Ġparent s",
      "d raft",
      "Ġs qu",
      "om b",
      "is ing",
      "Ġsuff ering",
      "Ġt re",
      "Ġf air",
      "al es",
      "Ġhig her",
      "m on",
      "n en",
      "22 32",
      "ĠT om",
      "74 32",
      "Ġdo c",
      "Ġke pt",
      "ress ion",
      "Ġev idence",
      "Ġfoc us",
      "f ter",
      "Ġst ep",
      "77 37",
      "un k",
      "Ġpre p",
      "416 2232",
      "ij k",
      "ĠJust ice",
      "full y",
      "7432 4162232",
      "7737 74324162232",
      "773774324162232 351",
      "Ġf em",
      "if t",
      "Ġeas ier",
      "t ain",
      "Ġs ource",
      "im ens",
      "Ġno body",
      "Ġbro ken",
      "Ġpe ace",
      "Ġbey ond",
      "Ġcont act",
      "Ġpos sib",
      "Ġconnect ed",
      "Ġrob ot",
      "Ġgiv ing",
      "A R",
      "ĠO uro",
      "end ed",
      "Ġcor rect",
      "iv es",
      "m iss",
      "Ġ ?",
      "Ġst ories",
      "ra id",
      "â©Ĭ â©Ĭ",
      "l er",
      "Ġcom pl",
      "iet n",
      "Ġrep res",
      "Ġmess ages",
      "Ĩ â«",
      "Ġon line",
      "ill s",
      "Ġmonth s",
      "Ġd ied",
      "ĠE m",
      "Ġatt empt",
      "Ġfe ed",
      "Ġfur ther",
      "Ġwor se",
      "or row",
      "ir th",
      "Ġsu c",
      "T H",
      "r ad",
      "re l",
      "H ow",
      "72 36",
      "Ġli m",
      "Ġnot ic",
      "Ġma jor",
      "Ġbu y",
      "Ġsym bol",
      "c he",
      "p erson",
      "Ġbr other",
      "it es",
      "ĠH er",
      "44 9",
      "Ġthr ow",
      "Ġaw are",
      "Ġinter net",
      "Ġresp ect",
      "Ġdet ail",
      "ĠS h",
      "Ġr id",
      "ell ing",
      "ĠTh ough",
      "Ġro fl",
      "Ġpict ure",
      "Ġa i",
      "Ġne ar",
      "Ġne cess",
      "Ġso ld",
      "Ġcat s",
      "Ġvers ion",
      "Ġt roll",
      "Ġd ue",
      "Ġyou t",
      "Ġdo g",
      "ra ph",
      "un iversity",
      "19 72",
      "ĠU k",
      "Ġcomp any",
      "06 34",
      "45 541",
      "Ġne g",
      "ðĿ Ĳ",
      "239 1972",
      "449 729",
      "45541 449729",
      "2391972 45541449729",
      "W hen",
      "l t",
      "Ġl ate",
      "Ġre ach",
      "ĠH ave",
      "Ġt em",
      "Ġl and",
      "am er",
      "Ġd iv",
      "â© Į",
      "Âł Âł",
      "Ġc old",
      "79 50",
      "22 3",
      "ee ee",
      "Ġcan t",
      "Ġfight ing",
      "ĠT e",
      "ðŁ ¤£",
      "r s",
      "Ġg ain",
      "Ġv ict",
      "Ġunderstand ing",
      "Ġlearn ed",
      "Ġcontin ue",
      "ou n",
      "Ġlo g",
      "Ġaf raid",
      "Ġexist ence",
      "b ed",
      "as es",
      "Ġpro per",
      "Ġwr itten",
      "Ġfavor ite",
      "G ER",
      "Ġimp ossible",
      "Ġcons cious",
      "ĠThan ks",
      "Ġmor ning",
      "j k",
      "Ġc ore",
      "Ġex cept",
      "9 61",
      "u el",
      "]] ,",
      "Ġfre ed",
      "lo ad",
      "Ġ20 19",
      "Ġpo or",
      "ĠOk ay",
      "3 8",
      "i res",
      "Ġcon spir",
      "96 8",
      "Ġrec ord",
      "Ġorigin al",
      "Ġextreme ly",
      "Ġm ot",
      "Ġwill ing",
      "O n",
      "p ath",
      "Ġb unch",
      "79 91",
      "ol ute",
      "ra p",
      "331 8691",
      "86 3318691",
      "ĠDo es",
      "795 863318691",
      "7991 795863318691",
      "7991795863318691 94",
      "b o",
      "Ġt end",
      "ĠY ep",
      "I ON",
      "he ad",
      "Ġnew s",
      "Ġbuild ing",
      "Ġbeaut iful",
      "k ed",
      "Ġwor st",
      "ĠJ e",
      "g ry",
      "Ġ ...",
      "Ġsu sp",
      "Ġcons ider",
      "Ġlau gh",
      "961 223",
      "! âĢĿ",
      "Ġto ol",
      "44 486",
      "Ġpower ful",
      "Ġco ver",
      "7236 44486",
      "e red",
      "Ġt ired",
      "Ġd en",
      "Ġl mao",
      "erest ing",
      "Ġdes ign",
      "gr ound",
      "224 723644486",
      "961223 224723644486",
      "Ġp ure",
      "Ġcoll ect",
      "b y",
      "Ģ â",
      "Ġs at",
      "ĠD iebol",
      "Ġact ual",
      "Ġcre ep",
      "ash ion",
      "Ġpri v",
      "ĠH et",
      "ĠL OL",
      "ĠYou Tube",
      "ĠðŁ ¤",
      "Ġcl os",
      "Ġins ane",
      "Ġesp ecially",
      "ation al",
      "Ġes c",
      "ĠĠĠĠĠĠĠĠ ĠĠ",
      "Ġopp os",
      "Ġlar ge",
      "A s",
      "B I",
      "Ġb es",
      "ĠR ed",
      "ress ed",
      "ĠðŁĺ Ĥ",
      "532 6",
      "Ġl ow",
      "Ġvi ol",
      "Ġstra ight",
      "Ġdanger ous",
      "ist er",
      "ĠG r",
      "ĠG oogle",
      "Ġam ount",
      "Ġspea king",
      "7 81",
      "ci ent",
      "ount ain",
      "Ġsoci al",
      "Ġyout ube",
      "Ġre le",
      "Ġen v",
      "Ġdam n",
      "Ġmanip ul",
      "( (",
      "Ġmid dle",
      "IG GER",
      "A L",
      "Ġc uri",
      "Ġst uck",
      "ĠY OU",
      "Ġsc ared",
      "ĠTR IGGER",
      "Ġ ess",
      "Ġm ensen",
      "ĠI d",
      "Ġl ack",
      "Ġfor ward",
      "Ġk un",
      "Ġbus iness",
      "41 9",
      "Ġr ich",
      "e y",
      "Ġ &",
      "Ġab ility",
      "ab or",
      "Ġfam il",
      "Ġfin al",
      "Ġsub ject",
      "a it",
      "Ġs ens",
      "le ted",
      "ac king",
      "Ġ1 2",
      "Ġwr ote",
      "Ġ2 00",
      "/ ).",
      "u ra",
      "Ġn amed",
      "con s",
      "Ġm outh",
      "ow ers",
      "ĠA m",
      "Ġ( (",
      "ick ed",
      "Ġuni vers",
      "d om",
      "i i",
      "w are",
      "ar i",
      "Ġk itten",
      "Ġmo der",
      "Ġal s",
      "pp ing",
      "Ġsha dow",
      "Ġf ashion",
      "ce ive",
      "ĠD ave",
      "ĠTh ose",
      "Ġspec ial",
      "Ġbook s",
      "Ġwel come",
      "C h",
      "I D",
      "Ġ 30",
      "06 89",
      "29 41",
      "al m",
      "Ġsee med",
      "Ġsk in",
      "26 0689",
      "59 781",
      "2941 59781",
      "260689 419",
      "294159781 260689419",
      "p re",
      "w ise",
      "Ġf it",
      "ĠL ove",
      "Ġsp end",
      "D o",
      "Ġgr and",
      "Ġmed ia",
      "re w",
      "Ġd uring",
      "ĠT O",
      "ĠU s",
      "9 70",
      "U n",
      "g on",
      "Ġ 19",
      "it ary",
      "ac ed",
      "ĠG host",
      "Ġmet h",
      "Ġcertain ly",
      "Ġmulti ple",
      "Ġsear ch",
      "pl oy",
      "ij d",
      "Ġapp arently",
      "b ers",
      "or g",
      "Ġp le",
      "ant ly",
      "we ight",
      "Ġrel ated",
      "Ġop in",
      "us es",
      "Ġsome body",
      "Ġbo x",
      "ĠAr t",
      "Ġbelief s",
      "ĠPer haps",
      "Ġann oy",
      "! [",
      "e en",
      "at a",
      "al y",
      "Ġcou ple",
      "Ġenem y",
      "Ġs we",
      "Ġhar m",
      "Ġallow ed",
      "R e",
      "Ġh ide",
      "Ġh ij",
      "ĠW or",
      "ĠW ill",
      "Ġp en",
      "Ġu r",
      "Ġwork ed",
      "OR D",
      "Ġa an",
      "Ġa ud",
      "Ġc oin",
      "Ġd i",
      "im in",
      "Ġso ft",
      "ĠR em",
      "Ġro y",
      "Ġproble ms",
      "Ġsex ual",
      "ĠOn ly",
      "ĉ Ġ",
      "ĠI S",
      "ill ed",
      "Ġro ll",
      "Ġreason s",
      "Ġresp ond",
      "arc iss",
      "j e",
      "Ġb irth",
      "Ġact ions",
      "Ġfl oor",
      "Ġsl a",
      "Ġsupp ose",
      "Ġcle an",
      "Ġh op",
      "Ġas ks",
      "Ġknow ing",
      "oc r",
      "Ġdiffe rence",
      "4 41",
      "Ġanim als",
      "a ith",
      "w hat",
      "Ġ âĢ¦",
      "ed s",
      "Ġn aar",
      "ue en",
      "Ġinter act",
      "ateg ories",
      "k y",
      "Ġ ^",
      "Ġa ch",
      "Ġen c",
      "Ġsk y",
      "Ġter m",
      "ĠEC HO",
      "3 72",
      "V E",
      "z en",
      "20 21",
      "Ġsh ot",
      "fort un",
      "en cy",
      "Ġf ell",
      "ra ine",
      "Ġsh oot",
      "th ough",
      "Ġter rible",
      "ĠInt eresting",
      "d den",
      "l ass",
      "ic le",
      "Ġpro gress",
      "ook y",
      "Ġcont ext",
      "Ġbu ilt",
      "Ġob ject",
      "e ks",
      "u ed",
      "Ġst ars",
      "el ios",
      "Ġnotic ed",
      "L uciferian",
      "ħ â«",
      "55 55",
      "Ġlear ning",
      "Ġiss ue",
      "Ġo per",
      "82 1",
      "el s",
      "iv ed",
      "Ġfl at",
      "â« ĸ",
      "Ġmem ories",
      "Ġmiss ing",
      "Ġcommun ity",
      "Ġcol or",
      "Ġtom ato",
      "enn is",
      "Ġte ach",
      "â© Ī",
      "Ġexper iment",
      "pect ive",
      "Ġabs olute",
      "r c",
      "Ġp un",
      "et h",
      "Ġma ar",
      "Ġconf used",
      "Ġfreed om",
      "ic ate",
      "ic king",
      "46 446",
      "os p",
      "Ġrul es",
      "234 46446",
      "970 5555",
      "23446446 9705555",
      "234464469705555 968",
      "Ġt ree",
      "Ġh yp",
      "ac ing",
      "Ġsc ream",
      "N ot",
      "b it",
      "t f",
      "Ġhe av",
      "Ġdec ided",
      "en ed",
      "se t",
      "Ġdo ct",
      "ĠB en",
      "Ġpl aces",
      "F or",
      "Ġha ll",
      "Ġha ck",
      "ay er",
      "Ġsu dden",
      "l a",
      "Ġl a",
      "Ġsu mm",
      "ĠM oon",
      "Ġsc ience",
      "Ġz o",
      "Ġpre fer",
      "Ġgod s",
      "Ġmatter s",
      "Ġref er",
      "Ġhu ge",
      "re ci",
      "Ġm ad",
      "Ġp ort",
      "45 2",
      "ĠA g",
      "Ġst ri",
      "Ġint ent",
      "Ġher self",
      "Ġlo ck",
      "hh hh",
      "ĠQ u",
      "Ġgre en",
      "Ġmention ed",
      ". *",
      "29 2",
      "el come",
      "ĠHe y",
      "Ġdisc uss",
      "Ġgl ad",
      "Ġgener al",
      "Ġho le",
      "O W",
      "b h",
      "79 6",
      "Ġe le",
      "ic an",
      "ietn am",
      "h ips",
      "w h",
      "ł Ģâ",
      "il ia",
      "ĠL ook",
      "Ĩâ« ħâ«",
      "1 50",
      "p ret",
      "z z",
      "er d",
      "Ġmo ving",
      "Ġx an",
      "ĠQ ueen",
      "v ior",
      "Ġin de",
      "ĠA ct",
      "Ġj ump",
      "med i",
      "Ġconvers ation",
      "ot hes",
      "Ġe arly",
      "Ġad ult",
      "Ġrec ogn",
      "ove red",
      "Ġobvious ly",
      "Ġinvol ved",
      "A ll",
      "O ne",
      "ha r",
      "ll y",
      "Ġsome where",
      "ĠE rin",
      "ive ly",
      "ĠG o",
      "Ġhid den",
      "Ġf old",
      "at ors",
      "Ġbe at",
      "one ly",
      "ie ve",
      "Ġincl ud",
      "Ġtou ch",
      "Ġrelations hip",
      "S y",
      "Ã ©",
      "ĠB r",
      "men u",
      "Ĩâ«ħâ« Ĩâ«ħâ«",
      "c ategories",
      "Ġb ill",
      "Ġk ing",
      "ĠO ur",
      "ĠWh ile",
      "ĠHow ever",
      "K E",
      "r r",
      "Ġb od",
      "Ġl ord",
      "Ġgo ld",
      "iz ing",
      "side red",
      "i ge",
      "Ġbe gan",
      "41 20",
      "im ate",
      "Ġem ail",
      "Ġpred ict",
      "ĠRussi a",
      "d es",
      "Ġin k",
      "Ġsome how",
      "Ġun known",
      "ĠHe re",
      "Ġbr ought",
      "Ġcount ries",
      "erv ation",
      "ro om",
      "Ġcon sidered",
      "Ġsh ut",
      "Ġsh ip",
      "ast er",
      "Ġbl ind",
      "5 88",
      "Ġc y",
      "Ġg ay",
      "Ġin n",
      "Ġnot ice",
      "ir on",
      "ĠD ark",
      "F odder",
      "Ġs ep",
      "29 7",
      "46 4",
      "Ġr ad",
      "Ġcom ment",
      "Ġim medi",
      "de red",
      "Ġâ ī",
      "Ġinterest ed",
      "Ġinv est",
      "Ġru le",
      "person as",
      "Ġconspir acy",
      "Ġmeth od",
      "Ġt ort",
      "Ġmo on",
      "Ġma le",
      "Ġdis app",
      "Ġapp reci",
      "Ġbecom es",
      "s c",
      "Ġcan n",
      "og raph",
      "Ġrec ently",
      "Ġweap on",
      "M adoka",
      "t yp",
      "Ġ 62",
      "ll en",
      "Ġha ir",
      "99 297",
      "ĠM alcolm",
      "75 01",
      "ĠN OT",
      "995 7501",
      "Ġcont ain",
      "Ġpart s",
      "Ġser v",
      "Ġrepres ent",
      "Ġroy als",
      "796 9957501",
      "588 7969957501",
      "5887969957501 99297",
      ". *\"",
      "Ä ±",
      "Ġf ield",
      "Ġn or",
      "Ġlo ved",
      "Ġpos s",
      "Ġpost ed",
      "e ps",
      "en ces",
      "at ure",
      "al king",
      "Ġam ong",
      "Ġact ion",
      "Ġw ild",
      "ol ution",
      "Ġv acc",
      "]( ((",
      "â« ķ",
      "Ġcharacter s",
      "ĠKun ist",
      "0 4",
      "g or",
      "32 32",
      "ĠP lease",
      "ab les",
      "ard en",
      "Ġcall ing",
      "Ġph ot",
      "?? ?",
      "y ou",
      "Ġ ut",
      "Ġt ennis",
      "Ġp an",
      "ot es",
      "Ġkill ing",
      "ĠZ e",
      "7 79",
      "Ġc e",
      "Ġc ross",
      "Ġrep e",
      "ĠEx actly",
      "Ġbegin ning",
      "6 7",
      "L ove",
      "Ġf oot",
      "om en",
      "ri x",
      "Ġma ster",
      "ĠC l",
      "ound s",
      "sp ooky",
      "ru pt",
      "ru gg",
      "cl ass",
      "Ġdem on",
      "Ġw aste",
      "Ġe ating",
      "Ġmoder n",
      "Ġinde ed",
      "5 3",
      "T I",
      "Ġ ou",
      "Ġw is",
      "Ġo dd",
      "Ġhe aven",
      "un g",
      "ĠF old",
      "Ġstart ing",
      "Ġdes er",
      "Ġtalk ed",
      "Ġfollow ers",
      "Ġw it",
      "ĠW E",
      "Ġtr ou",
      "ĠP r",
      "Ġpl ant",
      "ag ed",
      "Ġsoul s",
      "Ġpol ice",
      "Ġlisten ing",
      "Ġsuc cess",
      "ĠUk raine",
      "Ġm ountain",
      "Ġc ell",
      "Ġd ad",
      "Ġpro p",
      "Ġ> .",
      "Ġemot ions",
      "Ġrespon se",
      "ĠRE C",
      "t r",
      "t on",
      "Ġc ard",
      "Ġp ush",
      "ir m",
      "ĠW as",
      "ĠH a",
      "Ġus er",
      "Ġsuff er",
      "Ġcuri ous",
      "\" .",
      "Ġa uthor",
      "er c",
      "Ġlo ad",
      "Ġar m",
      "Ġbo red",
      "Ġfe et",
      "Ġw ife",
      "Ġc aught",
      "Ġc amer",
      "Ġd om",
      "Ġf ly",
      "it ter",
      "ĠY et",
      "th is",
      "ak en",
      "Ġcry pt",
      "Ġdru gs",
      "J ust",
      "d uc",
      "u ff",
      "v id",
      "Ġf ant",
      "ĠS atan",
      "ĠD am",
      "Ġiss ues",
      "cons cious",
      "Ġposs ess",
      "b ook",
      "Ġf an",
      "Ġth ous",
      "Ġu it",
      "Ġreal ized",
      "Ġacc ur",
      "bl ing",
      "Ġeas ily",
      "Ġquick ly",
      "O h",
      "Ġst ream",
      "Ġsa f",
      "cri ption",
      "ĠREC ORD",
      "t om",
      "Ġt on",
      "Ġb ird",
      "ĠI T",
      "ant um",
      "Ġapp ear",
      "Ġbro ke",
      "łĢâ łĢâ",
      "I k",
      "k er",
      "p ter",
      "Ġrec all",
      "Ġpie ce",
      "6 6",
      "S C",
      "Ġ 24",
      "Ġc ost",
      "an ces",
      "Ġwe eks",
      "Ġtr ick",
      "Ġnat ural",
      "Ġdirect ly",
      "p x",
      "p ing",
      "p ite",
      "as c",
      "ri b",
      "ĠB y",
      "Ġr ing",
      "ĠF l",
      "Ġmind s",
      "Ġev ents",
      "Ġsim ulation",
      "Ġpa per",
      "Ġeff ort",
      "as y",
      "Ġv ol",
      "Ġshould n",
      "Ġhor ror",
      "ĠEvery one",
      "Ġtom orrow",
      "Ġpers pective",
      "Ġjud ge",
      "st r",
      "Ġn ames",
      "Ġinter pret",
      "Ġexist s",
      "Ġrob ots"
    ]
  }
}