{
  "version": "1.0",
  "truncation": null,
  "padding": null,
  "added_tokens": [
    {
      "id": 0,
      "content": "<|endoftext|>",
      "single_word": false,
      "lstrip": false,
      "rstrip": false,
      "normalized": false,
      "special": true
    }
  ],
  "normalizer": null,
  "pre_tokenizer": {
    "type": "ByteLevel",
    "add_prefix_space": false,
    "trim_offsets": true,
    "use_regex": true
  },
  "post_processor": {
    "type": "ByteLevel",
    "add_prefix_space": true,
    "trim_offsets": true,
    "use_regex": true
  },
  "decoder": {
    "type": "ByteLevel",
    "add_prefix_space": true,
    "trim_offsets": true,
    "use_regex": true
  },
  "model": {
    "type": "BPE",
    "dropout": null,
    "unk_token": null,
    "continuing_subword_prefix": null,
    "end_of_word_suffix": null,
    "fuse_unk": false,
    "vocab": {
      "<|endoftext|>": 0,
      "!": 1,
      "\"": 2,
      "#": 3,
      "$": 4,
      "%": 5,
      "&": 6,
      "'": 7,
      "(": 8,
      ")": 9,
      "*": 10,
      "+": 11,
      ",": 12,
      "-": 13,
      ".": 14,
      "/": 15,
      "0": 16,
      "1": 17,
      "2": 18,
      "3": 19,
      "4": 20,
      "5": 21,
      "6": 22,
      "7": 23,
      "8": 24,
      "9": 25,
      ":": 26,
      ";": 27,
      "<": 28,
      "=": 29,
      ">": 30,
      "?": 31,
      "@": 32,
      "A": 33,
      "B": 34,
      "C": 35,
      "D": 36,
      "E": 37,
      "F": 38,
      "G": 39,
      "H": 40,
      "I": 41,
      "J": 42,
      "K": 43,
      "L": 44,
      "M": 45,
      "N": 46,
      "O": 47,
      "P": 48,
      "Q": 49,
      "R": 50,
      "S": 51,
      "T": 52,
      "U": 53,
      "V": 54,
      "W": 55,
      "X": 56,
      "Y": 57,
      "Z": 58,
      "[": 59,
      "\\": 60,
      "]": 61,
      "^": 62,
      "_": 63,
      "`": 64,
      "a": 65,
      "b": 66,
      "c": 67,
      "d": 68,
      "e": 69,
      "f": 70,
      "g": 71,
      "h": 72,
      "i": 73,
      "j": 74,
      "k": 75,
      "l": 76,
      "m": 77,
      "n": 78,
      "o": 79,
      "p": 80,
      "q": 81,
      "r": 82,
      "s": 83,
      "t": 84,
      "u": 85,
      "v": 86,
      "w": 87,
      "x": 88,
      "y": 89,
      "z": 90,
      "{": 91,
      "|": 92,
      "}": 93,
      "~": 94,
      "¡": 95,
      "¢": 96,
      "£": 97,
      "¤": 98,
      "¥": 99,
      "¦": 100,
      "§": 101,
      "¨": 102,
      "©": 103,
      "ª": 104,
      "«": 105,
      "¬": 106,
      "®": 107,
      "¯": 108,
      "°": 109,
      "±": 110,
      "²": 111,
      "³": 112,
      "´": 113,
      "µ": 114,
      "¶": 115,
      "·": 116,
      "¸": 117,
      "¹": 118,
      "º": 119,
      "»": 120,
      "¼": 121,
      "½": 122,
      "¾": 123,
      "¿": 124,
      "À": 125,
      "Á": 126,
      "Â": 127,
      "Ã": 128,
      "Ä": 129,
      "Å": 130,
      "Æ": 131,
      "Ç": 132,
      "È": 133,
      "É": 134,
      "Ê": 135,
      "Ë": 136,
      "Ì": 137,
      "Í": 138,
      "Î": 139,
      "Ï": 140,
      "Ð": 141,
      "Ñ": 142,
      "Ò": 143,
      "Ó": 144,
      "Ô": 145,
      "Õ": 146,
      "Ö": 147,
      "×": 148,
      "Ø": 149,
      "Ù": 150,
      "Ú": 151,
      "Û": 152,
      "Ü": 153,
      "Ý": 154,
      "Þ": 155,
      "ß": 156,
      "à": 157,
      "á": 158,
      "â": 159,
      "ã": 160,
      "ä": 161,
      "å": 162,
      "æ": 163,
      "ç": 164,
      "è": 165,
      "é": 166,
      "ê": 167,
      "ë": 168,
      "ì": 169,
      "í": 170,
      "î": 171,
      "ï": 172,
      "ð": 173,
      "ñ": 174,
      "ò": 175,
      "ó": 176,
      "ô": 177,
      "õ": 178,
      "ö": 179,
      "÷": 180,
      "ø": 181,
      "ù": 182,
      "ú": 183,
      "û": 184,
      "ü": 185,
      "ý": 186,
      "þ": 187,
      "ÿ": 188,
      "Ā": 189,
      "ā": 190,
      "Ă": 191,
      "ă": 192,
      "Ą": 193,
      "ą": 194,
      "Ć": 195,
      "ć": 196,
      "Ĉ": 197,
      "ĉ": 198,
      "Ċ": 199,
      "ċ": 200,
      "Č": 201,
      "č": 202,
      "Ď": 203,
      "ď": 204,
      "Đ": 205,
      "đ": 206,
      "Ē": 207,
      "ē": 208,
      "Ĕ": 209,
      "ĕ": 210,
      "Ė": 211,
      "ė": 212,
      "Ę": 213,
      "ę": 214,
      "Ě": 215,
      "ě": 216,
      "Ĝ": 217,
      "ĝ": 218,
      "Ğ": 219,
      "ğ": 220,
      "Ġ": 221,
      "ġ": 222,
      "Ģ": 223,
      "ģ": 224,
      "Ĥ": 225,
      "ĥ": 226,
      "Ħ": 227,
      "ħ": 228,
      "Ĩ": 229,
      "ĩ": 230,
      "Ī": 231,
      "ī": 232,
      "Ĭ": 233,
      "ĭ": 234,
      "Į": 235,
      "į": 236,
      "İ": 237,
      "ı": 238,
      "Ĳ": 239,
      "ĳ": 240,
      "Ĵ": 241,
      "ĵ": 242,
      "Ķ": 243,
      "ķ": 244,
      "ĸ": 245,
      "Ĺ": 246,
      "ĺ": 247,
      "Ļ": 248,
      "ļ": 249,
      "Ľ": 250,
      "ľ": 251,
      "Ŀ": 252,
      "ŀ": 253,
      "Ł": 254,
      "ł": 255,
      "Ń": 256,
      "Ġt": 257,
      "Ġa": 258,
      "he": 259,
      "in": 260,
      "Ġw": 261,
      "re": 262,
      "Ġs": 263,
      "ou": 264,
      "Ġthe": 265,
      "on": 266,
      "ha": 267,
      "Ġi": 268,
      "er": 269,
      "Ġm": 270,
      "Ġb": 271,
      "ĠI": 272,
      "ing": 273,
      "Ġc": 274,
      "en": 275,
      "85": 276,
      "76": 277,
      "or": 278,
      "Ġto": 279,
      "Ġd": 280,
      "Ġf": 281,
      "06": 282,
      "an": 283,
      "71": 284,
      "Ġp": 285,
      "48": 286,
      "ll": 287,
      "Ġl": 288,
      "Ġo": 289,
      "es": 290,
      "51": 291,
      "Ġan": 292,
      "Ġy": 293,
      "ed": 294,
      "79": 295,
      "hat": 296,
      "st": 297,
      "it": 298,
      "Ġn": 299,
      "29": 300,
      "45": 301,
      "at": 302,
      "22": 303,
      "Ġyou": 304,
      "Ġg": 305,
      "om": 306,
      "Ġin": 307,
      "80": 308,
      "Ġof": 309,
      "Ġand": 310,
      "31": 311,
      "is": 312,
      "Ġbe": 313,
      "ve": 314,
      "ar": 315,
      "ot": 316,
      "Ġth": 317,
      "Ġit": 318,
      "le": 319,
      "41": 320,
      "Ġis": 321,
      "ow": 322,
      "Ġe": 323,
      "70": 324,
      "61": 325,
      "72": 326,
      "Ġha": 327,
      "99": 328,
      "Ġthat": 329,
      "74": 330,
      "al": 331,
      "as": 332,
      "ĠT": 333,
      "ic": 334,
      "âĢ": 335,
      "56": 336,
      "Ġh": 337,
      "35": 338,
      "se": 339,
      "ke": 340,
      "ld": 341,
      "Ġre": 342,
      "ut": 343,
      "ay": 344,
      "et": 345,
      "62": 346,
      "051": 347,
      "Ġhe": 348,
      "id": 349,
      "Ġon": 350,
      "ver": 351,
      "ion": 352,
      "94": 353,
      "Ġu": 354,
      "98": 355,
      "976": 356,
      "Ġli": 357,
      "ly": 358,
      "798": 359,
      "806": 360,
      "7198": 361,
      "70976": 362,
      "627198": 363,
      "051627198": 364,
      "806051627198": 365,
      "709760": 366,
      "806051627198709760": 367,
      "ED": 368,
      "ac": 369,
      "11": 370,
      "gh": 371,
      "Ġme": 372,
      "55": 373,
      "65": 374,
      "Ġwe": 375,
      "ĠA": 376,
      "Ġst": 377,
      "Ġfor": 378,
      "ent": 379,
      "ro": 380,
      "Ġk": 381,
      "im": 382,
      "am": 383,
      "00": 384,
      "5529": 385,
      "756": 386,
      "33": 387,
      "Ġnot": 388,
      "out": 389,
      "oo": 390,
      "8585": 391,
      "7566": 392,
      "855529": 393,
      "7611": 394,
      "85857566": 395,
      "8555297611": 396,
      "855529761185857566": 397,
      "all": 398,
      "Ġare": 399,
      "nd": 400,
      "ad": 401,
      "Ġwas": 402,
      "âĢĻ": 403,
      "ir": 404,
      "Ġdo": 405,
      "ould": 406,
      "ill": 407,
      "ĠThe": 408,
      "ith": 409,
      "Ġ[": 410,
      "7106": 411,
      "'t": 412,
      "'s": 413,
      "ust": 414,
      "ĠS": 415,
      "484": 416,
      "2261": 417,
      "7982261": 418,
      "94484": 419,
      "067982261": 420,
      "7106067982261": 421,
      "710606798226194484": 422,
      "Ġhave": 423,
      "9985": 424,
      "34": 425,
      "Ġmy": 426,
      "Ġj": 427,
      "ĠW": 428,
      "op": 429,
      "ct": 430,
      "20": 431,
      "ol": 432,
      "ri": 433,
      "Ġwith": 434,
      "315": 435,
      "ce": 436,
      "Ġlike": 437,
      "Ġthis": 438,
      "ght": 439,
      "Ġas": 440,
      "ch": 441,
      "88": 442,
      "ee": 443,
      "Ġthey": 444,
      "ome": 445,
      "82": 446,
      "Ġwh": 447,
      "Ġbut": 448,
      "Ġcan": 449,
      "36": 450,
      "92": 451,
      "her": 452,
      "90": 453,
      "729": 454,
      "77": 455,
      "Ġne": 456,
      "hing": 457,
      "Ġmo": 458,
      "ally": 459,
      "..": 460,
      "CT": 461,
      "Ġ\"": 462,
      "ant": 463,
      "RED": 464,
      "3580": 465,
      "ACT": 466,
      "REDACT": 467,
      "REDACTED": 468,
      "345": 469,
      "Ġkn": 470,
      "46": 471,
      "ĠH": 472,
      "ĠĠ": 473,
      "ĠY": 474,
      "Ġsu": 475,
      "456": 476,
      "459": 477,
      "488": 478,
      "Ġab": 479,
      "ĠB": 480,
      "Ġal": 481,
      "751": 482,
      "one": 483,
      "Ġor": 484,
      "Ġso": 485,
      "Ġwhat": 486,
      "Ġwor": 487,
      "Ġjust": 488,
      "81": 489,
      "ra": 490,
      "Ġv": 491,
      "Ġde": 492,
      "56488": 493,
      "5648879": 494,
      "7465": 495,
      "99855648879": 496,
      "31599855648879": 497,
      "746531599855648879": 498,
      "ter": 499,
      "ge": 500,
      "ess": 501,
      "us": 502,
      "Ġall": 503,
      "Ġknow": 504,
      "802": 505,
      "48802": 506,
      "34548802": 507,
      "7648": 508,
      "2934548802": 509,
      "412934548802": 510,
      "82412934548802": 511,
      "824129345488027648": 512,
      "ĠM": 513,
      "ation": 514,
      "75": 515,
      "il": 516,
      "32": 517,
      "780": 518,
      "ur": 519,
      "ink": 520,
      "725": 521,
      "Ġyour": 522,
      "pp": 523,
      "Ġat": 524,
      "ea": 525,
      "un": 526,
      "748": 527,
      "ind": 528,
      "76780": 529,
      "79748": 530,
      "7279748": 531,
      "74725": 532,
      "767804": 533,
      "7279748767804": 534,
      "747257279748767804": 535,
      "Ġgo": 536,
      "ĠIt": 537,
      "95": 538,
      "Ġcon": 539,
      "Ġex": 540,
      "ers": 541,
      "906": 542,
      "um": 543,
      "ie": 544,
      "ĠĊ": 545,
      "ul": 546,
      "eop": 547,
      "Ġwould": 548,
      "300": 549,
      "Ġdon": 550,
      "eople": 551,
      "ĠD": 552,
      "est": 553,
      "Ġma": 554,
      "rom": 555,
      "801": 556,
      "Ġif": 557,
      "Ġsh": 558,
      "Ġtr": 559,
      "our": 560,
      "han": 561,
      "very": 562,
      "ĠN": 563,
      "ig": 564,
      "Ġwill": 565,
      "Ġone": 566,
      "6136": 567,
      "Ġpeople": 568,
      "Ġwhe": 569,
      "3151": 570,
      "996136": 571,
      "729996136": 572,
      "729996136459": 573,
      "413151": 574,
      "413151729996136459": 575,
      "6577": 576,
      "13580": 577,
      "226577": 578,
      "79813580": 579,
      "456226577": 580,
      "798135808": 581,
      "456226577798135808": 582,
      "Ġabout": 583,
      "ĠC": 584,
      "890": 585,
      "ven": 586,
      "nt": 587,
      "--": 588,
      "ame": 589,
      "Ġ@": 590,
      "fe": 591,
      "art": 592,
      "ate": 593,
      "and": 594,
      "ĠP": 595,
      "end": 596,
      "ĠO": 597,
      "9288": 598,
      "76801": 599,
      "5194": 600,
      "22890": 601,
      "928876801": 602,
      "5194928876801": 603,
      "519492887680122890": 604,
      "Ġsome": 605,
      "Ġthink": 606,
      "ck": 607,
      "ðŁ": 608,
      "19": 609,
      "ĠL": 610,
      "ain": 611,
      "Ġthem": 612,
      "Ġpro": 613,
      "Ġfrom": 614,
      "au": 615,
      "em": 616,
      "'m": 617,
      "Ġr": 618,
      "ab": 619,
      "os": 620,
      "072": 621,
      "002": 622,
      "14": 623,
      "<@": 624,
      "09": 625,
      "ime": 626,
      "ood": 627,
      "Ġcom": 628,
      "Ġno": 629,
      "ĠR": 630,
      "ĠE": 631,
      "995": 632,
      "if": 633,
      "Ġany": 634,
      "ist": 635,
      "Ġup": 636,
      "Ġsee": 637,
      "Ġ@<@": 638,
      "od": 639,
      "Ġint": 640,
      "ight": 641,
      "50": 642,
      "331": 643,
      "ive": 644,
      "Ġsp": 645,
      "ity": 646,
      "ide": 647,
      "red": 648,
      "471": 649,
      "Ġthere": 650,
      "Ġpl": 651,
      "Ġout": 652,
      "633": 653,
      "7971": 654,
      "20471": 655,
      "331072": 656,
      "6337971": 657,
      "204716337971": 658,
      "204716337971331072": 659,
      "el": 660,
      "ĠG": 661,
      "Ġget": 662,
      "Ġthing": 663,
      "king": 664,
      "ause": 665,
      "ell": 666,
      "Ġher": 667,
      "ough": 668,
      "##": 669,
      "34906": 670,
      "2970": 671,
      "Ġtime": 672,
      "qu": 673,
      "ack": 674,
      "05": 675,
      "Ġus": 676,
      "Ġmore": 677,
      "712": 678,
      "285": 679,
      "8145": 680,
      "834906": 681,
      "995285": 682,
      "8145995285": 683,
      "8349068145995285": 684,
      "834906814599528519": 685,
      "be": 686,
      "âĢľ": 687,
      "âĢĿ": 688,
      "ĠF": 689,
      "Ġwho": 690,
      "871": 691,
      "227": 692,
      "75114": 693,
      "2970871": 694,
      "227712": 695,
      "75114227712": 696,
      "297087175114227712": 697,
      "pt": 698,
      "91": 699,
      "ĠYou": 700,
      "ong": 701,
      "434": 702,
      "Ġdid": 703,
      "ther": 704,
      "84": 705,
      "Ġam": 706,
      "Ġhow": 707,
      "Ġen": 708,
      "Ġlo": 709,
      "ear": 710,
      "ĠðŁ": 711,
      "ine": 712,
      "Ġwant": 713,
      "ound": 714,
      "746": 715,
      "The": 716,
      "Ġbec": 717,
      "30": 718,
      "Ġshe": 719,
      "Ġby": 720,
      "ure": 721,
      "ore": 722,
      "ort": 723,
      "Ġtheir": 724,
      "Ġwhen": 725,
      "ect": 726,
      "omet": 727,
      "Ġlol": 728,
      "ps": 729,
      "953": 730,
      "9751": 731,
      "4150": 732,
      "99854150": 733,
      "746953": 734,
      "9751746953": 735,
      "975174695399854150": 736,
      "ies": 737,
      "th": 738,
      "ec": 739,
      "ag": 740,
      "ĠAnd": 741,
      "Ġman": 742,
      "Ġevery": 743,
      "ast": 744,
      "Ġim": 745,
      "Ġother": 746,
      "ep": 747,
      "226": 748,
      "Ġsa": 749,
      "Ġhis": 750,
      "Ġsomet": 751,
      "ays": 752,
      "3245": 753,
      "61434": 754,
      "7461434": 755,
      "353245": 756,
      "22648": 757,
      "7461434353245": 758,
      "746143435324522648": 759,
      "ĠThat": 760,
      "ook": 761,
      "Ġhad": 762,
      "Ġwere": 763,
      "act": 764,
      "are": 765,
      "ite": 766,
      "Ġ-": 767,
      "ous": 768,
      "Ġcould": 769,
      "Ġar": 770,
      "Ġtoo": 771,
      "Ġun": 772,
      "Ġeven": 773,
      "ry": 774,
      "so": 775,
      "03": 776,
      "](": 777,
      "44": 778,
      "78": 779,
      "Ġnow": 780,
      "ue": 781,
      "ost": 782,
      "pl": 783,
      "Ġhas": 784,
      "sel": 785,
      "24": 786,
      "ice": 787,
      "ĠTh": 788,
      "ard": 789,
      "ose": 790,
      "tt": 791,
      "Ġneed": 792,
      "ĠâĢľ": 793,
      "Ġag": 794,
      "ace": 795,
      "ĠJ": 796,
      "res": 797,
      "ble": 798,
      "Ġact": 799,
      "Ġsomething": 800,
      "Ġmean": 801,
      "ff": 802,
      "ake": 803,
      "Ġinto": 804,
      "Ġthan": 805,
      "Ġits": 806,
      "Ġthen": 807,
      "...": 808,
      "201": 809,
      "per": 810,
      "reat": 811,
      "Ġgood": 812,
      "Ġmake": 813,
      "ĠBut": 814,
      "Ġway": 815,
      "89": 816,
      "Ġro": 817,
      "Ġri": 818,
      "ment": 819,
      "Ġ1": 820,
      "Ġcl": 821,
      "Ġreal": 822,
      "thing": 823,
      "Ġbeen": 824,
      "86": 825,
      "ence": 826,
      "Ġbecause": 827,
      "Ġch": 828,
      "Ġbeing": 829,
      "eel": 830,
      "iz": 831,
      "Ġgu": 832,
      "Ġonly": 833,
      "4609": 834,
      "5135": 835,
      "0515135": 836,
      "754609": 837,
      "20188": 838,
      "051513520188": 839,
      "754609051513520188": 840,
      "eah": 841,
      "Ġhere": 842,
      "93": 843,
      "Ġbl": 844,
      "731": 845,
      "758": 846,
      "Ġsay": 847,
      "22758": 848,
      "6205": 849,
      "358022758": 850,
      "6205358022758": 851,
      "74731": 852,
      "747316205358022758": 853,
      "der": 854,
      "Ġte": 855,
      "Ġreally": 856,
      "ory": 857,
      "Ġle": 858,
      "'re": 859,
      "age": 860,
      "erson": 861,
      "Ġour": 862,
      "Ġnever": 863,
      "Ġfeel": 864,
      "ich": 865,
      "iv": 866,
      "own": 867,
      "Ġdoes": 868,
      "Ġhim": 869,
      "de": 870,
      "Ġsc": 871,
      "ions": 872,
      "ber": 873,
      "ually": 874,
      "ĠHe": 875,
      "self": 876,
      "Ġworld": 877,
      "nder": 878,
      "Ġwork": 879,
      "Ġmay": 880,
      "Ġhapp": 881,
      "Ġright": 882,
      "Ġgoing": 883,
      "Ġover": 884,
      "Ġqu": 885,
      "Ġz": 886,
      "ĠWhat": 887,
      "ak": 888,
      "Ġback": 889,
      "Ġtry": 890,
      "uck": 891,
      "ach": 892,
      "oc": 893,
      "7209": 894,
      "Ġwhy": 895,
      "oin": 896,
      "3024": 897,
      "41002": 898,
      "Ġ(": 899,
      "uch": 900,
      "907": 901,
      "9002": 902,
      "ick": 903,
      "1907": 904,
      "797209": 905,
      "30249002": 906,
      "79720930249002": 907,
      "797209302490021907": 908,
      "Ġbel": 909,
      "ens": 910,
      "416": 911,
      "835": 912,
      "4470": 913,
      "4589": 914,
      "315300": 915,
      "459456": 916,
      "90641002": 917,
      "300835": 918,
      "4470300835": 919,
      "4589459456": 920,
      "3153004470300835": 921,
      "906410024589459456": 922,
      "315300447030083584": 923,
      "Ġthings": 924,
      "uman": 925,
      "ire": 926,
      "Ġpre": 927,
      "736": 928,
      "og": 929,
      "itt": 930,
      "ple": 931,
      "ass": 932,
      "Ġrem": 933,
      "Ġwr": 934,
      "Ġperson": 935,
      "ĠThis": 936,
      "ree": 937,
      "726": 938,
      "ult": 939,
      "wn": 940,
      "ĠIn": 941,
      "Ġalso": 942,
      "Ġstill": 943,
      "Ġcont": 944,
      "Ġunder": 945,
      "ĠĠĠ": 946,
      "Ġmuch": 947,
      "ys": 948,
      "Ġchan": 949,
      "ĠWe": 950,
      "Ġgr": 951,
      "ĠThey": 952,
      "Ġse": 953,
      "Ġdis": 954,
      "sp": 955,
      "Ġlot": 956,
      "Ġbet": 957,
      "ij": 958,
      "377": 959,
      "'ve": 960,
      "ren": 961,
      "Ġshould": 962,
      "ile": 963,
      "Ġstu": 964,
      "Ġac": 965,
      "ving": 966,
      "ord": 967,
      "---": 968,
      "ade": 969,
      "794": 970,
      "ild": 971,
      "Ġmost": 972,
      "other": 973,
      "ĠWh": 974,
      "132": 975,
      "lp": 976,
      "4193": 977,
      "5131": 978,
      "7296": 979,
      "9736": 980,
      "7945131": 981,
      "1327945131": 982,
      "97367296": 983,
      "132794513197367296": 984,
      "Ġgot": 985,
      "Ġad": 986,
      "ap": 987,
      "â©": 988,
      "ww": 989,
      "Ġwhere": 990,
      "Ġbelie": 991,
      "Ġlife": 992,
      "ew": 993,
      "ci": 994,
      "Ġid": 995,
      "ĠU": 996,
      "``": 997,
      "10": 998,
      "ĠSo": 999,
      "Ġwat": 1000,
      "3333": 1001,
      "orm": 1002,
      "431": 1003,
      "Ġsaid": 1004,
      "//": 1005,
      "ull": 1006,
      "Ġpart": 1007,
      "si": 1008,
      "Ġlook": 1009,
      "Ġwell": 1010,
      "3576": 1011,
      "70431": 1012,
      "91377": 1013,
      "33333576": 1014,
      "9137733333576": 1015,
      "913773333357670431": 1016,
      "://": 1017,
      "ase": 1018,
      "37": 1019,
      "fore": 1020,
      "ish": 1021,
      "Ġthr": 1022,
      "Ġown": 1023,
      "Ġkind": 1024,
      "Ġpr": 1025,
      "Ġlea": 1026,
      "ttps": 1027,
      "Ġtal": 1028,
      "ves": 1029,
      "Ġke": 1030,
      "ft": 1031,
      "ount": 1032,
      "ated": 1033,
      "urn": 1034,
      "ip": 1035,
      "Ġlove": 1036,
      "Ġhuman": 1037,
      "ĠNo": 1038,
      "ways": 1039,
      "Ġagain": 1040,
      "oll": 1041,
      "read": 1042,
      "Ġdif": 1043,
      "ical": 1044,
      "Ġvery": 1045,
      "ought": 1046,
      "6186": 1047,
      "nal": 1048,
      "ations": 1049,
      "Ġoff": 1050,
      "ĠIf": 1051,
      "hed": 1052,
      "7811": 1053,
      "Ġaf": 1054,
      "Ġsame": 1055,
      "irst": 1056,
      "2233": 1057,
      "8003": 1058,
      "464193": 1059,
      "7811464193": 1060,
      "22337811464193": 1061,
      "800322337811464193": 1062,
      ".\"": 1063,
      "41691": 1064,
      "85300": 1065,
      "7264": 1066,
      "61867264": 1067,
      "4169161867264": 1068,
      "853004169161867264": 1069,
      "Ġactually": 1070,
      "able": 1071,
      "Ġaw": 1072,
      "ĉĉ": 1073,
      "295": 1074,
      "te": 1075,
      "https": 1076,
      "Ġfl": 1077,
      "@@": 1078,
      "com": 1079,
      "ath": 1080,
      "ĠK": 1081,
      "Ġthose": 1082,
      "Ġper": 1083,
      "]]": 1084,
      "ks": 1085,
      "Ġlong": 1086,
      "ere": 1087,
      "Ġtw": 1088,
      "Ġfind": 1089,
      "==": 1090,
      "ms": 1091,
      "Ġser": 1092,
      "rent": 1093,
      "306": 1094,
      "oint": 1095,
      "ream": 1096,
      "Ġwhich": 1097,
      "Ġsure": 1098,
      "xt": 1099,
      "ial": 1100,
      "ĠĠĠĠ": 1101,
      "Ġcall": 1102,
      "Ġmade": 1103,
      "Ġwon": 1104,
      "Ġnew": 1105,
      "Ġhelp": 1106,
      "Ġplay": 1107,
      "Ġbefore": 1108,
      "we": 1109,
      "Ġfirst": 1110,
      "Ġdown": 1111,
      "ru": 1112,
      "Ġmany": 1113,
      "old": 1114,
      "ĠShe": 1115,
      "Ġrel": 1116,
      "Ġhar": 1117,
      "ird": 1118,
      "Ġtake": 1119,
      "ict": 1120,
      "Ġ2": 1121,
      "ress": 1122,
      "Ġmind": 1123,
      "Ġsomeone": 1124,
      "Ġyear": 1125,
      "Ġsha": 1126,
      "Ġdidn": 1127,
      "Ġtell": 1128,
      "ance": 1129,
      "Ġyeah": 1130,
      "the": 1131,
      "vers": 1132,
      "ĠðŁĺ": 1133,
      "Ġhappen": 1134,
      "ody": 1135,
      "ool": 1136,
      "Ġvide": 1137,
      "Ġalways": 1138,
      "ĠThere": 1139,
      "###": 1140,
      "Ġthrough": 1141,
      "Ġend": 1142,
      "Ġuse": 1143,
      "ual": 1144,
      "Ġimp": 1145,
      "Ġread": 1146,
      "Ġday": 1147,
      "Ġsm": 1148,
      "Ġ#": 1149,
      "ting": 1150,
      "ian": 1151,
      "'ll": 1152,
      "ember": 1153,
      "Ġev": 1154,
      "con": 1155,
      "stand": 1156,
      "iss": 1157,
      "Ġbu": 1158,
      "Ġdiffe": 1159,
      "Ġanything": 1160,
      "Ġ=": 1161,
      "Ġcha": 1162,
      "led": 1163,
      "ious": 1164,
      "Ġbr": 1165,
      "486": 1166,
      "Ġlet": 1167,
      "Ġcomp": 1168,
      "Ġapp": 1169,
      "ved": 1170,
      "Ġbot": 1171,
      "ark": 1172,
      "Ġstart": 1173,
      "imes": 1174,
      "Ġpoint": 1175,
      "ang": 1176,
      "\",": 1177,
      "Ġem": 1178,
      "ning": 1179,
      "Ġstuff": 1180,
      "ower": 1181,
      "Ġthough": 1182,
      "](/": 1183,
      "ï¸": 1184,
      "ï¸ı": 1185,
      "96": 1186,
      "ever": 1187,
      "ock": 1188,
      "Ġsl": 1189,
      "Ġ[[": 1190,
      "Ġop": 1191,
      "Ġthought": 1192,
      "Ġbelieve": 1193,
      "na": 1194,
      "Ġcat": 1195,
      "Ġword": 1196,
      "rain": 1197,
      "Ġpos": 1198,
      "Ġthese": 1199,
      "vel": 1200,
      "Ġbetter": 1201,
      "side": 1202,
      "ful": 1203,
      "064": 1204,
      "Ġunderstand": 1205,
      "ike": 1206,
      "oy": 1207,
      "Ġmight": 1208,
      "ia": 1209,
      "ond": 1210,
      "Ġcome": 1211,
      "erest": 1212,
      "Ġsim": 1213,
      "ready": 1214,
      "Ġafter": 1215,
      "ail": 1216,
      "Ġever": 1217,
      "ily": 1218,
      "Ġalready": 1219,
      "**": 1220,
      "Ġfun": 1221,
      "ably": 1222,
      "921": 1223,
      "Ġwar": 1224,
      "Ġkill": 1225,
      "'d": 1226,
      "ise": 1227,
      "ob": 1228,
      "ĠV": 1229,
      "yp": 1230,
      "Ġatt": 1231,
      "355": 1232,
      "941": 1233,
      "ud": 1234,
      "ary": 1235,
      "Ġdes": 1236,
      "Ġinf": 1237,
      "48921": 1238,
      "84941": 1239,
      "064355": 1240,
      "4892184941": 1241,
      "06435594": 1242,
      "489218494106435594": 1243,
      "Ġname": 1244,
      "ĠGod": 1245,
      "Ġtrying": 1246,
      "Ġkid": 1247,
      "gg": 1248,
      "Ġmat": 1249,
      "cept": 1250,
      "Ġacc": 1251,
      "Ġcomm": 1252,
      "olog": 1253,
      "Ġdifferent": 1254,
      "ĠMy": 1255,
      "riend": 1256,
      "Ġmaybe": 1257,
      "Ġâ": 1258,
      "Ġent": 1259,
      "bl": 1260,
      "Ġremember": 1261,
      "27": 1262,
      "Ġask": 1263,
      "Ġsy": 1264,
      "ific": 1265,
      "ave": 1266,
      "Ġyes": 1267,
      "Ġbad": 1268,
      "ason": 1269,
      "Ġaround": 1270,
      "ne": 1271,
      "12": 1272,
      "cl": 1273,
      "uth": 1274,
      "Ġstr": 1275,
      "Ġsec": 1276,
      "ope": 1277,
      "Ġph": 1278,
      "Ġeverything": 1279,
      "Ġvideo": 1280,
      "mm": 1281,
      "Ġprob": 1282,
      "Ġstory": 1283,
      "Ġel": 1284,
      "ushing": 1285,
      "Ġshow": 1286,
      "ng": 1287,
      "Ġtwo": 1288,
      "Ġgame": 1289,
      "ĠYeah": 1290,
      "kes": 1291,
      "Ġtrue": 1292,
      "Ġgive": 1293,
      "ness": 1294,
      "ĠNot": 1295,
      "Ġweird": 1296,
      "Ġfuck": 1297,
      "Ġnothing": 1298,
      "fect": 1299,
      "Ġgen": 1300,
      "Ġcare": 1301,
      "Ġdoing": 1302,
      "ĠHow": 1303,
      "Ġdoesn": 1304,
      "Ġput": 1305,
      "less": 1306,
      "Ġhand": 1307,
      "Ġeveryone": 1308,
      "ny": 1309,
      "hen": 1310,
      "ĠYes": 1311,
      "Ġwa": 1312,
      "ating": 1313,
      "465": 1314,
      "ather": 1315,
      "352": 1316,
      "Ġused": 1317,
      "Ġinterest": 1318,
      "âĢ¦": 1319,
      "ert": 1320,
      "ense": 1321,
      "926": 1322,
      "ĠDo": 1323,
      "Ġkeep": 1324,
      "Ġchild": 1325,
      "ans": 1326,
      "ĠOr": 1327,
      "ĠðŁħ": 1328,
      "ors": 1329,
      "ĠPushing": 1330,
      "Ġplace": 1331,
      "here": 1332,
      "ĠðŁħ¿": 1333,
      "))": 1334,
      "get": 1335,
      "ĠðŁħ¿ï¸ı": 1336,
      "Ġass": 1337,
      "39": 1338,
      "Ġdream": 1339,
      "gr": 1340,
      "Ġwhile": 1341,
      "ittle": 1342,
      "Ġexpl": 1343,
      "med": 1344,
      "Ġtri": 1345,
      "Ġold": 1346,
      "9503": 1347,
      "9503926": 1348,
      "Ġreason": 1349,
      "7627": 1350,
      "46306": 1351,
      "950392646306": 1352,
      "762772": 1353,
      "950392646306762772": 1354,
      "It": 1355,
      "tty": 1356,
      "Ġwatch": 1357,
      "Ġlive": 1358,
      "Ġyet": 1359,
      "Ġexper": 1360,
      "Ġhard": 1361,
      "Ġyears": 1362,
      "Ġinter": 1363,
      "Ġrec": 1364,
      "Ġenough": 1365,
      "ove": 1366,
      "arth": 1367,
      "Ġprobably": 1368,
      "uc": 1369,
      "ically": 1370,
      "ĠSt": 1371,
      "Ġsupp": 1372,
      "Ġguess": 1373,
      "ĠAl": 1374,
      ".âĢĿ": 1375,
      "Ġmet": 1376,
      "iet": 1377,
      "ĠJust": 1378,
      "Ġfriend": 1379,
      "ss": 1380,
      "Ġcr": 1381,
      "Ġbas": 1382,
      "058": 1383,
      "Ġtra": 1384,
      "outu": 1385,
      "ĠOh": 1386,
      "Ġmust": 1387,
      "Ġpower": 1388,
      "ces": 1389,
      "ix": 1390,
      "Ġanother": 1391,
      "Ġdef": 1392,
      "youtu": 1393,
      "Ġidea": 1394,
      "....": 1395,
      "Ġcreat": 1396,
      "Ġpretty": 1397,
      "Ġable": 1398,
      "Ġlear": 1399,
      "Ġgod": 1400,
      "Ġleast": 1401,
      "ism": 1402,
      "Ġra": 1403,
      "iting": 1404,
      "Ġhat": 1405,
      "Ġturn": 1406,
      "oney": 1407,
      "```": 1408,
      "ons": 1409,
      "Ġlittle": 1410,
      "4571": 1411,
      "316": 1412,
      "Ġ20": 1413,
      "468": 1414,
      "Ġfam": 1415,
      "71295": 1416,
      "31581": 1417,
      "7561": 1418,
      "Ġquest": 1419,
      "10352": 1420,
      "712957561": 1421,
      "31581712957561": 1422,
      "1035231581712957561": 1423,
      "Ġbo": 1424,
      "2934": 1425,
      "ied": 1426,
      "Ġche": 1427,
      "Ġok": 1428,
      "ts": 1429,
      "Ġsound": 1430,
      "Ġey": 1431,
      "Ġrep": 1432,
      "ðŁĺ": 1433,
      "ign": 1434,
      "ollow": 1435,
      "43": 1436,
      "bs": 1437,
      "ages": 1438,
      "als": 1439,
      "ource": 1440,
      "Ġmess": 1441,
      "gan": 1442,
      "Ġmyself": 1443,
      "Ġshit": 1444,
      "Ġvan": 1445,
      "82934": 1446,
      "34345": 1447,
      "058468": 1448,
      "8293434345": 1449,
      "05846837": 1450,
      "829343434505846837": 1451,
      "igh": 1452,
      "Ġdie": 1453,
      "Ġexist": 1454,
      "Ġtalk": 1455,
      "Ġcons": 1456,
      "Ġment": 1457,
      "Ġhet": 1458,
      "ition": 1459,
      "ince": 1460,
      "Ġsuch": 1461,
      "Ġplan": 1462,
      "Ġ3": 1463,
      "Ġinv": 1464,
      "Ġconf": 1465,
      "ience": 1466,
      "Ġeach": 1467,
      "av": 1468,
      "Ġeen": 1469,
      "ither": 1470,
      "Ġvo": 1471,
      "Ġwithout": 1472,
      "ĠBec": 1473,
      "â«": 1474,
      "les": 1475,
      "ĠIs": 1476,
      "Ġaway": 1477,
      "Ġelse": 1478,
      "ject": 1479,
      "814": 1480,
      "aw": 1481,
      "Ġmem": 1482,
      "Ġwom": 1483,
      "leep": 1484,
      "Ġanyone": 1485,
      "Th": 1486,
      "orry": 1487,
      "Ġboth": 1488,
      "ier": 1489,
      "ward": 1490,
      "Ġexp": 1491,
      "Ġmakes": 1492,
      "cess": 1493,
      "day": 1494,
      "ories": 1495,
      "Ġfound": 1496,
      "::": 1497,
      "Ġinst": 1498,
      "ĠLol": 1499,
      ").": 1500,
      "957": 1501,
      "Ġothers": 1502,
      "Ġuni": 1503,
      "Ġgreat": 1504,
      "Ġstop": 1505,
      "Ġ'": 1506,
      "sible": 1507,
      "ĠLike": 1508,
      "Ġver": 1509,
      "446": 1510,
      "Ġx": 1511,
      "Ġbig": 1512,
      "oke": 1513,
      "Ġproble": 1514,
      "Ġsur": 1515,
      "Ġ|": 1516,
      "Ġmoney": 1517,
      "ken": 1518,
      "ĠMay": 1519,
      "Ġrun": 1520,
      "Ġmatter": 1521,
      "ten": 1522,
      "ER": 1523,
      "Ġbest": 1524,
      "Ġpast": 1525,
      "You": 1526,
      "air": 1527,
      "az": 1528,
      "ev": 1529,
      "Ġcount": 1530,
      "----": 1531,
      "Ġcontro": 1532,
      "ĠWhy": 1533,
      "dd": 1534,
      "Ġ:": 1535,
      "ames": 1536,
      "Ġfollow": 1537,
      "ron": 1538,
      "hes": 1539,
      "iew": 1540,
      "73": 1541,
      "ants": 1542,
      "Ġlast": 1543,
      "Ġcle": 1544,
      "Ġmom": 1545,
      "595": 1546,
      "ĠCh": 1547,
      "Ġchange": 1548,
      "Ġcause": 1549,
      "Ġfew": 1550,
      "4192": 1551,
      "6176": 1552,
      "4866176": 1553,
      "45714866176": 1554,
      "5954192": 1555,
      "595419245714866176": 1556,
      "Ġfin": 1557,
      "hh": 1558,
      "40": 1559,
      "====": 1560,
      "www": 1561,
      "Ġtold": 1562,
      "stem": 1563,
      "Ġmon": 1564,
      "Ġresp": 1565,
      "ute": 1566,
      "irl": 1567,
      "elf": 1568,
      "388": 1569,
      "actly": 1570,
      "Ġhead": 1571,
      "ings": 1572,
      "iter": 1573,
      "ents": 1574,
      "Ġsk": 1575,
      "Ġtalking": 1576,
      "ertain": 1577,
      "ijn": 1578,
      "Ġter": 1579,
      "way": 1580,
      "ĠBecause": 1581,
      "Ġlearn": 1582,
      "ics": 1583,
      "Ġcomple": 1584,
      "verse": 1585,
      "Ġsub": 1586,
      "ĠQ": 1587,
      "Ġfact": 1588,
      "Ġdone": 1589,
      "Ġart": 1590,
      "ction": 1591,
      "@@@@": 1592,
      "Ġwhole": 1593,
      "Ġcre": 1594,
      "ret": 1595,
      "Ġeas": 1596,
      "Ġfar": 1597,
      "Ġhope": 1598,
      "orn": 1599,
      "Ġwrong": 1600,
      "ars": 1601,
      "Ġdisc": 1602,
      "99465": 1603,
      "8278": 1604,
      "8243": 1605,
      "0028278": 1606,
      "994650028278": 1607,
      "8243994650028278": 1608,
      "824399465002827846": 1609,
      "Ġpost": 1610,
      "Ġ*": 1611,
      "951": 1612,
      "lease": 1613,
      "not": 1614,
      "Ġinteresting": 1615,
      "Ġind": 1616,
      "doc": 1617,
      "Ġopen": 1618,
      "Ġlight": 1619,
      "Ġgl": 1620,
      "Ġdat": 1621,
      "Ġisn": 1622,
      "We": 1623,
      "oul": 1624,
      "me": 1625,
      "??": 1626,
      "Ġseems": 1627,
      "onna": 1628,
      "docs": 1629,
      "Ġspec": 1630,
      "Ġserver": 1631,
      "Ġunt": 1632,
      "Ġbecome": 1633,
      "Ġ5": 1634,
      "ize": 1635,
      "sy": 1636,
      "Ġfree": 1637,
      "60": 1638,
      "Ġres": 1639,
      "arly": 1640,
      "Ġfight": 1641,
      "Ġsleep": 1642,
      "Ġbody": 1643,
      "ater": 1644,
      "Ġgonna": 1645,
      "332": 1646,
      "Ġpu": 1647,
      "Ġ10": 1648,
      "Ġthats": 1649,
      "Ġchar": 1650,
      "23": 1651,
      "Ġdec": 1652,
      "Ġ>": 1653,
      "16": 1654,
      "ok": 1655,
      "Ġkids": 1656,
      "ments": 1657,
      "Ġadd": 1658,
      "ates": 1659,
      "of": 1660,
      "most": 1661,
      "its": 1662,
      "506": 1663,
      "Ġbook": 1664,
      "Ġside": 1665,
      "Ġimport": 1666,
      "18": 1667,
      "ced": 1668,
      "Ġsense": 1669,
      "Ġmin": 1670,
      "Ġcra": 1671,
      "Ġnight": 1672,
      "Ġlist": 1673,
      "Ġsystem": 1674,
      "This": 1675,
      "And": 1676,
      "Ġhome": 1677,
      "ĠFor": 1678,
      "481": 1679,
      "âĢĶ": 1680,
      "31681": 1681,
      "Ġsince": 1682,
      "ash": 1683,
      "978": 1684,
      "ĠMaybe": 1685,
      "76332": 1686,
      "31481": 1687,
      "3168176332": 1688,
      "314813168176332": 1689,
      "314813168176332801": 1690,
      "Ġonce": 1691,
      "odder": 1692,
      "Ġcalled": 1693,
      "arent": 1694,
      "Ġseen": 1695,
      "0614": 1696,
      "33951": 1697,
      "995978": 1698,
      "4340614": 1699,
      "339514340614": 1700,
      "339514340614995978": 1701,
      "Ġsoci": 1702,
      "In": 1703,
      "Ġsch": 1704,
      "Ġoh": 1705,
      "Ġleft": 1706,
      "IN": 1707,
      "Ġsorry": 1708,
      "Ġsoul": 1709,
      "Ġguy": 1710,
      "Ġless": 1711,
      "ien": 1712,
      "body": 1713,
      "ities": 1714,
      "Ġyourself": 1715,
      "aby": 1716,
      "Ġtimes": 1717,
      "ank": 1718,
      "Ġbit": 1719,
      "ĠWhen": 1720,
      "cri": 1721,
      "ange": 1722,
      "Ġloo": 1723,
      "ale": 1724,
      "ited": 1725,
      "Ġdeath": 1726,
      "Ġhate": 1727,
      "Ġwanted": 1728,
      "up": 1729,
      "sw": 1730,
      "Ġref": 1731,
      "chn": 1732,
      "Ġentire": 1733,
      "Ġsays": 1734,
      "ah": 1735,
      "Ġeither": 1736,
      "Ġco": 1737,
      "ledge": 1738,
      "454": 1739,
      "Ġext": 1740,
      "Ġspea": 1741,
      "=\"": 1742,
      "ĠAs": 1743,
      "ering": 1744,
      "Ġmeans": 1745,
      "gs": 1746,
      "ĠWell": 1747,
      "Ġproblem": 1748,
      "Ġob": 1749,
      "Ġnice": 1750,
      "Ġimportant": 1751,
      "rist": 1752,
      "uture": 1753,
      "pped": 1754,
      "!!": 1755,
      "Ġbrain": 1756,
      "Ġhear": 1757,
      "ched": 1758,
      "Ġcontrol": 1759,
      "ef": 1760,
      "Ġgetting": 1761,
      "Ġcool": 1762,
      "Ġ/": 1763,
      "Ġnat": 1764,
      "nect": 1765,
      "Ġsaw": 1766,
      "ead": 1767,
      "Ġfull": 1768,
      "osed": 1769,
      "Ġmaking": 1770,
      "Ġgirl": 1771,
      "9945": 1772,
      "Ġfamily": 1773,
      "Ġhaving": 1774,
      "3696": 1775,
      "92446": 1776,
      "939945": 1777,
      "50692446": 1778,
      "9399453696": 1779,
      "506924469399453696": 1780,
      "Ġcame": 1781,
      "Ġlost": 1782,
      "Ġquestion": 1783,
      "ying": 1784,
      "Ġcertain": 1785,
      "Ġexactly": 1786,
      "aven": 1787,
      "Ġexplain": 1788,
      "437": 1789,
      "Ġeyes": 1790,
      "idence": 1791,
      "Ġagainst": 1792,
      "ude": 1793,
      "Ġinside": 1794,
      "ĠAI": 1795,
      "41454": 1796,
      "20729": 1797,
      "38880": 1798,
      "43738880": 1799,
      "4145420729": 1800,
      "414542072943738880": 1801,
      "ph": 1802,
      "Ġmiss": 1803,
      "aking": 1804,
      "Ġlead": 1805,
      "Ġwouldn": 1806,
      "Ġwords": 1807,
      "Ġpres": 1808,
      "Ġfuture": 1809,
      "Ġself": 1810,
      "Ġmed": 1811,
      "Ġjob": 1812,
      "rin": 1813,
      "ysis": 1814,
      "onest": 1815,
      "Ġdra": 1816,
      "Ġansw": 1817,
      "Ġdr": 1818,
      "ignal": 1819,
      "ately": 1820,
      "Ġpo": 1821,
      "Ġset": 1822,
      "row": 1823,
      "Ġ4": 1824,
      "itten": 1825,
      "Ġuntil": 1826,
      "selves": 1827,
      "den": 1828,
      "Ġâ¨": 1829,
      "ility": 1830,
      "ged": 1831,
      "Ġsaying": 1832,
      "nel": 1833,
      "\\_": 1834,
      "ired": 1835,
      "atic": 1836,
      "oose": 1837,
      "Ġtruth": 1838,
      "host": 1839,
      "ek": 1840,
      "Ġtak": 1841,
      "Ġtyp": 1842,
      "ially": 1843,
      "eep": 1844,
      "0814": 1845,
      "mer": 1846,
      "ĠAr": 1847,
      "ouse": 1848,
      "Ġca": 1849,
      "Ġsw": 1850,
      "Ġdark": 1851,
      "Ġthinking": 1852,
      "Ġcomplete": 1853,
      "Ġimag": 1854,
      "Ġhigh": 1855,
      "Ġbre": 1856,
      "Ġcour": 1857,
      "Ġalmost": 1858,
      "Ġbeh": 1859,
      "Ġpol": 1860,
      "ĠAll": 1861,
      "ĠRock": 1862,
      "053": 1863,
      "ized": 1864,
      "ik": 1865,
      "Ġide": 1866,
      "Ġguys": 1867,
      "ĠThen": 1868,
      "AN": 1869,
      "Ġpain": 1870,
      "7631": 1871,
      "710814": 1872,
      "9577631": 1873,
      "0539577631": 1874,
      "7108140539577631": 1875,
      "710814053957763112": 1876,
      "Ġtest": 1877,
      "used": 1878,
      "Ġret": 1879,
      "Ġsex": 1880,
      "ump": 1881,
      "ma": 1882,
      "ative": 1883,
      "zy": 1884,
      "Ġgener": 1885,
      "Ġconnect": 1886,
      "Ġliter": 1887,
      "Ġmag": 1888,
      "ðŁĺĨ": 1889,
      "ĠTH": 1890,
      "cc": 1891,
      "du": 1892,
      "Ġworking": 1893,
      "gin": 1894,
      "Ġer": 1895,
      "Ġbc": 1896,
      "Ġhell": 1897,
      "rence": 1898,
      "Ġknew": 1899,
      "cy": 1900,
      "ormation": 1901,
      "Ġfe": 1902,
      "ots": 1903,
      "ĠOn": 1904,
      "Ġheard": 1905,
      "umb": 1906,
      "ulation": 1907,
      "Ġreality": 1908,
      "ted": 1909,
      "Ġsing": 1910,
      "Ġdep": 1911,
      "ĠInk": 1912,
      "Ġgi": 1913,
      "Ġsmall": 1914,
      "atch": 1915,
      "Ġmove": 1916,
      "Ġbro": 1917,
      "Ġrest": 1918,
      "Ġnext": 1919,
      "ular": 1920,
      "Ġwent": 1921,
      "Ġrelig": 1922,
      "Ġface": 1923,
      "alk": 1924,
      "Ġhumans": 1925,
      "use": 1926,
      "Ġcommun": 1927,
      "¤£": 1928,
      "ology": 1929,
      "Ġusing": 1930,
      "Ġ$": 1931,
      "Ġwasn": 1932,
      "ster": 1933,
      "ĠTr": 1934,
      "ĠAnal": 1935,
      "ĠZ": 1936,
      "Ġfig": 1937,
      "alth": 1938,
      "gram": 1939,
      "312": 1940,
      "ines": 1941,
      "ison": 1942,
      "Ġwonder": 1943,
      "SM": 1944,
      "lect": 1945,
      "Ġfore": 1946,
      "Ġhappened": 1947,
      "inite": 1948,
      "ient": 1949,
      "vious": 1950,
      "ĠAnalysis": 1951,
      "ĠTo": 1952,
      "Ġtechn": 1953,
      "5188": 1954,
      "01": 1955,
      "Ġroom": 1956,
      "Ġprot": 1957,
      "line": 1958,
      "man": 1959,
      "ta": 1960,
      "ident": 1961,
      "Ġexam": 1962,
      "Ġpass": 1963,
      "Ġbuild": 1964,
      "ror": 1965,
      "source": 1966,
      "utm": 1967,
      "ĠEx": 1968,
      "225188": 1969,
      "35072": 1970,
      "5529225188": 1971,
      "31235072": 1972,
      "552922518831235072": 1973,
      "Ġsit": 1974,
      "Ġmus": 1975,
      "Ġtho": 1976,
      "ĠAt": 1977,
      "Ġbehind": 1978,
      "ĠWho": 1979,
      "ween": 1980,
      "Ġmov": 1981,
      "bb": 1982,
      "Ġcor": 1983,
      "Ġdead": 1984,
      "fl": 1985,
      "ĠMan": 1986,
      "ists": 1987,
      "Ġzijn": 1988,
      "52": 1989,
      "Ġinc": 1990,
      "Ġreg": 1991,
      "pe": 1992,
      "ety": 1993,
      "Ġdoor": 1994,
      "arch": 1995,
      "Ġstand": 1996,
      "Ġdam": 1997,
      "Ġppl": 1998,
      "vent": 1999,
      "Ġhour": 2000,
      "21": 2001,
      "++": 2002,
      "post": 2003,
      "Ġsad": 2004,
      "isc": 2005,
      "ross": 2006,
      "Ġsounds": 2007,
      "Ġtoget": 2008,
      "Ġallow": 2009,
      "Ġtogether": 2010,
      "ote": 2011,
      "Ġhold": 2012,
      "ible": 2013,
      "Ġes": 2014,
      "ĠOne": 2015,
      "Ġpur": 2016,
      "Ġlooking": 2017,
      "Ġsent": 2018,
      "Ġstate": 2019,
      "Ġseem": 2020,
      "Ġcar": 2021,
      "Ġwhatever": 2022,
      "ger": 2023,
      "Ġexperience": 2024,
      "Ġfre": 2025,
      "Ġcur": 2026,
      "ĠSignal": 2027,
      "Ġuniverse": 2028,
      "Ġfall": 2029,
      "Ġones": 2030,
      "SMR": 2031,
      "bol": 2032,
      "Ġhu": 2033,
      "Ġwish": 2034,
      "Ġdet": 2035,
      "Ġcoming": 2036,
      "Ġom": 2037,
      "Ġcannot": 2038,
      "ĠGood": 2039,
      "ium": 2040,
      "haps": 2041,
      "ider": 2042,
      "Ġtrust": 2043,
      "aim": 2044,
      "ube": 2045,
      "Ġ6": 2046,
      "Ġdont": 2047,
      "ĠxD": 2048,
      "ner": 2049,
      "ures": 2050,
      "Ġleave": 2051,
      "no": 2052,
      "gy": 2053,
      "Ġill": 2054,
      "AT": 2055,
      "Ġearth": 2056,
      "acter": 2057,
      "tern": 2058,
      "Ġins": 2059,
      "Ġform": 2060,
      "ality": 2061,
      "conf": 2062,
      "Ġchannel": 2063,
      "OR": 2064,
      "Ġsuper": 2065,
      "ption": 2066,
      "Ġchildren": 2067,
      "Ġdest": 2068,
      "ode": 2069,
      "ty": 2070,
      "where": 2071,
      "Ġfriends": 2072,
      "ues": 2073,
      "idants": 2074,
      "Ġsend": 2075,
      "Ġdem": 2076,
      "Ġquite": 2077,
      "Ġbetween": 2078,
      "Ġpossible": 2079,
      "Ġdays": 2080,
      "irect": 2081,
      "Ġ**": 2082,
      "Ġcoll": 2083,
      "aught": 2084,
      "uthor": 2085,
      "ital": 2086,
      "Ġknowledge": 2087,
      "Ġhonest": 2088,
      "Ġago": 2089,
      "Ġcourse": 2090,
      "ract": 2091,
      "io": 2092,
      "ĠRe": 2093,
      "Ġsol": 2094,
      "Ġgrou": 2095,
      "25": 2096,
      "Ġpop": 2097,
      "Ġalone": 2098,
      "dit": 2099,
      "Ġlisten": 2100,
      "oot": 2101,
      "Ġview": 2102,
      "Ġwrite": 2103,
      "Ġmor": 2104,
      "Ġhor": 2105,
      "Ġcrazy": 2106,
      "ared": 2107,
      "ĠThan": 2108,
      "Ġliterally": 2109,
      "Âł": 2110,
      "Ġfood": 2111,
      "Ġeat": 2112,
      "Ġfucking": 2113,
      "Ġpa": 2114,
      "ets": 2115,
      "ĠðŁĺĨ": 2116,
      "ĠUn": 2117,
      "come": 2118,
      "Ġtried": 2119,
      "Ġstay": 2120,
      "Ġwoman": 2121,
      "ĠSome": 2122,
      "Ġsecond": 2123,
      "esus": 2124,
      "ĠAn": 2125,
      "Ġinformation": 2126,
      "8780": 2127,
      "Ġhun": 2128,
      "9768780": 2129,
      "72660": 2130,
      "2959768780": 2131,
      "3972660": 2132,
      "29597687809": 2133,
      "397266029597687809": 2134,
      "08": 2135,
      "pect": 2136,
      "ional": 2137,
      "Ġwithin": 2138,
      "Ġaren": 2139,
      "Ġtoday": 2140,
      "Ġhappy": 2141,
      "ES": 2142,
      "br": 2143,
      "Ġ7": 2144,
      "Ġschool": 2145,
      "Ġtook": 2146,
      "Ġmoment": 2147,
      "Ġsong": 2148,
      "?âĢĿ": 2149,
      "acy": 2150,
      "532": 2151,
      "confidants": 2152,
      "Ġpay": 2153,
      "ĠðŁĻ": 2154,
      "ised": 2155,
      "ĠEarth": 2156,
      "sh": 2157,
      "Ġlater": 2158,
      "Ġforg": 2159,
      "Ġheart": 2160,
      "Ġgrow": 2161,
      "Ġasked": 2162,
      "yan": 2163,
      "ĠEC": 2164,
      "Ġhouse": 2165,
      "Ġliving": 2166,
      "Ġcomes": 2167,
      "ĠĠĠĠĠĠĠĠ": 2168,
      "Ġplease": 2169,
      "Ġanswer": 2170,
      "Ġmar": 2171,
      "Ġcharacter": 2172,
      "Ġpubl": 2173,
      "Ġgre": 2174,
      "ices": 2175,
      "Ġwater": 2176,
      "Ġokay": 2177,
      "ĠDe": 2178,
      "ĠCan": 2179,
      "Ġevil": 2180,
      "Ġcountry": 2181,
      "*\"": 2182,
      "aar": 2183,
      "Ġoften": 2184,
      "Ġdel": 2185,
      "Ġprogram": 2186,
      "Ġsometimes": 2187,
      "Ġstarted": 2188,
      "261": 2189,
      "ned": 2190,
      "Ġnorm": 2191,
      "ax": 2192,
      "ivid": 2193,
      "ĠEvery": 2194,
      "),": 2195,
      "uter": 2196,
      "app": 2197,
      "âª": 2198,
      "ON": 2199,
      "Ġho": 2200,
      "Ġrese": 2201,
      "kn": 2202,
      "Ġblack": 2203,
      "ganiz": 2204,
      "Ġtop": 2205,
      "posts": 2206,
      "ĠBe": 2207,
      "my": 2208,
      "ournal": 2209,
      "ĠDon": 2210,
      "Ġthemselves": 2211,
      "âĬ": 2212,
      "initely": 2213,
      "more": 2214,
      "pr": 2215,
      "Ġfear": 2216,
      "itle": 2217,
      "Ġge": 2218,
      "Ġcult": 2219,
      "Ġsuff": 2220,
      "Ġmen": 2221,
      "alse": 2222,
      "Ġspace": 2223,
      "Ġclaim": 2224,
      "gen": 2225,
      "Ġsoon": 2226,
      "Ġlooks": 2227,
      "Ġwait": 2228,
      "ze": 2229,
      "oog": 2230,
      "ĠIts": 2231,
      "Ġclose": 2232,
      "Ġvis": 2233,
      "Ġkinda": 2234,
      "What": 2235,
      "right": 2236,
      "Ġknows": 2237,
      "832": 2238,
      "He": 2239,
      "wor": 2240,
      "elt": 2241,
      "Ġperfect": 2242,
      "Ġphys": 2243,
      "ussi": 2244,
      "Ġwriting": 2245,
      "Ġhur": 2246,
      "Ġmeaning": 2247,
      "Ġcompletely": 2248,
      "Ġjoin": 2249,
      "ub": 2250,
      "Ġstrong": 2251,
      "sych": 2252,
      "orts": 2253,
      "Ġideas": 2254,
      "oud": 2255,
      "ilar": 2256,
      "ĠAlso": 2257,
      "form": 2258,
      "ife": 2259,
      "Ġmur": 2260,
      "26": 2261,
      "ric": 2262,
      "Ġred": 2263,
      "ming": 2264,
      "png": 2265,
      "ffect": 2266,
      "ator": 2267,
      "iness": 2268,
      "Ġlink": 2269,
      "ĠYour": 2270,
      "ĠPro": 2271,
      "cious": 2272,
      "Ġwin": 2273,
      "andom": 2274,
      "Ġanim": 2275,
      "Ġrob": 2276,
      "joy": 2277,
      "Ġbreak": 2278,
      "Ġve": 2279,
      "Ġfunny": 2280,
      "Ġopp": 2281,
      "fort": 2282,
      "Ġ8": 2283,
      "Ġsign": 2284,
      "ention": 2285,
      "Ġlikely": 2286,
      "bt": 2287,
      "Ġblood": 2288,
      "',": 2289,
      "ats": 2290,
      "olf": 2291,
      "Ġcheck": 2292,
      "ĠðŁĻĤ": 2293,
      "Ġagree": 2294,
      "lf": 2295,
      "Ġfast": 2296,
      "ĠAre": 2297,
      "Ġoutside": 2298,
      "Ġmovie": 2299,
      "Ġpar": 2300,
      "ĠNow": 2301,
      "Ġexample": 2302,
      "Ġdou": 2303,
      "Ġ\"*": 2304,
      "ags": 2305,
      "achine": 2306,
      "Ġlonger": 2307,
      "ex": 2308,
      "Ġcol": 2309,
      "Ġcase": 2310,
      "Ġcou": 2311,
      "Ġspeak": 2312,
      "Ġmusic": 2313,
      ",\"": 2314,
      "Ġwall": 2315,
      "anger": 2316,
      ",âĢĿ": 2317,
      "bor": 2318,
      "LL": 2319,
      "Ġrequ": 2320,
      "Ġdist": 2321,
      "gel": 2322,
      "Ġanyway": 2323,
      "ĠFodder": 2324,
      "Ġsimp": 2325,
      "Ġexpect": 2326,
      "ides": 2327,
      "ifer": 2328,
      "Ġgiven": 2329,
      "ho": 2330,
      "Ġcho": 2331,
      "Ġmain": 2332,
      "Ġluck": 2333,
      "Ġvi": 2334,
      "ural": 2335,
      "gn": 2336,
      "Ġdri": 2337,
      "ĠSp": 2338,
      "Ġsecret": 2339,
      "Ġbus": 2340,
      "ĠRaven": 2341,
      "Ġimagine": 2342,
      "Ġed": 2343,
      "ulti": 2344,
      "Ġaccount": 2345,
      "Ġdev": 2346,
      "Ġwomen": 2347,
      "ane": 2348,
      "vern": 2349,
      "reddit": 2350,
      "ĠASMR": 2351,
      "Ġmonth": 2352,
      "Ġste": 2353,
      "ĠOk": 2354,
      "Ġanymore": 2355,
      "Ġstud": 2356,
      "Ġze": 2357,
      "âĭ": 2358,
      "Ġfail": 2359,
      "Ġcontin": 2360,
      "Ġrandom": 2361,
      "Ġgroup": 2362,
      "watch": 2363,
      "Ġbed": 2364,
      "Ġvers": 2365,
      "ution": 2366,
      "ox": 2367,
      "Ġje": 2368,
      "Ġrather": 2369,
      "Ġchoose": 2370,
      "But": 2371,
      "Ġcry": 2372,
      "Ġprotect": 2373,
      "Ġbegin": 2374,
      "Ġgiv": 2375,
      "Ġworth": 2376,
      "wards": 2377,
      "Ġinstead": 2378,
      "OU": 2379,
      "Ġhist": 2380,
      "ucifer": 2381,
      "Ġfix": 2382,
      "Ġleg": 2383,
      "Ġbring": 2384,
      "velop": 2385,
      "Ġsn": 2386,
      "Ġemot": 2387,
      "Ġwatching": 2388,
      "anthe": 2389,
      "Ġlevel": 2390,
      "Ġtom": 2391,
      "Ġfelt": 2392,
      "Ġrock": 2393,
      "Ġworks": 2394,
      "Ġphone": 2395,
      "aut": 2396,
      "oon": 2397,
      "Ġghost": 2398,
      "Ġkilled": 2399,
      "Ġcreated": 2400,
      "Ġdeep": 2401,
      "Ġpe": 2402,
      "Ġupon": 2403,
      "ividual": 2404,
      "Ġeffect": 2405,
      "static": 2406,
      "Ġenjoy": 2407,
      "hip": 2408,
      "Ġik": 2409,
      "Ġgames": 2410,
      "ĠHuman": 2411,
      "ĠJesus": 2412,
      "antheon": 2413,
      "tle": 2414,
      "igin": 2415,
      "Ġcreate": 2416,
      "atan": 2417,
      "Ġeasy": 2418,
      "Ġhaven": 2419,
      "men": 2420,
      "usion": 2421,
      "Ġneeded": 2422,
      "Ġfire": 2423,
      "aces": 2424,
      "Ġmessage": 2425,
      "mit": 2426,
      "Ġmis": 2427,
      "Ġyoung": 2428,
      "Ġsimply": 2429,
      "ped": 2430,
      "000": 2431,
      "Ġmention": 2432,
      "661": 2433,
      "fic": 2434,
      "umber": 2435,
      "Ġspir": 2436,
      "sof": 2437,
      "Ġdestro": 2438,
      "Ġattack": 2439,
      "Ġsupposed": 2440,
      "========": 2441,
      "Ġfoc": 2442,
      "Ġthree": 2443,
      "net": 2444,
      "Ġuw": 2445,
      "Ġsun": 2446,
      "ĠMe": 2447,
      "Ġbased": 2448,
      "ows": 2449,
      "Ġcouldn": 2450,
      "Ġhappens": 2451,
      "--------": 2452,
      "Ġfav": 2453,
      "to": 2454,
      "ĠHell": 2455,
      "ĠâĢ": 2456,
      "Ġspecific": 2457,
      "Ġsingle": 2458,
      "Ġdro": 2459,
      "ference": 2460,
      "Ġclass": 2461,
      "ological": 2462,
      "ured": 2463,
      "Ġaccept": 2464,
      "Ġhours": 2465,
      "hy": 2466,
      "lo": 2467,
      "Ġorigin": 2468,
      "Ġfigure": 2469,
      "Ġpri": 2470,
      "unch": 2471,
      "Ġwants": 2472,
      "Ġvoice": 2473,
      "?\"": 2474,
      "tags": 2475,
      "Ġways": 2476,
      "ĠKun": 2477,
      "Ġprocess": 2478,
      "Ġreturn": 2479,
      "Ġfeeling": 2480,
      "8051": 2481,
      "Ġiss": 2482,
      "oogle": 2483,
      "any": 2484,
      "Ġhealth": 2485,
      "ĠCon": 2486,
      "erv": 2487,
      "Ġmother": 2488,
      "Ġfeels": 2489,
      "sha": 2490,
      "Ġeng": 2491,
      "Ġsociety": 2492,
      "7148": 2493,
      "Ġru": 2494,
      "28": 2495,
      "76832": 2496,
      "Ġ\"\"": 2497,
      "raft": 2498,
      "Ġ@[": 2499,
      "ĠPeople": 2500,
      "738051": 2501,
      "6617148": 2502,
      "73805176832": 2503,
      "661714873805176832": 2504,
      "cer": 2505,
      "oor": 2506,
      "Ġ+": 2507,
      "Ġfalse": 2508,
      "ĠEven": 2509,
      "ished": 2510,
      "ellig": 2511,
      "Ġadv": 2512,
      "Ġindividual": 2513,
      "Ġnormal": 2514,
      "uring": 2515,
      "165": 2516,
      "ias": 2517,
      "Ġage": 2518,
      "Ġya": 2519,
      "sib": 2520,
      "eg": 2521,
      "Ġimage": 2522,
      "Ġfil": 2523,
      "Ġgone": 2524,
      "ĠAny": 2525,
      "Ġdefinitely": 2526,
      "journal": 2527,
      "ush": 2528,
      "ification": 2529,
      "Ġtype": 2530,
      "how": 2531,
      "{{": 2532,
      "}}": 2533,
      "Ġmulti": 2534,
      "Ġdreams": 2535,
      "Ġtaking": 2536,
      "Ġgoes": 2537,
      "Ġbasically": 2538,
      "RE": 2539,
      "ips": 2540,
      "Ġfine": 2541,
      "Ġmeant": 2542,
      "Ġrespon": 2543,
      "Ġtrans": 2544,
      "Ġworry": 2545,
      "Ġuwu": 2546,
      "That": 2547,
      "Ġslow": 2548,
      "Ġdepend": 2549,
      "date": 2550,
      "Ġwalk": 2551,
      "Ġlie": 2552,
      "ries": 2553,
      "Ġdirect": 2554,
      "Ġtext": 2555,
      "Ġprom": 2556,
      "ided": 2557,
      "roll": 2558,
      "Ġgets": 2559,
      "Ġarg": 2560,
      "pro": 2561,
      "{{<": 2562,
      "761": 2563,
      "Ġparent": 2564,
      "Ġgun": 2565,
      "ecially": 2566,
      "Ġevent": 2567,
      "youtube": 2568,
      "@@@@@@@@": 2569,
      "Ġval": 2570,
      "ĠðŁ¤£": 2571,
      "Ġ>}}": 2572,
      "yle": 2573,
      "Ġhonestly": 2574,
      "ĠDid": 2575,
      "spir": 2576,
      "uly": 2577,
      "OT": 2578,
      "Ġap": 2579,
      "Ġmine": 2580,
      "alc": 2581,
      "ĠBl": 2582,
      "IS": 2583,
      "Ġpict": 2584,
      "Ġpsych": 2585,
      "ĉĉĉ": 2586,
      "Ġfather": 2587,
      "Ġgovern": 2588,
      "ivers": 2589,
      "pid": 2590,
      "Ġdevelop": 2591,
      "Ġsupport": 2592,
      "Ġdeal": 2593,
      "Ġmist": 2594,
      "760": 2595,
      "utes": 2596,
      "Ġmental": 2597,
      "night": 2598,
      "itch": 2599,
      "Ġplaying": 2600,
      "ins": 2601,
      "Ġniet": 2602,
      "rible": 2603,
      "ging": 2604,
      "795": 2605,
      "Ġchance": 2606,
      "Ġreligion": 2607,
      "ket": 2608,
      "Ġbelief": 2609,
      "ĠChrist": 2610,
      "Ġrul": 2611,
      "text": 2612,
      "Ġsym": 2613,
      "â¨": 2614,
      "Ġobvious": 2615,
      "Ġlaw": 2616,
      "ears": 2617,
      "title": 2618,
      "Ġexc": 2619,
      "Ġitself": 2620,
      "aste": 2621,
      "Ġhappening": 2622,
      "Ġassum": 2623,
      "If": 2624,
      "Ġ.": 2625,
      "reme": 2626,
      "ried": 2627,
      "Ġmid": 2628,
      "Ġlang": 2629,
      "Ġknown": 2630,
      "ĠWhich": 2631,
      "images": 2632,
      "Ġsimilar": 2633,
      "ĠRyan": 2634,
      "Ġimm": 2635,
      "Ġvideos": 2636,
      "over": 2637,
      "oms": 2638,
      "Ġneeds": 2639,
      "Ġhistory": 2640,
      "Ġforce": 2641,
      "Ġben": 2642,
      "Ġnumber": 2643,
      "web": 2644,
      "Ġdescri": 2645,
      "ganizations": 2646,
      "uciferian": 2647,
      "ib": 2648,
      "ĠEl": 2649,
      "ĠInt": 2650,
      "Ġlives": 2651,
      "Ġresearch": 2652,
      "haha": 2653,
      "Ġpred": 2654,
      "Ġthanks": 2655,
      "ĠðŁĺī": 2656,
      "ING": 2657,
      "cle": 2658,
      "ral": 2659,
      "They": 2660,
      "arr": 2661,
      "[[": 2662,
      "Ġusually": 2663,
      "Ġnature": 2664,
      "To": 2665,
      "ling": 2666,
      "Ġalong": 2667,
      "ext": 2668,
      "7003": 2669,
      "So": 2670,
      "uro": 2671,
      "Ġgave": 2672,
      "5584": 2673,
      "Ġsitu": 2674,
      "Ġforgot": 2675,
      "/)": 2676,
      "Ġban": 2677,
      "arc": 2678,
      "go": 2679,
      "rect": 2680,
      "Ġshall": 2681,
      "Ġdestroy": 2682,
      "355584": 2683,
      "300355584": 2684,
      "416300355584": 2685,
      "527003": 2686,
      "527003416300355584": 2687,
      "541": 2688,
      "Ġbull": 2689,
      "Ġburn": 2690,
      "Ġcent": 2691,
      "Ġabs": 2692,
      "Ġstrange": 2693,
      "Ġhalf": 2694,
      "ĠIm": 2695,
      "Ġcap": 2696,
      "Ġlar": 2697,
      "ĠRussi": 2698,
      "8691": 2699,
      "Ġshare": 2700,
      "Ġcomputer": 2701,
      "Ġsick": 2702,
      "ument": 2703,
      "Ġprof": 2704,
      "Ġsuck": 2705,
      "Ġdude": 2706,
      "Ġrole": 2707,
      "using": 2708,
      "â©Ĭ": 2709,
      "239": 2710,
      "ands": 2711,
      "Ġhit": 2712,
      "ined": 2713,
      "7575": 2714,
      "oss": 2715,
      "Ġair": 2716,
      "anna": 2717,
      "Ġpat": 2718,
      "itive": 2719,
      "Ġrunning": 2720,
      "2019": 2721,
      "ĠCom": 2722,
      "Ġener": 2723,
      "Ġsave": 2724,
      "ica": 2725,
      "Ġmeet": 2726,
      "ield": 2727,
      "Ġ0": 2728,
      "Ġjoke": 2729,
      "ilt": 2730,
      "Ġprison": 2731,
      "Ġdraw": 2732,
      "iscord": 2733,
      "ges": 2734,
      "Ġmill": 2735,
      "Ġfur": 2736,
      "Ġfake": 2737,
      "ards": 2738,
      "Ġremind": 2739,
      "ĠUS": 2740,
      "No": 2741,
      "author": 2742,
      "OL": 2743,
      "Ġgra": 2744,
      "3130": 2745,
      "Ġlooked": 2746,
      "7756": 2747,
      "dle": 2748,
      "oh": 2749,
      "Ġaut": 2750,
      "976760": 2751,
      "55976760": 2752,
      "outh": 2753,
      "8186": 2754,
      "ruct": 2755,
      "4658186": 2756,
      "814261": 2757,
      "ront": 2758,
      "76155976760": 2759,
      "7756814261": 2760,
      "761559767604658186": 2761,
      "098": 2762,
      "Ġborn": 2763,
      "Ġstupid": 2764,
      "163130": 2765,
      "7756814261163130": 2766,
      "775681426116313090": 2767,
      "esome": 2768,
      "ify": 2769,
      "akes": 2770,
      "like": 2771,
      "ones": 2772,
      "Ġlau": 2773,
      "Ġconst": 2774,
      "Ġtruly": 2775,
      "ĠLem": 2776,
      "Ġeye": 2777,
      "ring": 2778,
      "ĠWith": 2779,
      "304": 2780,
      "Ġpersonal": 2781,
      "abyrin": 2782,
      "Ġspirit": 2783,
      "abyrinth": 2784,
      "45295": 2785,
      "Ġforget": 2786,
      "88736": 2787,
      "4045295": 2788,
      "098304": 2789,
      "88736098304": 2790,
      "404529588736098304": 2791,
      "St": 2792,
      "Ġign": 2793,
      "Ġtot": 2794,
      "stair": 2795,
      "Ġquestions": 2796,
      "63": 2797,
      "Ġtrain": 2798,
      "ently": 2799,
      "istic": 2800,
      "context": 2801,
      "ior": 2802,
      "Ġfr": 2803,
      "Ġincl": 2804,
      "Ġalt": 2805,
      "Ġhumanity": 2806,
      "Ġpurp": 2807,
      "ault": 2808,
      "Ġhid": 2809,
      "42": 2810,
      "Ġav": 2811,
      "ians": 2812,
      "Ġtakes": 2813,
      "ato": 2814,
      "Ġhig": 2815,
      "ĠRE": 2816,
      "Ġtheory": 2817,
      "Ġshort": 2818,
      "Ġdrink": 2819,
      "Ġdru": 2820,
      "224": 2821,
      "oth": 2822,
      "Ġthoughts": 2823,
      "Ġlangu": 2824,
      "Ġpick": 2825,
      "Ġmanip": 2826,
      "ending": 2827,
      "ĠTHE": 2828,
      "Ġpull": 2829,
      "uss": 2830,
      "Ġproject": 2831,
      "Ġesp": 2832,
      "Or": 2833,
      "Ġstar": 2834,
      "Ġbecom": 2835,
      "Ġtelling": 2836,
      "Ġvir": 2837,
      "lpha": 2838,
      "Ġminutes": 2839,
      "151": 2840,
      "IG": 2841,
      "Ġcut": 2842,
      "ased": 2843,
      "Ġwebs": 2844,
      "2020": 2845,
      "itting": 2846,
      "Ġclear": 2847,
      "Ġforever": 2848,
      "pantheon": 2849,
      "Ġweek": 2850,
      "empt": 2851,
      "Ġtaken": 2852,
      "Ġ9": 2853,
      "Ġpublic": 2854,
      "Ġpot": 2855,
      "Ġmagic": 2856,
      "Ġdoubt": 2857,
      "ery": 2858,
      "Ġscre": 2859,
      "Ġready": 2860,
      "Ġfavor": 2861,
      "59": 2862,
      "enn": 2863,
      "amed": 2864,
      "ateg": 2865,
      "ficult": 2866,
      "Ġhands": 2867,
      "Ġsort": 2868,
      "Ġstyle": 2869,
      "Ġmostly": 2870,
      "Ġdifficult": 2871,
      "Ġinfl": 2872,
      "evidence": 2873,
      "ĠHer": 2874,
      "Ġorder": 2875,
      "1899": 2876,
      "Ġbat": 2877,
      "8250": 2878,
      "84957": 2879,
      "1511899": 2880,
      "825024": 2881,
      "84957825024": 2882,
      "151189984957825024": 2883,
      "Ġpers": 2884,
      "Ġamaz": 2885,
      "sofpantheon": 2886,
      "Ġline": 2887,
      "amp": 2888,
      "ĠPer": 2889,
      "Ġresult": 2890,
      "Ġpolit": 2891,
      "tc": 2892,
      "ĠRank": 2893,
      "OO": 2894,
      "aa": 2895,
      "Ġcop": 2896,
      "Ġweap": 2897,
      "Ġwhite": 2898,
      "ender": 2899,
      "Ġpartic": 2900,
      "Ġwatched": 2901,
      "apt": 2902,
      "eed": 2903,
      "Ġseeing": 2904,
      "stairsofpantheon": 2905,
      "Ġjud": 2906,
      "iment": 2907,
      "Ġbeaut": 2908,
      "Ġrepl": 2909,
      "Ġmil": 2910,
      "comments": 2911,
      "Ġextreme": 2912,
      "Ġasking": 2913,
      "ury": 2914,
      "share": 2915,
      "full": 2916,
      "Ġwel": 2917,
      "Ġcommon": 2918,
      "for": 2919,
      "und": 2920,
      "Ġstra": 2921,
      "Ġconv": 2922,
      "ĠThats": 2923,
      "3725": 2924,
      "cent": 2925,
      "ony": 2926,
      "ĠAmer": 2927,
      "ief": 2928,
      "cing": 2929,
      "Ġbey": 2930,
      "Ġsurv": 2931,
      "Ġclearly": 2932,
      "15": 2933,
      "ination": 2934,
      "Ġdanger": 2935,
      "ĠWhere": 2936,
      "Ġpresent": 2937,
      "Ġmurder": 2938,
      "Ġloc": 2939,
      "Ġsil": 2940,
      "Ġenem": 2941,
      "chan": 2942,
      "ĠECO": 2943,
      "/?": 2944,
      "iar": 2945,
      "Ġbreat": 2946,
      "Ġchat": 2947,
      "Ġnon": 2948,
      "Ġear": 2949,
      "oooo": 2950,
      "Ġquick": 2951,
      "Ġpret": 2952,
      "gress": 2953,
      "Ġequ": 2954,
      "Ġrealm": 2955,
      "Ġacross": 2956,
      "ĠSomet": 2957,
      "Ġmod": 2958,
      "Ġscen": 2959,
      "medium": 2960,
      "Ġaccess": 2961,
      "Ġexperien": 2962,
      "ĠĠĊ": 2963,
      "Ġprove": 2964,
      "Ġ([": 2965,
      "Ġtechnology": 2966,
      "ĠDiscord": 2967,
      "oid": 2968,
      "Ġcute": 2969,
      "Ġintellig": 2970,
      "Ġconcept": 2971,
      "ĠPl": 2972,
      "ĠðŁĳ": 2973,
      "Ġident": 2974,
      "Ġbaby": 2975,
      "Ġweak": 2976,
      "que": 2977,
      "Ġremain": 2978,
      "Ġdiscord": 2979,
      "476": 2980,
      "Ġelect": 2981,
      "ential": 2982,
      "Ġreading": 2983,
      "ches": 2984,
      "fer": 2985,
      "Ġhel": 2986,
      "Ġalive": 2987,
      "Ġhimself": 2988,
      "iversity": 2989,
      "Ġtou": 2990,
      "612": 2991,
      "iction": 2992,
      "Ġtravel": 2993,
      "Ġhurt": 2994,
      "Ġenergy": 2995,
      "\"](": 2996,
      "965": 2997,
      "uri": 2998,
      "Ġdumb": 2999,
      "olm": 3000,
      "Ġlose": 3001,
      "Ġ100": 3002,
      "Ġcurrent": 3003,
      "ision": 3004,
      "ĠThese": 3005,
      "Ġunless": 3006,
      "iebol": 3007,
      "ĠLabyrinth": 3008,
      "Ġprodu": 3009,
      "Ġteac": 3010,
      "Ġplanet": 3011,
      "488486": 3012,
      "Ġabove": 3013,
      "Ġprov": 3014,
      "30625": 3015,
      "476965": 3016,
      "4884866": 3017,
      "306254884866": 3018,
      "476965306254884866": 3019,
      "351": 3020,
      "âĪ": 3021,
      "449": 3022,
      "Ġsimple": 3023,
      "Ġphysical": 3024,
      "Ġpurpose": 3025,
      "Ġwake": 3026,
      "Ġcity": 3027,
      "ached": 3028,
      "ape": 3029,
      "Ġkey": 3030,
      "Ġgovernment": 3031,
      "Ġcode": 3032,
      "4544": 3033,
      "56612": 3034,
      "30618": 3035,
      "Ġrelations": 3036,
      "ney": 3037,
      "454430618": 3038,
      "56612454430618": 3039,
      "566124544306184193": 3040,
      "EE": 3041,
      "ero": 3042,
      "ask": 3043,
      "ĠRight": 3044,
      "ĠMost": 3045,
      "1972": 3046,
      "ĠLet": 3047,
      "Ġproof": 3048,
      "Ġthank": 3049,
      "234": 3050,
      "HO": 3051,
      "My": 3052,
      "but": 3053,
      "Ġmass": 3054,
      "45541": 3055,
      "Ġinvol": 3056,
      "Ġsituation": 3057,
      "2391972": 3058,
      "449729": 3059,
      "45541449729": 3060,
      "239197245541449729": 3061,
      "Ġserious": 3062,
      "Ġfollowing": 3063,
      "Ġann": 3064,
      "Ġconvers": 3065,
      "There": 3066,
      "Ġchoice": 3067,
      "49": 3068,
      "ius": 3069,
      "light": 3070,
      "Ġwolf": 3071,
      "Ġidk": 3072,
      "Ġturned": 3073,
      "Ġwanna": 3074,
      "Ġmir": 3075,
      "oring": 3076,
      "ĠTR": 3077,
      "rif": 3078,
      "Ġsports": 3079,
      "Ġawesome": 3080,
      "Ġposition": 3081,
      "Ġmad": 3082,
      "Ġpie": 3083,
      "ĠSee": 3084,
      "arently": 3085,
      "mao": 3086,
      "ĠHis": 3087,
      "iful": 3088,
      "Ġperhaps": 3089,
      "Ġpath": 3090,
      "ug": 3091,
      "dow": 3092,
      "Ġfing": 3093,
      "Ġbecame": 3094,
      "Ġwaiting": 3095,
      "Ġdata": 3096,
      "work": 3097,
      "Ġetc": 3098,
      "Ġattention": 3099,
      "Al": 3100,
      "Ġobs": 3101,
      "Ġthreat": 3102,
      "alcolm": 3103,
      "Ġcir": 3104,
      "Tube": 3105,
      "Ġhot": 3106,
      "Ġappro": 3107,
      "known": 3108,
      "Ġson": 3109,
      "Ġfront": 3110,
      "Ġsurpr": 3111,
      "land": 3112,
      "ication": 3113,
      "igital": 3114,
      "Ġsafe": 3115,
      "ĠHello": 3116,
      "Ġlanguage": 3117,
      "now": 3118,
      "Ġtreat": 3119,
      "Ġlil": 3120,
      "ĠSame": 3121,
      "ificial": 3122,
      "........": 3123,
      "Ġamazing": 3124,
      "Ġmachine": 3125,
      "Ġboy": 3126,
      "ĠAge": 3127,
      "Ġblue": 3128,
      "jor": 3129,
      "ĠThank": 3130,
      "por": 3131,
      "ensen": 3132,
      "â©ī": 3133,
      "Ġsmart": 3134,
      "Ġwebsite": 3135,
      "She": 3136,
      "Ġsear": 3137,
      "Ġda": 3138,
      "+++": 3139,
      "cha": 3140,
      "2232": 3141,
      "Ġbeha": 3142,
      "7432": 3143,
      "7737": 3144,
      "ND": 3145,
      "ina": 3146,
      "Ġcomb": 3147,
      "4162232": 3148,
      "74324162232": 3149,
      "773774324162232": 3150,
      "773774324162232351": 3151,
      "200": 3152,
      "Ġlay": 3153,
      "Ġant": 3154,
      "Ġrealize": 3155,
      "Ġground": 3156,
      "Ġgotta": 3157,
      "ggest": 3158,
      "Ġtowards": 3159,
      "Ġeff": 3160,
      "ĠTw": 3161,
      "acc": 3162,
      "Ġpract": 3163,
      "int": 3164,
      "ossible": 3165,
      "Ġchanged": 3166,
      "Ġinflu": 3167,
      "Ġwind": 3168,
      "ogn": 3169,
      "Ġfinally": 3170,
      "ME": 3171,
      "ified": 3172,
      "Ġspread": 3173,
      "aring": 3174,
      "Ġvoor": 3175,
      "Ġmemory": 3176,
      "lish": 3177,
      "view": 3178,
      "Ġnone": 3179,
      "ĠAlpha": 3180,
      "Ġsuggest": 3181,
      "yn": 3182,
      "het": 3183,
      "Ġocc": 3184,
      "Ġplayed": 3185,
      "ĠIk": 3186,
      "ters": 3187,
      "Ġ*\"": 3188,
      "Ġblock": 3189,
      "Ġteam": 3190,
      "Ġparents": 3191,
      "draft": 3192,
      "Ġsqu": 3193,
      "omb": 3194,
      "ising": 3195,
      "oph": 3196,
      "Ġsuffering": 3197,
      "Ġtre": 3198,
      "Ġfair": 3199,
      "ales": 3200,
      "Ġhigher": 3201,
      "miss": 3202,
      "ĠTom": 3203,
      "Ġdoc": 3204,
      "Ġkept": 3205,
      "Ġevidence": 3206,
      "Ġfocus": 3207,
      "38": 3208,
      "fter": 3209,
      "nen": 3210,
      "Ġstep": 3211,
      "unk": 3212,
      "Ġprep": 3213,
      "ijk": 3214,
      "ĠJustice": 3215,
      "fully": 3216,
      "Ġfem": 3217,
      "ift": 3218,
      "Ġeasier": 3219,
      "tain": 3220,
      "Ġsource": 3221,
      "7950": 3222,
      "itect": 3223,
      "imens": 3224,
      "Ġnobody": 3225,
      "Ġbroken": 3226,
      "Ġpeace": 3227,
      "Ġbeyond": 3228,
      "Ġcontact": 3229,
      "ression": 3230,
      "Ġpossib": 3231,
      "Ġconnected": 3232,
      "Ġrobot": 3233,
      "Ġgiving": 3234,
      "7236": 3235,
      "ended": 3236,
      "Ġcorrect": 3237,
      "AR": 3238,
      "ives": 3239,
      "Ġ?": 3240,
      "Ġstories": 3241,
      "raid": 3242,
      "â©Ĭâ©Ĭ": 3243,
      "ler": 3244,
      "Ġcompl": 3245,
      "ietn": 3246,
      "Ġrepres": 3247,
      "Ġmessages": 3248,
      "Ĩâ«": 3249,
      "Ġonline": 3250,
      "ills": 3251,
      "Ġmonths": 3252,
      "TH": 3253,
      "Ġdied": 3254,
      "ĠEm": 3255,
      "Ġattempt": 3256,
      "Ġfeed": 3257,
      "Ġfurther": 3258,
      "Ġworse": 3259,
      "Ġprop": 3260,
      "orrow": 3261,
      "irth": 3262,
      "Ġsuc": 3263,
      "rad": 3264,
      "rel": 3265,
      "How": 3266,
      "223": 3267,
      "Ġlim": 3268,
      "Ġnotic": 3269,
      "Ġmajor": 3270,
      "Ġbuy": 3271,
      "Ġsymbol": 3272,
      "person": 3273,
      "Ġbrother": 3274,
      "ites": 3275,
      "ĠOf": 3276,
      "Ġthrow": 3277,
      "Ġaware": 3278,
      "Ġinternet": 3279,
      "Ġrespect": 3280,
      "Ġdetail": 3281,
      "Ġrid": 3282,
      "elling": 3283,
      "ĠThough": 3284,
      "Ġrofl": 3285,
      "Ġpicture": 3286,
      "Ġai": 3287,
      "Ġnear": 3288,
      "Ġnecess": 3289,
      "Ġsold": 3290,
      "Ġcats": 3291,
      "Ġversion": 3292,
      "Ġtroll": 3293,
      "Ġdue": 3294,
      "Ġyout": 3295,
      "Ġdog": 3296,
      "raph": 3297,
      "university": 3298,
      "ĠUk": 3299,
      "Ġcompany": 3300,
      "amer": 3301,
      "Ġneg": 3302,
      "When": 3303,
      "lt": 3304,
      "Ġlate": 3305,
      "Ġreach": 3306,
      "ĠHave": 3307,
      "Ġtem": 3308,
      "Ġland": 3309,
      "961": 3310,
      "Ġdiv": 3311,
      "â©Į": 3312,
      "ÂłÂł": 3313,
      "ST": 3314,
      "Ġcold": 3315,
      "eeee": 3316,
      "Ġcant": 3317,
      "Ġfighting": 3318,
      "mon": 3319,
      "ðŁ¤£": 3320,
      "Ġgain": 3321,
      "ĠTe": 3322,
      "Ġvict": 3323,
      "Ġunderstanding": 3324,
      "Ġlearned": 3325,
      "Ġcontinue": 3326,
      "oun": 3327,
      "ari": 3328,
      "Ġlog": 3329,
      "Ġafraid": 3330,
      "Ġexistence": 3331,
      "ases": 3332,
      "968": 3333,
      "bed": 3334,
      "Ġproper": 3335,
      "Ġwritten": 3336,
      "Ġfavorite": 3337,
      "GER": 3338,
      "Ġimpossible": 3339,
      "Ġconscious": 3340,
      "Ġmorning": 3341,
      "ĠThanks": 3342,
      "bo": 3343,
      "jk": 3344,
      "Ġcore": 3345,
      "7991": 3346,
      "Ġexcept": 3347,
      "3318691": 3348,
      "863318691": 3349,
      "795863318691": 3350,
      "961223": 3351,
      "7991795863318691": 3352,
      "799179586331869194": 3353,
      "dy": 3354,
      "uel": 3355,
      "44486": 3356,
      "]],": 3357,
      "Ġfreed": 3358,
      "load": 3359,
      "723644486": 3360,
      "ĠSh": 3361,
      "Ġ2019": 3362,
      "Ġpoor": 3363,
      "ĠOkay": 3364,
      "224723644486": 3365,
      "961223224723644486": 3366,
      "ires": 3367,
      "rap": 3368,
      "Ġconspir": 3369,
      "Ġrecord": 3370,
      "Ġoriginal": 3371,
      "Ġextremely": 3372,
      "Ġmot": 3373,
      "Ġwilling": 3374,
      "On": 3375,
      "path": 3376,
      "Ġbunch": 3377,
      "olute": 3378,
      "ĠDoes": 3379,
      "Ġtend": 3380,
      "ĠYep": 3381,
      "ION": 3382,
      "head": 3383,
      "Ġnews": 3384,
      "Ġbuilding": 3385,
      "Ġbeautiful": 3386,
      "ked": 3387,
      "Ġworst": 3388,
      "ĠJe": 3389,
      "gry": 3390,
      "min": 3391,
      "Ġ...": 3392,
      "Ġsusp": 3393,
      "Ġconsider": 3394,
      "Ġlaugh": 3395,
      "!âĢĿ": 3396,
      "Ġtool": 3397,
      "Ġpowerful": 3398,
      "Ġcover": 3399,
      "Ġtired": 3400,
      "Ġden": 3401,
      "Ġlmao": 3402,
      "Ġdesign": 3403,
      "ground": 3404,
      "5326": 3405,
      "Ġpure": 3406,
      "Ġcollect": 3407,
      "by": 3408,
      "Ģâ": 3409,
      "Ġsat": 3410,
      "ĠDiebol": 3411,
      "Ġactual": 3412,
      "Ġcreep": 3413,
      "ashion": 3414,
      "Ġpriv": 3415,
      "781": 3416,
      "ĠHet": 3417,
      "ĠLOL": 3418,
      "ĠYouTube": 3419,
      "ĠðŁ¤": 3420,
      "Ġclos": 3421,
      "Ġinsane": 3422,
      "Ġespecially": 3423,
      "ational": 3424,
      "Ġesc": 3425,
      "ĠĠĠĠĠĠĠĠĠĠ": 3426,
      "Ġoppos": 3427,
      "Ġlarge": 3428,
      "BI": 3429,
      "Ġbes": 3430,
      "chitect": 3431,
      "ĠRed": 3432,
      "ressed": 3433,
      "ĠðŁĺĤ": 3434,
      "As": 3435,
      "Ġlow": 3436,
      "Ġviol": 3437,
      "Ġstraight": 3438,
      "Ġdangerous": 3439,
      "292": 3440,
      "ister": 3441,
      "ĠGoogle": 3442,
      "Ġamount": 3443,
      "Ġspeaking": 3444,
      "ered": 3445,
      "ĠGr": 3446,
      "cient": 3447,
      "ountain": 3448,
      "Ġsocial": 3449,
      "Ġyoutube": 3450,
      "Ġrele": 3451,
      "Ġenv": 3452,
      "Ġdamn": 3453,
      "Ġmanipul": 3454,
      "((": 3455,
      "419": 3456,
      "Ġmiddle": 3457,
      "IGGER": 3458,
      "Ġcuri": 3459,
      "Ġstuck": 3460,
      "ĠYOU": 3461,
      "Ġscared": 3462,
      "ĠTRIGGER": 3463,
      "AL": 3464,
      "Ġess": 3465,
      "Ġmensen": 3466,
      "ĠId": 3467,
      "Ġlack": 3468,
      "Ġforward": 3469,
      "Ġkun": 3470,
      "Ġbusiness": 3471,
      "Ġrich": 3472,
      "ey": 3473,
      "Ġ&": 3474,
      "Ġability": 3475,
      "abor": 3476,
      "Ġfamil": 3477,
      "Ġfinal": 3478,
      "Ġsubject": 3479,
      "441": 3480,
      "ait": 3481,
      "Ġsens": 3482,
      "acking": 3483,
      "Ġ12": 3484,
      "Ġwrote": 3485,
      "Ġ200": 3486,
      "/).": 3487,
      "Ġnamed": 3488,
      "cons": 3489,
      "0689": 3490,
      "718": 3491,
      "2941": 3492,
      "owers": 3493,
      "Ġ((": 3494,
      "icked": 3495,
      "Ġunivers": 3496,
      "260689": 3497,
      "59781": 3498,
      "294159781": 3499,
      "260689419": 3500,
      "294159781260689419": 3501,
      "372": 3502,
      "dom": 3503,
      "Ġmouth": 3504,
      "Ġkitten": 3505,
      "Ġmoder": 3506,
      "Ġals": 3507,
      "pping": 3508,
      "ID": 3509,
      "Ġfashion": 3510,
      "707": 3511,
      "ceive": 3512,
      "ĠDave": 3513,
      "ĠThose": 3514,
      "eresting": 3515,
      "Ġspecial": 3516,
      "Ġbooks": 3517,
      "Ġwelcome": 3518,
      "970": 3519,
      "Do": 3520,
      "che": 3521,
      "gon": 3522,
      "Ġ30": 3523,
      "alm": 3524,
      "Ġseemed": 3525,
      "Ġskin": 3526,
      "pre": 3527,
      "wise": 3528,
      "Ġfit": 3529,
      "ĠLove": 3530,
      "Ġspend": 3531,
      "ĠOuro": 3532,
      "Ġgrand": 3533,
      "Ġmedia": 3534,
      "rew": 3535,
      "Ġduring": 3536,
      "ĠTO": 3537,
      "Un": 3538,
      "itary": 3539,
      "aced": 3540,
      "ĠGhost": 3541,
      "Ġcertainly": 3542,
      "Ġmultiple": 3543,
      "Ġsearch": 3544,
      "ploy": 3545,
      "ijd": 3546,
      "Ġapparently": 3547,
      "bers": 3548,
      "ware": 3549,
      "org": 3550,
      "Ġple": 3551,
      "antly": 3552,
      "303": 3553,
      "weight": 3554,
      "Ġrelated": 3555,
      "Ġopin": 3556,
      "!\"": 3557,
      "uses": 3558,
      "Ġsomebody": 3559,
      "Ġbox": 3560,
      "ĠArt": 3561,
      "Ġbeliefs": 3562,
      "ĠPerhaps": 3563,
      "Ġannoy": 3564,
      "![": 3565,
      "Re": 3566,
      "een": 3567,
      "ata": 3568,
      "Ġcouple": 3569,
      "Ġenemy": 3570,
      "Ġswe": 3571,
      "Ġur": 3572,
      "Ġharm": 3573,
      "Ġallowed": 3574,
      "aly": 3575,
      "Ġhide": 3576,
      "Ġhij": 3577,
      "ĠWor": 3578,
      "ĠWill": 3579,
      "Ġmeth": 3580,
      "Ġpen": 3581,
      "821": 3582,
      "Ġworked": 3583,
      "ORD": 3584,
      "Ġaan": 3585,
      "Ġaud": 3586,
      "Ġcoin": 3587,
      "Ġdi": 3588,
      "5599": 3589,
      "imin": 3590,
      "Ġsoft": 3591,
      "ĠRem": 3592,
      "Ġroy": 3593,
      "Ġproblems": 3594,
      "Ġsexual": 3595,
      "ĠOnly": 3596,
      "ĉĠ": 3597,
      "ĠIS": 3598,
      "illed": 3599,
      "7106718": 3600,
      "Ġroll": 3601,
      "Ġreasons": 3602,
      "Ġrespond": 3603,
      "arciss": 3604,
      "7077106718": 3605,
      "3037077106718": 3606,
      "55993037077106718": 3607,
      "ii": 3608,
      "je": 3609,
      "Ġbirth": 3610,
      "Ġactions": 3611,
      "1055993037077106718": 3612,
      "Ġfloor": 3613,
      "Ġsla": 3614,
      "Ġsuppose": 3615,
      "Ġclean": 3616,
      "Ġhop": 3617,
      "Ġasks": 3618,
      "Ġknowing": 3619,
      "ocr": 3620,
      "Ġdifference": 3621,
      "dden": 3622,
      "Ch": 3623,
      "ĠAm": 3624,
      "Ġanimals": 3625,
      "aith": 3626,
      "what": 3627,
      "ĠâĢ¦": 3628,
      "eds": 3629,
      "Ġnaar": 3630,
      "ueen": 3631,
      "Ġinteract": 3632,
      "ategories": 3633,
      "VE": 3634,
      "ky": 3635,
      "Ġ^": 3636,
      "Ġach": 3637,
      "Ġenc": 3638,
      "Ġsky": 3639,
      "ĠECHO": 3640,
      "2021": 3641,
      "Ġshot": 3642,
      "fortun": 3643,
      "ency": 3644,
      "Ġfell": 3645,
      "raine": 3646,
      "though": 3647,
      "Ġterrible": 3648,
      "ĠInteresting": 3649,
      "lass": 3650,
      "ura": 3651,
      "zen": 3652,
      "icle": 3653,
      "5555": 3654,
      "Ġprogress": 3655,
      "ooky": 3656,
      "Ġcontext": 3657,
      "Ġbuilt": 3658,
      "Ġobject": 3659,
      "eks": 3660,
      "ued": 3661,
      "796": 3662,
      "452": 3663,
      "Ġstars": 3664,
      "Ġnoticed": 3665,
      "150": 3666,
      "Luciferian": 3667,
      "ħâ«": 3668,
      "Ġlearning": 3669,
      "Ġissue": 3670,
      "Ġoper": 3671,
      "464": 3672,
      "osp": 3673,
      "els": 3674,
      "ived": 3675,
      "Ġflat": 3676,
      "â«ĸ": 3677,
      "Ġmemories": 3678,
      "Ġmissing": 3679,
      "Ġcommunity": 3680,
      "Ġcolor": 3681,
      "Ġtomato": 3682,
      "ennis": 3683,
      "46446": 3684,
      "Ġteach": 3685,
      "â©Ī": 3686,
      "Ġexperiment": 3687,
      "pective": 3688,
      "Ġabsolute": 3689,
      "23446446": 3690,
      "9705555": 3691,
      "234464469705555": 3692,
      "234464469705555968": 3693,
      "Ġpun": 3694,
      "Ġmaar": 3695,
      "Ġconfused": 3696,
      "Ġfreedom": 3697,
      "icate": 3698,
      "icking": 3699,
      "Ġrules": 3700,
      "Ġtree": 3701,
      "Ġhyp": 3702,
      "acing": 3703,
      "Ġscream": 3704,
      "Not": 3705,
      "bit": 3706,
      "hips": 3707,
      "tf": 3708,
      "Ġheav": 3709,
      "Ġdecided": 3710,
      "rc": 3711,
      "ened": 3712,
      "set": 3713,
      "Ġdoct": 3714,
      "ĠBen": 3715,
      "Ġplaces": 3716,
      "For": 3717,
      "Ġhall": 3718,
      "Ġhack": 3719,
      "Ġsudden": 3720,
      "Ġdele": 3721,
      "Ġla": 3722,
      "Ġsumm": 3723,
      "ĠMoon": 3724,
      "Ġscience": 3725,
      "Ġzo": 3726,
      "Ġprefer": 3727,
      "Ġgods": 3728,
      "Ġmatters": 3729,
      "Ġrefer": 3730,
      "Ġhuge": 3731,
      "reci": 3732,
      "Ġport": 3733,
      "eth": 3734,
      "ĠAg": 3735,
      "Ġstri": 3736,
      "Ġintent": 3737,
      "Ġherself": 3738,
      "Ġlock": 3739,
      "hhhh": 3740,
      "ĠQu": 3741,
      "Ġgreen": 3742,
      "Ġmentioned": 3743,
      ".*": 3744,
      "ĠSha": 3745,
      "elcome": 3746,
      "ĠHey": 3747,
      "Ġdiscuss": 3748,
      "Ġglad": 3749,
      "Ġgeneral": 3750,
      "Ġhole": 3751,
      "OW": 3752,
      "bh": 3753,
      "Ġele": 3754,
      "ican": 3755,
      "Ġshoot": 3756,
      "ietnam": 3757,
      "588": 3758,
      "łĢâ": 3759,
      "ilia": 3760,
      "ĠLook": 3761,
      "Ĩâ«ħâ«": 3762,
      "pret": 3763,
      "297": 3764,
      "Ġmoving": 3765,
      "Ġxan": 3766,
      "ĠQueen": 3767,
      "vior": 3768,
      "zz": 3769,
      "Ġinde": 3770,
      "ĠAct": 3771,
      "Ġjump": 3772,
      "3232": 3773,
      "medi": 3774,
      "Ġconversation": 3775,
      "rr": 3776,
      "othes": 3777,
      "Ġearly": 3778,
      "Ġadult": 3779,
      "Ġrecogn": 3780,
      "overed": 3781,
      "Ġobviously": 3782,
      "Ġinvolved": 3783,
      "67": 3784,
      "One": 3785,
      "lly": 3786,
      "99297": 3787,
      "7501": 3788,
      "Ġsomewhere": 3789,
      "ĠErin": 3790,
      "9957501": 3791,
      "ively": 3792,
      "ĠGo": 3793,
      "Ġhidden": 3794,
      "7969957501": 3795,
      "5887969957501": 3796,
      "588796995750199297": 3797,
      "Ġfold": 3798,
      "ators": 3799,
      "Ġbeat": 3800,
      "4120": 3801,
      "onely": 3802,
      "ieve": 3803,
      "dered": 3804,
      "Ġinclud": 3805,
      "Ġtouch": 3806,
      "Ġrelationship": 3807,
      "Ã©": 3808,
      "Ġ19": 3809,
      "menu": 3810,
      "Ĩâ«ħâ«Ĩâ«ħâ«": 3811,
      "categories": 3812,
      "la": 3813,
      "Ġbill": 3814,
      "Ġking": 3815,
      "ĠBr": 3816,
      "ĠOur": 3817,
      "ĠWhile": 3818,
      "ĠHowever": 3819,
      "KE": 3820,
      "Ġbod": 3821,
      "Ġlord": 3822,
      "Ġgold": 3823,
      "izing": 3824,
      "sidered": 3825,
      "De": 3826,
      "ige": 3827,
      "Ġbegan": 3828,
      "imate": 3829,
      "Ġemail": 3830,
      "Ġpredict": 3831,
      "ĠRussia": 3832,
      "All": 3833,
      "des": 3834,
      "Ġgay": 3835,
      "Ġink": 3836,
      "Ġsomehow": 3837,
      "Ġunknown": 3838,
      "ĠHere": 3839,
      "Ġbrought": 3840,
      "Ġcountries": 3841,
      "ervation": 3842,
      "room": 3843,
      "Ġconsidered": 3844,
      "Ġshut": 3845,
      "Ġship": 3846,
      "aster": 3847,
      "Ġblind": 3848,
      "779": 3849,
      "Ġcy": 3850,
      "Ġinn": 3851,
      "Ġnotice": 3852,
      "iron": 3853,
      "ĠDark": 3854,
      "Fodder": 3855,
      "Ġsep": 3856,
      "Ġrad": 3857,
      "Ġcomment": 3858,
      "Ġimmedi": 3859,
      "Ġâī": 3860,
      "Ġinterested": 3861,
      "Ġinvest": 3862,
      "Ġrule": 3863,
      "personas": 3864,
      "Ġconspiracy": 3865,
      "Ġmethod": 3866,
      "Ġtort": 3867,
      "erd": 3868,
      "Ġmoon": 3869,
      "Ġmale": 3870,
      "Ġdisapp": 3871,
      "Ġappreci": 3872,
      "Ġbecomes": 3873,
      "04": 3874,
      "sc": 3875,
      "Ġcann": 3876,
      "ograph": 3877,
      "Ġrecently": 3878,
      "Ġweapon": 3879,
      "Ġ62": 3880,
      "llen": 3881,
      "Ġhair": 3882,
      "ĠMalcolm": 3883,
      "ĠNOT": 3884,
      "Ġcontain": 3885,
      "Ġparts": 3886,
      "Ġserv": 3887,
      "Ġrepresent": 3888,
      "Ġroyals": 3889,
      ".*\"": 3890,
      "har": 3891,
      "Ġfield": 3892,
      "Ġnor": 3893,
      "Ġloved": 3894,
      "Ġposs": 3895,
      "Ġposted": 3896,
      "eps": 3897,
      "ences": 3898,
      "ature": 3899,
      "alking": 3900,
      "Ġamong": 3901,
      "Ġaction": 3902,
      "Ġwild": 3903,
      "erm": 3904,
      "olution": 3905,
      "Ġvacc": 3906,
      "](((": 3907,
      "â«ķ": 3908,
      "Ġcharacters": 3909,
      "gor": 3910,
      "Ġou": 3911,
      "ĠPlease": 3912,
      "ables": 3913,
      "Ġcalling": 3914,
      "Ġphot": 3915,
      "???": 3916,
      "you": 3917,
      "Ġut": 3918,
      "Ġtennis": 3919,
      "Ġpan": 3920,
      "otes": 3921,
      "Ġkilling": 3922,
      "ĠZe": 3923,
      "Ġce": 3924,
      "Ġcross": 3925,
      "Ġrepe": 3926,
      "ĠExactly": 3927,
      "Ġbeginning": 3928,
      "Love": 3929,
      "omen": 3930,
      "ĠWE": 3931,
      "rix": 3932,
      "Ġmaster": 3933,
      "ĠCl": 3934,
      "ounds": 3935,
      "spooky": 3936,
      "rupt": 3937,
      "rugg": 3938,
      "class": 3939,
      "Ġdemon": 3940,
      "Ġwaste": 3941,
      "Ġfoot": 3942,
      "Ġeating": 3943,
      "arden": 3944,
      "Ġmodern": 3945,
      "Ġindeed": 3946,
      "TI": 3947,
      "Ġwis": 3948,
      "Ġodd": 3949,
      "Ġheaven": 3950,
      "ung": 3951,
      "ĠFold": 3952,
      "Ġstarting": 3953,
      "Ġdeser": 3954,
      "Ġtalked": 3955,
      "Ġfollowers": 3956,
      "53": 3957,
      "Ġwit": 3958,
      "Ġtrou": 3959,
      "Ġplant": 3960,
      "aged": 3961,
      "2370": 3962,
      "Ġsouls": 3963,
      "Ġpolice": 3964,
      "Ġlistening": 3965,
      "Ġsuccess": 3966,
      "ĠUkraine": 3967,
      "Ġmountain": 3968,
      "Ġcell": 3969,
      "Ġdad": 3970,
      "rop": 3971,
      "Ġ>.": 3972,
      "oka": 3973,
      "Ġemotions": 3974,
      "Ġresponse": 3975,
      "ĠREC": 3976,
      "tr": 3977,
      "Ġcard": 3978,
      "irm": 3979,
      "ĠWas": 3980,
      "ĠHa": 3981,
      "ĠPr": 3982,
      "Ġuser": 3983,
      "play": 3984,
      "Ġsuffer": 3985,
      "Ġcurious": 3986,
      "\".": 3987,
      "Ġauthor": 3988,
      "erc": 3989,
      "Ġload": 3990,
      "Ġarm": 3991,
      "Ġbored": 3992,
      "Ġfeet": 3993,
      "Ġwife": 3994,
      "Ġcaught": 3995,
      "Ġcamer": 3996,
      "Ġdom": 3997,
      "Ġfly": 3998,
      "itter": 3999,
      "ĠHel": 4000,
      "ĠYet": 4001,
      "aken": 4002,
      "Ġcrypt": 4003,
      "Ġdrugs": 4004,
      "380": 4005,
      "Just": 4006,
      "duc": 4007,
      "uff": 4008,
      "vid": 4009,
      "Ġfant": 4010,
      "Ġpush": 4011,
      "ĠSatan": 4012,
      "ĠDam": 4013,
      "this": 4014,
      "Ġissues": 4015,
      "conscious": 4016,
      "Ġpossess": 4017,
      "book": 4018,
      "Ġfan": 4019,
      "Ġthous": 4020,
      "Ġuit": 4021,
      "Ġrealized": 4022,
      "Ġaccur": 4023,
      "bling": 4024,
      "Ġeasily": 4025,
      "Ġquickly": 4026,
      "Oh": 4027,
      "Ġstream": 4028,
      "Ġsaf": 4029,
      "cription": 4030,
      "ĠRECORD": 4031,
      "tom": 4032,
      "Ġton": 4033,
      "Ġbird": 4034,
      "ĠIT": 4035,
      "antum": 4036,
      "Ġappear": 4037,
      "Ġbroke": 4038,
      "łĢâłĢâ": 4039,
      "66": 4040,
      "Ik": 4041,
      "pter": 4042,
      "76779": 4043,
      "74729": 4044,
      "Ġrecall": 4045,
      "Ġpiece": 4046,
      "82176779": 4047,
      "45282176779": 4048,
      "7472945282176779": 4049,
      "747294528217677938": 4050,
      "SC": 4051,
      "ker": 4052,
      "Ġ24": 4053,
      "Ġcost": 4054,
      "ances": 4055,
      "Ġweeks": 4056,
      "Ġtrick": 4057,
      "iza": 4058,
      "Ġnatural": 4059,
      "Ġdirectly": 4060,
      "px": 4061,
      "ping": 4062,
      "pite": 4063,
      "asc": 4064,
      "rib": 4065,
      "ĠBy": 4066,
      "Ġring": 4067,
      "ĠFl": 4068,
      "Ġminds": 4069,
      "Ġevents": 4070,
      "Ġsimulation": 4071,
      "Ġterm": 4072,
      "Ġpaper": 4073,
      "Ġeffort": 4074,
      "148": 4075,
      "asy": 4076,
      "Ġvol": 4077,
      "Ġshouldn": 4078,
      "Ġhorror": 4079,
      "ĠEveryone": 4080,
      "Ġtomorrow": 4081,
      "Ġperspective": 4082,
      "Ġjudge": 4083,
      "086": 4084,
      "str": 4085,
      "Ġnames": 4086,
      "Ġinterpret": 4087,
      "Ġexists": 4088,
      "Ġrobots": 4089,
      "Ġintelligence": 4090,
      "inta": 4091,
      "Ġnet": 4092,
      "Ġonto": 4093,
      "verage": 4094,
      "image": 4095
    },
    "merges": [
      "Ġ t",
      "Ġ a",
      "h e",
      "i n",
      "Ġ w",
      "r e",
      "Ġ s",
      "o u",
      "Ġt he",
      "o n",
      "h a",
      "Ġ i",
      "e r",
      "Ġ m",
      "Ġ b",
      "Ġ I",
      "in g",
      "Ġ c",
      "e n",
      "8 5",
      "7 6",
      "o r",
      "Ġt o",
      "Ġ d",
      "Ġ f",
      "0 6",
      "a n",
      "7 1",
      "Ġ p",
      "4 8",
      "l l",
      "Ġ l",
      "Ġ o",
      "e s",
      "5 1",
      "Ġa n",
      "Ġ y",
      "e d",
      "7 9",
      "ha t",
      "s t",
      "i t",
      "Ġ n",
      "2 9",
      "4 5",
      "a t",
      "2 2",
      "Ġy ou",
      "Ġ g",
      "o m",
      "Ġ in",
      "8 0",
      "Ġo f",
      "Ġan d",
      "3 1",
      "i s",
      "Ġb e",
      "v e",
      "a r",
      "o t",
      "Ġt h",
      "Ġi t",
      "l e",
      "4 1",
      "Ġi s",
      "o w",
      "Ġ e",
      "7 0",
      "6 1",
      "7 2",
      "Ġ ha",
      "9 9",
      "Ġt hat",
      "7 4",
      "a l",
      "a s",
      "Ġ T",
      "i c",
      "â Ģ",
      "5 6",
      "Ġ h",
      "3 5",
      "s e",
      "k e",
      "l d",
      "Ġ re",
      "u t",
      "a y",
      "e t",
      "6 2",
      "0 51",
      "Ġ he",
      "i d",
      "Ġ on",
      "v er",
      "i on",
      "9 4",
      "Ġ u",
      "9 8",
      "9 76",
      "Ġl i",
      "l y",
      "79 8",
      "8 06",
      "71 98",
      "70 976",
      "62 7198",
      "051 627198",
      "806 051627198",
      "70976 0",
      "806051627198 709760",
      "E D",
      "a c",
      "1 1",
      "g h",
      "Ġm e",
      "5 5",
      "6 5",
      "Ġw e",
      "Ġ A",
      "Ġs t",
      "Ġf or",
      "en t",
      "r o",
      "Ġ k",
      "i m",
      "a m",
      "0 0",
      "55 29",
      "7 56",
      "3 3",
      "Ġn ot",
      "ou t",
      "o o",
      "85 85",
      "756 6",
      "85 5529",
      "76 11",
      "8585 7566",
      "855529 7611",
      "8555297611 85857566",
      "a ll",
      "Ġa re",
      "n d",
      "a d",
      "Ġw as",
      "âĢ Ļ",
      "i r",
      "Ġd o",
      "ou ld",
      "i ll",
      "ĠT he",
      "it h",
      "Ġ [",
      "71 06",
      "' t",
      "' s",
      "u st",
      "Ġ S",
      "48 4",
      "22 61",
      "798 2261",
      "94 484",
      "06 7982261",
      "7106 067982261",
      "7106067982261 94484",
      "Ġha ve",
      "99 85",
      "3 4",
      "Ġm y",
      "Ġ j",
      "Ġ W",
      "o p",
      "c t",
      "2 0",
      "o l",
      "r i",
      "Ġw ith",
      "31 5",
      "c e",
      "Ġli ke",
      "Ġth is",
      "gh t",
      "Ġa s",
      "c h",
      "8 8",
      "e e",
      "Ġthe y",
      "om e",
      "8 2",
      "Ġw h",
      "Ġb ut",
      "Ġc an",
      "3 6",
      "9 2",
      "he r",
      "9 0",
      "7 29",
      "7 7",
      "Ġn e",
      "h ing",
      "Ġm o",
      "all y",
      ". .",
      "C T",
      "Ġ \"",
      "an t",
      "R ED",
      "35 80",
      "A CT",
      "RED ACT",
      "REDACT ED",
      "3 45",
      "Ġk n",
      "4 6",
      "Ġ H",
      "Ġ Ġ",
      "Ġ Y",
      "Ġs u",
      "45 6",
      "45 9",
      "48 8",
      "Ġa b",
      "Ġ B",
      "Ġa l",
      "7 51",
      "on e",
      "Ġ or",
      "Ġs o",
      "Ġw hat",
      "Ġw or",
      "Ġj ust",
      "8 1",
      "r a",
      "Ġ v",
      "Ġd e",
      "56 488",
      "56488 79",
      "74 65",
      "9985 5648879",
      "315 99855648879",
      "7465 31599855648879",
      "t er",
      "g e",
      "es s",
      "u s",
      "Ġa ll",
      "Ġkn ow",
      "80 2",
      "48 802",
      "345 48802",
      "76 48",
      "29 34548802",
      "41 2934548802",
      "82 412934548802",
      "82412934548802 7648",
      "Ġ M",
      "at ion",
      "7 5",
      "i l",
      "3 2",
      "7 80",
      "u r",
      "in k",
      "72 5",
      "Ġyou r",
      "p p",
      "Ġa t",
      "e a",
      "u n",
      "7 48",
      "in d",
      "76 780",
      "79 748",
      "72 79748",
      "74 725",
      "76780 4",
      "7279748 767804",
      "74725 7279748767804",
      "Ġg o",
      "ĠI t",
      "9 5",
      "Ġc on",
      "Ġe x",
      "er s",
      "9 06",
      "u m",
      "i e",
      "Ġ Ċ",
      "u l",
      "e op",
      "Ġw ould",
      "3 00",
      "Ġd on",
      "eop le",
      "Ġ D",
      "es t",
      "Ġm a",
      "r om",
      "80 1",
      "Ġi f",
      "Ġs h",
      "Ġt r",
      "ou r",
      "ha n",
      "ver y",
      "Ġ N",
      "i g",
      "Ġw ill",
      "Ġon e",
      "61 36",
      "Ġp eople",
      "Ġw he",
      "31 51",
      "99 6136",
      "729 996136",
      "729996136 459",
      "41 3151",
      "413151 729996136459",
      "65 77",
      "1 3580",
      "22 6577",
      "798 13580",
      "456 226577",
      "79813580 8",
      "456226577 798135808",
      "Ġab out",
      "Ġ C",
      "8 90",
      "v en",
      "n t",
      "- -",
      "am e",
      "Ġ @",
      "f e",
      "ar t",
      "at e",
      "an d",
      "Ġ P",
      "en d",
      "Ġ O",
      "92 88",
      "76 801",
      "51 94",
      "22 890",
      "9288 76801",
      "5194 928876801",
      "5194928876801 22890",
      "Ġs ome",
      "Ġth ink",
      "c k",
      "ð Ł",
      "1 9",
      "Ġ L",
      "a in",
      "Ġthe m",
      "Ġp ro",
      "Ġf rom",
      "a u",
      "e m",
      "' m",
      "Ġ r",
      "a b",
      "o s",
      "0 72",
      "00 2",
      "1 4",
      "< @",
      "0 9",
      "im e",
      "oo d",
      "Ġc om",
      "Ġn o",
      "Ġ R",
      "Ġ E",
      "99 5",
      "i f",
      "Ġan y",
      "i st",
      "Ġu p",
      "Ġs ee",
      "Ġ@ <@",
      "o d",
      "Ġin t",
      "i ght",
      "5 0",
      "3 31",
      "i ve",
      "Ġs p",
      "it y",
      "id e",
      "re d",
      "4 71",
      "Ġthe re",
      "Ġp l",
      "Ġ out",
      "6 33",
      "79 71",
      "20 471",
      "331 072",
      "633 7971",
      "20471 6337971",
      "204716337971 331072",
      "e l",
      "Ġ G",
      "Ġg et",
      "Ġth ing",
      "k ing",
      "au se",
      "e ll",
      "Ġhe r",
      "ou gh",
      "# #",
      "34 906",
      "29 70",
      "Ġt ime",
      "q u",
      "ac k",
      "0 5",
      "Ġu s",
      "Ġmo re",
      "71 2",
      "2 85",
      "81 45",
      "8 34906",
      "995 285",
      "8145 995285",
      "834906 8145995285",
      "8349068145995285 19",
      "b e",
      "âĢ ľ",
      "âĢ Ŀ",
      "Ġ F",
      "Ġwh o",
      "8 71",
      "22 7",
      "751 14",
      "2970 871",
      "227 712",
      "75114 227712",
      "2970871 75114227712",
      "p t",
      "9 1",
      "ĠY ou",
      "on g",
      "4 34",
      "Ġd id",
      "t her",
      "8 4",
      "Ġa m",
      "Ġh ow",
      "Ġ en",
      "Ġl o",
      "e ar",
      "Ġ ðŁ",
      "in e",
      "Ġw ant",
      "ou nd",
      "74 6",
      "T he",
      "Ġbe c",
      "3 0",
      "Ġs he",
      "Ġb y",
      "u re",
      "o re",
      "or t",
      "Ġthe ir",
      "Ġwhe n",
      "e ct",
      "om et",
      "Ġl ol",
      "p s",
      "95 3",
      "9 751",
      "41 50",
      "9985 4150",
      "746 953",
      "9751 746953",
      "9751746953 99854150",
      "i es",
      "t h",
      "e c",
      "a g",
      "ĠA nd",
      "Ġm an",
      "Ġe very",
      "a st",
      "Ġi m",
      "Ġo ther",
      "e p",
      "22 6",
      "Ġs a",
      "Ġh is",
      "Ġs omet",
      "ay s",
      "32 45",
      "61 434",
      "74 61434",
      "35 3245",
      "226 48",
      "7461434 353245",
      "7461434353245 22648",
      "ĠT hat",
      "oo k",
      "Ġha d",
      "Ġwe re",
      "ac t",
      "a re",
      "it e",
      "Ġ -",
      "ou s",
      "Ġc ould",
      "Ġa r",
      "Ġto o",
      "Ġu n",
      "Ġe ven",
      "r y",
      "s o",
      "0 3",
      "] (",
      "4 4",
      "7 8",
      "Ġn ow",
      "u e",
      "o st",
      "p l",
      "Ġha s",
      "se l",
      "2 4",
      "ic e",
      "ĠT h",
      "ar d",
      "o se",
      "t t",
      "Ġne ed",
      "Ġ âĢľ",
      "Ġa g",
      "ac e",
      "Ġ J",
      "re s",
      "b le",
      "Ġa ct",
      "Ġsomet hing",
      "Ġme an",
      "f f",
      "a ke",
      "Ġint o",
      "Ġt han",
      "Ġit s",
      "Ġthe n",
      ".. .",
      "20 1",
      "p er",
      "re at",
      "Ġg ood",
      "Ġma ke",
      "ĠB ut",
      "Ġw ay",
      "8 9",
      "Ġ ro",
      "Ġ ri",
      "m ent",
      "Ġ 1",
      "Ġc l",
      "Ġre al",
      "t hing",
      "Ġbe en",
      "8 6",
      "en ce",
      "Ġbec ause",
      "Ġc h",
      "Ġbe ing",
      "ee l",
      "i z",
      "Ġg u",
      "Ġon ly",
      "46 09",
      "51 35",
      "051 5135",
      "75 4609",
      "201 88",
      "0515135 20188",
      "754609 051513520188",
      "ea h",
      "Ġhe re",
      "9 3",
      "Ġb l",
      "7 31",
      "75 8",
      "Ġs ay",
      "22 758",
      "62 05",
      "3580 22758",
      "6205 358022758",
      "74 731",
      "74731 6205358022758",
      "d er",
      "Ġt e",
      "Ġre ally",
      "or y",
      "Ġl e",
      "' re",
      "a ge",
      "ers on",
      "Ġ our",
      "Ġne ver",
      "Ġf eel",
      "ic h",
      "i v",
      "ow n",
      "Ġdo es",
      "Ġh im",
      "d e",
      "Ġs c",
      "ion s",
      "b er",
      "u ally",
      "ĠH e",
      "sel f",
      "Ġwor ld",
      "nd er",
      "Ġwor k",
      "Ġm ay",
      "Ġha pp",
      "Ġri ght",
      "Ġgo ing",
      "Ġo ver",
      "Ġ qu",
      "Ġ z",
      "ĠW hat",
      "a k",
      "Ġb ack",
      "Ġtr y",
      "u ck",
      "ac h",
      "o c",
      "72 09",
      "Ġwh y",
      "o in",
      "30 24",
      "41 002",
      "Ġ (",
      "u ch",
      "90 7",
      "9 002",
      "ic k",
      "1 907",
      "79 7209",
      "3024 9002",
      "797209 30249002",
      "79720930249002 1907",
      "Ġbe l",
      "en s",
      "41 6",
      "8 35",
      "44 70",
      "45 89",
      "315 300",
      "459 456",
      "906 41002",
      "300 835",
      "4470 300835",
      "4589 459456",
      "315300 4470300835",
      "90641002 4589459456",
      "3153004470300835 84",
      "Ġthing s",
      "um an",
      "i re",
      "Ġp re",
      "7 36",
      "o g",
      "it t",
      "p le",
      "as s",
      "Ġre m",
      "Ġw r",
      "Ġp erson",
      "ĠTh is",
      "re e",
      "72 6",
      "ul t",
      "w n",
      "ĠI n",
      "Ġal so",
      "Ġst ill",
      "Ġcon t",
      "Ġu nder",
      "ĠĠ Ġ",
      "Ġm uch",
      "y s",
      "Ġc han",
      "ĠW e",
      "Ġg r",
      "ĠThe y",
      "Ġs e",
      "Ġd is",
      "s p",
      "Ġl ot",
      "Ġbe t",
      "i j",
      "3 77",
      "' ve",
      "re n",
      "Ġsh ould",
      "i le",
      "Ġst u",
      "Ġa c",
      "v ing",
      "or d",
      "-- -",
      "ad e",
      "79 4",
      "i ld",
      "Ġmo st",
      "ot her",
      "ĠW h",
      "1 32",
      "l p",
      "41 93",
      "51 31",
      "729 6",
      "9 736",
      "794 5131",
      "132 7945131",
      "9736 7296",
      "1327945131 97367296",
      "Ġg ot",
      "Ġa d",
      "a p",
      "â ©",
      "w w",
      "Ġwhe re",
      "Ġbel ie",
      "Ġli fe",
      "e w",
      "c i",
      "Ġi d",
      "Ġ U",
      "` `",
      "1 0",
      "ĠS o",
      "Ġw at",
      "33 33",
      "or m",
      "4 31",
      "Ġsa id",
      "/ /",
      "u ll",
      "Ġp art",
      "s i",
      "Ġl ook",
      "Ġwe ll",
      "35 76",
      "70 431",
      "91 377",
      "3333 3576",
      "91377 33333576",
      "9137733333576 70431",
      ": //",
      "as e",
      "3 7",
      "f ore",
      "is h",
      "Ġth r",
      "Ġo wn",
      "Ġk ind",
      "Ġp r",
      "Ġl ea",
      "tt ps",
      "Ġt al",
      "v es",
      "Ġ ke",
      "f t",
      "ou nt",
      "at ed",
      "ur n",
      "i p",
      "Ġlo ve",
      "Ġh uman",
      "ĠN o",
      "w ays",
      "Ġag ain",
      "o ll",
      "re ad",
      "Ġd if",
      "ic al",
      "Ġ very",
      "ou ght",
      "61 86",
      "n al",
      "ation s",
      "Ġof f",
      "ĠI f",
      "he d",
      "78 11",
      "Ġa f",
      "Ġs ame",
      "ir st",
      "22 33",
      "80 03",
      "46 4193",
      "7811 464193",
      "2233 7811464193",
      "8003 22337811464193",
      ". \"",
      "416 91",
      "85 300",
      "726 4",
      "6186 7264",
      "41691 61867264",
      "85300 4169161867264",
      "Ġact ually",
      "ab le",
      "Ġa w",
      "ĉ ĉ",
      "29 5",
      "t e",
      "h ttps",
      "Ġf l",
      "@ @",
      "c om",
      "at h",
      "Ġ K",
      "Ġth ose",
      "Ġp er",
      "] ]",
      "k s",
      "Ġl ong",
      "e re",
      "Ġt w",
      "Ġf ind",
      "= =",
      "m s",
      "Ġs er",
      "re nt",
      "3 06",
      "oin t",
      "re am",
      "Ġwh ich",
      "Ġsu re",
      "x t",
      "i al",
      "ĠĠ ĠĠ",
      "Ġc all",
      "Ġm ade",
      "Ġw on",
      "Ġne w",
      "Ġhe lp",
      "Ġpl ay",
      "Ġbe fore",
      "w e",
      "Ġf irst",
      "Ġd own",
      "r u",
      "Ġman y",
      "o ld",
      "ĠS he",
      "Ġre l",
      "Ġha r",
      "ir d",
      "Ġt ake",
      "ic t",
      "Ġ 2",
      "res s",
      "Ġm ind",
      "Ġsome one",
      "Ġy ear",
      "Ġs ha",
      "Ġdid n",
      "Ġt ell",
      "an ce",
      "Ġy eah",
      "t he",
      "ver s",
      "ĠðŁ ĺ",
      "Ġhapp en",
      "od y",
      "oo l",
      "Ġv ide",
      "Ġal ways",
      "ĠThe re",
      "## #",
      "Ġthr ough",
      "Ġ end",
      "Ġu se",
      "u al",
      "Ġim p",
      "Ġre ad",
      "Ġd ay",
      "Ġs m",
      "Ġ #",
      "t ing",
      "i an",
      "' ll",
      "em ber",
      "Ġe v",
      "c on",
      "st and",
      "is s",
      "Ġb u",
      "Ġdif fe",
      "Ġany thing",
      "Ġ =",
      "Ġc ha",
      "l ed",
      "i ous",
      "Ġb r",
      "48 6",
      "Ġl et",
      "Ġcom p",
      "Ġa pp",
      "v ed",
      "Ġb ot",
      "ar k",
      "Ġst art",
      "im es",
      "Ġp oint",
      "an g",
      "\" ,",
      "Ġe m",
      "n ing",
      "Ġstu ff",
      "ow er",
      "Ġth ough",
      "]( /",
      "ï ¸",
      "ï¸ ı",
      "9 6",
      "e ver",
      "o ck",
      "Ġs l",
      "Ġ[ [",
      "Ġo p",
      "Ġth ought",
      "Ġbelie ve",
      "n a",
      "Ġc at",
      "Ġwor d",
      "ra in",
      "Ġp os",
      "Ġthe se",
      "ve l",
      "Ġbet ter",
      "s ide",
      "f ul",
      "06 4",
      "Ġunder stand",
      "i ke",
      "o y",
      "Ġm ight",
      "i a",
      "on d",
      "Ġc ome",
      "ere st",
      "Ġs im",
      "read y",
      "Ġaf ter",
      "a il",
      "Ġe ver",
      "i ly",
      "Ġal ready",
      "* *",
      "Ġf un",
      "ab ly",
      "92 1",
      "Ġw ar",
      "Ġk ill",
      "' d",
      "is e",
      "o b",
      "Ġ V",
      "y p",
      "Ġat t",
      "35 5",
      "9 41",
      "u d",
      "ar y",
      "Ġd es",
      "Ġin f",
      "48 921",
      "84 941",
      "064 355",
      "48921 84941",
      "064355 94",
      "4892184941 06435594",
      "Ġn ame",
      "ĠG od",
      "Ġtry ing",
      "Ġk id",
      "g g",
      "Ġm at",
      "ce pt",
      "Ġac c",
      "Ġcom m",
      "ol og",
      "Ġdiffe rent",
      "ĠM y",
      "ri end",
      "Ġmay be",
      "Ġ â",
      "Ġ ent",
      "b l",
      "Ġrem ember",
      "2 7",
      "Ġas k",
      "Ġs y",
      "if ic",
      "a ve",
      "Ġy es",
      "Ġb ad",
      "as on",
      "Ġar ound",
      "n e",
      "1 2",
      "c l",
      "ut h",
      "Ġst r",
      "Ġs ec",
      "op e",
      "Ġp h",
      "Ġevery thing",
      "Ġvide o",
      "m m",
      "Ġpro b",
      "Ġst ory",
      "Ġe l",
      "us hing",
      "Ġsh ow",
      "n g",
      "Ġtw o",
      "Ġg ame",
      "ĠY eah",
      "k es",
      "Ġtr ue",
      "Ġg ive",
      "n ess",
      "ĠN ot",
      "Ġwe ird",
      "Ġf uck",
      "Ġnot hing",
      "fe ct",
      "Ġg en",
      "Ġc are",
      "Ġdo ing",
      "ĠH ow",
      "Ġdoes n",
      "Ġp ut",
      "l ess",
      "Ġha nd",
      "Ġevery one",
      "n y",
      "he n",
      "ĠY es",
      "Ġw a",
      "at ing",
      "4 65",
      "at her",
      "35 2",
      "Ġus ed",
      "Ġint erest",
      "âĢ ¦",
      "er t",
      "en se",
      "92 6",
      "ĠD o",
      "Ġke ep",
      "Ġch ild",
      "an s",
      "ĠO r",
      "ĠðŁ ħ",
      "or s",
      "ĠP ushing",
      "Ġpl ace",
      "he re",
      "ĠðŁħ ¿",
      ") )",
      "g et",
      "ĠðŁħ¿ ï¸ı",
      "Ġas s",
      "3 9",
      "Ġd ream",
      "g r",
      "Ġwh ile",
      "itt le",
      "Ġex pl",
      "m ed",
      "Ġt ri",
      "Ġo ld",
      "95 03",
      "9503 926",
      "Ġre ason",
      "76 27",
      "46 306",
      "9503926 46306",
      "7627 72",
      "950392646306 762772",
      "I t",
      "tt y",
      "Ġwat ch",
      "Ġli ve",
      "Ġy et",
      "Ġex per",
      "Ġhar d",
      "Ġyear s",
      "Ġin ter",
      "Ġre c",
      "Ġen ough",
      "o ve",
      "art h",
      "Ġprob ably",
      "u c",
      "ic ally",
      "ĠS t",
      "Ġsu pp",
      "Ġgu ess",
      "ĠA l",
      ". âĢĿ",
      "Ġm et",
      "i et",
      "ĠJ ust",
      "Ġf riend",
      "s s",
      "Ġc r",
      "Ġb as",
      "05 8",
      "Ġt ra",
      "out u",
      "ĠO h",
      "Ġm ust",
      "Ġp ower",
      "c es",
      "i x",
      "Ġan other",
      "Ġde f",
      "y outu",
      "Ġid ea",
      ".. ..",
      "Ġc reat",
      "Ġpre tty",
      "Ġab le",
      "Ġl ear",
      "Ġgo d",
      "Ġlea st",
      "is m",
      "Ġ ra",
      "it ing",
      "Ġ hat",
      "Ġt urn",
      "one y",
      "`` `",
      "on s",
      "Ġl ittle",
      "45 71",
      "31 6",
      "Ġ 20",
      "46 8",
      "Ġf am",
      "71 295",
      "315 81",
      "75 61",
      "Ġqu est",
      "10 352",
      "71295 7561",
      "31581 712957561",
      "10352 31581712957561",
      "Ġb o",
      "29 34",
      "i ed",
      "Ġc he",
      "Ġo k",
      "t s",
      "Ġs ound",
      "Ġe y",
      "Ġre p",
      "ðŁ ĺ",
      "ig n",
      "oll ow",
      "4 3",
      "b s",
      "ag es",
      "al s",
      "our ce",
      "Ġm ess",
      "g an",
      "Ġmy self",
      "Ġsh it",
      "Ġv an",
      "8 2934",
      "34 345",
      "058 468",
      "82934 34345",
      "058468 37",
      "8293434345 05846837",
      "i gh",
      "Ġd ie",
      "Ġex ist",
      "Ġtal k",
      "Ġcon s",
      "Ġm ent",
      "Ġhe t",
      "it ion",
      "in ce",
      "Ġsu ch",
      "Ġpl an",
      "Ġ 3",
      "Ġin v",
      "Ġcon f",
      "i ence",
      "Ġe ach",
      "a v",
      "Ġe en",
      "it her",
      "Ġv o",
      "Ġwith out",
      "ĠB ec",
      "â «",
      "l es",
      "ĠI s",
      "Ġaw ay",
      "Ġel se",
      "j ect",
      "81 4",
      "a w",
      "Ġme m",
      "Ġw om",
      "le ep",
      "Ġany one",
      "T h",
      "or ry",
      "Ġbot h",
      "i er",
      "w ard",
      "Ġex p",
      "Ġma kes",
      "c ess",
      "d ay",
      "or ies",
      "Ġf ound",
      ": :",
      "Ġin st",
      "ĠL ol",
      ") .",
      "95 7",
      "Ġother s",
      "Ġun i",
      "Ġg reat",
      "Ġst op",
      "Ġ '",
      "si ble",
      "ĠL ike",
      "Ġ ver",
      "4 46",
      "Ġ x",
      "Ġb ig",
      "o ke",
      "Ġpro ble",
      "Ġsu r",
      "Ġ |",
      "Ġm oney",
      "k en",
      "ĠM ay",
      "Ġr un",
      "Ġmat ter",
      "t en",
      "E R",
      "Ġb est",
      "Ġp ast",
      "Y ou",
      "a ir",
      "a z",
      "e v",
      "Ġc ount",
      "-- --",
      "Ġcont ro",
      "ĠWh y",
      "d d",
      "Ġ :",
      "am es",
      "Ġf ollow",
      "r on",
      "he s",
      "ie w",
      "7 3",
      "ant s",
      "Ġl ast",
      "Ġc le",
      "Ġm om",
      "5 95",
      "ĠC h",
      "Ġchan ge",
      "Ġc ause",
      "Ġf ew",
      "41 92",
      "61 76",
      "486 6176",
      "4571 4866176",
      "595 4192",
      "5954192 45714866176",
      "Ġf in",
      "h h",
      "4 0",
      "== ==",
      "ww w",
      "Ġto ld",
      "st em",
      "Ġm on",
      "Ġre sp",
      "ut e",
      "ir l",
      "el f",
      "3 88",
      "act ly",
      "Ġhe ad",
      "ing s",
      "it er",
      "ent s",
      "Ġs k",
      "Ġtal king",
      "ert ain",
      "ij n",
      "Ġt er",
      "w ay",
      "ĠBec ause",
      "Ġlear n",
      "ic s",
      "Ġcom ple",
      "ver se",
      "Ġsu b",
      "Ġ Q",
      "Ġf act",
      "Ġd one",
      "Ġar t",
      "ct ion",
      "@@ @@",
      "Ġwho le",
      "Ġc re",
      "re t",
      "Ġe as",
      "Ġf ar",
      "Ġh ope",
      "or n",
      "Ġwr ong",
      "ar s",
      "Ġdis c",
      "99 465",
      "82 78",
      "82 43",
      "002 8278",
      "99465 0028278",
      "8243 994650028278",
      "8243994650028278 46",
      "Ġp ost",
      "Ġ *",
      "9 51",
      "le ase",
      "n ot",
      "Ġinterest ing",
      "Ġin d",
      "d oc",
      "Ġop en",
      "Ġli ght",
      "Ġg l",
      "Ġd at",
      "Ġis n",
      "W e",
      "ou l",
      "m e",
      "? ?",
      "Ġsee ms",
      "on na",
      "doc s",
      "Ġsp ec",
      "Ġser ver",
      "Ġu nt",
      "Ġbec ome",
      "Ġ 5",
      "iz e",
      "s y",
      "Ġf ree",
      "6 0",
      "Ġre s",
      "ar ly",
      "Ġf ight",
      "Ġs leep",
      "Ġb ody",
      "at er",
      "Ġg onna",
      "33 2",
      "Ġp u",
      "Ġ1 0",
      "Ġthat s",
      "Ġcha r",
      "2 3",
      "Ġde c",
      "Ġ >",
      "1 6",
      "o k",
      "Ġkid s",
      "ment s",
      "Ġad d",
      "at es",
      "o f",
      "m ost",
      "it s",
      "5 06",
      "Ġb ook",
      "Ġs ide",
      "Ġimp ort",
      "1 8",
      "c ed",
      "Ġs ense",
      "Ġm in",
      "Ġc ra",
      "Ġn ight",
      "Ġli st",
      "Ġsy stem",
      "Th is",
      "A nd",
      "Ġh ome",
      "ĠF or",
      "48 1",
      "âĢ Ķ",
      "316 81",
      "Ġs ince",
      "as h",
      "9 78",
      "ĠMay be",
      "76 332",
      "31 481",
      "31681 76332",
      "31481 3168176332",
      "314813168176332 801",
      "Ġon ce",
      "od der",
      "Ġcall ed",
      "are nt",
      "Ġse en",
      "06 14",
      "33 951",
      "995 978",
      "434 0614",
      "33951 4340614",
      "339514340614 995978",
      "Ġso ci",
      "I n",
      "Ġs ch",
      "Ġo h",
      "Ġle ft",
      "I N",
      "Ġs orry",
      "Ġs oul",
      "Ġgu y",
      "Ġl ess",
      "i en",
      "b ody",
      "it ies",
      "Ġyour self",
      "ab y",
      "Ġt imes",
      "an k",
      "Ġb it",
      "ĠW hen",
      "c ri",
      "an ge",
      "Ġl oo",
      "a le",
      "it ed",
      "Ġde ath",
      "Ġhat e",
      "Ġwant ed",
      "u p",
      "s w",
      "Ġre f",
      "ch n",
      "Ġent ire",
      "Ġs ays",
      "a h",
      "Ġe ither",
      "Ġc o",
      "led ge",
      "45 4",
      "Ġex t",
      "Ġsp ea",
      "= \"",
      "ĠA s",
      "er ing",
      "Ġmean s",
      "g s",
      "ĠW ell",
      "Ġproble m",
      "Ġo b",
      "Ġn ice",
      "Ġimport ant",
      "ri st",
      "ut ure",
      "pp ed",
      "! !",
      "Ġb rain",
      "Ġhe ar",
      "c hed",
      "Ġcontro l",
      "e f",
      "Ġget ting",
      "Ġc ool",
      "Ġ /",
      "Ġn at",
      "n ect",
      "Ġsa w",
      "e ad",
      "Ġf ull",
      "os ed",
      "Ġma king",
      "Ġg irl",
      "99 45",
      "Ġfam ily",
      "Ġha ving",
      "36 96",
      "92 446",
      "93 9945",
      "506 92446",
      "939945 3696",
      "50692446 9399453696",
      "Ġc ame",
      "Ġlo st",
      "Ġquest ion",
      "y ing",
      "Ġc ertain",
      "Ġex actly",
      "a ven",
      "Ġexpl ain",
      "4 37",
      "Ġey es",
      "id ence",
      "Ġagain st",
      "u de",
      "Ġin side",
      "ĠA I",
      "41 454",
      "20 729",
      "388 80",
      "437 38880",
      "41454 20729",
      "4145420729 43738880",
      "p h",
      "Ġm iss",
      "a king",
      "Ġle ad",
      "Ġwould n",
      "Ġword s",
      "Ġp res",
      "Ġf uture",
      "Ġs elf",
      "Ġm ed",
      "Ġj ob",
      "r in",
      "ys is",
      "on est",
      "Ġd ra",
      "Ġan sw",
      "Ġd r",
      "ig nal",
      "ate ly",
      "Ġp o",
      "Ġs et",
      "r ow",
      "Ġ 4",
      "itt en",
      "Ġunt il",
      "sel ves",
      "d en",
      "Ġâ ¨",
      "il ity",
      "g ed",
      "Ġsay ing",
      "n el",
      "\\ _",
      "i red",
      "at ic",
      "oo se",
      "Ġtr uth",
      "h ost",
      "e k",
      "Ġt ak",
      "Ġt yp",
      "i ally",
      "ee p",
      "0 814",
      "m er",
      "ĠA r",
      "ou se",
      "Ġc a",
      "Ġs w",
      "Ġd ark",
      "Ġthink ing",
      "Ġcomple te",
      "Ġim ag",
      "Ġh igh",
      "Ġb re",
      "Ġc our",
      "Ġal most",
      "Ġbe h",
      "Ġp ol",
      "ĠA ll",
      "ĠR ock",
      "05 3",
      "iz ed",
      "i k",
      "Ġi de",
      "Ġgu ys",
      "ĠThe n",
      "A N",
      "Ġp ain",
      "76 31",
      "71 0814",
      "957 7631",
      "053 9577631",
      "710814 0539577631",
      "7108140539577631 12",
      "Ġt est",
      "us ed",
      "Ġre t",
      "Ġse x",
      "um p",
      "m a",
      "at ive",
      "z y",
      "Ġgen er",
      "Ġcon nect",
      "Ġl iter",
      "Ġma g",
      "ðŁĺ Ĩ",
      "ĠT H",
      "c c",
      "d u",
      "Ġwor king",
      "g in",
      "Ġ er",
      "Ġb c",
      "Ġhe ll",
      "ren ce",
      "Ġkn ew",
      "c y",
      "orm ation",
      "Ġf e",
      "ot s",
      "ĠO n",
      "Ġhe ard",
      "um b",
      "ul ation",
      "Ġreal ity",
      "t ed",
      "Ġs ing",
      "Ġde p",
      "ĠIn k",
      "Ġg i",
      "Ġsm all",
      "at ch",
      "Ġmo ve",
      "Ġb ro",
      "Ġre st",
      "Ġne xt",
      "ul ar",
      "Ġw ent",
      "Ġrel ig",
      "Ġf ace",
      "al k",
      "Ġhuman s",
      "u se",
      "Ġcomm un",
      "¤ £",
      "olog y",
      "Ġus ing",
      "Ġ $",
      "Ġwas n",
      "st er",
      "ĠT r",
      "ĠA nal",
      "Ġ Z",
      "Ġf ig",
      "al th",
      "gr am",
      "31 2",
      "in es",
      "is on",
      "Ġwon der",
      "S M",
      "le ct",
      "Ġf ore",
      "Ġhappen ed",
      "in ite",
      "i ent",
      "v ious",
      "ĠAnal ysis",
      "ĠT o",
      "Ġte chn",
      "51 88",
      "0 1",
      "Ġro om",
      "Ġpr ot",
      "l ine",
      "m an",
      "t a",
      "id ent",
      "Ġex am",
      "Ġp ass",
      "Ġbu ild",
      "r or",
      "s ource",
      "ut m",
      "ĠE x",
      "22 5188",
      "35 072",
      "5529 225188",
      "312 35072",
      "5529225188 31235072",
      "Ġs it",
      "Ġm us",
      "Ġth o",
      "ĠA t",
      "Ġbeh ind",
      "ĠWh o",
      "we en",
      "Ġmo v",
      "b b",
      "Ġc or",
      "Ġde ad",
      "f l",
      "ĠM an",
      "ist s",
      "Ġz ijn",
      "5 2",
      "Ġin c",
      "Ġre g",
      "p e",
      "et y",
      "Ġdo or",
      "ar ch",
      "Ġst and",
      "Ġd am",
      "Ġp pl",
      "v ent",
      "Ġh our",
      "2 1",
      "+ +",
      "p ost",
      "Ġs ad",
      "is c",
      "ro ss",
      "Ġsound s",
      "Ġto get",
      "Ġall ow",
      "Ġtoget her",
      "ot e",
      "Ġh old",
      "i ble",
      "Ġ es",
      "ĠO ne",
      "Ġp ur",
      "Ġloo king",
      "Ġs ent",
      "Ġst ate",
      "Ġsee m",
      "Ġc ar",
      "Ġwhat ever",
      "g er",
      "Ġexper ience",
      "Ġf re",
      "Ġc ur",
      "ĠS ignal",
      "Ġuni verse",
      "Ġf all",
      "Ġon es",
      "SM R",
      "b ol",
      "Ġh u",
      "Ġw ish",
      "Ġd et",
      "Ġcom ing",
      "Ġo m",
      "Ġcan not",
      "ĠG ood",
      "i um",
      "ha ps",
      "id er",
      "Ġtr ust",
      "a im",
      "u be",
      "Ġ 6",
      "Ġdon t",
      "Ġx D",
      "n er",
      "ure s",
      "Ġlea ve",
      "n o",
      "g y",
      "Ġi ll",
      "A T",
      "Ġe arth",
      "ac ter",
      "ter n",
      "Ġin s",
      "Ġfor m",
      "al ity",
      "con f",
      "Ġchan nel",
      "O R",
      "Ġsu per",
      "pt ion",
      "Ġchild ren",
      "Ġd est",
      "od e",
      "t y",
      "w here",
      "Ġfriend s",
      "u es",
      "id ants",
      "Ġs end",
      "Ġde m",
      "Ġqu ite",
      "Ġbet ween",
      "Ġpos sible",
      "Ġd ays",
      "ire ct",
      "Ġ **",
      "Ġc oll",
      "au ght",
      "uth or",
      "it al",
      "Ġknow ledge",
      "Ġh onest",
      "Ġag o",
      "Ġcour se",
      "r act",
      "i o",
      "ĠR e",
      "Ġs ol",
      "Ġgr ou",
      "2 5",
      "Ġp op",
      "Ġal one",
      "d it",
      "Ġlist en",
      "o ot",
      "Ġv iew",
      "Ġwr ite",
      "Ġm or",
      "Ġh or",
      "Ġcra zy",
      "a red",
      "ĠT han",
      "Ġliter ally",
      "Â ł",
      "Ġf ood",
      "Ġe at",
      "Ġfuck ing",
      "Ġp a",
      "et s",
      "ĠðŁĺ Ĩ",
      "ĠU n",
      "c ome",
      "Ġtri ed",
      "Ġst ay",
      "Ġwom an",
      "ĠS ome",
      "Ġsec ond",
      "es us",
      "ĠA n",
      "Ġinf ormation",
      "8 780",
      "Ġh un",
      "976 8780",
      "726 60",
      "295 9768780",
      "39 72660",
      "2959768780 9",
      "3972660 29597687809",
      "0 8",
      "p ect",
      "ion al",
      "Ġwith in",
      "Ġare n",
      "Ġto day",
      "Ġhapp y",
      "E S",
      "b r",
      "Ġ 7",
      "Ġsch ool",
      "Ġtoo k",
      "Ġmom ent",
      "Ġs ong",
      "? âĢĿ",
      "ac y",
      "5 32",
      "conf idants",
      "Ġp ay",
      "ĠðŁ Ļ",
      "is ed",
      "ĠE arth",
      "s h",
      "Ġl ater",
      "Ġfor g",
      "Ġhe art",
      "Ġgr ow",
      "Ġask ed",
      "y an",
      "ĠE C",
      "Ġh ouse",
      "Ġli ving",
      "Ġcom es",
      "ĠĠĠĠ ĠĠĠĠ",
      "Ġp lease",
      "Ġansw er",
      "Ġm ar",
      "Ġchar acter",
      "Ġpu bl",
      "Ġg re",
      "ic es",
      "Ġwat er",
      "Ġok ay",
      "ĠD e",
      "ĠC an",
      "Ġev il",
      "Ġcount ry",
      "* \"",
      "a ar",
      "Ġof ten",
      "Ġde l",
      "Ġpro gram",
      "Ġsomet imes",
      "Ġstart ed",
      "2 61",
      "n ed",
      "Ġn orm",
      "a x",
      "iv id",
      "ĠE very",
      ") ,",
      "ut er",
      "a pp",
      "â ª",
      "O N",
      "Ġh o",
      "Ġre se",
      "k n",
      "Ġbl ack",
      "gan iz",
      "Ġto p",
      "post s",
      "ĠB e",
      "m y",
      "our nal",
      "ĠD on",
      "Ġthem selves",
      "â Ĭ",
      "inite ly",
      "m ore",
      "p r",
      "Ġf ear",
      "it le",
      "Ġg e",
      "Ġc ult",
      "Ġsu ff",
      "Ġm en",
      "al se",
      "Ġsp ace",
      "Ġcl aim",
      "g en",
      "Ġso on",
      "Ġlook s",
      "Ġwa it",
      "z e",
      "oo g",
      "ĠIt s",
      "Ġcl ose",
      "Ġv is",
      "Ġkind a",
      "W hat",
      "ri ght",
      "Ġknow s",
      "8 32",
      "H e",
      "w or",
      "el t",
      "Ġper fect",
      "Ġph ys",
      "us si",
      "Ġwr iting",
      "Ġh ur",
      "Ġmean ing",
      "Ġcomplete ly",
      "Ġj oin",
      "u b",
      "Ġstr ong",
      "sy ch",
      "ort s",
      "Ġide as",
      "ou d",
      "il ar",
      "ĠAl so",
      "f orm",
      "i fe",
      "Ġm ur",
      "2 6",
      "r ic",
      "Ġre d",
      "m ing",
      "p ng",
      "f fect",
      "at or",
      "in ess",
      "Ġl ink",
      "ĠY our",
      "ĠP ro",
      "ci ous",
      "Ġw in",
      "and om",
      "Ġan im",
      "Ġro b",
      "j oy",
      "Ġbre ak",
      "Ġ ve",
      "Ġfun ny",
      "Ġo pp",
      "f ort",
      "Ġ 8",
      "Ġs ign",
      "ent ion",
      "Ġlike ly",
      "b t",
      "Ġbl ood",
      "' ,",
      "at s",
      "ol f",
      "Ġche ck",
      "ĠðŁĻ Ĥ",
      "Ġag ree",
      "l f",
      "Ġf ast",
      "ĠA re",
      "Ġout side",
      "Ġmov ie",
      "Ġp ar",
      "ĠN ow",
      "Ġexam ple",
      "Ġd ou",
      "Ġ\" *",
      "ag s",
      "ach ine",
      "Ġlong er",
      "e x",
      "Ġc ol",
      "Ġc ase",
      "Ġc ou",
      "Ġspea k",
      "Ġmus ic",
      ", \"",
      "Ġw all",
      "ang er",
      ", âĢĿ",
      "b or",
      "L L",
      "Ġre qu",
      "Ġd ist",
      "ge l",
      "Ġany way",
      "ĠF odder",
      "Ġsim p",
      "Ġexp ect",
      "id es",
      "if er",
      "Ġgi ven",
      "h o",
      "Ġch o",
      "Ġma in",
      "Ġl uck",
      "Ġv i",
      "ur al",
      "g n",
      "Ġd ri",
      "ĠS p",
      "Ġsec ret",
      "Ġb us",
      "ĠR aven",
      "Ġimag ine",
      "Ġ ed",
      "ult i",
      "Ġacc ount",
      "Ġde v",
      "Ġwom en",
      "an e",
      "ver n",
      "red dit",
      "ĠA SMR",
      "Ġmon th",
      "Ġst e",
      "ĠO k",
      "Ġany more",
      "Ġstu d",
      "Ġz e",
      "â ĭ",
      "Ġf ail",
      "Ġcont in",
      "Ġr andom",
      "Ġgrou p",
      "w atch",
      "Ġb ed",
      "Ġ vers",
      "ut ion",
      "o x",
      "Ġj e",
      "Ġr ather",
      "Ġch oose",
      "B ut",
      "Ġc ry",
      "Ġprot ect",
      "Ġbe gin",
      "Ġg iv",
      "Ġwor th",
      "ward s",
      "Ġinst ead",
      "O U",
      "Ġh ist",
      "uc ifer",
      "Ġf ix",
      "Ġle g",
      "Ġbr ing",
      "vel op",
      "Ġs n",
      "Ġem ot",
      "Ġwatch ing",
      "ant he",
      "Ġle vel",
      "Ġto m",
      "Ġf elt",
      "Ġro ck",
      "Ġwork s",
      "Ġph one",
      "a ut",
      "o on",
      "Ġg host",
      "Ġkill ed",
      "Ġcreat ed",
      "Ġd eep",
      "Ġp e",
      "Ġup on",
      "ivid ual",
      "Ġe ffect",
      "st atic",
      "Ġen joy",
      "h ip",
      "Ġi k",
      "Ġg ames",
      "ĠH uman",
      "ĠJ esus",
      "anthe on",
      "t le",
      "ig in",
      "Ġcre ate",
      "at an",
      "Ġeas y",
      "Ġha ven",
      "m en",
      "us ion",
      "Ġneed ed",
      "Ġf ire",
      "ac es",
      "Ġmess age",
      "m it",
      "Ġm is",
      "Ġyou ng",
      "Ġsimp ly",
      "p ed",
      "00 0",
      "Ġment ion",
      "6 61",
      "f ic",
      "um ber",
      "Ġsp ir",
      "so f",
      "Ġdest ro",
      "Ġatt ack",
      "Ġsupp osed",
      "==== ====",
      "Ġf oc",
      "Ġth ree",
      "n et",
      "Ġu w",
      "Ġsu n",
      "ĠM e",
      "Ġbas ed",
      "ow s",
      "Ġcould n",
      "Ġhapp ens",
      "---- ----",
      "Ġf av",
      "t o",
      "ĠH ell",
      "Ġ âĢ",
      "Ġspec ific",
      "Ġsing le",
      "Ġd ro",
      "fe rence",
      "Ġcl ass",
      "olog ical",
      "u red",
      "Ġac cept",
      "Ġhour s",
      "h y",
      "l o",
      "Ġor igin",
      "Ġfig ure",
      "Ġp ri",
      "un ch",
      "Ġwant s",
      "Ġvo ice",
      "? \"",
      "t ags",
      "Ġw ays",
      "ĠK un",
      "Ġpro cess",
      "Ġret urn",
      "Ġfeel ing",
      "80 51",
      "Ġis s",
      "oog le",
      "an y",
      "Ġhe alth",
      "ĠC on",
      "er v",
      "Ġm other",
      "Ġfeel s",
      "s ha",
      "Ġen g",
      "Ġsoci ety",
      "71 48",
      "Ġr u",
      "2 8",
      "76 832",
      "Ġ\" \"",
      "ra ft",
      "Ġ@ [",
      "ĠP eople",
      "73 8051",
      "661 7148",
      "738051 76832",
      "6617148 73805176832",
      "c er",
      "o or",
      "Ġ +",
      "Ġf alse",
      "ĠE ven",
      "is hed",
      "ell ig",
      "Ġad v",
      "Ġind ividual",
      "Ġnorm al",
      "ur ing",
      "1 65",
      "i as",
      "Ġa ge",
      "Ġy a",
      "si b",
      "e g",
      "Ġim age",
      "Ġf il",
      "Ġg one",
      "ĠA ny",
      "Ġdef initely",
      "j ournal",
      "us h",
      "ific ation",
      "Ġtyp e",
      "h ow",
      "{ {",
      "} }",
      "Ġm ulti",
      "Ġdream s",
      "Ġt aking",
      "Ġgo es",
      "Ġbas ically",
      "R E",
      "i ps",
      "Ġf ine",
      "Ġme ant",
      "Ġresp on",
      "Ġtr ans",
      "Ġwor ry",
      "Ġuw u",
      "T hat",
      "Ġsl ow",
      "Ġdep end",
      "d ate",
      "Ġw alk",
      "Ġli e",
      "ri es",
      "Ġd irect",
      "Ġte xt",
      "Ġp rom",
      "id ed",
      "ro ll",
      "Ġget s",
      "Ġar g",
      "p ro",
      "{{ <",
      "76 1",
      "Ġp arent",
      "Ġg un",
      "ec ially",
      "Ġev ent",
      "youtu be",
      "@@@@ @@@@",
      "Ġv al",
      "ĠðŁ ¤£",
      "Ġ> }}",
      "y le",
      "Ġhonest ly",
      "ĠD id",
      "sp ir",
      "u ly",
      "O T",
      "Ġa p",
      "Ġm ine",
      "al c",
      "ĠB l",
      "I S",
      "Ġp ict",
      "Ġp sych",
      "ĉĉ ĉ",
      "Ġf ather",
      "Ġgo vern",
      "i vers",
      "p id",
      "Ġde velop",
      "Ġsupp ort",
      "Ġde al",
      "Ġm ist",
      "76 0",
      "ut es",
      "Ġment al",
      "n ight",
      "it ch",
      "Ġplay ing",
      "in s",
      "Ġn iet",
      "ri ble",
      "g ing",
      "79 5",
      "Ġchan ce",
      "Ġrelig ion",
      "ke t",
      "Ġbelie f",
      "ĠCh rist",
      "Ġr ul",
      "te xt",
      "Ġsy m",
      "â ¨",
      "Ġob vious",
      "Ġl aw",
      "ear s",
      "t itle",
      "Ġex c",
      "Ġit self",
      "ast e",
      "Ġhappen ing",
      "Ġass um",
      "I f",
      "Ġ .",
      "re me",
      "ri ed",
      "Ġm id",
      "Ġl ang",
      "Ġknow n",
      "ĠWh ich",
      "im ages",
      "Ġsim ilar",
      "ĠR yan",
      "Ġim m",
      "Ġvide os",
      "o ver",
      "om s",
      "Ġneed s",
      "Ġhist ory",
      "Ġfor ce",
      "Ġb en",
      "Ġn umber",
      "we b",
      "Ġdes cri",
      "ganiz ations",
      "ucifer ian",
      "i b",
      "ĠE l",
      "ĠI nt",
      "Ġli ves",
      "Ġrese arch",
      "ha ha",
      "Ġp red",
      "Ġthan ks",
      "ĠðŁĺ ī",
      "IN G",
      "c le",
      "r al",
      "The y",
      "ar r",
      "[ [",
      "Ġus ually",
      "Ġnat ure",
      "T o",
      "l ing",
      "Ġal ong",
      "e xt",
      "70 03",
      "S o",
      "u ro",
      "Ġg ave",
      "55 84",
      "Ġsit u",
      "Ġforg ot",
      "/ )",
      "Ġb an",
      "ar c",
      "g o",
      "re ct",
      "Ġsha ll",
      "Ġdestro y",
      "35 5584",
      "300 355584",
      "416 300355584",
      "52 7003",
      "527003 416300355584",
      "5 41",
      "Ġb ull",
      "Ġb urn",
      "Ġc ent",
      "Ġab s",
      "Ġstr ange",
      "Ġha lf",
      "ĠI m",
      "Ġc ap",
      "Ġl ar",
      "ĠR ussi",
      "86 91",
      "Ġsha re",
      "Ġcomp uter",
      "Ġs ick",
      "um ent",
      "Ġpro f",
      "Ġsu ck",
      "Ġd ude",
      "Ġro le",
      "us ing",
      "â© Ĭ",
      "2 39",
      "and s",
      "Ġh it",
      "in ed",
      "75 75",
      "os s",
      "Ġa ir",
      "an na",
      "Ġp at",
      "it ive",
      "Ġrun ning",
      "20 19",
      "ĠC om",
      "Ġen er",
      "Ġsa ve",
      "ic a",
      "Ġme et",
      "ie ld",
      "Ġ 0",
      "Ġj oke",
      "il t",
      "Ġpr ison",
      "Ġdra w",
      "isc ord",
      "g es",
      "Ġm ill",
      "Ġf ur",
      "Ġf ake",
      "ard s",
      "Ġrem ind",
      "ĠU S",
      "N o",
      "a uthor",
      "O L",
      "Ġg ra",
      "31 30",
      "Ġlook ed",
      "7 756",
      "d le",
      "o h",
      "Ġa ut",
      "976 760",
      "55 976760",
      "out h",
      "81 86",
      "ru ct",
      "465 8186",
      "814 261",
      "ron t",
      "761 55976760",
      "7756 814261",
      "76155976760 4658186",
      "0 98",
      "Ġb orn",
      "Ġstu pid",
      "16 3130",
      "7756814261 163130",
      "7756814261163130 90",
      "es ome",
      "if y",
      "ak es",
      "l ike",
      "on es",
      "Ġl au",
      "Ġcon st",
      "Ġtr uly",
      "ĠL em",
      "Ġey e",
      "r ing",
      "ĠW ith",
      "30 4",
      "Ġperson al",
      "aby rin",
      "Ġspir it",
      "abyrin th",
      "45 295",
      "Ġfor get",
      "88 736",
      "40 45295",
      "098 304",
      "88736 098304",
      "4045295 88736098304",
      "S t",
      "Ġi gn",
      "Ġto t",
      "st air",
      "Ġquest ions",
      "6 3",
      "Ġt rain",
      "ent ly",
      "ist ic",
      "con text",
      "i or",
      "Ġf r",
      "Ġin cl",
      "Ġal t",
      "Ġhuman ity",
      "Ġpur p",
      "a ult",
      "Ġh id",
      "4 2",
      "Ġa v",
      "ian s",
      "Ġtak es",
      "at o",
      "Ġh ig",
      "ĠR E",
      "Ġthe ory",
      "Ġsh ort",
      "Ġdr ink",
      "Ġd ru",
      "22 4",
      "ot h",
      "Ġthought s",
      "Ġlang u",
      "Ġp ick",
      "Ġman ip",
      "end ing",
      "ĠTH E",
      "Ġp ull",
      "us s",
      "Ġpro ject",
      "Ġes p",
      "O r",
      "Ġst ar",
      "Ġbec om",
      "Ġtell ing",
      "Ġv ir",
      "lp ha",
      "Ġmin utes",
      "1 51",
      "I G",
      "Ġc ut",
      "as ed",
      "Ġwe bs",
      "20 20",
      "itt ing",
      "Ġcle ar",
      "Ġfore ver",
      "p antheon",
      "Ġwe ek",
      "em pt",
      "Ġtak en",
      "Ġ 9",
      "Ġpubl ic",
      "Ġp ot",
      "Ġmag ic",
      "Ġdou bt",
      "er y",
      "Ġsc re",
      "Ġread y",
      "Ġfav or",
      "5 9",
      "en n",
      "am ed",
      "ate g",
      "fic ult",
      "Ġhand s",
      "Ġs ort",
      "Ġst yle",
      "Ġmost ly",
      "Ġdif ficult",
      "Ġinf l",
      "ev idence",
      "ĠH er",
      "Ġor der",
      "18 99",
      "Ġb at",
      "82 50",
      "84 957",
      "151 1899",
      "8250 24",
      "84957 825024",
      "1511899 84957825024",
      "Ġp ers",
      "Ġam az",
      "sof pantheon",
      "Ġl ine",
      "am p",
      "ĠP er",
      "Ġres ult",
      "Ġpol it",
      "t c",
      "ĠR ank",
      "O O",
      "a a",
      "Ġc op",
      "Ġwe ap",
      "Ġwh ite",
      "end er",
      "Ġpart ic",
      "Ġwat ched",
      "a pt",
      "e ed",
      "Ġsee ing",
      "stair sofpantheon",
      "Ġj ud",
      "im ent",
      "Ġbe aut",
      "Ġre pl",
      "Ġm il",
      "com ments",
      "Ġext reme",
      "Ġas king",
      "ur y",
      "sha re",
      "f ull",
      "Ġwe l",
      "Ġcomm on",
      "f or",
      "u nd",
      "Ġst ra",
      "Ġcon v",
      "ĠThat s",
      "3 725",
      "c ent",
      "on y",
      "ĠA mer",
      "ie f",
      "c ing",
      "Ġbe y",
      "Ġsur v",
      "Ġcle arly",
      "1 5",
      "in ation",
      "Ġd anger",
      "ĠW here",
      "Ġpres ent",
      "Ġmur der",
      "Ġlo c",
      "Ġs il",
      "Ġen em",
      "c han",
      "ĠEC O",
      "/ ?",
      "i ar",
      "Ġb reat",
      "Ġc hat",
      "Ġn on",
      "Ġe ar",
      "oo oo",
      "Ġqu ick",
      "Ġpre t",
      "g ress",
      "Ġe qu",
      "Ġreal m",
      "Ġac ross",
      "ĠS omet",
      "Ġmo d",
      "Ġsc en",
      "med ium",
      "Ġacc ess",
      "Ġexper ien",
      "ĠĠ Ċ",
      "Ġpro ve",
      "Ġ( [",
      "Ġtechn ology",
      "ĠD iscord",
      "o id",
      "Ġc ute",
      "Ġint ellig",
      "Ġcon cept",
      "ĠP l",
      "ĠðŁ ĳ",
      "Ġid ent",
      "Ġb aby",
      "Ġwe ak",
      "qu e",
      "Ġrem ain",
      "Ġdisc ord",
      "4 76",
      "Ġe lect",
      "ent ial",
      "Ġread ing",
      "c hes",
      "f er",
      "Ġhe l",
      "Ġal ive",
      "Ġhim self",
      "ivers ity",
      "Ġt ou",
      "61 2",
      "ict ion",
      "Ġtra vel",
      "Ġhur t",
      "Ġener gy",
      "\" ](",
      "9 65",
      "u ri",
      "Ġd umb",
      "ol m",
      "Ġlo se",
      "Ġ1 00",
      "Ġcur rent",
      "is ion",
      "ĠThe se",
      "Ġun less",
      "ie bol",
      "ĠL abyrinth",
      "Ġpro du",
      "Ġte ac",
      "Ġplan et",
      "488 486",
      "Ġab ove",
      "Ġpro v",
      "306 25",
      "476 965",
      "488486 6",
      "30625 4884866",
      "476965 306254884866",
      "3 51",
      "â Ī",
      "44 9",
      "Ġsim ple",
      "Ġphys ical",
      "Ġpurp ose",
      "Ġw ake",
      "Ġc ity",
      "ac hed",
      "ap e",
      "Ġke y",
      "Ġgovern ment",
      "Ġc ode",
      "45 44",
      "56 612",
      "306 18",
      "Ġrel ations",
      "ne y",
      "4544 30618",
      "56612 454430618",
      "56612454430618 4193",
      "E E",
      "er o",
      "as k",
      "ĠR ight",
      "ĠM ost",
      "19 72",
      "ĠL et",
      "Ġpro of",
      "Ġthan k",
      "2 34",
      "H O",
      "M y",
      "b ut",
      "Ġm ass",
      "45 541",
      "Ġinv ol",
      "Ġsitu ation",
      "239 1972",
      "449 729",
      "45541 449729",
      "2391972 45541449729",
      "Ġser ious",
      "Ġfollow ing",
      "Ġan n",
      "Ġcon vers",
      "The re",
      "Ġcho ice",
      "4 9",
      "i us",
      "l ight",
      "Ġw olf",
      "Ġid k",
      "Ġturn ed",
      "Ġw anna",
      "Ġm ir",
      "or ing",
      "ĠT R",
      "ri f",
      "Ġsp orts",
      "Ġaw esome",
      "Ġpos ition",
      "Ġm ad",
      "Ġp ie",
      "ĠS ee",
      "arent ly",
      "ma o",
      "ĠH is",
      "if ul",
      "Ġper haps",
      "Ġp ath",
      "u g",
      "d ow",
      "Ġf ing",
      "Ġbec ame",
      "Ġwa iting",
      "Ġdat a",
      "wor k",
      "Ġe tc",
      "Ġatt ention",
      "A l",
      "Ġo bs",
      "Ġth reat",
      "alc olm",
      "Ġc ir",
      "T ube",
      "Ġh ot",
      "Ġapp ro",
      "kn own",
      "Ġs on",
      "Ġf ront",
      "Ġsur pr",
      "l and",
      "ic ation",
      "ig ital",
      "Ġsa fe",
      "ĠHell o",
      "Ġlangu age",
      "n ow",
      "Ġt reat",
      "Ġli l",
      "ĠS ame",
      "ific ial",
      ".... ....",
      "Ġamaz ing",
      "Ġm achine",
      "Ġb oy",
      "ĠA ge",
      "Ġbl ue",
      "j or",
      "ĠThan k",
      "p or",
      "ens en",
      "â© ī",
      "Ġsm art",
      "Ġwebs ite",
      "S he",
      "Ġs ear",
      "Ġd a",
      "++ +",
      "c ha",
      "22 32",
      "Ġbe ha",
      "74 32",
      "77 37",
      "N D",
      "in a",
      "Ġcom b",
      "416 2232",
      "7432 4162232",
      "7737 74324162232",
      "773774324162232 351",
      "2 00",
      "Ġl ay",
      "Ġan t",
      "Ġreal ize",
      "Ġgr ound",
      "Ġgot ta",
      "gg est",
      "Ġto wards",
      "Ġe ff",
      "ĠT w",
      "ac c",
      "Ġpr act",
      "in t",
      "os sible",
      "Ġchan ged",
      "Ġinfl u",
      "Ġw ind",
      "og n",
      "Ġfin ally",
      "M E",
      "if ied",
      "Ġsp read",
      "ar ing",
      "Ġvo or",
      "Ġmem ory",
      "l ish",
      "v iew",
      "Ġn one",
      "ĠA lpha",
      "Ġsu ggest",
      "y n",
      "he t",
      "Ġo cc",
      "Ġplay ed",
      "ĠI k",
      "ter s",
      "Ġ* \"",
      "Ġbl ock",
      "Ġte am",
      "Ġparent s",
      "d raft",
      "Ġs qu",
      "om b",
      "is ing",
      "op h",
      "Ġsuff ering",
      "Ġt re",
      "Ġf air",
      "al es",
      "Ġhig her",
      "m iss",
      "ĠT om",
      "Ġdo c",
      "Ġke pt",
      "Ġev idence",
      "Ġfoc us",
      "3 8",
      "f ter",
      "n en",
      "Ġst ep",
      "un k",
      "Ġpre p",
      "ij k",
      "ĠJust ice",
      "full y",
      "Ġf em",
      "if t",
      "Ġeas ier",
      "t ain",
      "Ġs ource",
      "79 50",
      "it ect",
      "im ens",
      "Ġno body",
      "Ġbro ken",
      "Ġpe ace",
      "Ġbey ond",
      "Ġcont act",
      "ress ion",
      "Ġpos sib",
      "Ġconnect ed",
      "Ġrob ot",
      "Ġgiv ing",
      "72 36",
      "end ed",
      "Ġcor rect",
      "A R",
      "iv es",
      "Ġ ?",
      "Ġst ories",
      "ra id",
      "â©Ĭ â©Ĭ",
      "l er",
      "Ġcom pl",
      "iet n",
      "Ġrep res",
      "Ġmess ages",
      "Ĩ â«",
      "Ġon line",
      "ill s",
      "Ġmonth s",
      "T H",
      "Ġd ied",
      "ĠE m",
      "Ġatt empt",
      "Ġfe ed",
      "Ġfur ther",
      "Ġwor se",
      "Ġpro p",
      "or row",
      "ir th",
      "Ġsu c",
      "r ad",
      "re l",
      "H ow",
      "22 3",
      "Ġli m",
      "Ġnot ic",
      "Ġma jor",
      "Ġbu y",
      "Ġsym bol",
      "p erson",
      "Ġbr other",
      "it es",
      "ĠO f",
      "Ġthr ow",
      "Ġaw are",
      "Ġinter net",
      "Ġresp ect",
      "Ġdet ail",
      "Ġr id",
      "ell ing",
      "ĠTh ough",
      "Ġro fl",
      "Ġpict ure",
      "Ġa i",
      "Ġne ar",
      "Ġne cess",
      "Ġso ld",
      "Ġcat s",
      "Ġvers ion",
      "Ġt roll",
      "Ġd ue",
      "Ġyou t",
      "Ġdo g",
      "ra ph",
      "un iversity",
      "ĠU k",
      "Ġcomp any",
      "am er",
      "Ġne g",
      "W hen",
      "l t",
      "Ġl ate",
      "Ġre ach",
      "ĠH ave",
      "Ġt em",
      "Ġl and",
      "9 61",
      "Ġd iv",
      "â© Į",
      "Âł Âł",
      "S T",
      "Ġc old",
      "ee ee",
      "Ġcan t",
      "Ġfight ing",
      "m on",
      "ðŁ ¤£",
      "Ġg ain",
      "ĠT e",
      "Ġv ict",
      "Ġunderstand ing",
      "Ġlearn ed",
      "Ġcontin ue",
      "ou n",
      "ar i",
      "Ġlo g",
      "Ġaf raid",
      "Ġexist ence",
      "as es",
      "96 8",
      "b ed",
      "Ġpro per",
      "Ġwr itten",
      "Ġfavor ite",
      "G ER",
      "Ġimp ossible",
      "Ġcons cious",
      "Ġmor ning",
      "ĠThan ks",
      "b o",
      "j k",
      "Ġc ore",
      "79 91",
      "Ġex cept",
      "331 8691",
      "86 3318691",
      "795 863318691",
      "961 223",
      "7991 795863318691",
      "7991795863318691 94",
      "d y",
      "u el",
      "44 486",
      "]] ,",
      "Ġfre ed",
      "lo ad",
      "7236 44486",
      "ĠS h",
      "Ġ20 19",
      "Ġpo or",
      "ĠOk ay",
      "224 723644486",
      "961223 224723644486",
      "i res",
      "ra p",
      "Ġcon spir",
      "Ġrec ord",
      "Ġorigin al",
      "Ġextreme ly",
      "Ġm ot",
      "Ġwill ing",
      "O n",
      "p ath",
      "Ġb unch",
      "ol ute",
      "ĠDo es",
      "Ġt end",
      "ĠY ep",
      "I ON",
      "he ad",
      "Ġnew s",
      "Ġbuild ing",
      "Ġbeaut iful",
      "k ed",
      "Ġwor st",
      "ĠJ e",
      "g ry",
      "m in",
      "Ġ ...",
      "Ġsu sp",
      "Ġcons ider",
      "Ġlau gh",
      "! âĢĿ",
      "Ġto ol",
      "Ġpower ful",
      "Ġco ver",
      "Ġt ired",
      "Ġd en",
      "Ġl mao",
      "Ġdes ign",
      "gr ound",
      "532 6",
      "Ġp ure",
      "Ġcoll ect",
      "b y",
      "Ģ â",
      "Ġs at",
      "ĠD iebol",
      "Ġact ual",
      "Ġcre ep",
      "ash ion",
      "Ġpri v",
      "7 81",
      "ĠH et",
      "ĠL OL",
      "ĠYou Tube",
      "ĠðŁ ¤",
      "Ġcl os",
      "Ġins ane",
      "Ġesp ecially",
      "ation al",
      "Ġes c",
      "ĠĠĠĠĠĠĠĠ ĠĠ",
      "Ġopp os",
      "Ġlar ge",
      "B I",
      "Ġb es",
      "ch itect",
      "ĠR ed",
      "ress ed",
      "ĠðŁĺ Ĥ",
      "A s",
      "Ġl ow",
      "Ġvi ol",
      "Ġstra ight",
      "Ġdanger ous",
      "29 2",
      "ist er",
      "ĠG oogle",
      "Ġam ount",
      "Ġspea king",
      "e red",
      "ĠG r",
      "ci ent",
      "ount ain",
      "Ġsoci al",
      "Ġyout ube",
      "Ġre le",
      "Ġen v",
      "Ġdam n",
      "Ġmanip ul",
      "( (",
      "41 9",
      "Ġmid dle",
      "IG GER",
      "Ġc uri",
      "Ġst uck",
      "ĠY OU",
      "Ġsc ared",
      "ĠTR IGGER",
      "A L",
      "Ġ ess",
      "Ġm ensen",
      "ĠI d",
      "Ġl ack",
      "Ġfor ward",
      "Ġk un",
      "Ġbus iness",
      "Ġr ich",
      "e y",
      "Ġ &",
      "Ġab ility",
      "ab or",
      "Ġfam il",
      "Ġfin al",
      "Ġsub ject",
      "4 41",
      "a it",
      "Ġs ens",
      "ac king",
      "Ġ1 2",
      "Ġwr ote",
      "Ġ2 00",
      "/ ).",
      "Ġn amed",
      "con s",
      "06 89",
      "71 8",
      "29 41",
      "ow ers",
      "Ġ( (",
      "ick ed",
      "Ġuni vers",
      "26 0689",
      "59 781",
      "2941 59781",
      "260689 419",
      "294159781 260689419",
      "3 72",
      "d om",
      "Ġm outh",
      "Ġk itten",
      "Ġmo der",
      "Ġal s",
      "pp ing",
      "I D",
      "Ġf ashion",
      "70 7",
      "ce ive",
      "ĠD ave",
      "ĠTh ose",
      "erest ing",
      "Ġspec ial",
      "Ġbook s",
      "Ġwel come",
      "9 70",
      "D o",
      "c he",
      "g on",
      "Ġ 30",
      "al m",
      "Ġsee med",
      "Ġsk in",
      "p re",
      "w ise",
      "Ġf it",
      "ĠL ove",
      "Ġsp end",
      "ĠO uro",
      "Ġgr and",
      "Ġmed ia",
      "re w",
      "Ġd uring",
      "ĠT O",
      "U n",
      "it ary",
      "ac ed",
      "ĠG host",
      "Ġcertain ly",
      "Ġmulti ple",
      "Ġsear ch",
      "pl oy",
      "ij d",
      "Ġapp arently",
      "b ers",
      "w are",
      "or g",
      "Ġp le",
      "ant ly",
      "30 3",
      "we ight",
      "Ġrel ated",
      "Ġop in",
      "! \"",
      "us es",
      "Ġsome body",
      "Ġbo x",
      "ĠAr t",
      "Ġbelief s",
      "ĠPer haps",
      "Ġann oy",
      "! [",
      "R e",
      "e en",
      "at a",
      "Ġcou ple",
      "Ġenem y",
      "Ġs we",
      "Ġu r",
      "Ġhar m",
      "Ġallow ed",
      "al y",
      "Ġh ide",
      "Ġh ij",
      "ĠW or",
      "ĠW ill",
      "Ġmet h",
      "Ġp en",
      "82 1",
      "Ġwork ed",
      "OR D",
      "Ġa an",
      "Ġa ud",
      "Ġc oin",
      "Ġd i",
      "55 99",
      "im in",
      "Ġso ft",
      "ĠR em",
      "Ġro y",
      "Ġproble ms",
      "Ġsex ual",
      "ĠOn ly",
      "ĉ Ġ",
      "ĠI S",
      "ill ed",
      "7106 718",
      "Ġro ll",
      "Ġreason s",
      "Ġresp ond",
      "arc iss",
      "707 7106718",
      "303 7077106718",
      "5599 3037077106718",
      "i i",
      "j e",
      "Ġb irth",
      "Ġact ions",
      "10 55993037077106718",
      "Ġfl oor",
      "Ġsl a",
      "Ġsupp ose",
      "Ġcle an",
      "Ġh op",
      "Ġas ks",
      "Ġknow ing",
      "oc r",
      "Ġdiffe rence",
      "dd en",
      "C h",
      "ĠA m",
      "Ġanim als",
      "a ith",
      "w hat",
      "Ġ âĢ¦",
      "ed s",
      "Ġn aar",
      "ue en",
      "Ġinter act",
      "ateg ories",
      "V E",
      "k y",
      "Ġ ^",
      "Ġa ch",
      "Ġen c",
      "Ġsk y",
      "ĠEC HO",
      "20 21",
      "Ġsh ot",
      "fort un",
      "en cy",
      "Ġf ell",
      "ra ine",
      "th ough",
      "Ġter rible",
      "ĠInt eresting",
      "l ass",
      "u ra",
      "z en",
      "ic le",
      "55 55",
      "Ġpro gress",
      "ook y",
      "Ġcont ext",
      "Ġbu ilt",
      "Ġob ject",
      "e ks",
      "u ed",
      "79 6",
      "45 2",
      "Ġst ars",
      "Ġnotic ed",
      "1 50",
      "L uciferian",
      "ħ â«",
      "Ġlear ning",
      "Ġiss ue",
      "Ġo per",
      "46 4",
      "os p",
      "el s",
      "iv ed",
      "Ġfl at",
      "â« ĸ",
      "Ġmem ories",
      "Ġmiss ing",
      "Ġcommun ity",
      "Ġcol or",
      "Ġtom ato",
      "enn is",
      "46 446",
      "Ġte ach",
      "â© Ī",
      "Ġexper iment",
      "pect ive",
      "Ġabs olute",
      "234 46446",
      "970 5555",
      "23446446 9705555",
      "234464469705555 968",
      "Ġp un",
      "Ġma ar",
      "Ġconf used",
      "Ġfreed om",
      "ic ate",
      "ic king",
      "Ġrul es",
      "Ġt ree",
      "Ġh yp",
      "ac ing",
      "Ġsc ream",
      "N ot",
      "b it",
      "h ips",
      "t f",
      "Ġhe av",
      "Ġdec ided",
      "r c",
      "en ed",
      "se t",
      "Ġdo ct",
      "ĠB en",
      "Ġpl aces",
      "F or",
      "Ġha ll",
      "Ġha ck",
      "Ġsu dden",
      "Ġde le",
      "Ġl a",
      "Ġsu mm",
      "ĠM oon",
      "Ġsc ience",
      "Ġz o",
      "Ġpre fer",
      "Ġgod s",
      "Ġmatter s",
      "Ġref er",
      "Ġhu ge",
      "re ci",
      "Ġp ort",
      "et h",
      "ĠA g",
      "Ġst ri",
      "Ġint ent",
      "Ġher self",
      "Ġlo ck",
      "hh hh",
      "ĠQ u",
      "Ġgre en",
      "Ġmention ed",
      ". *",
      "ĠS ha",
      "el come",
      "ĠHe y",
      "Ġdisc uss",
      "Ġgl ad",
      "Ġgener al",
      "Ġho le",
      "O W",
      "b h",
      "Ġe le",
      "ic an",
      "Ġsh oot",
      "ietn am",
      "5 88",
      "ł Ģâ",
      "il ia",
      "ĠL ook",
      "Ĩâ« ħâ«",
      "p ret",
      "29 7",
      "Ġmo ving",
      "Ġx an",
      "ĠQ ueen",
      "v ior",
      "z z",
      "Ġin de",
      "ĠA ct",
      "Ġj ump",
      "32 32",
      "med i",
      "Ġconvers ation",
      "r r",
      "ot hes",
      "Ġe arly",
      "Ġad ult",
      "Ġrec ogn",
      "ove red",
      "Ġobvious ly",
      "Ġinvol ved",
      "6 7",
      "O ne",
      "ll y",
      "99 297",
      "75 01",
      "Ġsome where",
      "ĠE rin",
      "995 7501",
      "ive ly",
      "ĠG o",
      "Ġhid den",
      "796 9957501",
      "588 7969957501",
      "5887969957501 99297",
      "Ġf old",
      "at ors",
      "Ġbe at",
      "41 20",
      "one ly",
      "ie ve",
      "de red",
      "Ġincl ud",
      "Ġtou ch",
      "Ġrelations hip",
      "Ã ©",
      "Ġ 19",
      "men u",
      "Ĩâ«ħâ« Ĩâ«ħâ«",
      "c ategories",
      "l a",
      "Ġb ill",
      "Ġk ing",
      "ĠB r",
      "ĠO ur",
      "ĠWh ile",
      "ĠHow ever",
      "K E",
      "Ġb od",
      "Ġl ord",
      "Ġgo ld",
      "iz ing",
      "side red",
      "D e",
      "i ge",
      "Ġbe gan",
      "im ate",
      "Ġem ail",
      "Ġpred ict",
      "ĠRussi a",
      "A ll",
      "d es",
      "Ġg ay",
      "Ġin k",
      "Ġsome how",
      "Ġun known",
      "ĠHe re",
      "Ġbr ought",
      "Ġcount ries",
      "erv ation",
      "ro om",
      "Ġcon sidered",
      "Ġsh ut",
      "Ġsh ip",
      "ast er",
      "Ġbl ind",
      "7 79",
      "Ġc y",
      "Ġin n",
      "Ġnot ice",
      "ir on",
      "ĠD ark",
      "F odder",
      "Ġs ep",
      "Ġr ad",
      "Ġcom ment",
      "Ġim medi",
      "Ġâ ī",
      "Ġinterest ed",
      "Ġinv est",
      "Ġru le",
      "person as",
      "Ġconspir acy",
      "Ġmeth od",
      "Ġt ort",
      "er d",
      "Ġmo on",
      "Ġma le",
      "Ġdis app",
      "Ġapp reci",
      "Ġbecom es",
      "0 4",
      "s c",
      "Ġcan n",
      "og raph",
      "Ġrec ently",
      "Ġweap on",
      "Ġ 62",
      "ll en",
      "Ġha ir",
      "ĠM alcolm",
      "ĠN OT",
      "Ġcont ain",
      "Ġpart s",
      "Ġser v",
      "Ġrepres ent",
      "Ġroy als",
      ". *\"",
      "ha r",
      "Ġf ield",
      "Ġn or",
      "Ġlo ved",
      "Ġpos s",
      "Ġpost ed",
      "e ps",
      "en ces",
      "at ure",
      "al king",
      "Ġam ong",
      "Ġact ion",
      "Ġw ild",
      "er m",
      "ol ution",
      "Ġv acc",
      "]( ((",
      "â« ķ",
      "Ġcharacter s",
      "g or",
      "Ġ ou",
      "ĠP lease",
      "ab les",
      "Ġcall ing",
      "Ġph ot",
      "?? ?",
      "y ou",
      "Ġ ut",
      "Ġt ennis",
      "Ġp an",
      "ot es",
      "Ġkill ing",
      "ĠZ e",
      "Ġc e",
      "Ġc ross",
      "Ġrep e",
      "ĠEx actly",
      "Ġbegin ning",
      "L ove",
      "om en",
      "ĠW E",
      "ri x",
      "Ġma ster",
      "ĠC l",
      "ound s",
      "sp ooky",
      "ru pt",
      "ru gg",
      "cl ass",
      "Ġdem on",
      "Ġw aste",
      "Ġf oot",
      "Ġe ating",
      "ard en",
      "Ġmoder n",
      "Ġinde ed",
      "T I",
      "Ġw is",
      "Ġo dd",
      "Ġhe aven",
      "un g",
      "ĠF old",
      "Ġstart ing",
      "Ġdes er",
      "Ġtalk ed",
      "Ġfollow ers",
      "5 3",
      "Ġw it",
      "Ġtr ou",
      "Ġpl ant",
      "ag ed",
      "23 70",
      "Ġsoul s",
      "Ġpol ice",
      "Ġlisten ing",
      "Ġsuc cess",
      "ĠUk raine",
      "Ġm ountain",
      "Ġc ell",
      "Ġd ad",
      "ro p",
      "Ġ> .",
      "ok a",
      "Ġemot ions",
      "Ġrespon se",
      "ĠRE C",
      "t r",
      "Ġc ard",
      "ir m",
      "ĠW as",
      "ĠH a",
      "ĠP r",
      "Ġus er",
      "pl ay",
      "Ġsuff er",
      "Ġcuri ous",
      "\" .",
      "Ġa uthor",
      "er c",
      "Ġlo ad",
      "Ġar m",
      "Ġbo red",
      "Ġfe et",
      "Ġw ife",
      "Ġc aught",
      "Ġc amer",
      "Ġd om",
      "Ġf ly",
      "it ter",
      "ĠH el",
      "ĠY et",
      "ak en",
      "Ġcry pt",
      "Ġdru gs",
      "3 80",
      "J ust",
      "d uc",
      "u ff",
      "v id",
      "Ġf ant",
      "Ġp ush",
      "ĠS atan",
      "ĠD am",
      "th is",
      "Ġiss ues",
      "cons cious",
      "Ġposs ess",
      "b ook",
      "Ġf an",
      "Ġth ous",
      "Ġu it",
      "Ġreal ized",
      "Ġacc ur",
      "bl ing",
      "Ġeas ily",
      "Ġquick ly",
      "O h",
      "Ġst ream",
      "Ġsa f",
      "cri ption",
      "ĠREC ORD",
      "t om",
      "Ġt on",
      "Ġb ird",
      "ĠI T",
      "ant um",
      "Ġapp ear",
      "Ġbro ke",
      "łĢâ łĢâ",
      "6 6",
      "I k",
      "p ter",
      "76 779",
      "74 729",
      "Ġrec all",
      "Ġpie ce",
      "821 76779",
      "452 82176779",
      "74729 45282176779",
      "7472945282176779 38",
      "S C",
      "k er",
      "Ġ 24",
      "Ġc ost",
      "an ces",
      "Ġwe eks",
      "Ġtr ick",
      "iz a",
      "Ġnat ural",
      "Ġdirect ly",
      "p x",
      "p ing",
      "p ite",
      "as c",
      "ri b",
      "ĠB y",
      "Ġr ing",
      "ĠF l",
      "Ġmind s",
      "Ġev ents",
      "Ġsim ulation",
      "Ġter m",
      "Ġpa per",
      "Ġeff ort",
      "1 48",
      "as y",
      "Ġv ol",
      "Ġshould n",
      "Ġhor ror",
      "ĠEvery one",
      "Ġtom orrow",
      "Ġpers pective",
      "Ġjud ge",
      "0 86",
      "st r",
      "Ġn ames",
      "Ġinter pret",
      "Ġexist s",
      "Ġrob ots",
      "Ġintellig ence",
      "in ta",
      "Ġn et",
      "Ġon to",
      "ver age",
      "im age"
    ]
  }
}