{
  "version": "1.0",
  "truncation": null,
  "padding": null,
  "added_tokens": [
    {
      "id": 0,
      "content": "<|endoftext|>",
      "single_word": false,
      "lstrip": false,
      "rstrip": false,
      "normalized": false,
      "special": true
    }
  ],
  "normalizer": null,
  "pre_tokenizer": {
    "type": "ByteLevel",
    "add_prefix_space": false,
    "trim_offsets": true,
    "use_regex": true
  },
  "post_processor": {
    "type": "ByteLevel",
    "add_prefix_space": true,
    "trim_offsets": true,
    "use_regex": true
  },
  "decoder": {
    "type": "ByteLevel",
    "add_prefix_space": true,
    "trim_offsets": true,
    "use_regex": true
  },
  "model": {
    "type": "BPE",
    "dropout": null,
    "unk_token": null,
    "continuing_subword_prefix": null,
    "end_of_word_suffix": null,
    "fuse_unk": false,
    "vocab": {
      "<|endoftext|>": 0,
      "!": 1,
      "\"": 2,
      "#": 3,
      "$": 4,
      "%": 5,
      "&": 6,
      "'": 7,
      "(": 8,
      ")": 9,
      "*": 10,
      "+": 11,
      ",": 12,
      "-": 13,
      ".": 14,
      "/": 15,
      "0": 16,
      "1": 17,
      "2": 18,
      "3": 19,
      "4": 20,
      "5": 21,
      "6": 22,
      "7": 23,
      "8": 24,
      "9": 25,
      ":": 26,
      ";": 27,
      "<": 28,
      "=": 29,
      ">": 30,
      "?": 31,
      "@": 32,
      "A": 33,
      "B": 34,
      "C": 35,
      "D": 36,
      "E": 37,
      "F": 38,
      "G": 39,
      "H": 40,
      "I": 41,
      "J": 42,
      "K": 43,
      "L": 44,
      "M": 45,
      "N": 46,
      "O": 47,
      "P": 48,
      "Q": 49,
      "R": 50,
      "S": 51,
      "T": 52,
      "U": 53,
      "V": 54,
      "W": 55,
      "X": 56,
      "Y": 57,
      "Z": 58,
      "[": 59,
      "\\": 60,
      "]": 61,
      "^": 62,
      "_": 63,
      "`": 64,
      "a": 65,
      "b": 66,
      "c": 67,
      "d": 68,
      "e": 69,
      "f": 70,
      "g": 71,
      "h": 72,
      "i": 73,
      "j": 74,
      "k": 75,
      "l": 76,
      "m": 77,
      "n": 78,
      "o": 79,
      "p": 80,
      "q": 81,
      "r": 82,
      "s": 83,
      "t": 84,
      "u": 85,
      "v": 86,
      "w": 87,
      "x": 88,
      "y": 89,
      "z": 90,
      "{": 91,
      "|": 92,
      "}": 93,
      "~": 94,
      "¡": 95,
      "¢": 96,
      "£": 97,
      "¤": 98,
      "¥": 99,
      "¦": 100,
      "§": 101,
      "¨": 102,
      "©": 103,
      "ª": 104,
      "«": 105,
      "¬": 106,
      "®": 107,
      "¯": 108,
      "°": 109,
      "±": 110,
      "²": 111,
      "³": 112,
      "´": 113,
      "µ": 114,
      "¶": 115,
      "·": 116,
      "¸": 117,
      "¹": 118,
      "º": 119,
      "»": 120,
      "¼": 121,
      "½": 122,
      "¾": 123,
      "¿": 124,
      "À": 125,
      "Á": 126,
      "Â": 127,
      "Ã": 128,
      "Ä": 129,
      "Å": 130,
      "Æ": 131,
      "Ç": 132,
      "È": 133,
      "É": 134,
      "Ê": 135,
      "Ë": 136,
      "Ì": 137,
      "Í": 138,
      "Î": 139,
      "Ï": 140,
      "Ð": 141,
      "Ñ": 142,
      "Ò": 143,
      "Ó": 144,
      "Ô": 145,
      "Õ": 146,
      "Ö": 147,
      "×": 148,
      "Ø": 149,
      "Ù": 150,
      "Ú": 151,
      "Û": 152,
      "Ü": 153,
      "Ý": 154,
      "Þ": 155,
      "ß": 156,
      "à": 157,
      "á": 158,
      "â": 159,
      "ã": 160,
      "ä": 161,
      "å": 162,
      "æ": 163,
      "ç": 164,
      "è": 165,
      "é": 166,
      "ê": 167,
      "ë": 168,
      "ì": 169,
      "í": 170,
      "î": 171,
      "ï": 172,
      "ð": 173,
      "ñ": 174,
      "ò": 175,
      "ó": 176,
      "ô": 177,
      "õ": 178,
      "ö": 179,
      "÷": 180,
      "ø": 181,
      "ù": 182,
      "ú": 183,
      "û": 184,
      "ü": 185,
      "ý": 186,
      "þ": 187,
      "ÿ": 188,
      "Ā": 189,
      "ā": 190,
      "Ă": 191,
      "ă": 192,
      "Ą": 193,
      "ą": 194,
      "Ć": 195,
      "ć": 196,
      "Ĉ": 197,
      "ĉ": 198,
      "Ċ": 199,
      "ċ": 200,
      "Č": 201,
      "č": 202,
      "Ď": 203,
      "ď": 204,
      "Đ": 205,
      "đ": 206,
      "Ē": 207,
      "ē": 208,
      "Ĕ": 209,
      "ĕ": 210,
      "Ė": 211,
      "ė": 212,
      "Ę": 213,
      "ę": 214,
      "Ě": 215,
      "ě": 216,
      "Ĝ": 217,
      "ĝ": 218,
      "Ğ": 219,
      "ğ": 220,
      "Ġ": 221,
      "ġ": 222,
      "Ģ": 223,
      "ģ": 224,
      "Ĥ": 225,
      "ĥ": 226,
      "Ħ": 227,
      "ħ": 228,
      "Ĩ": 229,
      "ĩ": 230,
      "Ī": 231,
      "ī": 232,
      "Ĭ": 233,
      "ĭ": 234,
      "Į": 235,
      "į": 236,
      "İ": 237,
      "ı": 238,
      "Ĳ": 239,
      "ĳ": 240,
      "Ĵ": 241,
      "ĵ": 242,
      "Ķ": 243,
      "ķ": 244,
      "ĸ": 245,
      "Ĺ": 246,
      "ĺ": 247,
      "Ļ": 248,
      "ļ": 249,
      "Ľ": 250,
      "ľ": 251,
      "Ŀ": 252,
      "ŀ": 253,
      "Ł": 254,
      "ł": 255,
      "Ń": 256,
      "ĠT": 257,
      "Ġo": 258,
      "Ġa": 259,
      "Ġd": 260,
      "Ġt": 261,
      "ĠA": 262,
      "Ġe": 263,
      "Ġy": 264,
      "Ġm": 265,
      "Ġu": 266,
      "Ġc": 267,
      "ĠĊ": 268,
      "Ġi": 269,
      "ou": 270,
      "Ã©": 271,
      "ĠQ": 272,
      "ĠC": 273,
      "ro": 274,
      "Ġ&": 275,
      "Ġ\"": 276,
      "ĠÂ": 277,
      "Ġp": 278,
      "er": 279,
      "Ġv": 280,
      "Ġs": 281,
      "Ġ7": 282,
      "es": 283,
      "at": 284,
      "ĠTO": 285,
      "io": 286,
      "ĠG": 287,
      "an": 288,
      "Ġto": 289,
      "he": 290,
      "ĠS": 291,
      "Ġ6": 292,
      "or": 293,
      "ot": 294,
      "ov": 295,
      "à¤": 296,
      "Ġ0": 297,
      "ĠY": 298,
      "ĠV": 299,
      "Ġ4": 300,
      "ĠO": 301,
      "ĠĠ": 302,
      "Ġ3": 303,
      "Ġx": 304,
      "oo": 305,
      "ĠQu": 306,
      "Ġg": 307,
      "ĠE": 308,
      "ĠI": 309,
      "Ġ1": 310,
      "Ġ2": 311,
      "ĠK": 312,
      "ĠX": 313,
      "ĠM": 314,
      "ĠÃ": 315,
      "Ġw": 316,
      "ie": 317,
      "al": 318,
      "is": 319,
      "Ġ×": 320,
      "in": 321,
      "on": 322,
      "ic": 323,
      "Ġk": 324,
      "Ġf": 325,
      "Ġ-": 326,
      "Ġq": 327,
      "Ġor": 328,
      "le": 329,
      "Ġr": 330,
      "uo": 331,
      "ĠD": 332,
      "en": 333,
      "ĠTo": 334,
      "et": 335,
      "Ġthe": 336,
      "ĠL": 337,
      "ĠP": 338,
      "Ġâ": 339,
      "ue": 340,
      "Ġn": 341,
      "Ġ(": 342,
      "us": 343,
      "oc": 344,
      "ar": 345,
      "Ġh": 346,
      "id": 347,
      "ay": 348,
      "ĠÂ«": 349,
      "TO": 350,
      "ĠR": 351,
      "od": 352,
      "as": 353,
      "Ĥ¬": 354,
      "ĠJ": 355,
      "it": 356,
      "ĠÃ©": 357,
      "nd": 358,
      "Ġis": 359,
      "ĠÂ£": 360,
      "ĠU": 361,
      "Ġ9": 362,
      "Ġl": 363,
      "os": 364,
      "à¸": 365,
      "ion": 366,
      "00": 367,
      "ad": 368,
      "Ġb": 369,
      "ug": 370,
      "to": 371,
      "me": 372,
      "Ġdi": 373,
      "re": 374,
      "Ġ,": 375,
      "ac": 376,
      "uc": 377,
      "ĠB": 378,
      "Ġyou": 379,
      "ee": 380,
      "ub": 381,
      "à¥": 382,
      "ig": 383,
      "eo": 384,
      "Ø§": 385,
      "ud": 386,
      "ed": 387,
      "est": 388,
      "Ġof": 389,
      "×ķ": 390,
      "og": 391,
      "ĠTU": 392,
      "ol": 393,
      "ut": 394,
      "ĠâĤ¬": 395,
      "âĢ": 396,
      "×Ļ": 397,
      "Ġand": 398,
      "ex": 399,
      "Ġad": 400,
      "Ġ)": 401,
      "oy": 402,
      "ĠĠĊ": 403,
      "ve": 404,
      "Â«": 405,
      "ĠN": 406,
      "Ġ8": 407,
      "Ã³": 408,
      "Ġ5": 409,
      "oi": 410,
      "ĠTI": 411,
      "ĠH": 412,
      "estion": 413,
      "oe": 414,
      "ia": 415,
      "ĠAc": 416,
      "Ġ.": 417,
      "Ġro": 418,
      "Ġov": 419,
      "ĠØ": 420,
      "Ġj": 421,
      "ĠW": 422,
      "Ã©Ã©": 423,
      "Ġdo": 424,
      "×Ĳ": 425,
      "ĠĠĠĠ": 426,
      "au": 427,
      "ec": 428,
      "Â£": 429,
      "Ġà¤": 430,
      "il": 431,
      "el": 432,
      "ow": 433,
      "ÃĢ": 434,
      "ĠoU": 435,
      "ae": 436,
      "Ġth": 437,
      "um": 438,
      "âĢĭ": 439,
      "ĠQuestion": 440,
      "ur": 441,
      "Ãł": 442,
      "ĠQU": 443,
      "ĠTE": 444,
      "ag": 445,
      "ĠÙ": 446,
      "em": 447,
      "Ġqu": 448,
      "OU": 449,
      "Ãī": 450,
      "ĠF": 451,
      "Ġmm": 452,
      "ere": 453,
      "Â»": 454,
      "ai": 455,
      "ing": 456,
      "op": 457,
      "ĠÂ»": 458,
      "ĠTe": 459,
      "Ġex": 460,
      "ÙĦ": 461,
      "âĢĭâĢĭ": 462,
      "ĠTOL": 463,
      "Ġyo": 464,
      "×Ļ×": 465,
      "am": 466,
      "Ġ70": 467,
      "ui": 468,
      "ĠTOV": 469,
      "Ġal": 470,
      "Ġat": 471,
      "Ġz": 472,
      "ĠÃł": 473,
      "ua": 474,
      "ĠTh": 475,
      "iv": 476,
      "om": 477,
      "Ġot": 478,
      "ĠTT": 479,
      "ÉĶ": 480,
      "ak": 481,
      "Ġit": 482,
      "ux": 483,
      "ĠYou": 484,
      "ev": 485,
      "×ķ×": 486,
      "ox": 487,
      "uk": 488,
      "Ã¡": 489,
      "im": 490,
      "yy": 491,
      "un": 492,
      "Ġon": 493,
      "ra": 494,
      "ate": 495,
      "Ġye": 496,
      "di": 497,
      "ĠTX": 498,
      "ĠThe": 499,
      "Ġwh": 500,
      "ĠÂ®": 501,
      "Ġ$": 502,
      "ĠÎ": 503,
      "Ġac": 504,
      "ao": 505,
      "ÙĨ": 506,
      "âĤ¬": 507,
      "Ùī": 508,
      "ab": 509,
      "01": 510,
      "ei": 511,
      "TI": 512,
      "oU": 513,
      "ĠÃ³": 514,
      "Ġ×Ĳ": 515,
      "ĠTOU": 516,
      "Ġoc": 517,
      "Ġus": 518,
      "ĠTi": 519,
      "ĠâĢ": 520,
      "ri": 521,
      "Ġem": 522,
      "ul": 523,
      "ðŁ": 524,
      "ðŁĩ": 525,
      "ÃŃ": 526,
      "Ġme": 527,
      "Ġ[": 528,
      "×¢": 529,
      "Ġ00": 530,
      "Ġhe": 531,
      "ÙĪ": 532,
      "ãģ": 533,
      "av": 534,
      "te": 535,
      "Ø±": 536,
      "Ġin": 537,
      "à¥į": 538,
      "ĠTH": 539,
      "ap": 540,
      "ĠTA": 541,
      "ĠQuan": 542,
      "Ġod": 543,
      "ok": 544,
      "ye": 545,
      "ix": 546,
      "up": 547,
      "ero": 548,
      "ĠOU": 549,
      "Ġet": 550,
      "ore": 551,
      "ir": 552,
      "ĠÃī": 553,
      "Ġau": 554,
      "ĠEx": 555,
      "TE": 556,
      "yo": 557,
      "Ãĵ": 558,
      "th": 559,
      "Ġ*": 560,
      "ÙĬ": 561,
      "Ã¼": 562,
      "Ö¸": 563,
      "ugg": 564,
      "ĠQuestions": 565,
      "ey": 566,
      "li": 567,
      "×¨": 568,
      "Ġ|": 569,
      "Ġmo": 570,
      "Ġux": 571,
      "Ġtu": 572,
      "Ã©Ã©Ã©Ã©": 573,
      "Ġ^": 574,
      "Ùħ": 575,
      "lo": 576,
      "ĠTR": 577,
      "st": 578,
      "ep": 579,
      "ĠĠĠĊ": 580,
      "Î±": 581,
      "ax": 582,
      "ii": 583,
      "Ġ10": 584,
      "ĠAx": 585,
      "Ac": 586,
      "..": 587,
      "Ö·": 588,
      "aa": 589,
      "To": 590,
      "se": 591,
      "Ġou": 592,
      "ame": 593,
      "Ġan": 594,
      "ĠTG": 595,
      "ĠAd": 596,
      "uu": 597,
      "ce": 598,
      "99": 599,
      "Ġed": 600,
      "wo": 601,
      "à¹": 602,
      "OY": 603,
      "Ġde": 604,
      "à¤¾": 605,
      "Ġle": 606,
      "co": 607,
      "Ġoi": 608,
      "nt": 609,
      "TU": 610,
      "ent": 611,
      "Øª": 612,
      "pe": 613,
      "of": 614,
      "Ġar": 615,
      "tu": 616,
      "Ġai": 617,
      "Ø¯": 618,
      "OV": 619,
      "Ð°": 620,
      "Ġdie": 621,
      "if": 622,
      "Ã¶": 623,
      "Î¹": 624,
      "Ġer": 625,
      "Ġdu": 626,
      "ĠAn": 627,
      "ĠTu": 628,
      "ÏĦ": 629,
      "Ġbe": 630,
      "Ġvo": 631,
      "Ġue": 632,
      "TOL": 633,
      "Î¿": 634,
      "ĠTV": 635,
      "&&": 636,
      "ho": 637,
      "×ľ": 638,
      "11": 639,
      "uggugg": 640,
      "out": 641,
      "×ĺ": 642,
      "Ġui": 643,
      "Ġuc": 644,
      "tt": 645,
      "10": 646,
      "ode": 647,
      "rom": 648,
      "Ġco": 649,
      "ĠGU": 650,
      "gu": 651,
      "Ġas": 652,
      "AG": 653,
      "ĠÐ": 654,
      "Ġen": 655,
      "Ġare": 656,
      "rot": 657,
      "Ġeu": 658,
      "ĠTÃī": 659,
      "go": 660,
      "Qu": 661,
      "Ġop": 662,
      "vo": 663,
      "Ġ30": 664,
      "ek": 665,
      "ti": 666,
      "Ġoy": 667,
      "Ġfor": 668,
      "ĠØ§": 669,
      "eu": 670,
      "âĢĭâĢĭâĢĭâĢĭ": 671,
      "ĠaU": 672,
      "OL": 673,
      "ĠTl": 674,
      "Ġul": 675,
      "ea": 676,
      "Ġam": 677,
      "ĠTÃĢ": 678,
      "Ġgo": 679,
      "ove": 680,
      "ave": 681,
      "Ġoe": 682,
      "ĠTOY": 683,
      "ts": 684,
      "Ġday": 685,
      "Ġev": 686,
      "'s": 687,
      "gg": 688,
      "Îµ": 689,
      "ĠAu": 690,
      "ĠTC": 691,
      "TH": 692,
      "Ġsa": 693,
      "Ġ40": 694,
      "×¡": 695,
      "uck": 696,
      "Ġsay": 697,
      "Ġdb": 698,
      "ðŁĩ·": 699,
      "oa": 700,
      "Ġdix": 701,
      "ðŁĩ§": 702,
      "Ġthat": 703,
      "Ġei": 704,
      "ĠTr": 705,
      "×Ķ": 706,
      "ĠTOI": 707,
      "ðŁĩ§ðŁĩ·": 708,
      "ya": 709,
      "de": 710,
      "Ġ72": 711,
      "LL": 712,
      "Ġso": 713,
      "ill": 714,
      "cc": 715,
      "db": 716,
      "Ġmore": 717,
      "mm": 718,
      "ik": 719,
      "Ġdio": 720,
      "ÛĮ": 721,
      "ĠCA": 722,
      "Ø³": 723,
      "OD": 724,
      "ss": 725,
      "ĠSt": 726,
      "ith": 727,
      "Ġab": 728,
      "ĠQA": 729,
      "Ġnot": 730,
      "ĠGo": 731,
      "Ġko": 732,
      "po": 733,
      "The": 734,
      "lex": 735,
      "ter": 736,
      "eg": 737,
      "'m": 738,
      "ĠAo": 739,
      "Ġox": 740,
      "Ġwhat": 741,
      "×§": 742,
      "ly": 743,
      "ĠĠĠĠĊ": 744,
      "ĠÕ": 745,
      "uy": 746,
      "ĠdY": 747,
      "Ġec": 748,
      "âĢĶ": 749,
      "iov": 750,
      "Ûķ": 751,
      "ĠKo": 752,
      "aw": 753,
      "à¤°": 754,
      "ĠAC": 755,
      "ĠÂ¶": 756,
      "AM": 757,
      "ry": 758,
      "hat": 759,
      "Ġuo": 760,
      "Ġmy": 761,
      "Ġti": 762,
      "Ġob": 763,
      "Ġ20": 764,
      "udi": 765,
      "Ġid": 766,
      "Ġax": 767,
      "ĠYOU": 768,
      "Ġud": 769,
      "ĠKot": 770,
      "Ġst": 771,
      "OI": 772,
      "Ġes": 773,
      "Ġthere": 774,
      "Ġ:": 775,
      "44": 776,
      "Î½": 777,
      "Ġpu": 778,
      "ĠAG": 779,
      "Ø¨": 780,
      "Ġ'": 781,
      "ock": 782,
      "Ġall": 783,
      "ģĦ": 784,
      "ge": 785,
      "her": 786,
      "cy": 787,
      "ant": 788,
      "ci": 789,
      "Ġ200": 790,
      "art": 791,
      "ĠĠĠĠĠĊ": 792,
      "Ġtwo": 793,
      "ba": 794,
      "71": 795,
      "and": 796,
      "our": 797,
      "OT": 798,
      "ĠÃģ": 799,
      "la": 800,
      "Ùĥ": 801,
      "à¤¿": 802,
      "ich": 803,
      "Ġtub": 804,
      "20": 805,
      "rov": 806,
      "Ġ29": 807,
      "Ġdv": 808,
      "Ġdk": 809,
      "Ġsu": 810,
      "pa": 811,
      "one": 812,
      "mo": 813,
      "ĠHe": 814,
      "Ġwas": 815,
      "OO": 816,
      "70": 817,
      "ĠKod": 818,
      "ĠTOC": 819,
      "ck": 820,
      "Ãģ": 821,
      "×ĵ": 822,
      "ĠCU": 823,
      "Ġ33": 824,
      "Ġtoo": 825,
      "ct": 826,
      "Ġos": 827,
      "ĠToU": 828,
      "ĠTY": 829,
      "ãĥ": 830,
      "ous": 831,
      "ĠTov": 832,
      "Ġae": 833,
      "Ġoo": 834,
      "Ġey": 835,
      "AC": 836,
      "ĠAU": 837,
      "ood": 838,
      "Ġdd": 839,
      "ch": 840,
      "ĠQue": 841,
      "Ġ/": 842,
      "Ïģ": 843,
      "Ġeo": 844,
      "à¤¨": 845,
      "Ïĥ": 846,
      "ĠdU": 847,
      "ãĤ": 848,
      "igh": 849,
      "ote": 850,
      "Ġdt": 851,
      "Ġte": 852,
      "Õ¡": 853,
      "Ġml": 854,
      "ĠKor": 855,
      "ĠAl": 856,
      "Ġdid": 857,
      "ĠÃ¡": 858,
      "rr": 859,
      "ãĢ": 860,
      "ates": 861,
      "ĠAe": 862,
      "qu": 863,
      "ers": 864,
      "Ġol": 865,
      "ĠOY": 866,
      "ĠGe": 867,
      "Ġcu": 868,
      "Ġ22": 869,
      "ĠAcy": 870,
      "×ł": 871,
      "ĠâģĦ": 872,
      "Ġcv": 873,
      "any": 874,
      "à¤¤": 875,
      "ĠTIO": 876,
      "40": 877,
      "AS": 878,
      "ive": 879,
      "Ġow": 880,
      "Ùĩ": 881,
      "ĠAN": 882,
      "TX": 883,
      "ord": 884,
      "Ġfrom": 885,
      "TOU": 886,
      "fe": 887,
      "Ġuy": 888,
      "va": 889,
      "ga": 890,
      "Ġci": 891,
      "ob": 892,
      "Ġ60": 893,
      "ros": 894,
      "Ġwith": 895,
      "TOV": 896,
      "ĠÙħ": 897,
      "Ġ49": 898,
      "Ġ;": 899,
      "Ġap": 900,
      "Ġsaid": 901,
      "ĠCE": 902,
      "ooo": 903,
      "16": 904,
      "ĠÃĵ": 905,
      "AU": 906,
      "Ġyour": 907,
      "Ġup": 908,
      "ÙĤ": 909,
      "Ġyy": 910,
      "ĠIt": 911,
      "Ġxo": 912,
      "Ġ×ŀ": 913,
      "ĠCo": 914,
      "Ã©i": 915,
      "ess": 916,
      "Ġpa": 917,
      "×Ł": 918,
      "ĠZ": 919,
      "ĠâĢĶ": 920,
      "22": 921,
      "Ġua": 922,
      "all": 923,
      "ott": 924,
      "ber": 925,
      "ĠTc": 926,
      "ĠÑ": 927,
      "ice": 928,
      "DU": 929,
      "×ŀ": 930,
      "à¥ĭ": 931,
      "ation": 932,
      "Ġ300": 933,
      "ard": 934,
      "Ġ44": 935,
      "ane": 936,
      "Ãį": 937,
      "TT": 938,
      "oto": 939,
      "ook": 940,
      "Ti": 941,
      "Ġ×ķ": 942,
      "Ã©Ã©Ã©Ã©Ã©Ã©Ã©Ã©": 943,
      "Th": 944,
      "Ġgu": 945,
      "AI": 946,
      "Ġch": 947,
      "AL": 948,
      "Ġpe": 949,
      "QU": 950,
      "ty": 951,
      "ĠTv": 952,
      "Ġyes": 953,
      "ĠØ§ÙĦ": 954,
      "Ġ?": 955,
      "cu": 956,
      "ĠØ¨": 957,
      "ew": 958,
      "rou": 959,
      "Ġ38": 960,
      "ĠAnd": 961,
      ").": 962,
      "Ð½": 963,
      "Ġhave": 964,
      "ta": 965,
      "ĠOR": 966,
      "ip": 967,
      "zo": 968,
      "Question": 969,
      "Ġpl": 970,
      "Ġun": 971,
      "Ġsub": 972,
      "Ġho": 973,
      "Ġwhich": 974,
      "ide": 975,
      "Ġag": 976,
      "ff": 977,
      "Ġ01": 978,
      "Ġ39": 979,
      "Ġ×ĺ": 980,
      "Ġ×§": 981,
      "IS": 982,
      "ĠTs": 983,
      "ĠTot": 984,
      "Ġve": 985,
      "Ġdic": 986,
      "ake": 987,
      "Ġaj": 988,
      "Ġca": 989,
      "Ġao": 990,
      "ĠAv": 991,
      "ĠQub": 992,
      "Ġauo": 993,
      "ĠCon": 994,
      "×ĳ": 995,
      "ĠÃ©p": 996,
      "AT": 997,
      "Ġ16": 998,
      "ist": 999,
      "ĠoV": 1000,
      "ĠTie": 1001,
      "ne": 1002,
      "Ġ×Ķ": 1003,
      "Ġwill": 1004,
      "ute": 1005,
      "Ġre": 1006,
      "06": 1007,
      "ÏĢ": 1008,
      "Ġut": 1009,
      "Ġpo": 1010,
      "Ġ×ĵ": 1011,
      "Ax": 1012,
      "ĠCX": 1013,
      "Ñį": 1014,
      "ym": 1015,
      "×©": 1016,
      "Ġ73": 1017,
      "ort": 1018,
      "Te": 1019,
      "ĠCode": 1020,
      "lu": 1021,
      "Ġ78": 1022,
      "Ġep": 1023,
      "so": 1024,
      "Ġva": 1025,
      "fo": 1026,
      "ĠTOO": 1027,
      "ld": 1028,
      "Î¯": 1029,
      "ca": 1030,
      "rog": 1031,
      "à¥ĩ": 1032,
      "ery": 1033,
      "ĠXo": 1034,
      "ĠRe": 1035,
      "Ð¾": 1036,
      "ĠOr": 1037,
      "Ġyov": 1038,
      "ãĢĤ": 1039,
      "ĠðŁĩ§ðŁĩ·": 1040,
      "ĠTOS": 1041,
      "ĠmÉĶ": 1042,
      "Ġxe": 1043,
      "Ġug": 1044,
      "ks": 1045,
      "ĠĠĠĠĠĠĊ": 1046,
      "oue": 1047,
      "à¤ķ": 1048,
      "xx": 1049,
      "ds": 1050,
      "uv": 1051,
      "ĠWhat": 1052,
      "ĠCx": 1053,
      "ng": 1054,
      "Ġ09": 1055,
      "ĠAA": 1056,
      "ine": 1057,
      "Ãľ": 1058,
      "&&&&": 1059,
      "×Ĵ": 1060,
      "49": 1061,
      "It": 1062,
      "Ġee": 1063,
      "Ġay": 1064,
      "Ġxod": 1065,
      "ĠoA": 1066,
      "Ġmb": 1067,
      "ĠTS": 1068,
      "ale": 1069,
      "Ġ75": 1070,
      "ĠXA": 1071,
      "yr": 1072,
      "ĠTUA": 1073,
      "Ġ]": 1074,
      "ans": 1075,
      "__": 1076,
      "ĠToc": 1077,
      "ĠTt": 1078,
      "be": 1079,
      "Ġav": 1080,
      "Ġmmm": 1081,
      "Ã©s": 1082,
      "LU": 1083,
      "ĠCO": 1084,
      "AR": 1085,
      "ko": 1086,
      "à¤¸": 1087,
      "ys": 1088,
      "alm": 1089,
      "ah": 1090,
      "Ġ×¤": 1091,
      "Ġaa": 1092,
      "ÏĤ": 1093,
      "Ġuu": 1094,
      "TC": 1095,
      "Ã£": 1096,
      "do": 1097,
      "à¥ģ": 1098,
      "ĠTy": 1099,
      "Ġtr": 1100,
      "Ġfo": 1101,
      "LO": 1102,
      "Ġyu": 1103,
      "ight": 1104,
      "DI": 1105,
      "Õ¡Õ": 1106,
      "66": 1107,
      "Ûĩ": 1108,
      "iu": 1109,
      "Ð»": 1110,
      "ĠÙĪ": 1111,
      "tub": 1112,
      "ust": 1113,
      "ror": 1114,
      "oug": 1115,
      "ĠSo": 1116,
      "Ġaw": 1117,
      "Ġeg": 1118,
      "Ġio": 1119,
      "à¤®": 1120,
      "Ġog": 1121,
      "Ġya": 1122,
      "à¤¯": 1123,
      "CC": 1124,
      "ĠAr": 1125,
      "Ð¸": 1126,
      "Ø¹": 1127,
      "Õ¸": 1128,
      "Ġrot": 1129,
      "Ġ43": 1130,
      "Ġ65": 1131,
      "Ġsh": 1132,
      "ĠÃ¼": 1133,
      "ib": 1134,
      "ĠYo": 1135,
      "Ġcx": 1136,
      "Ġno": 1137,
      "ÉĽ": 1138,
      "Â®": 1139,
      "Ã©p": 1140,
      "ĠCy": 1141,
      "Ġ79": 1142,
      "ke": 1143,
      "Ġtab": 1144,
      "TR": 1145,
      "ĠAX": 1146,
      "Ø©": 1147,
      "ĠeT": 1148,
      "TG": 1149,
      "ni": 1150,
      "Ġ19": 1151,
      "ios": 1152,
      "×¤": 1153,
      "à¸Ļ": 1154,
      "ugu": 1155,
      "pi": 1156,
      "ĠToi": 1157,
      "Ġ06": 1158,
      "Ġig": 1159,
      "ER": 1160,
      "ĠGu": 1161,
      "Ïħ": 1162,
      "à¸²": 1163,
      "AY": 1164,
      "Ġcan": 1165,
      "Ġ71": 1166,
      "Ġcr": 1167,
      "ÑĢ": 1168,
      "cr": 1169,
      "dv": 1170,
      "Ġtw": 1171,
      "ĠSu": 1172,
      "Ġku": 1173,
      "Ø²": 1174,
      "Ġì": 1175,
      "Ġ×ľ": 1176,
      "pu": 1177,
      "TV": 1178,
      "Ġqo": 1179,
      "ĠâĢĭ": 1180,
      "Ġ26": 1181,
      "×ķ×ķ": 1182,
      "Ġeic": 1183,
      "ll": 1184,
      "ĠYO": 1185,
      "US": 1186,
      "Ø´": 1187,
      "ese": 1188,
      "Ġ18": 1189,
      "use": 1190,
      "ĠØª": 1191,
      "ĠAs": 1192,
      "Ġ48": 1193,
      "ĠJe": 1194,
      "Ġcon": 1195,
      "Ġà¸": 1196,
      "Ġ11": 1197,
      "×ª": 1198,
      "ĠVol": 1199,
      "ĠTro": 1200,
      "Ġcy": 1201,
      "ank": 1202,
      "ĠRA": 1203,
      "ĠTN": 1204,
      "Ġds": 1205,
      "Ġ45": 1206,
      "ĠKoc": 1207,
      "Ġ×Ĳ×Ļ×": 1208,
      "cs": 1209,
      "ĠOV": 1210,
      "Ġ×©": 1211,
      "ĠDe": 1212,
      "zz": 1213,
      "ĠTÃ©": 1214,
      "Ġ13": 1215,
      "Ġxx": 1216,
      "You": 1217,
      "Ġie": 1218,
      "ru": 1219,
      "ade": 1220,
      "'t": 1221,
      "×¢×¨": 1222,
      "Ġea": 1223,
      "Ġ×ĳ": 1224,
      "ĠQo": 1225,
      "Ġda": 1226,
      "rs": 1227,
      "ĠGO": 1228,
      "ink": 1229,
      "Ġ100": 1230,
      "iy": 1231,
      "ww": 1232,
      "Ġ×¢": 1233,
      "Ġub": 1234,
      "Ġsee": 1235,
      "Ġ14": 1236,
      "ES": 1237,
      "UT": 1238,
      "IC": 1239,
      "Ġthis": 1240,
      "eri": 1241,
      "Ġhim": 1242,
      "dt": 1243,
      "fi": 1244,
      "Ġdh": 1245,
      "Ġpi": 1246,
      "Ġouo": 1247,
      "Ġby": 1248,
      "Ġmi": 1249,
      "ĠTD": 1250,
      "Ġge": 1251,
      "ĠToe": 1252,
      "à¸Ń": 1253,
      "AX": 1254,
      "ace": 1255,
      "Ġlo": 1256,
      "jo": 1257,
      "Ġic": 1258,
      "era": 1259,
      "uggugguggugg": 1260,
      "Î»": 1261,
      "Ð°Ð": 1262,
      "Ġë": 1263,
      "ĠdE": 1264,
      "roo": 1265,
      "ert": 1266,
      "ĠTL": 1267,
      "are": 1268,
      "ĠdÃ©": 1269,
      "Ġpr": 1270,
      "ĠaA": 1271,
      "OM": 1272,
      "way": 1273,
      "Ġone": 1274,
      "sw": 1275,
      "Ġwe": 1276,
      "alk": 1277,
      "Ġqi": 1278,
      "ĠYour": 1279,
      "ï¼": 1280,
      "ĠTis": 1281,
      "Ġra": 1282,
      "De": 1283,
      "ĠTic": 1284,
      "ĠCor": 1285,
      "Ġdy": 1286,
      "ĠQuane": 1287,
      "ĠGi": 1288,
      "ite": 1289,
      "ÖĢ": 1290,
      "65": 1291,
      "IO": 1292,
      "cv": 1293,
      "no": 1294,
      "na": 1295,
      "30": 1296,
      "à¤µ": 1297,
      "ĠâĢľ": 1298,
      "ĠcA": 1299,
      "ÏĮ": 1300,
      "Ao": 1301,
      "ĠJU": 1302,
      "Ġwant": 1303,
      "ack": 1304,
      "Ġdl": 1305,
      "ĠAb": 1306,
      "ps": 1307,
      "Ùģ": 1308,
      "roc": 1309,
      "ĠGA": 1310,
      "xt": 1311,
      "Ġaio": 1312,
      "Ġrov": 1313,
      "Ġeig": 1314,
      "ntil": 1315,
      "Ġkm": 1316,
      "ell": 1317,
      "ong": 1318,
      "Ġ15": 1319,
      "ĠTou": 1320,
      "Ġvi": 1321,
      "GU": 1322,
      "Ġquo": 1323,
      "Ġduo": 1324,
      "Ġ×Ļ": 1325,
      "xy": 1326,
      "alal": 1327,
      "×ķ×Ł": 1328,
      "ĠeA": 1329,
      "ĠVT": 1330,
      "ato": 1331,
      "ĠDo": 1332,
      "âĢĭâĢĭâĢĭâĢĭâĢĭâĢĭâĢĭâĢĭ": 1333,
      "à¥Ģ": 1334,
      "ma": 1335,
      "Ġout": 1336,
      "ico": 1337,
      "ude": 1338,
      "Î·": 1339,
      "ĠØ¦": 1340,
      "Ad": 1341,
      "Ñĥ": 1342,
      "Ø§ÙĦ": 1343,
      "OE": 1344,
      "Ġ000": 1345,
      "ĠÃ¶": 1346,
      "ĠĠĠĠĠĠĠĊ": 1347,
      "ĠTP": 1348,
      "Ġdoes": 1349,
      "ĠAO": 1350,
      "Ġyp": 1351,
      "ife": 1352,
      "ick": 1353,
      "dk": 1354,
      "ĠTa": 1355,
      "Ö¼": 1356,
      "Ġ23": 1357,
      "Ġlu": 1358,
      "88": 1359,
      "ĠdW": 1360,
      "ĠØ¯": 1361,
      "OS": 1362,
      "Î¼": 1363,
      "ĠÏĦ": 1364,
      "Î±Î¹": 1365,
      "ĠSe": 1366,
      "Ø§ÙĨ": 1367,
      "ĠÙĬ": 1368,
      "Ġmon": 1369,
      "Ġur": 1370,
      "Ġna": 1371,
      "ĠTOT": 1372,
      "Ġmme": 1373,
      "oti": 1374,
      "ĠAS": 1375,
      "Ġest": 1376,
      "ĠÃ©m": 1377,
      "Ġ63": 1378,
      "ĠMa": 1379,
      "ass": 1380,
      "xe": 1381,
      "Ġyr": 1382,
      "Ġover": 1383,
      "Ġma": 1384,
      "Î¬": 1385,
      "Ġwo": 1386,
      "ĠâĢĵ": 1387,
      "ouse": 1388,
      "Ġany": 1389,
      "ĠAR": 1390,
      "int": 1391,
      "Ġfe": 1392,
      "TOY": 1393,
      "now": 1394,
      "Õ¥": 1395,
      "ĠLo": 1396,
      "ple": 1397,
      "Ġ35": 1398,
      "63": 1399,
      "à¸£": 1400,
      "Ġeov": 1401,
      "rt": 1402,
      "ĠTUO": 1403,
      "ĠCT": 1404,
      "UX": 1405,
      "ana": 1406,
      "77": 1407,
      "ĠAg": 1408,
      "ka": 1409,
      "ĠToy": 1410,
      "ÙĦÙī": 1411,
      "pl": 1412,
      "AE": 1413,
      "ĠLe": 1414,
      "à¥¤": 1415,
      "ĠAa": 1416,
      "ĠTOM": 1417,
      "Ġvl": 1418,
      "ĠÃľ": 1419,
      "ĠGov": 1420,
      "AV": 1421,
      "ars": 1422,
      "Ġyi": 1423,
      "ĠQe": 1424,
      "Ġwor": 1425,
      "Ġdr": 1426,
      "à¤²": 1427,
      "Ġ46": 1428,
      "ool": 1429,
      "Ġ34": 1430,
      "Ġtoy": 1431,
      "×ĸ": 1432,
      "ĠTho": 1433,
      "Ġyx": 1434,
      "Ġmu": 1435,
      "ĠALL": 1436,
      "oci": 1437,
      "gy": 1438,
      "Go": 1439,
      "Ġà¤ķ": 1440,
      "Ġwho": 1441,
      "ĠDU": 1442,
      "24": 1443,
      "As": 1444,
      "Ġse": 1445,
      "pp": 1446,
      "ĠAcc": 1447,
      "90": 1448,
      "Ġcou": 1449,
      "ĠAnsw": 1450,
      "ĠAy": 1451,
      "Ġps": 1452,
      "ete": 1453,
      "hen": 1454,
      "Ð³": 1455,
      "tv": 1456,
      "ames": 1457,
      "Ġero": 1458,
      "ĠGv": 1459,
      "Ġ701": 1460,
      "Ġtt": 1461,
      "Ġ12": 1462,
      "OC": 1463,
      "Ġmro": 1464,
      "Ġdis": 1465,
      "uan": 1466,
      "Ġce": 1467,
      "ĠÚ": 1468,
      "ØŃ": 1469,
      "Ġdx": 1470,
      "ree": 1471,
      "Ex": 1472,
      "Ġcl": 1473,
      "×Ļ×Ļ×": 1474,
      "000": 1475,
      "zy": 1476,
      "Ġsc": 1477,
      "Ã©r": 1478,
      "KS": 1479,
      "ĠQuad": 1480,
      "Ġoh": 1481,
      "ĠIn": 1482,
      "ĠXe": 1483,
      "ĠTli": 1484,
      "bo": 1485,
      "kk": 1486,
      "ect": 1487,
      "EL": 1488,
      "Ġmot": 1489,
      "NG": 1490,
      "Ġ×Ĵ": 1491,
      "Ġdig": 1492,
      "ile": 1493,
      "old": 1494,
      "Ġtov": 1495,
      "ĠØ³": 1496,
      "Ġcuo": 1497,
      "Ġga": 1498,
      "Ġel": 1499,
      "Ġsy": 1500,
      "ĠEA": 1501,
      "rus": 1502,
      "Do": 1503,
      "Ġdia": 1504,
      "udio": 1505,
      "ose": 1506,
      "OX": 1507,
      "sc": 1508,
      "ID": 1509,
      "idb": 1510,
      "Ġym": 1511,
      "ideo": 1512,
      "Ġate": 1513,
      "Ġuot": 1514,
      "Ġ69": 1515,
      "Õ¶": 1516,
      "age": 1517,
      "Ġoov": 1518,
      "TÃī": 1519,
      "Ġuntil": 1520,
      "Ġqr": 1521,
      "25": 1522,
      "Ġ!": 1523,
      "ouc": 1524,
      "à¹Ī": 1525,
      "ĠĠĠĠĠĠĠĠĊ": 1526,
      "ati": 1527,
      "Ġ25": 1528,
      "tr": 1529,
      "Õ«": 1530,
      "ori": 1531,
      "Ġri": 1532,
      "Ġtut": 1533,
      "Ġabout": 1534,
      "iae": 1535,
      "Ġdin": 1536,
      "Ġsp": 1537,
      "AO": 1538,
      "ĠGs": 1539,
      "Ġys": 1540,
      "Îº": 1541,
      "Ġgov": 1542,
      "à¸±": 1543,
      "Ġsure": 1544,
      "ary": 1545,
      "Ã©v": 1546,
      "ÖĤ": 1547,
      "Ġgive": 1548,
      "TA": 1549,
      "Ġtv": 1550,
      "mi": 1551,
      "ĠQuo": 1552,
      "ett": 1553,
      "Ġyog": 1554,
      "Ġpuo": 1555,
      "ĠXX": 1556,
      "ĠCa": 1557,
      "Ġlame": 1558,
      "row": 1559,
      "ĠUp": 1560,
      "Ġpat": 1561,
      "ĠYe": 1562,
      "ĠMA": 1563,
      "ĠOy": 1564,
      "ĠdV": 1565,
      "ĠcU": 1566,
      "Ġoa": 1567,
      "Ġuou": 1568,
      "Ġcod": 1569,
      "×Ŀ": 1570,
      "EA": 1571,
      "luo": 1572,
      "Ø§Ø±": 1573,
      "Ġput": 1574,
      "ĠÙĥ": 1575,
      "à®": 1576,
      "ind": 1577,
      "ĠÎµ": 1578,
      "cp": 1579,
      "ĠTig": 1580,
      "oooo": 1581,
      "ĠTol": 1582,
      "Ġpx": 1583,
      "ens": 1584,
      "....": 1585,
      "ĠCu": 1586,
      "ĠBe": 1587,
      "ëĭ": 1588,
      "Ġvu": 1589,
      "ĠKe": 1590,
      "Ġmlom": 1591,
      "à¤Ĥ": 1592,
      "ĠGuo": 1593,
      "ast": 1594,
      "ach": 1595,
      "TD": 1596,
      "ĠTf": 1597,
      "Ġman": 1598,
      "ĠThere": 1599,
      "Ġ24": 1600,
      "Ġuli": 1601,
      "iz": 1602,
      "umm": 1603,
      "aU": 1604,
      "ĠAND": 1605,
      "per": 1606,
      "xo": 1607,
      "Ġà¥": 1608,
      "ĠcÃł": 1609,
      "ouo": 1610,
      "ĠOL": 1611,
      "ĠTÃĵ": 1612,
      "Ġdon": 1613,
      "we": 1614,
      "Ae": 1615,
      "An": 1616,
      "iot": 1617,
      "ĠoT": 1618,
      "Ġty": 1619,
      "Ġsup": 1620,
      "alle": 1621,
      "ari": 1622,
      "bi": 1623,
      "Ñģ": 1624,
      "ĠMo": 1625,
      "Ġuk": 1626,
      "ase": 1627,
      "dd": 1628,
      "ĠOD": 1629,
      "ĠĠĠĠĠĠĠĠĠĊ": 1630,
      "Ġmay": 1631,
      "à¹Ģ": 1632,
      "ĠThis": 1633,
      "Ġok": 1634,
      "ano": 1635,
      "Ġ&&": 1636,
      "ĠGV": 1637,
      "69": 1638,
      "ĠVo": 1639,
      "×ķ×Ĳ": 1640,
      "olo": 1641,
      "Ġ02": 1642,
      "Ġzo": 1643,
      "ĠCr": 1644,
      "ike": 1645,
      "Ġeuo": 1646,
      "xa": 1647,
      "Ġadd": 1648,
      "uch": 1649,
      "ĠÎº": 1650,
      "you": 1651,
      "ves": 1652,
      "oon": 1653,
      "LE": 1654,
      "ien": 1655,
      "âĢĶâĢĶ": 1656,
      "tov": 1657,
      "ĠET": 1658,
      "Ġdox": 1659,
      "por": 1660,
      "ĠMar": 1661,
      "Ġà¤¸": 1662,
      "uct": 1663,
      "ĠPY": 1664,
      "ope": 1665,
      "ET": 1666,
      "ather": 1667,
      "Ġ61": 1668,
      "ìĿ": 1669,
      "ĠuA": 1670,
      "erm": 1671,
      "OK": 1672,
      "Ġund": 1673,
      "ĠTIU": 1674,
      "Ġpac": 1675,
      "ĠGg": 1676,
      "Ø¬": 1677,
      "Ġtue": 1678,
      "ioy": 1679,
      "ĠCh": 1680,
      "ĠTOR": 1681,
      "Ġhas": 1682,
      "ĠJi": 1683,
      "ÎŃ": 1684,
      "ĠEm": 1685,
      "idi": 1686,
      "Ġaie": 1687,
      "Ġmov": 1688,
      "ĠeX": 1689,
      "ĠGy": 1690,
      "Ð´": 1691,
      "ĠeU": 1692,
      "ĠCl": 1693,
      "Ã©ic": 1694,
      "ĠÃ©s": 1695,
      "à¸²à¸": 1696,
      "ĠÃ©g": 1697,
      "Ġim": 1698,
      "ĠQi": 1699,
      "ron": 1700,
      "ĠTTL": 1701,
      "ĠCB": 1702,
      "Ġotl": 1703,
      "23": 1704,
      "ĠKoi": 1705,
      "oY": 1706,
      "ĠSU": 1707,
      "04": 1708,
      "Ġoue": 1709,
      "Ġguo": 1710,
      "udie": 1711,
      "ior": 1712,
      "CY": 1713,
      "Ġmp": 1714,
      "Ġque": 1715,
      "Ġta": 1716,
      "OA": 1717,
      "que": 1718,
      "ÑĤ": 1719,
      "ĠTEA": 1720,
      "les": 1721,
      "ĠÏĥ": 1722,
      "Ġ77": 1723,
      "ĠCH": 1724,
      "Ġdou": 1725,
      "Ġoj": 1726,
      "ĠAT": 1727,
      "à¤¹": 1728,
      "ĠMart": 1729,
      "ĠTea": 1730,
      "iss": 1731,
      "cov": 1732,
      "ĠQueo": 1733,
      "Ġtuk": 1734,
      "Ġxd": 1735,
      "ado": 1736,
      "Ã¶to": 1737,
      ".\"": 1738,
      "ÛĲ": 1739,
      "Ġour": 1740,
      "uce": 1741,
      "EE": 1742,
      "roy": 1743,
      "Ġct": 1744,
      "ĠpA": 1745,
      "Ġla": 1746,
      "gs": 1747,
      "Ġpy": 1748,
      "IG": 1749,
      "29": 1750,
      "RA": 1751,
      "Ġcs": 1752,
      "Ġqe": 1753,
      "ĠGc": 1754,
      "MM": 1755,
      "ĠQa": 1756,
      "oce": 1757,
      "ĠAm": 1758,
      "Ġif": 1759,
      "ĠKg": 1760,
      "Ġcd": 1761,
      "Ġeoe": 1762,
      "ĠTTA": 1763,
      "Or": 1764,
      "ĠKork": 1765,
      "ĠTrot": 1766,
      "Õ¸ÖĤ": 1767,
      "hi": 1768,
      "Av": 1769,
      "Ġtg": 1770,
      "ĠTor": 1771,
      "Ġmx": 1772,
      "Ġgi": 1773,
      "ĠFor": 1774,
      "ici": 1775,
      "ĠTos": 1776,
      "ĠRep": 1777,
      "IT": 1778,
      "Ġaud": 1779,
      "att": 1780,
      "roi": 1781,
      "Ġhi": 1782,
      "Ġbet": 1783,
      "Ġoie": 1784,
      "ĠPl": 1785,
      "Ġyd": 1786,
      "Ġ76": 1787,
      "ater": 1788,
      "bÉĶ": 1789,
      "ĠTTOL": 1790,
      "bs": 1791,
      "Ġcub": 1792,
      "ĠLU": 1793,
      "Ġsays": 1794,
      "Questions": 1795,
      "Ġoot": 1796,
      "ĠVO": 1797,
      "Ġxot": 1798,
      "____": 1799,
      "Ġkub": 1800,
      "af": 1801,
      "Ġaf": 1802,
      "ĠSy": 1803,
      "gi": 1804,
      "Ġ66": 1805,
      "px": 1806,
      "Ġmr": 1807,
      "ĠmÃ©": 1808,
      "ĠEo": 1809,
      "toy": 1810,
      "Ġ700": 1811,
      "Ġ99": 1812,
      "CT": 1813,
      "orm": 1814,
      "à¹Ģà¸": 1815,
      "Ġyv": 1816,
      "ĠTx": 1817,
      "ang": 1818,
      "ĠGt": 1819,
      "19": 1820,
      "ĠAL": 1821,
      "Ġvog": 1822,
      "Ġ07": 1823,
      "TOI": 1824,
      "DY": 1825,
      "ĠEn": 1826,
      "roe": 1827,
      "ĠTOt": 1828,
      "Ġpeo": 1829,
      "ata": 1830,
      "bp": 1831,
      "Ġmmmm": 1832,
      "Ġdn": 1833,
      "ĠKa": 1834,
      "AA": 1835,
      "abÉĶ": 1836,
      "Ã©Ã©Ã©Ã©Ã©Ã©Ã©Ã©Ã©Ã©Ã©Ã©Ã©Ã©Ã©Ã©": 1837,
      "ĠIs": 1838,
      "ĠOT": 1839,
      "ito": 1840,
      "by": 1841,
      "ĠÙĦ": 1842,
      "à¤ª": 1843,
      "Ġcot": 1844,
      "Ġvy": 1845,
      "Ġgood": 1846,
      "YY": 1847,
      "Ġoed": 1848,
      "ĠTw": 1849,
      "Ġyc": 1850,
      "ĠAM": 1851,
      "eto": 1852,
      "da": 1853,
      "ģà¸": 1854,
      "ĠJo": 1855,
      "Ġadi": 1856,
      "ĠTUS": 1857,
      "ĠYa": 1858,
      "ĠCV": 1859,
      "ĠAD": 1860,
      "Ã©t": 1861,
      "ĠTEL": 1862,
      "ĠTex": 1863,
      "gov": 1864,
      "Ġne": 1865,
      "ĠMe": 1866,
      "yyy": 1867,
      "ĠTto": 1868,
      "Ġvel": 1869,
      "Ġà¤ħ": 1870,
      "ĠdL": 1871,
      "Ġcoc": 1872,
      "ĠLE": 1873,
      "Ġhouse": 1874,
      "Ġ×¡": 1875,
      "dy": 1876,
      "Ġeie": 1877,
      "ĠUA": 1878,
      "Ġà¤ª": 1879,
      "Ġuie": 1880,
      "Ġ36": 1881,
      "ura": 1882,
      "ĠÐ±": 1883,
      "&&&&&&&&": 1884,
      "Ġom": 1885,
      "anan": 1886,
      "ĠâĤ": 1887,
      "Ġname": 1888,
      "ĠSc": 1889,
      "ĠÙĤ": 1890,
      "pt": 1891,
      "Ġli": 1892,
      "ĠLA": 1893,
      "Tu": 1894,
      "XA": 1895,
      "TOS": 1896,
      "ĠTAI": 1897,
      "cl": 1898,
      "ĠVideo": 1899,
      "×ķ×ª": 1900,
      "Ġke": 1901,
      "tg": 1902,
      "log": 1903,
      "Î¿Ïħ": 1904,
      "res": 1905,
      "Ġeat": 1906,
      "rox": 1907,
      "low": 1908,
      "Ã³s": 1909,
      "ĠâĢĭâĢĭ": 1910,
      "pos": 1911,
      "Ġuoi": 1912,
      "ĠMy": 1913,
      "So": 1914,
      "ovo": 1915,
      "IU": 1916,
      "Ġgx": 1917,
      "here": 1918,
      "ĠAf": 1919,
      "Ġia": 1920,
      "ĠOi": 1921,
      "ĠUT": 1922,
      "Ġuat": 1923,
      "the": 1924,
      "Ġaui": 1925,
      "II": 1926,
      "ĠQuy": 1927,
      "ĠTTC": 1928,
      "Ġsome": 1929,
      "Ġ×¦": 1930,
      "TOC": 1931,
      "Ġofo": 1932,
      "Ġà¤¤": 1933,
      "ĠEU": 1934,
      "ĠAB": 1935,
      "Ġpot": 1936,
      "×§×¡": 1937,
      "ĠTee": 1938,
      "à¹ī": 1939,
      "ĠaT": 1940,
      "ĠOv": 1941,
      "Ġudi": 1942,
      "du": 1943,
      "Ġhead": 1944,
      "ĠSh": 1945,
      "Ã¶tub": 1946,
      "ĠØ£": 1947,
      "Ã¶t": 1948,
      "ON": 1949,
      "ovs": 1950,
      "ays": 1951,
      "Ġtime": 1952,
      "ĠOh": 1953,
      "ala": 1954,
      "ording": 1955,
      "Ã³t": 1956,
      "oke": 1957,
      "OR": 1958,
      "odi": 1959,
      "Ã³n": 1960,
      "Ġmeo": 1961,
      "uos": 1962,
      "tog": 1963,
      "Ġvou": 1964,
      "à¸ĩ": 1965,
      "Ġgame": 1966,
      "\".": 1967,
      "ost": 1968,
      "à¸µ": 1969,
      "14": 1970,
      "Ã©m": 1971,
      "Ø³Øª": 1972,
      "ĠTW": 1973,
      "Ġmes": 1974,
      "ĠAE": 1975,
      "ĠNa": 1976,
      "rie": 1977,
      "DA": 1978,
      "ĠÙĨ": 1979,
      "si": 1980,
      "Ġtou": 1981,
      "ker": 1982,
      "Ġvot": 1983,
      "Ġvov": 1984,
      "Ġaur": 1985,
      "Ġeio": 1986,
      "999": 1987,
      "ÉĽck": 1988,
      "Lo": 1989,
      "ĠYA": 1990,
      "ĠTeo": 1991,
      "Ġeme": 1992,
      "Ġoui": 1993,
      "Ġsal": 1994,
      "vi": 1995,
      "ĠÙĩ": 1996,
      "je": 1997,
      "bb": 1998,
      "Ġà¤®": 1999,
      "Ġexe": 2000,
      "St": 2001,
      "Ġthey": 2002,
      "ret": 2003,
      "Ġcar": 2004,
      "ÚŃ": 2005,
      "Ġrv": 2006,
      "Ġeto": 2007,
      "Ïī": 2008,
      "Ø®": 2009,
      "Ġuv": 2010,
      "Ġhm": 2011,
      "Ġak": 2012,
      "oct": 2013,
      "ĠÏĢ": 2014,
      "ĠCe": 2015,
      "ĠGr": 2016,
      "ĠdA": 2017,
      "ĠØ¹": 2018,
      "ĠQUU": 2019,
      "Ġ×Ĳ×ķ": 2020,
      "Ġrate": 2021,
      "edi": 2022,
      "eA": 2023,
      "Ġeot": 2024,
      "ĠDem": 2025,
      "×Ĺ": 2026,
      "Ġoio": 2027,
      "ĠCot": 2028,
      "ĠVue": 2029,
      "SU": 2030,
      "ene": 2031,
      "ĠAnswers": 2032,
      "Ġ×ĸ": 2033,
      "Ã©n": 2034,
      "Ġaue": 2035,
      "Se": 2036,
      "dr": 2037,
      "à¤ĥ": 2038,
      "ĠAV": 2039,
      "Ġeue": 2040,
      "Ġiv": 2041,
      "ould": 2042,
      "Ġdoy": 2043,
      "He": 2044,
      "ĠTRU": 2045,
      "ĠQux": 2046,
      "ani": 2047,
      "Ġknow": 2048,
      "Ġodi": 2049,
      "ĠWo": 2050,
      "×Ľ": 2051,
      "Ġxa": 2052,
      "uol": 2053,
      "Ġtie": 2054,
      "Ġip": 2055,
      "za": 2056,
      "Ġmou": 2057,
      "Ã³i": 2058,
      "72": 2059,
      "hh": 2060,
      "ĠTio": 2061,
      "ĠaM": 2062,
      "Ġcp": 2063,
      "ĠlÃł": 2064,
      "Ġii": 2065,
      "Ð¹": 2066,
      "ĠTOi": 2067,
      "Ġsi": 2068,
      "×Ļ×Ŀ": 2069,
      "QA": 2070,
      "Ìģ": 2071,
      "ĠMag": 2072,
      "ons": 2073,
      "ugug": 2074,
      "NC": 2075,
      "Ġ04": 2076,
      "oco": 2077,
      "ĠUu": 2078,
      "EY": 2079,
      "aue": 2080,
      "Ġcode": 2081,
      "à¤Ł": 2082,
      "Ġxor": 2083,
      "Ġix": 2084,
      "ĠLem": 2085,
      "And": 2086,
      "Ûĭ": 2087,
      "Ġcur": 2088,
      "sa": 2089,
      "Ġà¤µ": 2090,
      "ofth": 2091,
      "Ã©g": 2092,
      "Ġvh": 2093,
      "Ġdit": 2094,
      "Co": 2095,
      "hy": 2096,
      "ĠKA": 2097,
      "Tot": 2098,
      "].": 2099,
      "Ġdvo": 2100,
      "ĠTog": 2101,
      "dl": 2102,
      "ĠÌģ": 2103,
      "ĠOA": 2104,
      "ĠTOLL": 2105,
      "ĠTec": 2106,
      "ĠVy": 2107,
      "ĠÃĢ": 2108,
      "Ġ×¨": 2109,
      "Ã©iv": 2110,
      "dio": 2111,
      "ha": 2112,
      "ĠAor": 2113,
      "Ġuoc": 2114,
      "Ġcov": 2115,
      "Au": 2116,
      "dn": 2117,
      ".)": 2118,
      "ĠOI": 2119,
      "Aa": 2120,
      "ĠTB": 2121,
      "une": 2122,
      "Ġden": 2123,
      "gx": 2124,
      "Ãĥ": 2125,
      "ĠCI": 2126,
      "ĠCY": 2127,
      "Ġhow": 2128,
      "ĠBU": 2129,
      "ĠTg": 2130,
      "ĠGa": 2131,
      "act": 2132,
      "oV": 2133,
      "ĠTp": 2134,
      "Ġmoo": 2135,
      "ĠTes": 2136,
      "ada": 2137,
      "Ò¯": 2138,
      "ÙĨÙī": 2139,
      "Ø¦": 2140,
      "Ġeui": 2141,
      "ĠVu": 2142,
      "ĠKok": 2143,
      "leo": 2144,
      "Ġyox": 2145,
      "Ġdg": 2146,
      "RO": 2147,
      "ĠEl": 2148,
      "Ġiov": 2149,
      "ĠJu": 2150,
      "Ġ500": 2151,
      "ins": 2152,
      "78": 2153,
      "ĠTue": 2154,
      "ĠTwo": 2155,
      "Ġmex": 2156,
      "Ġroe": 2157,
      "room": 2158,
      "Ïĩ": 2159,
      "Ġthem": 2160,
      "ĠExx": 2161,
      "33": 2162,
      "Ġyet": 2163,
      "ĠGod": 2164,
      "ĠVa": 2165,
      "Ġlike": 2166,
      "×ķ×¨": 2167,
      "Ġts": 2168,
      "Ø§Ùħ": 2169,
      "Ġmmb": 2170,
      "Ġstates": 2171,
      "ety": 2172,
      "ĠAce": 2173,
      "ara": 2174,
      "Ġluo": 2175,
      "Ġ50": 2176,
      "Ġ×ł": 2177,
      "ĠÎ±": 2178,
      "ĠToo": 2179,
      "wa": 2180,
      "ats": 2181,
      "Ġ32": 2182,
      "ĠAll": 2183,
      "Î³": 2184,
      "Ã©c": 2185,
      "ets": 2186,
      "ĠNo": 2187,
      "ĠØĮ": 2188,
      "ots": 2189,
      "ĠII": 2190,
      "day": 2191,
      "Ñħ": 2192,
      "Ġtx": 2193,
      "Ġmub": 2194,
      "Ġuev": 2195,
      "ĠSi": 2196,
      "vel": 2197,
      "ĠAt": 2198,
      "Ġcc": 2199,
      "Ġyer": 2200,
      "ĠCC": 2201,
      "eee": 2202,
      "×Ļ×Ļ": 2203,
      "ĠOUX": 2204,
      "ãģ¯": 2205,
      "96": 2206,
      "Ġmec": 2207,
      "Ġlex": 2208,
      "ĠEX": 2209,
      "26": 2210,
      "unt": 2211,
      "Ġyon": 2212,
      "Ġkg": 2213,
      "Ġhere": 2214,
      "UA": 2215,
      "Ġgr": 2216,
      "9999": 2217,
      "ise": 2218,
      "Ġovd": 2219,
      "ĠAQ": 2220,
      "Ġxu": 2221,
      "ĠTHE": 2222,
      "Î®": 2223,
      "Ïį": 2224,
      "ĠÃ©o": 2225,
      "IA": 2226,
      "vov": 2227,
      "ĠTTO": 2228,
      "ies": 2229,
      "ĠLd": 2230,
      "Ġper": 2231,
      "ĠTIS": 2232,
      "Ġfather": 2233,
      "uoy": 2234,
      "In": 2235,
      "ume": 2236,
      "aty": 2237,
      "ors": 2238,
      "Ġ42": 2239,
      "ĠTTE": 2240,
      "Ġmba": 2241,
      "ĠAoo": 2242,
      "75": 2243,
      "ĠTÃŃ": 2244,
      "Ġtal": 2245,
      "ĠÃ³c": 2246,
      "ms": 2247,
      "ÛĪ": 2248,
      "ĠME": 2249,
      "ÙĥÙī": 2250,
      "ĠAug": 2251,
      "ict": 2252,
      "Ġdev": 2253,
      "Ġiu": 2254,
      "Tr": 2255,
      "Toc": 2256,
      "Ġwa": 2257,
      "DV": 2258,
      "lp": 2259,
      "Ġvat": 2260,
      "ĠTUTO": 2261,
      "à¤¦": 2262,
      "à¸¡": 2263,
      "56": 2264,
      "Ġuoo": 2265,
      "Ġaoo": 2266,
      "ĠIg": 2267,
      "ĠKG": 2268,
      "uoi": 2269,
      "uca": 2270,
      "ME": 2271,
      "Ġdc": 2272,
      "Ġpad": 2273,
      "rio": 2274,
      "Ġcor": 2275,
      "ĠVan": 2276,
      "ives": 2277,
      "Ġdto": 2278,
      "Ġvr": 2279,
      "Ġdays": 2280,
      "ĠPat": 2281,
      "Ġovp": 2282,
      "Ġoou": 2283,
      "Ġuud": 2284,
      "ĠUs": 2285,
      "ToU": 2286,
      "bv": 2287,
      "ĠAye": 2288,
      "ĠÎ¼": 2289,
      "94": 2290,
      "Tov": 2291,
      "ĠLO": 2292,
      "91": 2293,
      "Ġcuu": 2294,
      "ish": 2295,
      "ĠDev": 2296,
      "ext": 2297,
      "Ġpov": 2298,
      "à¤Ĺ": 2299,
      "ĠJk": 2300,
      "Ġyt": 2301,
      "Ġms": 2302,
      "Ġcm": 2303,
      "Ġcom": 2304,
      "Ġ×Ĳ×ķ×Ł": 2305,
      "Acy": 2306,
      "Ã©e": 2307,
      "ĠMg": 2308,
      "ĠDae": 2309,
      "Ġtot": 2310,
      "ĠUx": 2311,
      "Ġuei": 2312,
      "ĠoL": 2313,
      "ĠBo": 2314,
      "Ġtux": 2315,
      "Õ¥Õ": 2316,
      "zi": 2317,
      "Ġato": 2318,
      "ĠVA": 2319,
      "urn": 2320,
      "Ġtan": 2321,
      "Ġvote": 2322,
      "Ġsan": 2323,
      "Ġhis": 2324,
      "Ã³y": 2325,
      "Ġpd": 2326,
      "Ġng": 2327,
      "ĠÃ©k": 2328,
      "ĠXE": 2329,
      "ment": 2330,
      "Ġaov": 2331,
      "Ġpoc": 2332,
      "ian": 2333,
      "Ã©y": 2334,
      "Ġvro": 2335,
      "Ã³v": 2336,
      "fy": 2337,
      "Ġfa": 2338,
      "ĠAct": 2339,
      "gor": 2340,
      "Ġtuck": 2341,
      "ĠSa": 2342,
      "ĠOX": 2343,
      "ĠJL": 2344,
      "Ġej": 2345,
      "Tv": 2346,
      "Ġsou": 2347,
      "ĠXV": 2348,
      "ĠdT": 2349,
      "ĠSv": 2350,
      "ĠXO": 2351,
      "Ġni": 2352,
      "ĠUS": 2353,
      "36": 2354,
      "ĠGp": 2355,
      "ĠLi": 2356,
      "ĠCod": 2357,
      "Ġten": 2358,
      "ĠTON": 2359,
      "Ġiy": 2360,
      "Ø·": 2361,
      "ĠCre": 2362,
      "ity": 2363,
      "ues": 2364,
      "Ġovo": 2365,
      "ÏĦÎµ": 2366,
      "YOU": 2367,
      "Ġkoi": 2368,
      "ĠQUA": 2369,
      "ĠmmÉĶ": 2370,
      "ĠTÃĢI": 2371,
      "Ġdoc": 2372,
      "Ġmum": 2373,
      "Ġ41": 2374,
      "ĠÃĥ": 2375,
      "ede": 2376,
      "ĠTES": 2377,
      "CU": 2378,
      "ĠAue": 2379,
      "Ġpou": 2380,
      "Ġqui": 2381,
      "ĠThat": 2382,
      "1111": 2383,
      "Ġjo": 2384,
      "fp": 2385,
      "ĠdI": 2386,
      "ota": 2387,
      "ĠEr": 2388,
      "Ġedo": 2389,
      "Ġove": 2390,
      "×Ļ×Ĳ": 2391,
      "eek": 2392,
      "ogo": 2393,
      "ĠxA": 2394,
      "ĠCS": 2395,
      "ona": 2396,
      "39": 2397,
      "ovA": 2398,
      "ĠTUE": 2399,
      "ways": 2400,
      "50": 2401,
      "xs": 2402,
      "ĠuU": 2403,
      "oud": 2404,
      "rol": 2405,
      "end": 2406,
      "ĠAI": 2407,
      "ont": 2408,
      "Ã¡s": 2409,
      "PY": 2410,
      "TÃĵ": 2411,
      "ĠUn": 2412,
      "Ge": 2413,
      "TB": 2414,
      "Ġoic": 2415,
      "38": 2416,
      "Ġoup": 2417,
      "Ġ31": 2418,
      "Ġhy": 2419,
      "ull": 2420,
      "ĠYOUR": 2421,
      "xc": 2422,
      "Ġcap": 2423,
      "ĠSx": 2424,
      "ĠØ±": 2425,
      "ÛķÙĨ": 2426,
      "Ġtol": 2427,
      "Ġlames": 2428,
      "ze": 2429,
      "ĠSee": 2430,
      "vin": 2431,
      "Ġ62": 2432,
      "×ķ×¢": 2433,
      "nn": 2434,
      "RI": 2435,
      "ĠTÃį": 2436,
      "Ã³m": 2437,
      "py": 2438,
      "ĠOs": 2439,
      "iet": 2440,
      "35": 2441,
      "Ġeis": 2442,
      "ĠQv": 2443,
      "erv": 2444,
      "ĠSk": 2445,
      "ono": 2446,
      "ĠAou": 2447,
      "Ġyoo": 2448,
      "Ġå": 2449,
      "ĠTQ": 2450,
      "Ġah": 2451,
      "Ġcoe": 2452,
      "sy": 2453,
      "ath": 2454,
      "ĠEa": 2455,
      "pes": 2456,
      "qi": 2457,
      "ĠCue": 2458,
      "Ġdf": 2459,
      "Ġder": 2460,
      "Ġir": 2461,
      "ĠPy": 2462,
      "ukuk": 2463,
      "AMAM": 2464,
      "Ġuon": 2465,
      "ĠUe": 2466,
      "EB": 2467,
      "uov": 2468,
      "Ú¯": 2469,
      "Ġcoy": 2470,
      "Ġvao": 2471,
      "Ġ400": 2472,
      "Î¯Î½": 2473,
      "Al": 2474,
      "ĠTER": 2475,
      "Ġ67": 2476,
      "Ġacc": 2477,
      "Ġvd": 2478,
      "Ġwife": 2479,
      "ĠQuano": 2480,
      "ĠCou": 2481,
      "ĠTID": 2482,
      "CI": 2483,
      "Xe": 2484,
      "Ġdiug": 2485,
      "×¨×Ĳ": 2486,
      "ÎµÎ¹": 2487,
      "ĠTOÃĢ": 2488,
      "Ġcat": 2489,
      "Ġ80": 2490,
      "ĠQuany": 2491,
      "mt": 2492,
      "Ġent": 2493,
      "otot": 2494,
      "eed": 2495,
      "Ġother": 2496,
      "ĠdÃł": 2497,
      "Ġmv": 2498,
      "Ġ64": 2499,
      "There": 2500,
      "Ġsd": 2501,
      "ĠIS": 2502,
      "à¸°": 2503,
      "Ġbut": 2504,
      "Ġott": 2505,
      "Ġuse": 2506,
      "à¯": 2507,
      "Ġspe": 2508,
      "Î´": 2509,
      "ëĬ": 2510,
      "Ġpud": 2511,
      "ĠON": 2512,
      "Ġrd": 2513,
      "iao": 2514,
      "ĠGS": 2515,
      "ĠYy": 2516,
      "Ġ-,": 2517,
      "lome": 2518,
      "Ġdae": 2519,
      "Ã©l": 2520,
      "ĠGeo": 2521,
      "uoc": 2522,
      "ĠWe": 2523,
      "Õ¸ÖĤÕ": 2524,
      "xd": 2525,
      "LY": 2526,
      "igu": 2527,
      "ĠCle": 2528,
      "ĠDou": 2529,
      "Ġread": 2530,
      "Ð²": 2531,
      "ØŁ": 2532,
      "Ġpt": 2533,
      "Ġxy": 2534,
      "Ġ96": 2535,
      "eeee": 2536,
      "ogu": 2537,
      "ãģ¾": 2538,
      "EX": 2539,
      "Qa": 2540,
      "ĠRo": 2541,
      "ĠØ´": 2542,
      "Ġeoo": 2543,
      "Ġpos": 2544,
      "ĠEu": 2545,
      "Ġki": 2546,
      "acy": 2547,
      "--": 2548,
      "Ġef": 2549,
      "Ġuos": 2550,
      "ĠPe": 2551,
      "ĠJA": 2552,
      "ĠAcro": 2553,
      "Ġji": 2554,
      "Ġgs": 2555,
      "ĠMot": 2556,
      "Ġrt": 2557,
      "à¸·": 2558,
      "uco": 2559,
      "Ġyan": 2560,
      "à¸§": 2561,
      "Ġbetter": 2562,
      "TÃĢ": 2563,
      "×ļ": 2564,
      "ĠvÃ©": 2565,
      "Ġver": 2566,
      "ulus": 2567,
      "ĠKS": 2568,
      "CA": 2569,
      "ĠOK": 2570,
      "ĠÑħ": 2571,
      "...": 2572,
      "ãģ¾ãģ": 2573,
      "ido": 2574,
      "Ġyey": 2575,
      "ÙĪÙĨ": 2576,
      "ĠÏĦÎ¿": 2577,
      "ns": 2578,
      "rm": 2579,
      "Ġcoo": 2580,
      "ulu": 2581,
      "ĠÚ©": 2582,
      "Ġcube": 2583,
      "Ġere": 2584,
      "Ġcog": 2585,
      "Ġfu": 2586,
      "EI": 2587,
      "ëĬĶ": 2588,
      "ĠdH": 2589,
      "ĠVe": 2590,
      "Ġore": 2591,
      "Ġred": 2592,
      "Ġemb": 2593,
      "Ġmea": 2594,
      "18": 2595,
      "Øº": 2596,
      "Ġmet": 2597,
      "Ġcio": 2598,
      "60": 2599,
      "Ġry": 2600,
      "CH": 2601,
      "Ġeco": 2602,
      "Ġvol": 2603,
      "ĠUU": 2604,
      "ĠÙģ": 2605,
      "ory": 2606,
      "Ġheart": 2607,
      "Ð°Ð¹": 2608,
      "ina": 2609,
      "ĠTCU": 2610,
      "XX": 2611,
      "cle": 2612,
      "val": 2613,
      "ĠGl": 2614,
      "ĠGot": 2615,
      "LUEB": 2616,
      "Ġcui": 2617,
      "ĠQoo": 2618,
      "ĠSal": 2619,
      "uku": 2620,
      "ls": 2621,
      "ÚĨ": 2622,
      "Ġyat": 2623,
      "Ġhope": 2624,
      "Ġoti": 2625,
      "ĠPr": 2626,
      "ÙĪÙĦ": 2627,
      "Ġ×ĺ×Ĳ": 2628,
      "rx": 2629,
      "Ã©ie": 2630,
      "Ġvv": 2631,
      "ĠGI": 2632,
      "ĠDu": 2633,
      "Ú©": 2634,
      "uss": 2635,
      "à¸Ķ": 2636,
      "eoe": 2637,
      "Ø§ÙĬ": 2638,
      "×¦": 2639,
      "Ġtm": 2640,
      "Ġuae": 2641,
      "ÃĵD": 2642,
      "yx": 2643,
      "Ġele": 2644,
      "Ġtoi": 2645,
      "ĠVal": 2646,
      "lic": 2647,
      "ĠOg": 2648,
      "Ġodd": 2649,
      "LUEBLUEB": 2650,
      "PP": 2651,
      "UU": 2652,
      "ku": 2653,
      "ĠES": 2654,
      "ĠKock": 2655,
      "Ġyeu": 2656,
      "upe": 2657,
      "Ġtube": 2658,
      "Ġpay": 2659,
      "Ġnow": 2660,
      "76": 2661,
      "ĠQuex": 2662,
      "ĠPu": 2663,
      "ĠJew": 2664,
      "Ã³e": 2665,
      "hoo": 2666,
      "sg": 2667,
      "Ġeye": 2668,
      "ĠÃŃ": 2669,
      "ĠTod": 2670,
      "Ġexo": 2671,
      "ĠTOUS": 2672,
      "Ġcvy": 2673,
      "Ġpar": 2674,
      "Ġvoe": 2675,
      "Ġoce": 2676,
      "Ġdiv": 2677,
      "erc": 2678,
      "Ġvod": 2679,
      "ioo": 2680,
      "Ġrr": 2681,
      "Ã©o": 2682,
      "Ġwg": 2683,
      "die": 2684,
      "Ġtoe": 2685,
      "oty": 2686,
      "à¹ģà¸": 2687,
      "Ġrou": 2688,
      "ĠdYx": 2689,
      "Ġvan": 2690,
      "Ó©": 2691,
      "æĪ": 2692,
      "OUS": 2693,
      "GI": 2694,
      "ĠMal": 2695,
      "Ġkal": 2696,
      "Ġord": 2697,
      "Ġuti": 2698,
      "Ġcut": 2699,
      "ĠYT": 2700,
      "ĠKO": 2701,
      "ĠAh": 2702,
      "Ġyop": 2703,
      "ĠOn": 2704,
      "mem": 2705,
      "ĠTUI": 2706,
      "Ġaoi": 2707,
      "Ġmoi": 2708,
      "Ġsuck": 2709,
      "Ġado": 2710,
      "CD": 2711,
      "Ġ90": 2712,
      "Ġroc": 2713,
      "Ġcome": 2714,
      "Ġtake": 2715,
      "rat": 2716,
      "ĠCK": 2717,
      "Ġvoc": 2718,
      "ĠEv": 2719,
      "ĠQUT": 2720,
      "Ġxoc": 2721,
      "Ø§Øª": 2722,
      "×Ļ×ĺ": 2723,
      "TIOY": 2724,
      "ĠKat": 2725,
      "ĠTRA": 2726,
      "Ġ001": 2727,
      "ĠQuee": 2728,
      "Ġget": 2729,
      "Ġru": 2730,
      "eT": 2731,
      "Ð¼": 2732,
      "Ġoci": 2733,
      "61": 2734,
      "fa": 2735,
      "Ġooo": 2736,
      "ĠIm": 2737,
      "ĠØ¬": 2738,
      "Ġju": 2739,
      "Ġ×Ĳ×Ļ×ĸ": 2740,
      "ĠCm": 2741,
      "ĠGap": 2742,
      "uog": 2743,
      "itt": 2744,
      "ĠTUX": 2745,
      "ĠÙĬØ§": 2746,
      "coe": 2747,
      "ĠAk": 2748,
      "Ġdue": 2749,
      "ĠYU": 2750,
      "Ġqp": 2751,
      "Ġqoi": 2752,
      "ëĭ¤": 2753,
      "Ġtud": 2754,
      "eca": 2755,
      "Ġà¤°": 2756,
      "ings": 2757,
      "ama": 2758,
      "GY": 2759,
      "Ġ17": 2760,
      "ĠUV": 2761,
      "Ġret": 2762,
      "aga": 2763,
      "à¦": 2764,
      "ĠTit": 2765,
      "ĠÃ©d": 2766,
      "Ġbl": 2767,
      "×ķ×ĵ": 2768,
      "Ġ..": 2769,
      "Ïİ": 2770,
      "ĠTat": 2771,
      "ĠSp": 2772,
      "Ġroi": 2773,
      "TEL": 2774,
      "Ġgoing": 2775,
      "ĠÙħÙĨ": 2776,
      "wwww": 2777,
      "ht": 2778,
      "yk": 2779,
      "Ã¦": 2780,
      "Ġek": 2781,
      "ĠSO": 2782,
      "uow": 2783,
      "ĠDec": 2784,
      "ĠÎºÎ±Î¹": 2785,
      "ĠAi": 2786,
      "Ġxc": 2787,
      "Ġhk": 2788,
      "ĠĠĠĠĠĠĠĠĠĠĊ": 2789,
      "ĠTRO": 2790,
      "ĠÑĤ": 2791,
      "TÃ©": 2792,
      "my": 2793,
      "oA": 2794,
      "íķ": 2795,
      "ĠTTD": 2796,
      "EO": 2797,
      "Ġtalk": 2798,
      "dix": 2799,
      "Ġ×§×Ĳ": 2800,
      "Ġoto": 2801,
      "Ġori": 2802,
      "xA": 2803,
      "ĠcB": 2804,
      "Ġ×¦×ķ": 2805,
      "Ġyen": 2806,
      "Ġwhere": 2807,
      "At": 2808,
      "Ġyub": 2809,
      "oun": 2810,
      "×Ļ×§": 2811,
      "Ġuad": 2812,
      "ket": 2813,
      "rop": 2814,
      "ioc": 2815,
      "ĠGT": 2816,
      "ĠSub": 2817,
      "Ġrx": 2818,
      "Ġà¤Ĺ": 2819,
      "Î¹Î±": 2820,
      "21": 2821,
      "31": 2822,
      "Ġold": 2823,
      "iog": 2824,
      "Ġkot": 2825,
      "Ã¡v": 2826,
      "Ġyea": 2827,
      "br": 2828,
      "Ġeb": 2829,
      "Ã³p": 2830,
      "Tos": 2831,
      "ble": 2832,
      "Ġoux": 2833,
      "ĠDi": 2834,
      "qo": 2835,
      "vou": 2836,
      "Ġteo": 2837,
      "Ġpet": 2838,
      "esc": 2839,
      "Ġxg": 2840,
      "ĠPa": 2841,
      "arm": 2842,
      "ucu": 2843,
      "ĠTug": 2844,
      "à¤¡": 2845,
      "Ġgod": 2846,
      "Ġlook": 2847,
      "Ġ×©×ľ": 2848,
      "Ġcup": 2849,
      "Ùĭ": 2850,
      "Ġcue": 2851,
      "Ġpop": 2852,
      "Ġ101": 2853,
      "Ġ27": 2854,
      "ocy": 2855,
      "ĠRa": 2856,
      "Ġyf": 2857,
      "ĠTom": 2858,
      "ĠLL": 2859,
      "Ġcont": 2860,
      "lim": 2861,
      "ĠVI": 2862,
      "ĠKou": 2863,
      "Ġword": 2864,
      "ĠRU": 2865,
      "Ø£": 2866,
      "ØĮ": 2867,
      "Ġcj": 2868,
      "ern": 2869,
      "Ġyears": 2870,
      "What": 2871,
      "Ġmonth": 2872,
      "ĠMO": 2873,
      "yi": 2874,
      "ĠAp": 2875,
      "Ġeri": 2876,
      "Ġyw": 2877,
      "Ġxs": 2878,
      "orro": 2879,
      "Ġist": 2880,
      "ĠâĤĤ": 2881,
      "where": 2882,
      "Ġyk": 2883,
      "ita": 2884,
      "Ġpeople": 2885,
      "dW": 2886,
      "ĠCR": 2887,
      "ĠSA": 2888,
      "ĠÃīU": 2889,
      "Ġtudi": 2890,
      "Ġquot": 2891,
      "ãģ®": 2892,
      "ĠCL": 2893,
      "ioi": 2894,
      "odd": 2895,
      "ady": 2896,
      "ÏģÎ±": 2897,
      "ova": 2898,
      "eno": 2899,
      "×ķ×ľ": 2900,
      "Ġvas": 2901,
      "ĠTET": 2902,
      "Ġil": 2903,
      "Ġtoc": 2904,
      "als": 2905,
      "ĠPo": 2906,
      "Ġgua": 2907,
      "ÃŃÃŃ": 2908,
      "ĠCD": 2909,
      "orr": 2910,
      "Ġfac": 2911,
      "×Ļ×¨": 2912,
      "ING": 2913,
      "MA": 2914,
      "ÏĨ": 2915,
      "ution": 2916,
      "Ġdiuo": 2917,
      "ëĭĪ": 2918,
      "ĠUm": 2919,
      "CE": 2920,
      "ĠTra": 2921,
      "ĠEd": 2922,
      "ĠXa": 2923,
      "Ġtuo": 2924,
      "ĠEy": 2925,
      "'re": 2926,
      "ĠQV": 2927,
      "Tt": 2928,
      "Ġgy": 2929,
      "×¢×ł": 2930,
      "Ġaou": 2931,
      "Ġdor": 2932,
      "ĠXC": 2933,
      "ĠTOUT": 2934,
      "Ø±Ø§": 2935,
      "Ġpn": 2936,
      "ĠXT": 2937,
      "Ġrto": 2938,
      "Ġje": 2939,
      "ÙīØ²": 2940,
      "Ġoct": 2941,
      "Toe": 2942,
      "gr": 2943,
      "ĠAw": 2944,
      "ĠAoy": 2945,
      "Ġyot": 2946,
      "ĠLT": 2947,
      "eep": 2948,
      "Ġpau": 2949,
      "Ġvt": 2950,
      "iow": 2951,
      "ĠMay": 2952,
      "ĠDE": 2953,
      "emo": 2954,
      "Ġaco": 2955,
      "Ġshould": 2956,
      "Î¯Î½Î±Î¹": 2957,
      "ja": 2958,
      "Is": 2959,
      "ĠTox": 2960,
      "Ã³c": 2961,
      "Ġovy": 2962,
      "Ð°ÑĢ": 2963,
      "ĠPre": 2964,
      "à¸´": 2965,
      "Ġfov": 2966,
      "Ue": 2967,
      "vog": 2968,
      "Ġous": 2969,
      "ĠeL": 2970,
      "ines": 2971,
      "51": 2972,
      "Ġoua": 2973,
      "Ġvli": 2974,
      "Ġquestion": 2975,
      "vs": 2976,
      "Ġaot": 2977,
      "ĠXt": 2978,
      "Ġlove": 2979,
      "à¸ģ": 2980,
      "ny": 2981,
      "ĠYes": 2982,
      "let": 2983,
      "ĠRO": 2984,
      "×ķ×§": 2985,
      "ĠTAG": 2986,
      "ft": 2987,
      "Ġdoo": 2988,
      "Ġfi": 2989,
      "Ġnak": 2990,
      "rame": 2991,
      "Ù¾": 2992,
      "ĠEV": 2993,
      "Ġ21": 2994,
      "ĠJE": 2995,
      "its": 2996,
      "ĠHo": 2997,
      "Ġyear": 2998,
      "ĠTCI": 2999,
      "yen": 3000,
      "Ġ28": 3001,
      "Ġdec": 3002,
      "ĠOO": 3003,
      "urs": 3004,
      "×ķ×ł": 3005,
      "RE": 3006,
      "TL": 3007,
      "iey": 3008,
      "ica": 3009,
      "Ġqus": 3010,
      "red": 3011,
      "Ġ×Ĳ×ª": 3012,
      "oos": 3013,
      "uban": 3014,
      "ĠAcyen": 3015,
      "×ł×Ļ": 3016,
      "Ġ×ķ×ķ": 3017,
      "Øµ": 3018,
      "ĠTon": 3019,
      "Ġgot": 3020,
      "Ã³r": 3021,
      "Ġemi": 3022,
      "ĠTus": 3023,
      "ĠOUS": 3024,
      "Qe": 3025,
      "ĠCro": 3026,
      "uek": 3027,
      "Ux": 3028,
      "ĠaX": 3029,
      "Ġvop": 3030,
      "oel": 3031,
      "Ag": 3032,
      "ĠCat": 3033,
      "ĠIf": 3034,
      "ĠMat": 3035,
      "Ġqx": 3036,
      "×ķ×ĳ": 3037,
      "×¢×Ł": 3038,
      "Ġoet": 3039,
      "Ġair": 3040,
      "Ġsk": 3041,
      "Ġ710": 3042,
      "ĠOc": 3043,
      "ĠJt": 3044,
      "Ġacp": 3045,
      "Ġcoin": 3046,
      "700": 3047,
      "qp": 3048,
      "Ġcud": 3049,
      "ĠTow": 3050,
      "Ġnu": 3051,
      "Ġalso": 3052,
      "dp": 3053,
      "Ġaut": 3054,
      "Ġyos": 3055,
      "Ġwy": 3056,
      "Ġkuck": 3057,
      "Us": 3058,
      "ving": 3059,
      "adi": 3060,
      "zer": 3061,
      "ĠGoo": 3062,
      "Ġkuk": 3063,
      "Ġhard": 3064,
      "à¸¢": 3065,
      "ĠQua": 3066,
      "toe": 3067,
      "Ġval": 3068,
      "ĠEY": 3069,
      "ĠÃ¦": 3070,
      "ĠTIN": 3071,
      "×ķ×¡": 3072,
      "oth": 3073,
      "Ġbu": 3074,
      "ĠRV": 3075,
      "Ġalways": 3076,
      "XC": 3077,
      "mov": 3078,
      "Ġdle": 3079,
      "Ġyg": 3080,
      "iew": 3081,
      "Ġres": 3082,
      "Ġqua": 3083,
      "ĠCork": 3084,
      "Ġew": 3085,
      "uoe": 3086,
      "TY": 3087,
      "ĠoO": 3088,
      "iex": 3089,
      "Ġhu": 3090,
      "iti": 3091,
      "ige": 3092,
      "âĢĿ": 3093,
      "×ķ×ķ×Ĳ": 3094,
      "ÛĭÛķ": 3095,
      "AH": 3096,
      "Ġka": 3097,
      "aca": 3098,
      "×ĺ×Ĳ": 3099,
      "AGY": 3100,
      "cd": 3101,
      "Ġaic": 3102,
      "Ġding": 3103,
      "ĠTOA": 3104,
      "eni": 3105,
      "________": 3106,
      "AN": 3107,
      "zov": 3108,
      "Ġdug": 3109,
      "Ġpav": 3110,
      "Ġ071": 3111,
      "Ġ×Ľ": 3112,
      "able": 3113,
      "ãĥ¼": 3114,
      "Õ¡Õ¶": 3115,
      "Ġoro": 3116,
      "Ġtra": 3117,
      "Ġeq": 3118,
      "Ġeua": 3119,
      "Ġpai": 3120,
      "Ġvla": 3121,
      "ĠOt": 3122,
      "Ġkoc": 3123,
      "ÖĦ": 3124,
      "ĠKE": 3125,
      "0000": 3126,
      "Ġova": 3127,
      "ĠÃłi": 3128,
      "Ġcro": 3129,
      "Ġemo": 3130,
      "Ø¯Ùī": 3131,
      "CO": 3132,
      "ĠGua": 3133,
      "à¸«": 3134,
      "Ġê": 3135,
      "ĠQJ": 3136,
      "ĠCoo": 3137,
      "ĠKi": 3138,
      "ley": 3139,
      "×Ļ×ł": 3140,
      "IN": 3141,
      "Sy": 3142,
      "su": 3143,
      "Ġues": 3144,
      "Ġcos": 3145,
      "Ġgeo": 3146,
      "ĠTED": 3147,
      "Ġaua": 3148,
      "ĠAoc": 3149,
      "Ġvx": 3150,
      "Ġway": 3151,
      "icy": 3152,
      "ĠpÃ©": 3153,
      "ĠSd": 3154,
      "Ġqa": 3155,
      "Ġnum": 3156,
      "à¥Ĥ": 3157,
      "âĢĭâĢĭâĢĭ": 3158,
      "ĠLy": 3159,
      "uga": 3160,
      "TIO": 3161,
      "701": 3162,
      "mu": 3163,
      "ĠPE": 3164,
      "×Ļ×ľ": 3165,
      "Ġact": 3166,
      "ĠXU": 3167,
      "arn": 3168,
      "ione": 3169,
      "dbv": 3170,
      "BO": 3171,
      "xÃ©": 3172,
      "Ġaae": 3173,
      "Ġmun": 3174,
      "à¤¥": 3175,
      "lek": 3176,
      "ÙħØ§": 3177,
      "Ġauc": 3178,
      "Ġpuc": 3179,
      "ĠØ®": 3180,
      "yov": 3181,
      "Ġcop": 3182,
      "à¤¬": 3183,
      "ĠLa": 3184,
      "ollow": 3185,
      "ĠNot": 3186,
      "à¸Ħ": 3187,
      "Ġ×ĵ×Ļ": 3188,
      "09": 3189,
      "Mo": 3190,
      "Ġgold": 3191,
      "ient": 3192,
      "ĠRE": 3193,
      "Ġuai": 3194,
      "ĠDep": 3195,
      "ĠÃłv": 3196,
      "Ð°Ð½": 3197,
      "ula": 3198,
      "Ġetc": 3199,
      "iii": 3200,
      "Ġpro": 3201,
      "err": 3202,
      "Ġgoo": 3203,
      "ĠDA": 3204,
      "Ġdiy": 3205,
      "Ġroy": 3206,
      "ÙĪØ±": 3207,
      "HO": 3208,
      "ju": 3209,
      "ĠQUX": 3210,
      "×ĵ×¢×¨": 3211,
      "Ta": 3212,
      "ĠTÃ¼": 3213,
      "ĠcO": 3214,
      "Ġpog": 3215,
      "ĠDy": 3216,
      "ĠØ¥": 3217,
      "ocks": 3218,
      "Ġeid": 3219,
      "ĠGG": 3220,
      "ĠOS": 3221,
      "Ġdiu": 3222,
      "ĠAca": 3223,
      "Ġroad": 3224,
      "Ġcb": 3225,
      "ĠClex": 3226,
      "ĠLÃł": 3227,
      "ÏĦÎ¿": 3228,
      "Ã¤": 3229,
      "ĠAot": 3230,
      "CTO": 3231,
      "iau": 3232,
      "ÖĢÕ": 3233,
      "Ġaro": 3234,
      "Ġdud": 3235,
      "Ġeor": 3236,
      "Ġthink": 3237,
      "Tl": 3238,
      "ovi": 3239,
      "à¤·": 3240,
      "ĠDot": 3241,
      "iai": 3242,
      "Ð¸Ð¹": 3243,
      "Ġtable": 3244,
      "pac": 3245,
      "Ġtat": 3246,
      "led": 3247,
      "Ġ93": 3248,
      "Bp": 3249,
      "ĠAuc": 3250,
      "Ġeh": 3251,
      "ĠKol": 3252,
      "cn": 3253,
      "ģĵ": 3254,
      "Ġbp": 3255,
      "eci": 3256,
      "ourt": 3257,
      "ĠÎµÎ¯Î½Î±Î¹": 3258,
      "Ko": 3259,
      "Tog": 3260,
      "Ġez": 3261,
      "Ġmin": 3262,
      "Ġpue": 3263,
      "ĠVide": 3264,
      "alo": 3265,
      "aaaa": 3266,
      "sgg": 3267,
      "âģĦ": 3268,
      "Ġend": 3269,
      "ĠVE": 3270,
      "Ġguy": 3271,
      "Ġ×ŀ×Ĳ": 3272,
      "dY": 3273,
      "Ġoer": 3274,
      "Ġdot": 3275,
      "ĠAY": 3276,
      "ĠTAS": 3277,
      "Ġsalm": 3278,
      "Ġ05": 3279,
      "Ġxv": 3280,
      "Ġrro": 3281,
      "Ġzy": 3282,
      "×Ļ×¡": 3283,
      "Ġang": 3284,
      "Ġdixo": 3285,
      "KE": 3286,
      "rv": 3287,
      "Ġroo": 3288,
      "Ġdw": 3289,
      "Ġyoc": 3290,
      "ĠXu": 3291,
      "ĠTei": 3292,
      "SS": 3293,
      "XE": 3294,
      "ĠOp": 3295,
      "ĠLu": 3296,
      "ĠLee": 3297,
      "ĠJa": 3298,
      "Ġquu": 3299,
      "Ġspeak": 3300,
      "))": 3301,
      "cA": 3302,
      "did": 3303,
      "ork": 3304,
      "ĠVp": 3305,
      "ĠEt": 3306,
      "Ġthee": 3307,
      "02": 3308,
      "ĠTed": 3309,
      "ĠdO": 3310,
      "Ġmt": 3311,
      "Ġadio": 3312,
      "what": 3313,
      "Ġdog": 3314,
      "ĠOo": 3315,
      "Ġros": 3316,
      "ection": 3317,
      "05": 3318,
      "cm": 3319,
      "Ġum": 3320,
      "ÛĮØ¯": 3321,
      "Tc": 3322,
      "UY": 3323,
      "Ðµ": 3324,
      "Ġtd": 3325,
      "ĠCook": 3326,
      "otp": 3327,
      "Ġkk": 3328,
      "ĠfA": 3329,
      "Be": 3330,
      "Ma": 3331,
      "Ġvos": 3332,
      "à¸ª": 3333,
      "reo": 3334,
      "Ġinst": 3335,
      "Ġevery": 3336,
      "Ar": 3337,
      "ä¸": 3338,
      "Ġmuch": 3339,
      "Ġvs": 3340,
      "ĠUC": 3341,
      "27": 3342,
      "ĠMX": 3343,
      "ĠUO": 3344,
      "olog": 3345,
      "ĠCEP": 3346,
      "Ġ×ķ×ķ×Ĳ": 3347,
      "07": 3348,
      "Ġvon": 3349,
      "à¤ļ": 3350,
      "Ġgl": 3351,
      "ĠTIT": 3352,
      "erot": 3353,
      "à¹Ħ": 3354,
      "uad": 3355,
      "ure": 3356,
      "Ġmer": 3357,
      "ated": 3358,
      "ÙĬÙĨ": 3359,
      "gn": 3360,
      "qui": 3361,
      "ĠTel": 3362,
      "Ġaoc": 3363,
      "Ġuod": 3364,
      "Ġcal": 3365,
      "aya": 3366,
      "ubate": 3367,
      "Ġemt": 3368,
      "Ġpoo": 3369,
      "Ġlie": 3370,
      "Ġmat": 3371,
      "Ġmox": 3372,
      "ĠRM": 3373,
      "42": 3374,
      "Ġois": 3375,
      "ĠAon": 3376,
      "Ġtog": 3377,
      "ĠÃ©t": 3378,
      "Ġzh": 3379,
      "ĠThey": 3380,
      "Ø±Ùī": 3381,
      "Tx": 3382,
      "ĠToS": 3383,
      "Ġld": 3384,
      "gh": 3385,
      "Î¸": 3386,
      "Ġxoi": 3387,
      "IE": 3388,
      "Kot": 3389,
      "Ġaet": 3390,
      "ĠAet": 3391,
      "ĠUY": 3392,
      "ÙĦØ§": 3393,
      "âĢĵ": 3394,
      "Ġ×Ķ×Ĳ": 3395,
      "&&&&&&&&&&&&&&&&": 3396,
      "RU": 3397,
      "Re": 3398,
      "ĠAir": 3399,
      "acr": 3400,
      "Ġalu": 3401,
      "Ġeyes": 3402,
      "Your": 3403,
      "Ġdes": 3404,
      "Õ¸Õ": 3405,
      "ëĭĪëĭ¤": 3406,
      "vd": 3407,
      "yu": 3408,
      "Ġcto": 3409,
      "ĠPh": 3410,
      "Ġhour": 3411,
      "ĠÃ©x": 3412,
      "OOOO": 3413,
      "ji": 3414,
      "Ġuen": 3415,
      "ĠcT": 3416,
      "ioe": 3417,
      "ĠXx": 3418,
      "Ġtrue": 3419,
      "Qo": 3420,
      "Ġaus": 3421,
      "Ġgau": 3422,
      "etu": 3423,
      "odo": 3424,
      "ĠAccording": 3425,
      "zs": 3426,
      "ĠAid": 3427,
      "Ġuas": 3428,
      "ĠVic": 3429,
      "ĠXd": 3430,
      "Ġwent": 3431,
      "air": 3432,
      "ĠÃ¡c": 3433,
      "ĠTiv": 3434,
      "Ġdro": 3435,
      "Ġgos": 3436,
      "ĠIo": 3437,
      "à¸ļ": 3438,
      "×ľ×Ĳ": 3439,
      "15": 3440,
      "bu": 3441,
      "Ġdoi": 3442,
      "ora": 3443,
      "ĠXj": 3444,
      "Ġthen": 3445,
      "ãģ§": 3446,
      "Ġaat": 3447,
      "Ġuer": 3448,
      "ĠEC": 3449,
      "ĠLs": 3450,
      "ucs": 3451,
      "ĠName": 3452,
      "Ġà¤¦": 3453,
      "Vou": 3454,
      "mes": 3455,
      "ĠVU": 3456,
      "à¸Ĺ": 3457,
      "Gu": 3458,
      "Ġuet": 3459,
      "Ġcw": 3460,
      "ĠCom": 3461,
      "à¤¶": 3462,
      "ĠFrom": 3463,
      "Ġoculus": 3464,
      "yes": 3465,
      "ĠÛĮ": 3466,
      "Ġger": 3467,
      "Ġkou": 3468,
      "ĠToig": 3469,
      "igo": 3470,
      "Ġà¤¹": 3471,
      "ĠaC": 3472,
      "Ġava": 3473,
      "ĠSays": 3474,
      "Ġ47": 3475,
      "ĠFe": 3476,
      "evo": 3477,
      "Ġhelp": 3478,
      "ĠTuo": 3479,
      "Ġdoe": 3480,
      "Ġmc": 3481,
      "uod": 3482,
      "ĠÎ®": 3483,
      "OW": 3484,
      "pat": 3485,
      "ĠTM": 3486,
      "à¤Ī": 3487,
      "Ġ08": 3488,
      "ĠOE": 3489,
      "Ġking": 3490,
      "ÙĬØ¯": 3491,
      "ĠoTi": 3492,
      "ĠQX": 3493,
      "Ġxoci": 3494,
      "Ġyok": 3495,
      "ĠÎ´": 3496,
      "ãģ¨": 3497,
      "clcl": 3498,
      "ena": 3499,
      "08": 3500,
      "ĠÛĭÛķ": 3501,
      "Ġcre": 3502,
      "Ġple": 3503,
      "oft": 3504,
      "Ġecho": 3505,
      "ĠCoat": 3506,
      "Ġvau": 3507,
      "ĠQuoo": 3508,
      "Ġwow": 3509,
      "Ġrc": 3510,
      "Ġoid": 3511,
      "Ġedi": 3512,
      "Ġxen": 3513,
      "ĠEc": 3514,
      "Ã©Ã©Ã©Ã©Ã©Ã©Ã©Ã©Ã©Ã©Ã©Ã©Ã©Ã©Ã©Ã©Ã©Ã©Ã©Ã©Ã©Ã©Ã©Ã©Ã©Ã©Ã©Ã©Ã©Ã©Ã©Ã©": 3515,
      "bÃ©": 3516,
      "ä»": 3517,
      "ĠAat": 3518,
      "Ġegg": 3519,
      "GE": 3520,
      "Ġage": 3521,
      "Ġxt": 3522,
      "ĠEi": 3523,
      "ayy": 3524,
      "à¸¸": 3525,
      "GO": 3526,
      "Sc": 3527,
      "çļ": 3528,
      "Ġiot": 3529,
      "Ã©it": 3530,
      "ĠMU": 3531,
      "ĠToa": 3532,
      "ãĢģ": 3533,
      "Sp": 3534,
      "Ġeus": 3535,
      "Ġsic": 3536,
      "ĠhÃł": 3537,
      "âĢĶâĢĶâĢĶâĢĶ": 3538,
      "ĠAP": 3539,
      "ĠGR": 3540,
      "LA": 3541,
      "con": 3542,
      "ĠYu": 3543,
      "VE": 3544,
      "cou": 3545,
      "Ġà¤ĩ": 3546,
      "Ġart": 3547,
      "IX": 3548,
      "yd": 3549,
      "Ġdem": 3550,
      "Ġmlo": 3551,
      "ĠQal": 3552,
      "Ġ716": 3553,
      "iee": 3554,
      "urt": 3555,
      "Ġzl": 3556,
      "TS": 3557,
      "gat": 3558,
      "vos": 3559,
      "Ġond": 3560,
      "à¤ľ": 3561,
      "ãģĦ": 3562,
      "Ġ269": 3563,
      "Ġ671": 3564,
      "Ġxi": 3565,
      "Ġrio": 3566,
      "Ġmmem": 3567,
      "eel": 3568,
      "ÙīÙĦ": 3569,
      "Ġown": 3570,
      "45": 3571,
      "KO": 3572,
      "Ġtem": 3573,
      "Ġ&Â£": 3574,
      "ĠST": 3575,
      "ĠXOU": 3576,
      "ĠÃ©Ã©": 3577,
      "ĠQuank": 3578,
      "Ġcall": 3579,
      "Ġpc": 3580,
      "ovg": 3581,
      "ĠOk": 3582,
      "28": 3583,
      "TN": 3584,
      "Ġcum": 3585,
      "ĠQx": 3586,
      "Ġxj": 3587,
      "ĠEp": 3588,
      "Ġ91": 3589,
      "ĠTIC": 3590,
      "uxe": 3591,
      "ĠÃ³g": 3592,
      "à¹ģà¸¥": 3593,
      "çļĦ": 3594,
      "ĠTet": 3595,
      "Ġeii": 3596,
      "Ġmis": 3597,
      "Ġmoy": 3598,
      "Ġ68": 3599,
      "ĠXon": 3600,
      "eti": 3601,
      "ĠNe": 3602,
      "Ġmoe": 3603,
      "Ġsuc": 3604,
      "asa": 3605,
      "Ġdiac": 3606,
      "Ġà¤¯": 3607,
      "ung": 3608,
      "udiate": 3609,
      "-.": 3610,
      "Ġwr": 3611,
      "Toi": 3612,
      "Ġdus": 3613,
      "ĠKy": 3614,
      "Ã³g": 3615,
      "ĠTEX": 3616,
      "LLLL": 3617,
      "Ð¾Ð»": 3618,
      "Ġ×¤×ķ×Ł": 3619,
      "ĠAyo": 3620,
      "Ã©is": 3621,
      "Ġtod": 3622,
      "ĠOx": 3623,
      "ĠMi": 3624,
      "utt": 3625,
      "sgguggugguggugg": 3626,
      "vv": 3627,
      "Ġmiss": 3628,
      "ĠSÃ©": 3629,
      "Ġqn": 3630,
      "ĠJer": 3631,
      "Ġzi": 3632,
      "ĠdYk": 3633,
      "Ty": 3634,
      "Ø°": 3635,
      "Ġade": 3636,
      "Ġovi": 3637,
      "yyyy": 3638,
      "ough": 3639,
      "hoy": 3640,
      "wy": 3641,
      "Ġmed": 3642,
      "Ġcg": 3643,
      "ĠUo": 3644,
      "ĠkoX": 3645,
      "lame": 3646,
      "Ġinstall": 3647,
      "BA": 3648,
      "yt": 3649,
      "Ġmid": 3650,
      "ouk": 3651,
      "Ġsum": 3652,
      "ĠGao": 3653,
      "orp": 3654,
      "Ġright": 3655,
      "à¥Ī": 3656,
      "ODe": 3657,
      "ï¼Ł": 3658,
      "Ġsm": 3659,
      "Ġacm": 3660,
      "ÏģÎ¿": 3661,
      "ĠØ§ÙĦÙħ": 3662,
      "hk": 3663,
      "ä½": 3664,
      "Ġmor": 3665,
      "ĠOl": 3666,
      "Ġ98": 3667,
      "ĠTUU": 3668,
      "×ķ×ĺ": 3669,
      "Ã¡c": 3670,
      "See": 3671,
      "ÛĨ": 3672,
      "elo": 3673,
      "ØªÙī": 3674,
      "Ġeuro": 3675,
      "âĢĭâĢĭâĢĭâĢĭâĢĭâĢĭâĢĭâĢĭâĢĭâĢĭâĢĭâĢĭâĢĭâĢĭâĢĭâĢĭ": 3676,
      "cet": 3677,
      "Ġiod": 3678,
      "ĠGre": 3679,
      "Ġwi": 3680,
      "ĠRu": 3681,
      "34": 3682,
      "400": 3683,
      "Ġdde": 3684,
      "Ġeoi": 3685,
      "ĠKV": 3686,
      "ĠMR": 3687,
      "ĠMon": 3688,
      "Ġà¤ı": 3689,
      "ofo": 3690,
      "Ġoos": 3691,
      "Ġmen": 3692,
      "Ġuro": 3693,
      "ĠCP": 3694,
      "Ġbel": 3695,
      "pr": 3696,
      "ver": 3697,
      "Ġtea": 3698,
      "Ġ74": 3699,
      "à¤Ľ": 3700,
      "Ġkro": 3701,
      "tok": 3702,
      "Que": 3703,
      "Tue": 3704,
      "hn": 3705,
      "Ġais": 3706,
      "ĠUd": 3707,
      "avs": 3708,
      "eL": 3709,
      "vu": 3710,
      "ĠLI": 3711,
      "×§×Ĳ": 3712,
      "cot": 3713,
      "hu": 3714,
      "ĠmA": 3715,
      "ĠJeo": 3716,
      "voy": 3717,
      "Ġik": 3718,
      "Ġpui": 3719,
      "ĠUE": 3720,
      "Ġdik": 3721,
      "ucy": 3722,
      "âĢľ": 3723,
      "×Ļ×ĵ": 3724,
      "Acc": 3725,
      ".....": 3726,
      "NCLE": 3727,
      "ĠTÃľ": 3728,
      "ely": 3729,
      "Ġded": 3730,
      "ĠGio": 3731,
      "ids": 3732,
      "pov": 3733,
      "ĠTve": 3734,
      "Ġeur": 3735,
      "iso": 3736,
      "ĠAdv": 3737,
      "Ġplay": 3738,
      "×Ļ×Ļ×Ł": 3739,
      "ĠaL": 3740,
      "Ġeon": 3741,
      "ĠCox": 3742,
      "ĠSAY": 3743,
      "ĠOTI": 3744,
      "Ġrie": 3745,
      "Ġusd": 3746,
      "Ġ×Ĳ×Ļ×Ł": 3747,
      "NOY": 3748,
      "Ġpex": 3749,
      "ĠEng": 3750,
      "alf": 3751,
      "Ġher": 3752,
      "ĠÂ«.": 3753,
      "Ġ97": 3754,
      "à¸¥": 3755,
      "Ġbuy": 3756,
      "Ġzu": 3757,
      "FO": 3758,
      "ĠTEE": 3759,
      "ĠQubÃ©": 3760,
      "wn": 3761,
      "xov": 3762,
      "Ġeof": 3763,
      "ĠCt": 3764,
      "Ġves": 3765,
      "lea": 3766,
      "ayo": 3767,
      "Ã¼g": 3768,
      "rd": 3769,
      "ran": 3770,
      "ĠTOTO": 3771,
      "ond": 3772,
      "uth": 3773,
      "ĠAux": 3774,
      "Ġph": 3775,
      "Ġpur": 3776,
      "Ġhoo": 3777,
      "ĠUy": 3778,
      "æľ": 3779,
      "Ġoix": 3780,
      "Ġdp": 3781,
      "Ġcic": 3782,
      "ĠCDU": 3783,
      "ioU": 3784,
      "Ġgre": 3785,
      "ĠEO": 3786,
      "Ġhate": 3787,
      "ÙĨØ§": 3788,
      "ÙĪØ¯": 3789,
      "79": 3790,
      "RS": 3791,
      "Ġveo": 3792,
      "Ġxat": 3793,
      "Ġqre": 3794,
      "Ġovx": 3795,
      "à¹ģà¸¥à¸°": 3796,
      "zu": 3797,
      "Ġdj": 3798,
      "Ġpod": 3799,
      "Ġpol": 3800,
      "atu": 3801,
      "ĠIO": 3802,
      "ĠXot": 3803,
      "×ľ×¢": 3804,
      "ĠQAI": 3805,
      "Ġ115": 3806,
      "ĠÔ": 3807,
      "Ġvero": 3808,
      "Ġreg": 3809,
      "×ķ×Ŀ": 3810,
      "×ķ×ŀ": 3811,
      "ĠTtov": 3812,
      "VA": 3813,
      "ĠAuo": 3814,
      "opo": 3815,
      "×Ļ×¢": 3816,
      "Ġ722": 3817,
      "dx": 3818,
      "ĠCk": 3819,
      "Ġvoy": 3820,
      "ĠGer": 3821,
      "ĠSE": 3822,
      "ĠSup": 3823,
      "ĠYan": 3824,
      "ĠEs": 3825,
      "Ġkw": 3826,
      "TOA": 3827,
      "oxt": 3828,
      "TUS": 3829,
      "Ya": 3830,
      "ĠATO": 3831,
      "Ġcf": 3832,
      "ĠCer": 3833,
      "ĠSie": 3834,
      "Ġkab": 3835,
      "Ġbo": 3836,
      "ìĹ": 3837,
      "ĠTÃł": 3838,
      "ĠiT": 3839,
      "Ġxeu": 3840,
      "Ġfoo": 3841,
      "Ġqm": 3842,
      "ĠÃ©l": 3843,
      "for": 3844,
      "Ġcare": 3845,
      "roat": 3846,
      "ads": 3847,
      "Ġoca": 3848,
      "ÏĦÎ±": 3849,
      "Ġcodd": 3850,
      "dou": 3851,
      "wr": 3852,
      "Ġaor": 3853,
      "Ġck": 3854,
      "ĠCTI": 3855,
      "Ġ900": 3856,
      "OLY": 3857,
      "cw": 3858,
      "ĠGE": 3859,
      "ĠSou": 3860,
      "ĠSlex": 3861,
      "Ġ03": 3862,
      "oni": 3863,
      "ĠDV": 3864,
      "ĠJY": 3865,
      "Ġatu": 3866,
      "iven": 3867,
      "ĠÃ³v": 3868,
      "ĠTiu": 3869,
      "ift": 3870,
      "GG": 3871,
      "Tou": 3872,
      "à¤£": 3873,
      "leg": 3874,
      "ĠDO": 3875,
      "udb": 3876,
      "41": 3877,
      "port": 3878,
      "Ġsl": 3879,
      "ĠXM": 3880,
      "uber": 3881,
      "ĠHE": 3882,
      "Two": 3883,
      "cg": 3884,
      "ĠeS": 3885,
      "Ġmumm": 3886,
      "Ġibi": 3887,
      "ĠTIG": 3888,
      "ĠExex": 3889,
      "Gc": 3890,
      "Le": 3891,
      "Tol": 3892,
      "cuc": 3893,
      "sp": 3894,
      "vy": 3895,
      "xk": 3896,
      "Ġdax": 3897,
      "Ġeod": 3898,
      "Ġmod": 3899,
      "ĠEE": 3900,
      "Oo": 3901,
      "Ġuuo": 3902,
      "Ġpag": 3903,
      "Ġvor": 3904,
      "ied": 3905,
      "ĠDie": 3906,
      "ĠUNCLE": 3907,
      "Ġ95": 3908,
      "Ġmmeme": 3909,
      "uto": 3910,
      "Ġvac": 3911,
      "Ġsab": 3912,
      "Ġgor": 3913,
      "Ġfav": 3914,
      "etds": 3915,
      "ERE": 3916,
      "Me": 3917,
      "Ġdeo": 3918,
      "roU": 3919,
      "Su": 3920,
      "Ġuh": 3921,
      "eso": 3922,
      "ĠEL": 3923,
      "ones": 3924,
      "Ġuci": 3925,
      "ĠAAA": 3926,
      "bas": 3927,
      "cue": 3928,
      "iou": 3929,
      "Ðº": 3930,
      "ĠKoo": 3931,
      "ĠBg": 3932,
      "ĠBl": 3933,
      "Ġ83": 3934,
      "ĠÎ½": 3935,
      "ODU": 3936,
      "roup": 3937,
      "ecause": 3938,
      "ban": 3939,
      "lao": 3940,
      "ĠuS": 3941,
      "Ġsol": 3942,
      "Î¹Îº": 3943,
      "gue": 3944,
      "ĠpoU": 3945,
      "Ġwot": 3946,
      "ĠQUK": 3947,
      "ĠÎ³": 3948,
      "Ġleo": 3949,
      "Ġgoes": 3950,
      "73": 3951,
      "ĠTb": 3952,
      "Ġaug": 3953,
      "Ġcow": 3954,
      "Ġlife": 3955,
      "Ġoff": 3956,
      "ĠTIX": 3957,
      "ĠHem": 3958,
      "ĠAcye": 3959,
      "ĠWhen": 3960,
      "ĠTRY": 3961,
      "RR": 3962,
      "who": 3963,
      "Ġcit": 3964,
      "Ġwater": 3965,
      "Ġ707": 3966,
      "Ġoco": 3967,
      "TER": 3968,
      "Je": 3969,
      "Ġuto": 3970,
      "ĠGOV": 3971,
      "Ø§Ø¨": 3972,
      "Ġeno": 3973,
      "ĠCBS": 3974,
      "Gi": 3975,
      "ĠTac": 3976,
      "Ġuov": 3977,
      "icu": 3978,
      "ĠToC": 3979,
      "ents": 3980,
      "cccc": 3981,
      "Î¼Î±": 3982,
      "ĠÙĬØ§ÙĥÙī": 3983,
      "Ġgag": 3984,
      "ĠMad": 3985,
      "ĠJes": 3986,
      "Ts": 3987,
      "Ġcus": 3988,
      "Ġpor": 3989,
      "ĠQui": 3990,
      "uke": 3991,
      "Ġyero": 3992,
      "IM": 3993,
      "Ġcad": 3994,
      "Ġpao": 3995,
      "Ġsov": 3996,
      "ĠGor": 3997,
      "ĠMou": 3998,
      "Ġhol": 3999,
      "ĠJG": 4000,
      "53": 4001,
      "PA": 4002,
      "cx": 4003,
      "Ġtex": 4004,
      "Ġmei": 4005,
      "Ġuw": 4006,
      "Ġote": 4007,
      "ugguggugg": 4008,
      "à®ķ": 4009,
      "Ġss": 4010,
      "Ġkoci": 4011,
      "Ġaod": 4012,
      "Ġtk": 4013,
      "Ġyore": 4014,
      "ĠtabÉĶ": 4015,
      "Vo": 4016,
      "ier": 4017,
      "ven": 4018,
      "Ġí": 4019,
      "Ġtl": 4020,
      "Ġche": 4021,
      "Ġtor": 4022,
      "Ġovg": 4023,
      "ever": 4024,
      "Tex": 4025,
      "Ġfou": 4026,
      "Ġhor": 4027,
      "ĠquU": 4028,
      "ĠGUY": 4029,
      "Ġeven": 4030,
      "ÑįÐ»": 4031,
      "à¸Ńà¸ĩ": 4032,
      "Ġcontin": 4033,
      "OP": 4034,
      "ĠVou": 4035,
      "Ġxoti": 4036,
      "ĠRod": 4037,
      "ĠNO": 4038,
      "YO": 4039,
      "xv": 4040,
      "ĠAudi": 4041,
      "Ġvoi": 4042,
      "ĠKv": 4043,
      "ĠPA": 4044,
      "ĠUc": 4045,
      "ĠÙ¾": 4046,
      "Ġocp": 4047,
      "ĠExe": 4048,
      "ĠÕ¡": 4049,
      "yv": 4050,
      "Ġdex": 4051,
      "ĠmU": 4052,
      "ĠCet": 4053,
      "ĠvÃł": 4054,
      "Ġsme": 4055,
      "ĠMr": 4056,
      "Ġqut": 4057,
      "ence": 4058,
      "uba": 4059,
      "Ġquid": 4060,
      "Ġares": 4061,
      "Yo": 4062,
      "ky": 4063,
      "Ġyow": 4064,
      "ĠCp": 4065,
      "Ġvc": 4066,
      "ĠQuot": 4067,
      "Ġadl": 4068,
      "eU": 4069,
      "ìĬ": 4070,
      "ĠAog": 4071,
      "Ġmag": 4072,
      "ĠKu": 4073,
      "ĠLOT": 4074,
      "aci": 4075,
      "Ġà¤¨": 4076,
      "ili": 4077,
      "ĠTOVTOV": 4078,
      "Ġusi": 4079,
      "Ġdbx": 4080,
      "Ġpee": 4081,
      "Ġpoi": 4082,
      "ĠYY": 4083,
      "Ġrat": 4084,
      "Ġly": 4085,
      "ĠTIL": 4086,
      "ÙĪÙħ": 4087,
      "Ġetd": 4088,
      "epe": 4089,
      "Ġsaying": 4090,
      "DD": 4091,
      "Ġoia": 4092,
      "ĠAÃ©": 4093,
      "Ġelo": 4094,
      "ĠuÃł": 4095,
      "Ġsym": 4096,
      "ĠDon": 4097,
      "TEA": 4098,
      "Î½Î±": 4099,
      "OENOY": 4100,
      "fu": 4101,
      "loo": 4102,
      "ony": 4103,
      "ubÃ©": 4104,
      "ĠØŃ": 4105,
      "ĠoUX": 4106,
      "oma": 4107,
      "ãģŁ": 4108,
      "Ġdido": 4109,
      "iove": 4110,
      "ĠÃ¨": 4111,
      "Ġort": 4112,
      "Ġhym": 4113,
      "ola": 4114,
      "Ø±ÙĬ": 4115,
      "xi": 4116,
      "ĴĮ": 4117,
      "Ġtim": 4118,
      "ĠAdi": 4119,
      "ĠOf": 4120,
      "ĠMu": 4121,
      "à¸ķ": 4122,
      "Ġyob": 4123,
      "Ġask": 4124,
      "ĠÐ½": 4125,
      "Ġ290": 4126,
      "Ġtp": 4127,
      "Ġpto": 4128,
      "ĠSet": 4129,
      "ini": 4130,
      "ĠDÃĢ": 4131,
      "uuu": 4132,
      "$.": 4133,
      "ĠAOV": 4134,
      "Ġsue": 4135,
      "ĠDr": 4136,
      "ĠToV": 4137,
      "AB": 4138,
      "Ss": 4139,
      "Ġtug": 4140,
      "Ġyb": 4141,
      "Ġmre": 4142,
      "ĠPv": 4143,
      "ther": 4144,
      "Ø¯Ø§": 4145,
      "32": 4146,
      "Î²": 4147,
      "Ġaia": 4148,
      "ĠdB": 4149,
      "ĠGL": 4150,
      "ĠTII": 4151,
      "cO": 4152,
      "ton": 4153,
      "Ġmee": 4154,
      "Ġmove": 4155,
      "Ġuow": 4156,
      "Ġsot": 4157,
      "ĠOH": 4158,
      "ĠIA": 4159,
      "ĠMoy": 4160,
      "Ġali": 4161,
      "Ġula": 4162,
      "ĠâĤĦ": 4163,
      "Ġmade": 4164,
      "ĠEoi": 4165,
      "ino": 4166,
      "Ġram": 4167,
      "ĠÐ¼": 4168,
      "GS": 4169,
      "Ġvw": 4170,
      "Ġkn": 4171,
      "ĠÃ©ig": 4172,
      "Ġlow": 4173,
      "à¸¹": 4174,
      "ÃŃo": 4175,
      "Ø³Ùī": 4176,
      "ations": 4177,
      "Ġaieo": 4178,
      "NI": 4179,
      "ĠAway": 4180,
      "ĠeI": 4181,
      "roro": 4182,
      "Ġfox": 4183,
      "ĠUD": 4184,
      "Ġ88": 4185,
      "ĠWith": 4186,
      "×Ļ×©": 4187,
      "Kod": 4188,
      "Ġcia": 4189,
      "ĠMac": 4190,
      "Ġhw": 4191,
      "ÃīU": 4192,
      "ĠâĢ¢": 4193,
      "CS": 4194,
      "cus": 4195,
      "poy": 4196,
      "ĠaD": 4197,
      "Ġuj": 4198,
      "ĠCOT": 4199,
      "ĠOC": 4200,
      "Ġdba": 4201,
      "ĠQAO": 4202,
      "ĠAero": 4203,
      "Ġios": 4204,
      "Ġvis": 4205,
      "ĠLY": 4206,
      "gos": 4207,
      "ĠTre": 4208,
      "ĠaV": 4209,
      "Ġply": 4210,
      "Ġvery": 4211,
      "hed": 4212,
      "Ġxad": 4213,
      "ĠIG": 4214,
      "ĠXy": 4215,
      "ĠMom": 4216,
      "Ġrout": 4217,
      "ĠLOU": 4218,
      "ĠÃ©ÉĶ": 4219,
      "top": 4220,
      "irst": 4221,
      "Ġ×ľ×Ĳ": 4222,
      "GA": 4223,
      "Tec": 4224,
      "Ġpal": 4225,
      "ĠUL": 4226,
      "Ġlong": 4227,
      "idbv": 4228,
      "ces": 4229,
      "rbp": 4230,
      "zan": 4231,
      "Ġgae": 4232,
      "Ġnov": 4233,
      "Ġdied": 4234,
      "Ġ×Ĵ×¢": 4235,
      "ĠtÃł": 4236,
      "Ġctu": 4237,
      "erat": 4238,
      "ĠJec": 4239,
      "Ġ86": 4240,
      "ĠÕ§": 4241,
      "Ro": 4242,
      "ZD": 4243,
      "ĠOb": 4244,
      "ĠIV": 4245,
      "Ġft": 4246,
      "TOT": 4247,
      "ĠUI": 4248,
      "ÎµÎ¯": 4249,
      "Ġecu": 4250,
      "ĠToth": 4251,
      "ĠLead": 4252,
      ",,": 4253,
      "Code": 4254,
      "ph": 4255,
      "ĠAen": 4256,
      "Ġyao": 4257,
      "Ġpen": 4258,
      "Ġtom": 4259,
      "ĠVi": 4260,
      "ĠÃ©i": 4261,
      "ign": 4262,
      "ilo": 4263,
      "ÛĮÙĨ": 4264,
      "ÃĵDÃĢ": 4265,
      "Sv": 4266,
      "Uc": 4267,
      "ĠoH": 4268,
      "ĠAro": 4269,
      "Ġeap": 4270,
      "Ġsw": 4271,
      "ĠGig": 4272,
      "ĠSle": 4273,
      "ĠXS": 4274,
      "ĠTAX": 4275,
      "tttt": 4276,
      "Ġdva": 4277,
      "ĠÃ¡i": 4278,
      "......": 4279,
      "aj": 4280,
      "Ġcalle": 4281,
      "Ġkl": 4282,
      "ĠToO": 4283,
      "Ġback": 4284,
      "Ġthese": 4285,
      "ĠFo": 4286,
      "ulo": 4287,
      "ĠAnu": 4288,
      "ĠØªÙĪ": 4289,
      "mot": 4290,
      "Ġmalm": 4291,
      "Ġcol": 4292,
      "ĠOu": 4293,
      "ooy": 4294,
      "ower": 4295,
      "year": 4296,
      "ToV": 4297,
      "uon": 4298,
      "Ġdte": 4299,
      "Ġmk": 4300,
      "ĠVus": 4301,
      "Ġ201": 4302,
      "Ġrates": 4303,
      "ĠPU": 4304,
      "Ġdiua": 4305,
      "Ġrox": 4306,
      "opa": 4307,
      "dic": 4308,
      "moe": 4309,
      "Ġdau": 4310,
      "ĠdÃ¡": 4311,
      "ĠAoi": 4312,
      "ĠVer": 4313,
      "Ġrl": 4314,
      "ĠquÃģ": 4315,
      "ĠTii": 4316,
      "×¢×¡": 4317,
      "gain": 4318,
      "Gy": 4319,
      "QJ": 4320,
      "Ġeae": 4321,
      "ĠCg": 4322,
      "Ġpub": 4323,
      "ĠVeo": 4324,
      "Ġree": 4325,
      "Ġ53": 4326,
      "Ġ002": 4327,
      "that": 4328,
      "Õ¶Õ": 4329,
      "Ġyn": 4330,
      "Ã©k": 4331,
      "ĠÃ©v": 4332,
      "coy": 4333,
      "Ġmus": 4334,
      "ĠCap": 4335,
      "rod": 4336,
      "ĠSex": 4337,
      "isi": 4338,
      "oyy": 4339,
      "Ġdbu": 4340,
      "ìĿ´": 4341,
      "Tes": 4342,
      "VO": 4343,
      "tA": 4344,
      "ual": 4345,
      "Ġaux": 4346,
      "Ġdtu": 4347,
      "ĠCol": 4348,
      "iol": 4349,
      "ition": 4350,
      "ĠÑį": 4351,
      "&.": 4352,
      "CV": 4353,
      "Oh": 4354,
      "rÃ©": 4355,
      "Ġuar": 4356,
      "ĠCourt": 4357,
      "Ġ110": 4358,
      "eox": 4359,
      "010": 4360,
      "ĠAng": 4361,
      "ãĤĴ": 4362,
      "Ġwork": 4363,
      "ĠÙģÙĬ": 4364,
      "mos": 4365,
      "Ġpie": 4366,
      "ĠGD": 4367,
      "Ġrm": 4368,
      "Ġjd": 4369,
      "Ġà¤¬": 4370,
      "Ġfeet": 4371,
      "ĠoÃŃ": 4372,
      "Ġyard": 4373,
      "Ġcn": 4374,
      "ĠLx": 4375,
      "oko": 4376,
      "Ġuxo": 4377,
      "div": 4378,
      "Öģ": 4379,
      "Ġmist": 4380,
      "Ġsec": 4381,
      "Ġkan": 4382,
      "ĠQUI": 4383,
      "Ġ×Ļ×Ĳ": 4384,
      "Tw": 4385,
      "TTOL": 4386,
      "dh": 4387,
      "oua": 4388,
      "ĠSP": 4389,
      "ĠqU": 4390,
      "ash": 4391,
      "Ġbecause": 4392,
      "agy": 4393,
      "Ġaluo": 4394,
      "ãģĻ": 4395,
      "ĠAdo": 4396,
      "By": 4397,
      "Yy": 4398,
      "ger": 4399,
      "Ġtn": 4400,
      "Ġuan": 4401,
      "Ġtos": 4402,
      "uoY": 4403,
      "ĠRot": 4404,
      "Ġls": 4405,
      "They": 4406,
      "yoo": 4407,
      "ĠTub": 4408,
      "ĠdS": 4409,
      "ĠEe": 4410,
      "ĠÐ´": 4411,
      "ĠCEU": 4412,
      "Xo": 4413,
      "wog": 4414,
      "ĠTd": 4415,
      "Ġtell": 4416,
      "Ġead": 4417,
      "ĠTOv": 4418,
      "ĠGet": 4419,
      "ĠOM": 4420,
      "ĠRex": 4421,
      "à¸³": 4422,
      "Ġjy": 4423,
      "ÉĽc": 4424,
      "ĠAey": 4425,
      "oux": 4426,
      "ĠQog": 4427,
      "rove": 4428,
      "Ġgat": 4429,
      "ĠMd": 4430,
      "Ġwoe": 4431,
      "ali": 4432,
      "Ġbest": 4433,
      "ĠWho": 4434,
      "ĠDemofth": 4435,
      "ĠEau": 4436,
      "ĠKU": 4437,
      "×Ļ×Ł": 4438,
      "ĠOUT": 4439,
      "Ġouv": 4440,
      "Ġudo": 4441,
      "Ġpray": 4442,
      "Dem": 4443,
      "Eo": 4444,
      "Ġaid": 4445,
      "Ġvp": 4446,
      "ovy": 4447,
      "ĠIX": 4448,
      "ĠDR": 4449,
      "ĠTop": 4450,
      "001": 4451,
      "ĠWI": 4452,
      "ĠØ¨Ø§": 4453,
      "eov": 4454,
      "oie": 4455,
      "pet": 4456,
      "Ġgue": 4457,
      "Ġkv": 4458,
      "ĠLS": 4459,
      "Ġjust": 4460,
      "ÏĦÎ·": 4461,
      "×ĸ×©": 4462,
      "qua": 4463,
      "ĠCOL": 4464,
      "Ġdies": 4465,
      "à¹ĥ": 4466,
      "ï¼Į": 4467,
      "à¸µà¹Ī": 4468,
      "Ġyyy": 4469,
      "ĠQc": 4470,
      "oog": 4471,
      "ĠETV": 4472,
      "ĠHel": 4473,
      "×Ĳ×ľ": 4474,
      "Ġzx": 4475,
      "//": 4476,
      "100": 4477,
      "Cy": 4478,
      "Ã©ig": 4479,
      "lele": 4480,
      "Ġexer": 4481,
      "ifi": 4482,
      "ĠAgg": 4483,
      "Ġuua": 4484,
      "Ã©id": 4485,
      "Ġpae": 4486,
      "Ġwhen": 4487,
      "ĠkabÉĶ": 4488,
      "ĠDC": 4489,
      "Ġlog": 4490,
      "eog": 4491,
      "Ġads": 4492,
      "OOO": 4493,
      "Ð¾Ð½": 4494,
      "LS": 4495,
      "can": 4496,
      "ê°": 4497,
      "ĠAio": 4498,
      "Ġpp": 4499,
      "Ġpco": 4500,
      "ĠgU": 4501,
      "Ġqt": 4502,
      "ĠDa": 4503,
      "ĠUr": 4504,
      "Ġzov": 4505,
      "ĠState": 4506,
      "KA": 4507,
      "UD": 4508,
      "Ġope": 4509,
      "ĠGood": 4510,
      "ĠSov": 4511,
      "ĠÃ©c": 4512,
      "igy": 4513,
      "ĠÙħÛĮ": 4514,
      "If": 4515,
      "Ġeau": 4516,
      "Ġmake": 4517,
      "Ġhoc": 4518,
      "ĠRN": 4519,
      "ĠJoy": 4520,
      "ĠQuanu": 4521,
      "ĠâĢĭâĢĭâĢĭâĢĭ": 4522,
      "sguggugguggugg": 4523,
      "UM": 4524,
      "ner": 4525,
      "quo": 4526,
      "ray": 4527,
      "uoo": 4528,
      "ìĭ": 4529,
      "Ġmom": 4530,
      "ĠCog": 4531,
      "Ġ92": 4532,
      "Ġdii": 4533,
      "acs": 4534,
      "Ġace": 4535,
      "Ġoder": 4536,
      "Ð°Ð»": 4537,
      "ĠTvg": 4538,
      "ï¼ī": 4539,
      "AP": 4540,
      "æĺ": 4541,
      "Ġ&.": 4542,
      "ĠPC": 4543,
      "uso": 4544,
      "aco": 4545,
      "Ġ706": 4546,
      "Ã©Ã©Ã©Ã©Ã©Ã©": 4547,
      "Oe": 4548,
      "ĠdX": 4549,
      "Ġeos": 4550,
      "ĠVm": 4551,
      "ĠVid": 4552,
      "Ġgave": 4553,
      "ĠMae": 4554,
      "len": 4555,
      "ĠÂ£.": 4556,
      "toY": 4557,
      "ÙĦÙĬ": 4558,
      "cka": 4559,
      "Ñĭ": 4560,
      "Ġmff": 4561,
      "Ġuaa": 4562,
      "ĠEG": 4563,
      "ĠXY": 4564,
      "ĠkA": 4565,
      "à¥¦": 4566,
      "×Ļ×ļ": 4567,
      "95": 4568,
      "bor": 4569,
      "ĠCau": 4570,
      "ĠsabÉĶ": 4571,
      "Ġfood": 4572,
      "Ġà¤Ĩ": 4573,
      "ĠTuy": 4574,
      "ĠACA": 4575,
      "Ġë°": 4576,
      "Am": 4577,
      "Õ½": 4578,
      "Ġsection": 4579,
      "isa": 4580,
      "Ġkill": 4581,
      "Ġfollow": 4582,
      "Ġny": 4583,
      "exe": 4584,
      "ĠÎ¿": 4585,
      "Ġety": 4586,
      "AGE": 4587,
      "Bo": 4588,
      "pas": 4589,
      "Ġmie": 4590,
      "ĠmÃ¶to": 4591,
      "ald": 4592,
      "Ġ×ª": 4593,
      "Ġriv": 4594,
      "ited": 4595,
      "tox": 4596,
      "Ġofp": 4597,
      "lie": 4598,
      "Ġá": 4599,
      "ĠCv": 4600,
      "ĠCiv": 4601,
      "ĠGee": 4602,
      "ister": 4603,
      "ĠDT": 4604,
      "ilt": 4605,
      "ÙīÙĨ": 4606,
      "aA": 4607,
      "Õµ": 4608,
      "ĠCan": 4609,
      "eret": 4610,
      "ĠYI": 4611,
      "ĠVOL": 4612,
      "Ġgut": 4613,
      "ĠLX": 4614,
      "oss": 4615,
      "ĠTEC": 4616,
      "Ġatro": 4617,
      "à¹Ĥ": 4618,
      "ÎµÏĤ": 4619,
      "LUEBLUEBLUEBLUEB": 4620,
      "ALL": 4621,
      "eic": 4622,
      "Ö¿": 4623,
      "Ġoig": 4624,
      "Ġdov": 4625,
      "Ġego": 4626,
      "ĠCOD": 4627,
      "Ġgen": 4628,
      "ĠMov": 4629,
      "Ġ×Ĺ": 4630,
      "Ġqv": 4631,
      "Ġadu": 4632,
      "ĠHow": 4633,
      "aug": 4634,
      "cro": 4635,
      "yer": 4636,
      "ĠaS": 4637,
      "Ġmar": 4638,
      "Ġwu": 4639,
      "ĠkÃ©": 4640,
      "riv": 4641,
      "sv": 4642,
      "Ġeve": 4643,
      "Ġiow": 4644,
      "ĠQar": 4645,
      "ĠCra": 4646,
      "Ġsep": 4647,
      "Ġsho": 4648,
      "imo": 4649,
      "ĠQuana": 4650,
      "Ġcount": 4651,
      "Qi": 4652,
      "RY": 4653,
      "uou": 4654,
      "Ġyay": 4655,
      "ĠSoc": 4656,
      "ued": 4657,
      "Ġà¤ľ": 4658,
      "emb": 4659,
      "aiv": 4660,
      "Ġmume": 4661,
      "tor": 4662,
      "vor": 4663,
      "wi": 4664,
      "ĠdM": 4665,
      "Ġymo": 4666,
      "Ġion": 4667,
      "Ġgroup": 4668,
      "els": 4669,
      "ãĥ³": 4670,
      "ĠmbÉĶ": 4671,
      "Ig": 4672,
      "VoU": 4673,
      "äº": 4674,
      "ĠtU": 4675,
      "ĠAer": 4676,
      "Ġ020": 4677,
      "ĠVC": 4678,
      "ĠXv": 4679,
      "ĠUG": 4680,
      "ĠUM": 4681,
      "BI": 4682,
      "Ou": 4683,
      "aM": 4684,
      "Ġyoy": 4685,
      "Ġcott": 4686,
      "ĠCov": 4687,
      "rois": 4688,
      "ants": 4689,
      "auov": 4690,
      "ÏĥÎ·": 4691,
      "ĠØ¯Ø±": 4692,
      "ĠQuada": 4693,
      "HH": 4694,
      "lov": 4695,
      "Õ¿": 4696,
      "Ġtow": 4697,
      "Ġqot": 4698,
      "ĠTUM": 4699,
      "oem": 4700,
      "Ġstill": 4701,
      "Ġmlog": 4702,
      "LG": 4703,
      "Ġaed": 4704,
      "ĠAOI": 4705,
      "ovr": 4706,
      "ĠEk": 4707,
      "ueo": 4708,
      "udo": 4709,
      "Ġja": 4710,
      "Ġalo": 4711,
      "ĠUncle": 4712,
      "Õ¸ÖĤÕ´": 4713,
      "'.": 4714,
      "uat": 4715,
      "Ġgp": 4716,
      "Ġgas": 4717,
      "Ġwom": 4718,
      "isc": 4719,
      "Ġkat": 4720,
      "ĠUus": 4721,
      "Ġ58": 4722,
      "016": 4723,
      "Ġdioc": 4724,
      "ÑĥÑĥ": 4725,
      "Ke": 4726,
      "rb": 4727,
      "ĠoS": 4728,
      "Ġdero": 4729,
      "ĠcV": 4730,
      "Ġpers": 4731,
      "Ġgt": 4732,
      "Ġgiven": 4733,
      "Ġ111": 4734,
      "Pe": 4735,
      "Toy": 4736,
      "lio": 4737,
      "Ġoiov": 4738,
      "ĠCal": 4739,
      "udy": 4740,
      "Ġà¤²": 4741,
      "ĠCUu": 4742,
      "Pl": 4743,
      "Ġdap": 4744,
      "ĠAes": 4745,
      "ĠAov": 4746,
      "Ġein": 4747,
      "Ġeee": 4748,
      "Ġmd": 4749,
      "Ġkd": 4750,
      "ĠLÃĢ": 4751,
      "Ġà¤ī": 4752,
      "Ġà¤Ń": 4753,
      "eir": 4754,
      "Ġowe": 4755,
      "ĠÛĮØ§": 4756,
      "cos": 4757,
      "lt": 4758,
      "ĲëĬĶ": 4759,
      "ĠyT": 4760,
      "ĠcoU": 4761,
      "Ġvus": 4762,
      "ĠOne": 4763,
      "Ġnew": 4764,
      "ĠÃ©r": 4765,
      "adad": 4766,
      "ĠWA": 4767,
      "Ġ×ĵ×Ĳ": 4768,
      "Ġ1000": 4769,
      "æĪĳ": 4770,
      "97": 4771,
      "AQ": 4772,
      "IV": 4773,
      "My": 4774,
      "ĠdQ": 4775,
      "Ġtur": 4776,
      "ĠAre": 4777,
      "Ġeia": 4778,
      "Ġuio": 4779,
      "Ġuir": 4780,
      "Ġcao": 4781,
      "ĠCoy": 4782,
      "Ġpap": 4783,
      "uox": 4784,
      "enn": 4785,
      "usa": 4786,
      "meo": 4787,
      "ĠAdd": 4788,
      "×ŀ×Ĳ": 4789,
      "AOU": 4790,
      "Fol": 4791,
      "tk": 4792,
      "wos": 4793,
      "Ġcle": 4794,
      "Ġton": 4795,
      "ĠUR": 4796,
      "ĠBa": 4797,
      "exs": 4798,
      "TUA": 4799,
      "×ĵ×Ļ": 4800,
      "ĠCES": 4801,
      "Ġ×Ĳ×Ļ×¨": 4802,
      "Ġari": 4803,
      "ĠSr": 4804,
      "ĠRi": 4805,
      "edo": 4806,
      "-&": 4807,
      "Î¤": 4808,
      "Ġear": 4809,
      "ĠVs": 4810,
      "TON": 4811,
      "ester": 4812,
      "ĠÎŃ": 4813,
      "ĠØ§Ø³Øª": 4814,
      "ÏĢÎ¿": 4815,
      "Ġpua": 4816,
      "Ġwere": 4817,
      "Ġnod": 4818,
      "ops": 4819,
      "rive": 4820,
      "Ġemp": 4821,
      "ird": 4822,
      "Aov": 4823,
      "qr": 4824,
      "Ġool": 4825,
      "Ġuic": 4826,
      "Ġcer": 4827,
      "Ġiie": 4828,
      "ĠCop": 4829,
      "à¤ı": 4830,
      "ĠVAM": 4831,
      "ĠXs": 4832,
      "Ġkon": 4833,
      "ions": 4834,
      "706": 4835,
      "ĠâĢĭâĢĭâĢĭâĢĭâĢĭâĢĭâĢĭâĢĭâĢĭ": 4836,
      "ÙĨÙīÚŃ": 4837,
      "ĠØ¥ÙĦÙī": 4838,
      "93": 4839,
      "ĠCi": 4840,
      "ĠSue": 4841,
      "Ġhigh": 4842,
      "Ġhalf": 4843,
      "ĠBÃ©": 4844,
      "ĠBet": 4845,
      "ago": 4846,
      "ĠÃģo": 4847,
      "ÏģÎ¹": 4848,
      "yp": 4849,
      "Ġepo": 4850,
      "Ġvio": 4851,
      "Ġâģĵ": 4852,
      "TOO": 4853,
      "Ġloo": 4854,
      "igov": 4855,
      "ĠâĤ¬.": 4856,
      "Ġovs": 4857,
      "Ġerror": 4858,
      "Ġà¸«": 4859,
      "Ġcalled": 4860,
      "ef": 4861,
      "ria": 4862,
      "uot": 4863,
      "ìŀ": 4864,
      "ĠoD": 4865,
      "Ġako": 4866,
      "ann": 4867,
      "ĠVr": 4868,
      "Ġkx": 4869,
      "Ġ--": 4870,
      "ĠThi": 4871,
      "Õ¥ÖĢ": 4872,
      "ĠCodex": 4873,
      "Cr": 4874,
      "KG": 4875,
      "Oi": 4876,
      "bt": 4877,
      "Ġtua": 4878,
      "ĠAlex": 4879,
      "Ġeei": 4880,
      "ĠMor": 4881,
      "vey": 4882,
      "TTL": 4883,
      "ĠØ±Ø§": 4884,
      "ãĥ¼ãĥ": 4885,
      "89": 4886,
      "Dy": 4887,
      "key": 4888,
      "rit": 4889,
      "Ġeun": 4890,
      "ĠSay": 4891,
      "ĠXoc": 4892,
      "ĠWH": 4893,
      "eli": 4894,
      "uluo": 4895,
      "ĠØ¨Ùĩ": 4896,
      "Ġfoot": 4897,
      "Ġ×Ĳ×Ļ×ļ": 4898,
      "ĠÐ±Ð¾Ð»": 4899,
      "NS": 4900,
      "TIT": 4901,
      "ights": 4902,
      "ĠÚĨ": 4903,
      "Ġmam": 4904,
      "Ġcock": 4905,
      "Ġcfe": 4906,
      "ĠTOX": 4907,
      "ĠQuoi": 4908,
      "Ġgud": 4909,
      "ĠMax": 4910,
      "ugs": 4911,
      "Ġbeg": 4912,
      "Ġobe": 4913,
      "Ġ753": 4914,
      "11111111": 4915,
      "55": 4916,
      "Ok": 4917,
      "PS": 4918,
      "pv": 4919,
      "ĺĲëĬĶ": 4920,
      "Ġcep": 4921,
      "iof": 4922,
      "ĠYi": 4923,
      "ĠOF": 4924,
      "Ġxp": 4925,
      "ieo": 4926,
      "ĠrÃł": 4927,
      "ĠUK": 4928,
      "Ġrol": 4929,
      "ãģ«": 4930,
      "ÛķØ±": 4931,
      "AK": 4932,
      "IOI": 4933,
      "KD": 4934,
      "van": 4935,
      "Ġà¹ģà¸¥à¸°": 4936,
      "Ġdion": 4937,
      "Ġera": 4938,
      "oup": 4939,
      "ĠCuk": 4940,
      "rote": 4941,
      "Ġvue": 4942,
      "Ġnt": 4943,
      "eco": 4944,
      "ila": 4945,
      "Ġota": 4946,
      "ĠØ¹ÙĦÙī": 4947,
      "200": 4948,
      "46": 4949,
      "Qx": 4950,
      "qoi": 4951,
      "tos": 4952,
      "Ġoud": 4953,
      "Ġmoc": 4954,
      "Ġuid": 4955,
      "Ġuiv": 4956,
      "Ġpv": 4957,
      "ĠOe": 4958,
      "ĠQuai": 4959,
      "ĠEst": 4960,
      "ĠIT": 4961,
      "enk": 4962,
      "à¸ģà¸": 4963,
      "ĠQuestiont": 4964,
      "uri": 4965,
      "ĠYoung": 4966,
      "Õ¡ÖĢ": 4967,
      "GDU": 4968,
      "Ġ770": 4969,
      "ĠGus": 4970,
      "Ġ-.": 4971,
      "Ġqc": 4972,
      "Ġns": 4973,
      "ubates": 4974,
      "akes": 4975,
      "Ø±ÙĪ": 4976,
      "Ġ720": 4977,
      "xxx": 4978,
      "Ġraff": 4979,
      "Ġ×ĸ×Ķ": 4980,
      "ffe": 4981,
      "Ð¶": 4982,
      "Ġmal": 4983,
      "Ġcate": 4984,
      "ĠCs": 4985,
      "ĠKon": 4986,
      "Ġfl": 4987,
      "Ġdius": 4988,
      "×ķ×Ļ": 4989,
      "Ġjuo": 4990,
      "ĠTile": 4991,
      "Ġsaw": 4992,
      "ĠTDI": 4993,
      "Ġtudie": 4994,
      "ĠMao": 4995,
      "ĠLoo": 4996,
      "ĠUTE": 4997,
      "tol": 4998,
      "ĠoUx": 4999,
      "ĠQUY": 5000,
      "Ġzt": 5001,
      "à¯į": 5002,
      "UO": 5003,
      "dia": 5004,
      "Ġeub": 5005,
      "ĠSV": 5006,
      "Ġgun": 5007,
      "ĠIe": 5008,
      "ĠKai": 5009,
      "ush": 5010,
      "ĠRab": 5011,
      "aur": 5012,
      "aks": 5013,
      "ãģª": 5014,
      "à¹ĩ": 5015,
      "ĠACy": 5016,
      "Ġmlim": 5017,
      "ÑįÑį": 5018,
      "Ġunder": 5019,
      ")\"": 5020,
      "Mar": 5021,
      "_.": 5022,
      "ful": 5023,
      "tc": 5024,
      "Ø¶": 5025,
      "Ġaei": 5026,
      "ĠQD": 5027,
      "ĠER": 5028,
      "ĠXi": 5029,
      "ĠDk": 5030,
      "Ġ94": 5031,
      "Ġrole": 5032,
      "omo": 5033,
      "ĠÐ±Ð°Ð¹": 5034,
      "According": 5035,
      "48": 5036,
      "MOE": 5037,
      "der": 5038,
      "pog": 5039,
      "ĠTin": 5040,
      "Ġaig": 5041,
      "Ġuoto": 5042,
      "iod": 5043,
      "ĠGad": 5044,
      "ĠOG": 5045,
      "ĠØ¢": 5046,
      "Ġà¤ļ": 5047,
      "emp": 5048,
      "ĠquA": 5049,
      "300": 5050,
      "98": 5051,
      "vt": 5052,
      "ĠTZ": 5053,
      "Ġtro": 5054,
      "ĠAK": 5055,
      "Ġyev": 5056,
      "Ġ&/": 5057,
      "Ġpg": 5058,
      "Ġvm": 5059,
      "ĠSw": 5060,
      "ĠID": 5061,
      "mek": 5062,
      "iaw": 5063,
      "Ġquar": 5064,
      "×ķ×Ĵ": 5065,
      "Ġarx": 5066,
      "à¤§": 5067,
      "ĠKK": 5068,
      "Ġkoe": 5069,
      "Ġhmm": 5070,
      "ĠÂ£:": 5071,
      "med": 5072,
      "ready": 5073,
      "acher": 5074,
      "Ġzr": 5075,
      "Ġopo": 5076,
      "Ġamo": 5077,
      "nu": 5078,
      "Ġ016": 5079,
      "ĠXQ": 5080,
      "Ġlao": 5081,
      "Ġza": 5082,
      "Ã¼r": 5083,
      "'ll": 5084,
      "81": 5085,
      "mer": 5086,
      "xet": 5087,
      "Ġdad": 5088,
      "Ġeight": 5089,
      "Ġvg": 5090,
      "ĠSuk": 5091,
      "ĠKx": 5092,
      "ĠMM": 5093,
      "ĠLeo": 5094,
      "ĠÃ©ic": 5095,
      "ĠUg": 5096,
      "toi": 5097,
      "exy": 5098,
      "ecu": 5099,
      "ĠÃīc": 5100,
      "ĠAugust": 5101,
      "wwwwwwww": 5102,
      "),": 5103,
      "ĠTao": 5104,
      "Ġoiv": 5105,
      "Ġdei": 5106,
      "Ġtup": 5107,
      "Ġgv": 5108,
      "Ġroa": 5109,
      "aka": 5110,
      "Ã¼v": 5111,
      "Ġdioe": 5112,
      "ĠACT": 5113,
      "ĠDeb": 5114,
      "ience": 5115,
      "pon": 5116,
      "Ġmuck": 5117,
      "ĠCeo": 5118,
      "ĠIh": 5119,
      "Ġrp": 5120,
      "ĠPet": 5121,
      "ĠPeo": 5122,
      "Ġnie": 5123,
      "ĠÃ©co": 5124,
      "ĠUP": 5125,
      "ĠBoy": 5126,
      "uti": 5127,
      "ĠQUAL": 5128,
      "ĠTTG": 5129,
      "Ġopa": 5130,
      "ĠCUM": 5131,
      "Ġplus": 5132,
      "CTU": 5133,
      "VI": 5134,
      "uis": 5135,
      "Õ´": 5136,
      "Ġmue": 5137,
      "Ġpon": 5138,
      "asy": 5139,
      "ĠJd": 5140,
      "ĠUntil": 5141,
      "Ġbr": 5142,
      "ĠTIME": 5143,
      "ĠTTX": 5144,
      "Ġemet": 5145,
      "ãģĹ": 5146,
      "appy": 5147,
      "à¹Į": 5148,
      "Ġaxo": 5149,
      "ĠAGI": 5150,
      "Ġ×Ķ×ķ×Ĳ": 5151,
      "ÏĢÏĮ": 5152,
      "zoy": 5153,
      "Ġeeu": 5154,
      "Ġmem": 5155,
      "Ġslow": 5156,
      "ĠSTO": 5157,
      "ĠYee": 5158,
      "ooe": 5159,
      "ĠQuek": 5160,
      "ĠEat": 5161,
      "Ġwd": 5162,
      "alex": 5163,
      "Ġqs": 5164,
      "Ġha": 5165,
      "à¸ĵ": 5166,
      "ĠBu": 5167,
      "ĠTeu": 5168,
      "Ġemu": 5169,
      "Ġmoa": 5170,
      "dbu": 5171,
      "lext": 5172,
      "ĠAnswer": 5173,
      "æĺ¯": 5174,
      "fore": 5175,
      "ÑĮ": 5176,
      "ĠmÃĵ": 5177,
      "Ġice": 5178,
      "ĠCc": 5179,
      "ĠEI": 5180,
      "Ġqoe": 5181,
      "Ġhock": 5182,
      "ubb": 5183,
      "ĠQUAU": 5184,
      "ãģĭ": 5185,
      "riend": 5186,
      "QR": 5187,
      "gae": 5188,
      "rp": 5189,
      "vot": 5190,
      "Ġoen": 5191,
      "Ġaao": 5192,
      "Ġdra": 5193,
      "Ġtc": 5194,
      "ĠCio": 5195,
      "Ġsnow": 5196,
      "ĠGC": 5197,
      "ĠEon": 5198,
      "ĠÃ£": 5199,
      "ĠDI": 5200,
      "uex": 5201,
      "ĠTUIS": 5202,
      "Ġroom": 5203,
      "Ġchil": 5204,
      "Ġvaio": 5205,
      "fs": 5206,
      "Ġtio": 5207,
      "ĠCut": 5208,
      "à¥ĥ": 5209,
      "Ġjui": 5210,
      "Ġati": 5211,
      "ãģĤ": 5212,
      "Ã©iy": 5213,
      "ĠëĺĲëĬĶ": 5214,
      "ãģ¾ãģŁ": 5215,
      "aov": 5216,
      "uA": 5217,
      "ĠAto": 5218,
      "Ġyol": 5219,
      "Ġcel": 5220,
      "role": 5221,
      "Ġ771": 5222,
      "lem": 5223,
      "Ġnax": 5224,
      "erov": 5225,
      "Ġadded": 5226,
      "QX": 5227,
      "RM": 5228,
      "Wo": 5229,
      "^.": 5230,
      "Ġole": 5231,
      "Ġyas": 5232,
      "Ġmos": 5233,
      "ĠcS": 5234,
      "Ġsor": 5235,
      "ĠSep": 5236,
      "iste": 5237,
      "iny": 5238,
      "ĠDoy": 5239,
      "eth": 5240,
      "Ġln": 5241,
      "ugy": 5242,
      "Ġmlong": 5243,
      "Ð½Ð°": 5244,
      "Ġ×ĳ×Ĳ": 5245,
      "eX": 5246,
      "ĠTid": 5247,
      "Ġicy": 5248,
      "ĠIc": 5249,
      "à¸Ĥ": 5250,
      "eol": 5251,
      "Ġrog": 5252,
      "Ø¨ÙĬ": 5253,
      "Ġtum": 5254,
      "ĠCQ": 5255,
      "ĠGen": 5256,
      "Ġ600": 5257,
      "à¤ħ": 5258,
      "Ġfoe": 5259,
      "Ġnor": 5260,
      "Ġlat": 5261,
      "uta": 5262,
      "ĠHi": 5263,
      "aux": 5264,
      "Ġzz": 5265,
      "Î¿ÏĤ": 5266,
      "Ġ×¤×Ĳ": 5267,
      "From": 5268,
      "ĠeM": 5269,
      "ĠCÃĵ": 5270,
      "ĠSeo": 5271,
      "ĠRC": 5272,
      "ades": 5273,
      "rao": 5274,
      "thing": 5275,
      "uuuu": 5276,
      "Ġable": 5277,
      "ĠÕ´": 5278,
      "à¯ģ": 5279,
      "æĪĸ": 5280,
      "Ġeggs": 5281,
      "Ġcux": 5282,
      "ĠGY": 5283,
      "ĠVd": 5284,
      "ĠQus": 5285,
      "ĠEve": 5286,
      "ĠBex": 5287,
      "Ã¶tu": 5288,
      "Ġqois": 5289,
      "Ġnumber": 5290,
      "box": 5291,
      "cio": 5292,
      "dH": 5293,
      "ram": 5294,
      "xg": 5295,
      "Ġdod": 5296,
      "Ġdel": 5297,
      "Ġuec": 5298,
      "Ġsto": 5299,
      "ĠTOP": 5300,
      "Ġ499": 5301,
      "Ġxov": 5302,
      "oney": 5303,
      "ĠDD": 5304,
      "Ġext": 5305,
      "Ġatt": 5306,
      "Ġopt": 5307,
      "Ġyours": 5308,
      "Ð°Ð³": 5309,
      "Ġpaco": 5310,
      "Aor": 5311,
      "two": 5312,
      "Ġpas": 5313,
      "ĠYao": 5314,
      "ĠVot": 5315,
      "ics": 5316,
      "ĠDay": 5317,
      "uee": 5318,
      "idv": 5319,
      "ĠRight": 5320,
      "Ġ55": 5321,
      "ĠÐ¾": 5322,
      "Ġ×§×¡": 5323,
      "zzzz": 5324,
      "Aoc": 5325,
      "UI": 5326,
      "hs": 5327,
      "ĠQL": 5328,
      "ieve": 5329,
      "ĠBY": 5330,
      "Ġode": 5331,
      "Ġodo": 5332,
      "ika": 5333,
      "Ġtwe": 5334,
      "ãģ¾ãģĻ": 5335,
      "\",": 5336,
      "Mr": 5337,
      "Îĳ": 5338,
      "ê³": 5339,
      "ĠTux": 5340,
      "Ġaol": 5341,
      "ĠtÃ©": 5342,
      "Ġeoa": 5343,
      "Ġmood": 5344,
      "Ġcook": 5345,
      "Ġvid": 5346,
      "ĠSev": 5347,
      "ĠIN": 5348,
      "Ġ140": 5349,
      "etv": 5350,
      "ĠRad": 5351,
      "Ġdoa": 5352,
      "×Ļ×ĸ": 5353,
      "Ġtuy": 5354,
      "×ĺ×¢": 5355,
      "ĠÙħØ§": 5356,
      "ãģ¾ãģŁãģ¯": 5357,
      "13": 5358,
      "DL": 5359,
      "TTOU": 5360,
      "mr": 5361,
      "Ġmto": 5362,
      "ĠSD": 5363,
      "ovor": 5364,
      "Ġweek": 5365,
      "ĠDd": 5366,
      "ĠJO": 5367,
      "Ġboy": 5368,
      "ĠBy": 5369,
      "Ġ59": 5370,
      "Ġexeo": 5371,
      "ĠTix": 5372,
      "Ġhero": 5373,
      "ĠØ§ÙĨ": 5374,
      "ìĹĲ": 5375,
      "GH": 5376,
      "den": 5377,
      "ws": 5378,
      "ĠeG": 5379,
      "ĠQI": 5380,
      "ĠSin": 5381,
      "other": 5382,
      "à¤ī": 5383,
      "ĠQuid": 5384,
      "Ġada": 5385,
      "Ġexp": 5386,
      "ĠQuanker": 5387,
      "ĠÎ½Î±": 5388,
      "43": 5389,
      "On": 5390,
      "SA": 5391,
      "mp": 5392,
      "uz": 5393,
      "uor": 5394,
      "Ġeux": 5395,
      "Ã©d": 5396,
      "Ġshe": 5397,
      "Ġsom": 5398,
      "Ġ444": 5399,
      "eny": 5400,
      "ĠTUR": 5401,
      "Ġdidt": 5402,
      "Ġpuoi": 5403,
      "dle": 5404,
      "fl": 5405,
      "ral": 5406,
      "Ġæ": 5407,
      "Ġaeo": 5408,
      "Ġpiv": 5409,
      "ĠSec": 5410,
      "à¤ĩ": 5411,
      "ĠVane": 5412,
      "Ġ149": 5413,
      "ĠÃį": 5414,
      "Ġkrom": 5415,
      "Ġfid": 5416,
      "ĠLuo": 5417,
      "mee": 5418,
      "Ġdiei": 5419,
      "ĠÚ¾": 5420,
      "ĠkubÉĶ": 5421,
      "tou": 5422,
      "Ġaee": 5423,
      "Ġaec": 5424,
      "Ġaii": 5425,
      "Ġuox": 5426,
      "Ã©Ã¡": 5427,
      "ĠCri": 5428,
      "Ġ010": 5429,
      "Ġ401": 5430,
      "Ġxk": 5431,
      "ooc": 5432,
      "ĠKY": 5433,
      "Ġwar": 5434,
      "Ġrame": 5435,
      "ĠLl": 5436,
      "ocp": 5437,
      "×ķ×ķ×¢": 5438,
      "iam": 5439,
      "rough": 5440,
      "Ġuota": 5441,
      "eb": 5442,
      "tuk": 5443,
      "Ġdas": 5444,
      "ĠGon": 5445,
      "ĠVis": 5446,
      "Ġff": 5447,
      "Ġfv": 5448,
      "odie": 5449,
      "uci": 5450,
      "ĠTIOY": 5451,
      "Ġthan": 5452,
      "×Ļ×ĳ": 5453,
      "Ġmoie": 5454,
      "ĠTfie": 5455,
      "UV": 5456,
      "Ġuero": 5457,
      "Ġvaa": 5458,
      "Ġ277": 5459,
      "Ġwort": 5460,
      "ĠRS": 5461,
      "Ġless": 5462,
      "ĠNÃ©": 5463,
      "elf": 5464,
      "rian": 5465,
      "Ġhear": 5466,
      "ÏħÏĦ": 5467,
      "17": 5468,
      "âĤ": 5469,
      "ë¥": 5470,
      "Ġaix": 5471,
      "Ġuis": 5472,
      "Ġcie": 5473,
      "ĠQt": 5474,
      "ĠCOU": 5475,
      "ĠvA": 5476,
      "ĠSan": 5477,
      "Ġgd": 5478,
      "Ġgames": 5479,
      "ĠMox": 5480,
      "Ġhub": 5481,
      "olk": 5482,
      "Ġadop": 5483,
      "Ã¡i": 5484,
      "ÙīÙĦÙī": 5485,
      "yeu": 5486,
      "ĠAde": 5487,
      "ĠÐĲ": 5488,
      "esterday": 5489,
      "ĠTui": 5490,
      "Ġmrom": 5491,
      "à¤ĵ": 5492,
      "ĠEoo": 5493,
      "ĠMY": 5494,
      "TOM": 5495,
      "ĠBO": 5496,
      "utu": 5497,
      "ÙĪÙĬ": 5498,
      "Ġudis": 5499,
      "ĠCEA": 5500,
      "à¸²à¸£": 5501,
      "Ø´Ùī": 5502,
      "Ai": 5503,
      "CX": 5504,
      "fer": 5505,
      "ium": 5506,
      "Ġaac": 5507,
      "Ġste": 5508,
      "ĠVae": 5509,
      "Ġxl": 5510,
      "ĠLG": 5511,
      "Ġroot": 5512,
      "ela": 5513,
      "dren": 5514,
      "Du": 5515,
      "IOU": 5516,
      "NT": 5517,
      "Ve": 5518,
      "Yes": 5519,
      "gon": 5520,
      "ìļ": 5521,
      "Ġdee": 5522,
      "ĠAud": 5523,
      "ĠAff": 5524,
      "Ġiae": 5525,
      "Ġsr": 5526,
      "ĠGive": 5527,
      "Ġxou": 5528,
      "Ġgero": 5529,
      "ĠKc": 5530,
      "Ġfed": 5531,
      "Ġfirst": 5532,
      "Ġhp": 5533,
      "ved": 5534,
      "ÐĲ": 5535,
      "ĠTfi": 5536,
      "ĠaO": 5537,
      "Ġtf": 5538,
      "Ġtit": 5539,
      "Ġtto": 5540,
      "Ġib": 5541,
      "ĠQE": 5542,
      "rome": 5543,
      "Ġpic": 5544,
      "Ġvag": 5545,
      "ĠSun": 5546,
      "Ġ81": 5547,
      "ava": 5548,
      "Ġede": 5549,
      "ĠÐ³": 5550,
      "ĠCAE": 5551,
      "Questionn": 5552,
      "alalal": 5553,
      "ĠCHO": 5554,
      "ĠØ£ÙĪ": 5555,
      "Xx": 5556,
      "ler": 5557,
      "pot": 5558,
      "ĠeV": 5559,
      "ĠSto": 5560,
      "ĠIE": 5561,
      "Ġrex": 5562,
      "ĠDio": 5563,
      "odio": 5564,
      "Ġba": 5565,
      "Ġoxi": 5566,
      "Ġ×ķ×ķ×¢": 5567,
      "Ato": 5568,
      "IDI": 5569,
      "Oy": 5570,
      "gou": 5571,
      "ĠÖ": 5572,
      "Ġeiae": 5573,
      "Ġtop": 5574,
      "ĠVua": 5575,
      "Ġxev": 5576,
      "ĠhÉĶ": 5577,
      "olu": 5578,
      "Ġalio": 5579,
      "evi": 5580,
      "nti": 5581,
      "Ġ715": 5582,
      "ĠPlay": 5583,
      "they": 5584,
      "ĠÙĨÙī": 5585,
      "PO": 5586,
      "dis": 5587,
      "fov": 5588,
      "Ġciv": 5589,
      "ĠiQ": 5590,
      "Ġvir": 5591,
      "ĠKad": 5592,
      "inn": 5593,
      "ĠLot": 5594,
      "Ġlud": 5595,
      "ugh": 5596,
      "Ġjs": 5597,
      "Ġetu": 5598,
      "ĠAvi": 5599,
      "Ð°Ð¼": 5600,
      "Tb": 5601,
      "get": 5602,
      "Ġà¹Ģà¸": 5603,
      "ĠtA": 5604,
      "Ġito": 5605,
      "ĠQau": 5606,
      "Ġpei": 5607,
      "ĠDuo": 5608,
      "oll": 5609,
      "ows": 5610,
      "ĠFol": 5611,
      "ĠmmbÉĶ": 5612,
      "ĠSuan": 5613,
      "ìĿĺ": 5614,
      "pou": 5615,
      "ĠAss": 5616,
      "idy": 5617,
      "Ġ51": 5618,
      "aui": 5619,
      "TES": 5620,
      "ĠdYug": 5621,
      "Ġë°ı": 5622,
      "Ġperson": 5623,
      "Sr": 5624,
      "bal": 5625,
      "ris": 5626,
      "Ġdui": 5627,
      "Ġtane": 5628,
      "Ġpun": 5629,
      "ĠSuc": 5630,
      "etov": 5631,
      "ĠJoe": 5632,
      "Ġ56": 5633,
      "ĠTIR": 5634,
      "Ġmym": 5635,
      "ĠJeans": 5636,
      "ĠoTov": 5637,
      "________________": 5638,
      "Ġplease": 5639,
      "EM": 5640,
      "UG": 5641,
      "gt": 5642,
      "Ġcent": 5643,
      "roie": 5644,
      "ĠQuag": 5645,
      "eck": 5646,
      "Ġexc": 5647,
      "Ġono": 5648,
      "âĢĭâĢĭâĢĭâĢĭâĢĭ": 5649,
      "PI": 5650,
      "We": 5651,
      "ĠÏĩ": 5652,
      "Ġvideo": 5653,
      "ocum": 5654,
      "Ġhab": 5655,
      "ĠJn": 5656,
      "Ġlay": 5657,
      "aua": 5658,
      "Ãłv": 5659,
      "Ġexei": 5660,
      "Ġala": 5661,
      "ĠÑģ": 5662,
      "intin": 5663,
      "ĠTout": 5664,
      "Ġoil": 5665,
      "Ġolo": 5666,
      "Ġduc": 5667,
      "Ġtak": 5668,
      "oul": 5669,
      "ĠGOL": 5670,
      "ĠIQ": 5671,
      "Ġqg": 5672,
      "ĠAcor": 5673,
      "Ġdoing": 5674,
      "ÙĦÙħ": 5675,
      "ĠThen": 5676,
      "Ġema": 5677,
      "TUO": 5678,
      "otototot": 5679,
      "No": 5680,
      "Tg": 5681,
      "ĠoC": 5682,
      "ĠaJ": 5683,
      "ĠaQ": 5684,
      "Ġame": 5685,
      "Ġevo": 5686,
      "Ġmil": 5687,
      "Ġigo": 5688,
      "ĠCough": 5689,
      "Ġfr": 5690,
      "ĠJor": 5691,
      "ĠNz": 5692,
      "ĠHO": 5693,
      "Ġdom": 5694,
      "Ã¡t": 5695,
      "TUL": 5696,
      "JE": 5697,
      "pop": 5698,
      "Î¾": 5699,
      "ĠeO": 5700,
      "Ġyeo": 5701,
      "ĠmO": 5702,
      "Ġpm": 5703,
      "ĠKw": 5704,
      "Ġwat": 5705,
      "uel": 5706,
      "ĠJust": 5707,
      "Ġlaw": 5708,
      "Ġonly": 5709,
      "ÙĬØ±": 5710,
      "ween": 5711,
      "Ġsx": 5712,
      "ĠfU": 5713,
      "TOG": 5714,
      "edb": 5715,
      "Ġquy": 5716,
      "ĠFr": 5717,
      "Ġ702": 5718,
      "ĠÃłs": 5719,
      "ãģ¦": 5720,
      "Ġdiet": 5721,
      "ĠÕ¯": 5722,
      "Ġ390": 5723,
      "Ġ×ĺ×¢": 5724,
      "Dot": 5725,
      "Sh": 5726,
      "TTO": 5727,
      "ki": 5728,
      "Ä±": 5729,
      "Î¶": 5730,
      "ĠTua": 5731,
      "ĠdÃ¼": 5732,
      "Ġij": 5733,
      "ĠQai": 5734,
      "Ġpoe": 5735,
      "ĠGro": 5736,
      "ĠEvo": 5737,
      "Ġwould": 5738,
      "ĠLÃģ": 5739,
      "Ġbag": 5740,
      "Ġaca": 5741,
      "ĠExlex": 5742,
      "ĠAGO": 5743,
      "Ġcarry": 5744,
      "99999999": 5745,
      "lat": 5746,
      "uau": 5747,
      "Îķ": 5748,
      "Õ¨": 5749,
      "ĠaW": 5750,
      "Ġyl": 5751,
      "Ã©T": 5752,
      "Ġpev": 5753,
      "ocs": 5754,
      "ocu": 5755,
      "ĠWill": 5756,
      "Ġatv": 5757,
      "Ġlem": 5758,
      "Ð°Ñģ": 5759,
      "Ġerm": 5760,
      "Ġcuoi": 5761,
      "Ġà¥¨": 5762,
      "Ġà¤ĩà¤¤": 5763,
      "*.": 5764,
      "Ot": 5765,
      "coc": 5766,
      "voi": 5767,
      "Ø«": 5768,
      "ĠApe": 5769,
      "Ġuus": 5770,
      "Ġfour": 5771,
      "ĠRD": 5772,
      "odod": 5773,
      "à¸Ľ": 5774,
      "Ġ^.": 5775,
      "ÛķØª": 5776,
      "Ġ206": 5777,
      "Gs": 5778,
      "IOV": 5779,
      "pd": 5780,
      "Ġoun": 5781,
      "Ġael": 5782,
      "Ġeut": 5783,
      "ĠuL": 5784,
      "Ġpk": 5785,
      "Ġsmem": 5786,
      "Ġwell": 5787,
      "iel": 5788,
      "alu": 5789,
      "ally": 5790,
      "Ġrames": 5791,
      "ĠLj": 5792,
      "Ġhan": 5793,
      "Ġdiat": 5794,
      "ĠØº": 5795,
      "ĠThree": 5796,
      "Ġeva": 5797,
      "oou": 5798,
      "xod": 5799,
      "Ñĩ": 5800,
      "ĠTad": 5801,
      "Ġtri": 5802,
      "ĠmÃ¶tub": 5803,
      "Ġpott": 5804,
      "ĠGd": 5805,
      "Ġ37": 5806,
      "ĠPT": 5807,
      "ĠPot": 5808,
      "ĠRI": 5809,
      "exa": 5810,
      "Ġdiee": 5811,
      "ĠCome": 5812,
      "OME": 5813,
      "Si": 5814,
      "Ġdat": 5815,
      "ĠAudio": 5816,
      "Ġsoe": 5817,
      "esi": 5818,
      "ĠGn": 5819,
      "Ġgur": 5820,
      "ĠPro": 5821,
      "ĠRed": 5822,
      "ĠWhere": 5823,
      "ĠÎ»": 5824,
      "Ġmother": 5825,
      "How": 5826,
      "Sa": 5827,
      "Tic": 5828,
      "che": 5829,
      "roa": 5830,
      "Ġseu": 5831,
      "ĠGQ": 5832,
      "ĠSic": 5833,
      "ĠVOU": 5834,
      "ĠMAG": 5835,
      "Ġfat": 5836,
      "enc": 5837,
      "ĠWh": 5838,
      "ÃĢY": 5839,
      "Ġplace": 5840,
      "ÑįÐ³": 5841,
      "Î¬Î½": 5842,
      "ĠåĴĮ": 5843,
      "Ġtimes": 5844,
      "Ġà¸«à¸£": 5845,
      "Ho": 5846,
      "ial": 5847,
      "kou": 5848,
      "ĠXI": 5849,
      "ĠMT": 5850,
      "itu": 5851,
      "EN": 5852,
      "That": 5853,
      "Ġç": 5854,
      "Ġà®": 5855,
      "Ġoaa": 5856,
      "ĠQude": 5857,
      "Ġgc": 5858,
      "ĠKD": 5859,
      "Ġwol": 5860,
      "ĠDY": 5861,
      "ĠRx": 5862,
      "Ġjue": 5863,
      "Ġqux": 5864,
      "una": 5865,
      "Ġ$.": 5866,
      "ĠÕ°": 5867,
      "Ġhome": 5868,
      "Cu": 5869,
      "vat": 5870,
      "von": 5871,
      "åĢ": 5872,
      "Ġoor": 5873,
      "Ġyel": 5874,
      "ĠcÃ©": 5875,
      "Ġcuc": 5876,
      "ĠCf": 5877,
      "lect": 5878,
      "Ġ54": 5879,
      "ĠWi": 5880,
      "Ġ007": 5881,
      "ucka": 5882,
      "ĠÑĥ": 5883,
      "ĠØ¦Ùī": 5884,
      "ĠÃ¶t": 5885,
      "03": 5886,
      "AD": 5887,
      "Hey": 5888,
      "Io": 5889,
      "cie": 5890,
      "iÃ©": 5891,
      "vol": 5892,
      "vau": 5893,
      "Ġoit": 5894,
      "Ġdup": 5895,
      "Ġveg": 5896,
      "ĠsÃ©": 5897,
      "ĠVOY": 5898,
      "Ġxdi": 5899,
      "inv": 5900,
      "Ġbre": 5901,
      "ĠBx": 5902,
      "Ø§Ø¯": 5903,
      "Ġrod": 5904,
      "ems": 5905,
      "ĠTHp": 5906,
      "ĠTHIS": 5907,
      "ĠTAA": 5908,
      "Ace": 5909,
      "Ġulis": 5910,
      "Ud": 5911,
      "ĠTab": 5912,
      "ĠAvo": 5913,
      "Ġview": 5914,
      "ĠVV": 5915,
      "ĠVote": 5916,
      "ĠOW": 5917,
      "ĠQuen": 5918,
      "ĠJen": 5919,
      "TIS": 5920,
      "ĠVolume": 5921,
      "ĠÙĩÙĪ": 5922,
      "Deo": 5923,
      "Ov": 5924,
      "rÃł": 5925,
      "ĠTri": 5926,
      "Ġoz": 5927,
      "Ġdos": 5928,
      "Ġyec": 5929,
      "ĠQR": 5930,
      "ĠCoe": 5931,
      "ĠSat": 5932,
      "ĠSupe": 5933,
      "ĠVÃĢ": 5934,
      "tow": 5935,
      "ĠBov": 5936,
      "ĠTUN": 5937,
      "âĢ¢": 5938,
      "Ġà¤ĵ": 5939,
      "Ġexam": 5940,
      "×ķ×¤": 5941,
      "TIX": 5942,
      "Ġocc": 5943,
      "ÙĬØ§": 5944,
      "ĠTVOL": 5945,
      "Ġdidi": 5946,
      "ĠxoÃł": 5947,
      "CCC": 5948,
      "ĠÏĦÎ¿Ïħ": 5949,
      "Ġwoman": 5950,
      "rac": 5951,
      "tat": 5952,
      "Ġviov": 5953,
      "ĠQuber": 5954,
      "Ġ1999": 5955,
      "ĠÂ£âĢĵ": 5956,
      "Ġdiae": 5957,
      "udis": 5958,
      "×Ļ×Ķ": 5959,
      "ima": 5960,
      "Ġoni": 5961,
      "ĠÎ¤": 5962,
      "ĠTAL": 5963,
      "eroc": 5964,
      "Ø¯Ûĩ": 5965,
      "ĠRAO": 5966,
      "ìĬµ": 5967,
      "Aw": 5968,
      "Uu": 5969,
      "Uv": 5970,
      "tp": 5971,
      "ÑĪ": 5972,
      "ĠTen": 5973,
      "Ġdep": 5974,
      "ĠCas": 5975,
      "ĠVoU": 5976,
      "ĠEP": 5977,
      "ĠKC": 5978,
      "Ġfriend": 5979,
      "ĠqQ": 5980,
      "rei": 5981,
      "uma": 5982,
      "Ġmeos": 5983,
      "ĠÕ¥": 5984,
      "Ġaway": 5985,
      "ĠSume": 5986,
      "uggugguggugguggugguggugg": 5987,
      "ÏĮÏĤ": 5988,
      "ĠÏĥÏĦÎ¿": 5989,
      "Ġà¤ħà¤¸": 5990,
      "Pi": 5991,
      "Yx": 5992,
      "gar": 5993,
      "mx": 5994,
      "pen": 5995,
      "ric": 5996,
      "ĠAge": 5997,
      "atr": 5998,
      "Ġ116": 5999,
      "ĠKel": 6000,
      "ĠKing": 6001,
      "ĠRp": 6002,
      "ĠJie": 6003,
      "Ġoft": 6004,
      "iaue": 6005,
      "Â£:": 6006,
      "TIC": 6007,
      "ĠQuanka": 6008,
      "ĠTRI": 6009,
      "ĠAdio": 6010,
      "Ġìŀ": 6011,
      "Ch": 6012,
      "DT": 6013,
      "dus": 6014,
      "lis": 6015,
      "ĠTTOU": 6016,
      "ĠCui": 6017,
      "Ġvet": 6018,
      "ĠXD": 6019,
      "Ġrec": 6020,
      "ĠPoo": 6021,
      "exo": 6022,
      "Ġroce": 6023,
      "Ġatl": 6024,
      "ĠThese": 6025,
      "AGI": 6026,
      "Ġdixe": 6027,
      "Ġduos": 6028,
      "Qal": 6029,
      "from": 6030,
      "ĠTau": 6031,
      "ĠTÃģ": 6032,
      "Ġdione": 6033,
      "Ġtute": 6034,
      "Ġmuo": 6035,
      "Ġmug": 6036,
      "ĠcR": 6037,
      "Ġceo": 6038,
      "Ġcox": 6039,
      "Ġcori": 6040,
      "Ã©x": 6041,
      "Ġpart": 6042,
      "Ġserv": 6043,
      "ance": 6044,
      "ovro": 6045,
      "Ġgir": 6046,
      "Ġkey": 6047,
      "diate": 6048,
      "Ġdef": 6049,
      "ĠÏĥÎµ": 6050,
      "Lat": 6051,
      "yet": 6052,
      "ìĦ": 6053,
      "Ġtic": 6054,
      "ĠApo": 6055,
      "Ġyue": 6056,
      "Ġmol": 6057,
      "Ġmix": 6058,
      "Ġmune": 6059,
      "Ġute": 6060,
      "Ġior": 6061,
      "Ġpir": 6062,
      "lee": 6063,
      "aye": 6064,
      "ĠRue": 6065,
      "oga": 6066,
      "oyo": 6067,
      "ĠHa": 6068,
      "aun": 6069,
      "ury": 6070,
      "Ġemos": 6071,
      "ìĿĢ": 6072,
      "Ġorder": 6073,
      "Ah": 6074,
      "Pa": 6075,
      "got": 6076,
      "sh": 6077,
      "vg": 6078,
      "Ġmri": 6079,
      "ĠSoo": 6080,
      "Ġxet": 6081,
      "Ġ199": 6082,
      "Ġorat": 6083,
      "ĠUN": 6084,
      "ĠHis": 6085,
      "Ġà¤Ł": 6086,
      "Ġmeet": 6087,
      "ĠExb": 6088,
      "Ġ2000": 6089,
      "Ġtuber": 6090,
      "84": 6091,
      "Tis": 6092,
      "ĠQT": 6093,
      "ĠCar": 6094,
      "Ġpup": 6095,
      "Ġven": 6096,
      "ĠYYY": 6097,
      "Ġxex": 6098,
      "Ġges": 6099,
      "ĠLat": 6100,
      "à¸Ī": 6101,
      "ogy": 6102,
      "ĠNat": 6103,
      "Ġquie": 6104,
      "Ġexdb": 6105,
      "Ġzb": 6106,
      "ÙĪØª": 6107,
      "ples": 6108,
      "SE": 6109,
      "TW": 6110,
      "lui": 6111,
      "Ġyak": 6112,
      "Ġmost": 6113,
      "Ġico": 6114,
      "Ġsoc": 6115,
      "ĠVD": 6116,
      "ĠIk": 6117,
      "ĠMan": 6118,
      "ison": 6119,
      "ĠPi": 6120,
      "ĠRy": 6121,
      "ĠJy": 6122,
      "ĠBp": 6123,
      "ãĤ¹": 6124,
      "zoA": 6125,
      "Ġtiee": 6126,
      "Ġ×Ĳ×ª×Ķ": 6127,
      "Ob": 6128,
      "Qoo": 6129,
      "tie": 6130,
      "zt": 6131,
      "Ú¾": 6132,
      "Ġtuc": 6133,
      "ĠAie": 6134,
      "Ġmedi": 6135,
      "ĠuM": 6136,
      "oui": 6137,
      "Ġser": 6138,
      "Ġtok": 6139,
      "Ġ011": 6140,
      "ĠYAM": 6141,
      "ined": 6142,
      "ĠfoU": 6143,
      "Ġfoa": 6144,
      "Ġrg": 6145,
      "uge": 6146,
      "iga": 6147,
      "opu": 6148,
      "unc": 6149,
      "TUY": 6150,
      "Ġucy": 6151,
      "ĠRef": 6152,
      "ĠmmmÉĶ": 6153,
      "8888": 6154,
      "ä½ł": 6155,
      "oL": 6156,
      "pÃ©": 6157,
      "pee": 6158,
      "ĠTF": 6159,
      "Ġtis": 6160,
      "ĠAem": 6161,
      "à¤Ń": 6162,
      "ĠYE": 6163,
      "ĠIC": 6164,
      "ĠIU": 6165,
      "Ġ144": 6166,
      "Ġwj": 6167,
      "Ġkroo": 6168,
      "ĠLord": 6169,
      "ĠRev": 6170,
      "ugo": 6171,
      "ĠNZD": 6172,
      "Â».": 6173,
      "ĠAuoo": 6174,
      "Ġdior": 6175,
      "Ġesc": 6176,
      "ĠHead": 6177,
      "222": 6178,
      "ÛĩÙĨ": 6179,
      "à¸²à¸¡": 6180,
      "MMMM": 6181,
      "Õ¥Õ¬": 6182,
      "ãģ§ãģĻ": 6183,
      "sggugguggugguggsgguggugguggugg": 6184,
      "sgugguggugguggsguggugguggugg": 6185,
      "Cor": 6186,
      "fos": 6187,
      "par": 6188,
      "qx": 6189,
      "vet": 6190,
      "yan": 6191,
      "Ġoes": 6192,
      "Ġaye": 6193,
      "Ġtui": 6194,
      "Ġmuc": 6195,
      "ĠYV": 6196,
      "ĠKov": 6197,
      "ĠMx": 6198,
      "ĠMap": 6199,
      "Ġhad": 6200,
      "ĠBA": 6201,
      "uda": 6202,
      "Gn": 6203,
      "Ps": 6204,
      "lv": 6205,
      "Ġmad": 6206,
      "Ġcae": 6207,
      "ĠiA": 6208,
      "Ġiou": 6209,
      "Ġtook": 6210,
      "ĠSY": 6211,
      "ĠSor": 6212,
      "orn": 6213,
      "ĠYs": 6214,
      "Ġfp": 6215,
      "Ġfig": 6216,
      "ĠDoe": 6217,
      "Ġbro": 6218,
      "ĠBar": 6219,
      "eok": 6220,
      "akk": 6221,
      "Ġaci": 6222,
      "Ġ004": 6223,
      "ĠOUR": 6224,
      "Ġtume": 6225,
      "ÎµÎ½": 6226,
      "Ġepu": 6227,
      "ĠÎºÎ±": 6228,
      "Er": 6229,
      "OÃĢ": 6230,
      "UC": 6231,
      "wu": 6232,
      "Ġeai": 6233,
      "Ġmess": 6234,
      "Ġind": 6235,
      "ĠSH": 6236,
      "ĠSz": 6237,
      "ĠYd": 6238,
      "ĠYos": 6239,
      "ĠOP": 6240,
      "ĠQuey": 6241,
      "Ġora": 6242,
      "oek": 6243,
      "Ġjov": 6244,
      "ema": 6245,
      "×¢×ĺ": 6246,
      "ãģĮ": 6247,
      "ÙħÛķ": 6248,
      "&&&&&&&&&&&&&&&&&&&&&&&&&&&&&&&&": 6249,
      "ê°Ģ": 6250,
      "Tro": 6251,
      "qa": 6252,
      "ĠTut": 6253,
      "Ġyuk": 6254,
      "ouv": 6255,
      "Ġvad": 6256,
      "org": 6257,
      "ĠxS": 6258,
      "ĠEas": 6259,
      "ĠDix": 6260,
      "Ġnd": 6261,
      "Ġà¤Ľ": 6262,
      "owe": 6263,
      "Ġworth": 6264,
      "Don": 6265,
      "cuo": 6266,
      "gut": 6267,
      "pc": 6268,
      "åħ": 6269,
      "Ġdla": 6270,
      "Ġmud": 6271,
      "Ġidi": 6272,
      "ĠGLO": 6273,
      "otr": 6274,
      "ĠToce": 6275,
      "oca": 6276,
      "Ġ).": 6277,
      "agi": 6278,
      "Ã¼e": 6279,
      "Ġpure": 6280,
      "ĠQK": 6281,
      "ĠQoi": 6282,
      "ĠCoU": 6283,
      "ĠGP": 6284,
      "ĠKÃ¼": 6285,
      "Ġbv": 6286,
      "agg": 6287,
      "Ġquat": 6288,
      "ches": 6289,
      "ÙĤØ¯": 6290,
      "ips": 6291,
      "Ġmouth": 6292,
      "DÃĢ": 6293,
      "GD": 6294,
      "XY": 6295,
      "dov": 6296,
      "gen": 6297,
      "§ģ": 6298,
      "ĠAÃ³": 6299,
      "Ġure": 6300,
      "Ġutt": 6301,
      "ĠGold": 6302,
      "ĠYov": 6303,
      "Ġxb": 6304,
      "Ġors": 6305,
      "aul": 6306,
      "Ø³Ø§": 6307,
      "Ġ490": 6308,
      "Ġaccording": 6309,
      "Ġmlome": 6310,
      "ĠQj": 6311,
      "ĠVS": 6312,
      "Ġkp": 6313,
      "ĠLV": 6314,
      "adl": 6315,
      "×Ļ×Ĵ": 6316,
      "amo": 6317,
      "ToY": 6318,
      "Ġidu": 6319,
      "Ġquod": 6320,
      "ĠÏĦÎ·": 6321,
      "Ø°Ø§": 6322,
      "MC": 6323,
      "OG": 6324,
      "lua": 6325,
      "tx": 6326,
      "too": 6327,
      "Õ¯": 6328,
      "Ġafe": 6329,
      "Ġequ": 6330,
      "Ġuoa": 6331,
      "ĠCos": 6332,
      "iox": 6333,
      "Ġgus": 6334,
      "Ġkh": 6335,
      "ĠToI": 6336,
      "ĠRr": 6337,
      "Ġlab": 6338,
      "ĠHand": 6339,
      "Ãłi": 6340,
      "Ãły": 6341,
      "Ġexa": 6342,
      "Ġze": 6343,
      "Ġ×Ĳ×ł×Ļ": 6344,
      "ÙħÛķÙĨ": 6345,
      "stie": 6346,
      "444": 6347,
      "Õ«Õ¶": 6348,
      "Tvg": 6349,
      "fc": 6350,
      "lom": 6351,
      "mb": 6352,
      "ëĵ": 6353,
      "ĠTz": 6354,
      "Ġmra": 6355,
      "Ġuf": 6356,
      "ĠpO": 6357,
      "Ġfos": 6358,
      "lel": 6359,
      "uts": 6360,
      "ĠNI": 6361,
      "iiii": 6362,
      "Ġoboe": 6363,
      "ĠÚ¯": 6364,
      "ĠJewish": 6365,
      "Ġchildren": 6366,
      "IL": 6367,
      "az": 6368,
      "kal": 6369,
      "oS": 6370,
      "vex": 6371,
      "Ġaude": 6372,
      "ĠAj": 6373,
      "Ġcid": 6374,
      "Ġcry": 6375,
      "Ġcord": 6376,
      "Ġsg": 6377,
      "à¤ģ": 6378,
      "ĠVar": 6379,
      "ĠMS": 6380,
      "Ġlot": 6381,
      "ĠNC": 6382,
      "ĠNew": 6383,
      "Ġquon": 6384,
      "Ġalready": 6385,
      "Ġdeath": 6386,
      "Ġarmy": 6387,
      "Ġputo": 6388,
      "ĠAcyer": 6389,
      "ĠARE": 6390,
      "Ġmoved": 6391,
      "Ð²ÑįÐ»": 6392,
      "Tp": 6393,
      "Tie": 6394,
      "TAI": 6395,
      "iQ": 6396,
      "qe": 6397,
      "ÎŁ": 6398,
      "Ġojo": 6399,
      "ĠAnt": 6400,
      "Ġmber": 6401,
      "ĠCae": 6402,
      "Ġsur": 6403,
      "ĠSuy": 6404,
      "ĠYt": 6405,
      "ĠQuox": 6406,
      "Ġgg": 6407,
      "Ġrig": 6408,
      "ĠLZ": 6409,
      "ĠPar": 6410,
      "tom": 6411,
      "Ġ...": 6412,
      "Ġroov": 6413,
      "Ġedic": 6414,
      "Ġuca": 6415,
      "Ġamt": 6416,
      "Ġ×ĵ×¢": 6417,
      "íķĺ": 6418,
      "Ġkucka": 6419,
      "Ġhours": 6420,
      "12": 6421,
      "Im": 6422,
      "lish": 6423,
      "Ġaai": 6424,
      "Ġ765": 6425,
      "ĠSol": 6426,
      "ĠEig": 6427,
      "Ġkuo": 6428,
      "Ġfall": 6429,
      "uey": 6430,
      "Ġadc": 6431,
      "ĠAcn": 6432,
      "elt": 6433,
      "Î¼ÎŃ": 6434,
      "Ġslowly": 6435,
      "Py": 6436,
      "Tet": 6437,
      "åı": 6438,
      "Ġaer": 6439,
      "Ġaem": 6440,
      "ĠdC": 6441,
      "Ġean": 6442,
      "Ġpaw": 6443,
      "eres": 6444,
      "ĠqÃī": 6445,
      "ĠRap": 6446,
      "ĠÃ©e": 6447,
      "Ġlib": 6448,
      "à¸Ĭ": 6449,
      "acue": 6450,
      "ĠTOVTO": 6451,
      "ĠTime": 6452,
      "Ġlearn": 6453,
      "Ġpsalm": 6454,
      "Ġsupe": 6455,
      "ÑģÐ²ÑįÐ»": 6456,
      "68": 6457,
      "gc": 6458,
      "Ġyere": 6459,
      "ĠmÃ¡": 6460,
      "Ġule": 6461,
      "Ġsux": 6462,
      "ĠrA": 6463,
      "ĠDt": 6464,
      "ĠLove": 6465,
      "acu": 6466,
      "ĠWow": 6467,
      "uka": 6468,
      "ÙīØ±": 6469,
      "ĠExt": 6470,
      "Ġworld": 6471,
      "ursday": 6472,
      "211": 6473,
      "VOU": 6474,
      "rT": 6475,
      "see": 6476,
      "woc": 6477,
      "Ġoon": 6478,
      "Ġdts": 6479,
      "ĠCen": 6480,
      "Ġ&&&": 6481,
      "Ġsli": 6482,
      "ĠGk": 6483,
      "ovog": 6484,
      "Ġgk": 6485,
      "ĠIl": 6486,
      "ĠXie": 6487,
      "Ġkudi": 6488,
      "Ġqoc": 6489,
      "Ġrub": 6490,
      "Ġnon": 6491,
      "Ġhon": 6492,
      "ugov": 6493,
      "cct": 6494,
      "Ġà¸Ħ": 6495,
      "Ò¯Ò¯": 6496,
      "clclclcl": 6497,
      "DR": 6498,
      "lus": 6499,
      "pue": 6500,
      "tot": 6501,
      "Ð±": 6502,
      "Ġood": 6503,
      "Ġaudi": 6504,
      "Ġduck": 6505,
      "ĠQon": 6506,
      "Ġsoo": 6507,
      "ately": 6508,
      "ĠGH": 6509,
      "ĠGic": 6510,
      "ĠGag": 6511,
      "Ġorm": 6512,
      "Ġran": 6513,
      "ĠDX": 6514,
      "ĠDid": 6515,
      "odb": 6516,
      "ites": 6517,
      "Ġerat": 6518,
      "ÙĤØ§": 6519,
      "ugugugug": 6520,
      "&Â£": 6521,
      "cor": 6522,
      "hor": 6523,
      "iro": 6524,
      "zos": 6525,
      "Ġoat": 6526,
      "Ġdua": 6527,
      "Ġmese": 6528,
      "ĠQaa": 6529,
      "ĠCw": 6530,
      "Ġpug": 6531,
      "ĠGN": 6532,
      "ieie": 6533,
      "ĠDen": 6534,
      "asoc": 6535,
      "ĠUv": 6536,
      "Ġ84": 6537,
      "ĠAci": 6538,
      "Ġrove": 6539,
      "Ġjp": 6540,
      "Ġdown": 6541,
      "ÙĦØ§Ø±": 6542,
      "Ġacd": 6543,
      "ĠTAY": 6544,
      "Ã¼c": 6545,
      "ÏĦÎ¹": 6546,
      "ĠaUe": 6547,
      "THY": 6548,
      "QUA": 6549,
      "anka": 6550,
      "ĠÎ³Î¹Î±": 6551,
      "&-": 6552,
      "Xv": 6553,
      "ben": 6554,
      "duo": 6555,
      "dit": 6556,
      "may": 6557,
      "tis": 6558,
      "ì§": 6559,
      "Ġoec": 6560,
      "Ġaq": 6561,
      "ĠdÃī": 6562,
      "Ġyock": 6563,
      "Ġmit": 6564,
      "Ġpep": 6565,
      "Ġsro": 6566,
      "ĠKM": 6567,
      "Ġiss": 6568,
      "Ġlio": 6569,
      "meme": 6570,
      "à¥Į": 6571,
      "Ġthw": 6572,
      "Ġquan": 6573,
      "ĠÃ³i": 6574,
      "Ġhey": 6575,
      "ĠÃīD": 6576,
      "ĠAdr": 6577,
      "×ł×ĺ": 6578,
      "×ĳ×Ĳ": 6579,
      "Ġduoc": 6580,
      "JA": 6581,
      "jA": 6582,
      "sk": 6583,
      "Ġoem": 6584,
      "Ġturn": 6585,
      "ĠAus": 6586,
      "Ġpre": 6587,
      "Ġsudi": 6588,
      "ĠGar": 6589,
      "ĠEN": 6590,
      "ĠIng": 6591,
      "ieu": 6592,
      "Ġquc": 6593,
      "Ġorb": 6594,
      "ĠND": 6595,
      "Ġror": 6596,
      "ures": 6597,
      "Ġemot": 6598,
      "ĠAxa": 6599,
      "×ĵ×Ĳ": 6600,
      "This": 6601,
      "ÑįÐ½": 6602,
      "aaaaaaaa": 6603,
      "All": 6604,
      "OH": 6605,
      "qg": 6606,
      "å¤": 6607,
      "ĠoM": 6608,
      "ĠdÃŃ": 6609,
      "Ġced": 6610,
      "ĠQao": 6611,
      "Ġpow": 6612,
      "Ġvb": 6613,
      "ĠVÃ¶": 6614,
      "Ġkc": 6615,
      "Ġfis": 6616,
      "ĠJv": 6617,
      "Ã©Ã©Ã©": 6618,
      "Ġthree": 6619,
      "Ġwhite": 6620,
      "apa": 6621,
      "Ġanother": 6622,
      "Î¿Ïį": 6623,
      "Ø¨Ø§": 6624,
      "ãĤĭ": 6625,
      "Ġ×ķ×Ĳ": 6626,
      "Ġ×¢×¡": 6627,
      "ĠØ¦Ûĩ": 6628,
      "icial": 6629,
      "ÉĽckary": 6630,
      "Es": 6631,
      "KDV": 6632,
      "Off": 6633,
      "RT": 6634,
      "Xt": 6635,
      "joo": 6636,
      "tle": 6637,
      "Ġtin": 6638,
      "Ġcoi": 6639,
      "ĠCub": 6640,
      "Ġpax": 6641,
      "ĠVero": 6642,
      "Ġxoa": 6643,
      "ĠMD": 6644,
      "ĠMc": 6645,
      "uof": 6646,
      "ĠDx": 6647,
      "Ġnoo": 6648,
      "Ġhum": 6649,
      "iaa": 6650,
      "×¢×ľ": 6651,
      "TET": 6652,
      "Ġ106": 6653,
      "ĠÕ¸": 6654,
      "490": 6655,
      "ĠìĿ": 6656,
      "dkv": 6657,
      "ØŃÙħ": 6658,
      "bow": 6659,
      "oro": 6660,
      "rBp": 6661,
      "uh": 6662,
      "und": 6663,
      "Ĥĺ": 6664,
      "ĠTake": 6665,
      "ĠeJ": 6666,
      "Ġcet": 6667,
      "Ġiro": 6668,
      "erto": 6669,
      "Ġqox": 6670,
      "Ġnc": 6671,
      "ĠRob": 6672,
      "Ġbs": 6673,
      "Ġbig": 6674,
      "Â«.": 6675,
      "Ġovr": 6676,
      "ĠWater": 6677,
      "Ġyoke": 6678,
      "Ġacu": 6679,
      "Ġouai": 6680,
      "Ġerr": 6681,
      "Ġuck": 6682,
      "Ġ309": 6683,
      "ĠTÃĢY": 6684,
      "ĠJohn": 6685,
      "Ð¸Ð¹Ð½": 6686,
      "Ga": 6687,
      "Ġaya": 6688,
      "Ġdre": 6689,
      "ĠAere": 6690,
      "Ġcra": 6691,
      "ĠVY": 6692,
      "Ġgro": 6693,
      "ĠInt": 6694,
      "ĠMic": 6695,
      "Ġrs": 6696,
      "arl": 6697,
      "ĠRick": 6698,
      "ĠUTD": 6699,
      "Ġà¤¶": 6700,
      "Ġexu": 6701,
      "irit": 6702,
      "Ġduv": 6703,
      "THE": 6704,
      "ĠÕ¿": 6705,
      "×ł×Ĳ": 6706,
      "Ġauri": 6707,
      "ÛĪÙĨ": 6708,
      "Ġavail": 6709,
      "EG": 6710,
      "Reo": 6711,
      "cTo": 6712,
      "kn": 6713,
      "kot": 6714,
      "pus": 6715,
      "qt": 6716,
      "ìķ": 6717,
      "Ġaes": 6718,
      "Ġdove": 6719,
      "Ġutu": 6720,
      "Ġvn": 6721,
      "ĠMeo": 6722,
      "Ġkt": 6723,
      "och": 6724,
      "oya": 6725,
      "ĠFex": 6726,
      "rax": 6727,
      "ÙħÙī": 6728,
      "Ð°Ñħ": 6729,
      "Î¿Î»": 6730,
      "ĠÐº": 6731,
      "Ġagx": 6732,
      "isten": 6733,
      "Ġ×ľ×¢": 6734,
      "Ġtweet": 6735,
      ")?": 6736,
      "May": 6737,
      "UP": 6738,
      "dÃ©": 6739,
      "eus": 6740,
      "iw": 6741,
      "ln": 6742,
      "rue": 6743,
      "Õ¾": 6744,
      "Ġaon": 6745,
      "ĠeB": 6746,
      "Ġmir": 6747,
      "Ġide": 6748,
      "Ġich": 6749,
      "Ġpum": 6750,
      "Ġvto": 6751,
      "ĠQuade": 6752,
      "Ġgar": 6753,
      "ĠXp": 6754,
      "Ġfer": 6755,
      "Ġnos": 6756,
      "Ġdif": 6757,
      "uty": 6758,
      "Ġjt": 6759,
      "Ġdoor": 6760,
      "×Ļ×ª": 6761,
      "rav": 6762,
      "ĠAxis": 6763,
      "Ġduy": 6764,
      "mmm": 6765,
      "ĠdYn": 6766,
      "Ø¨Ø©": 6767,
      "ĠÎ¼Îµ": 6768,
      "Ġquestions": 6769,
      "Uo": 6770,
      "kp": 6771,
      "rl": 6772,
      "×£": 6773,
      "Ġaudio": 6774,
      "ĠuR": 6775,
      "Ġiva": 6776,
      "ĠGB": 6777,
      "ĠYyo": 6778,
      "ĠVet": 6779,
      "ĠKoe": 6780,
      "ĠXet": 6781,
      "ĠMoo": 6782,
      "Ġket": 6783,
      "ĠDog": 6784,
      "Ġnat": 6785,
      "Ġhand": 6786,
      "ĠRT": 6787,
      "Ġrock": 6788,
      "Ġhel": 6789,
      "ÙĪØ§": 6790,
      "Ã¶O": 6791,
      "Ø¹ÙĦ": 6792,
      "ĠÎ±ÏĢÏĮ": 6793,
      "86": 6794,
      "Dou": 6795,
      "QeA": 6796,
      "mon": 6797,
      "sd": 6798,
      "wv": 6799,
      "xp": 6800,
      "Ġè": 6801,
      "Ġeen": 6802,
      "Ġeas": 6803,
      "Ġpb": 6804,
      "Ġpus": 6805,
      "ĠVes": 6806,
      "ĠwA": 6807,
      "Ġrho": 6808,
      "ĠLeg": 6809,
      "ĠPd": 6810,
      "Ġnob": 6811,
      "TOÃĢ": 6812,
      "itos": 6813,
      "Ġbar": 6814,
      "Â£.": 6815,
      "Ġont": 6816,
      "ÙĬÙĦ": 6817,
      "Ġena": 6818,
      "×ĳ×¨": 6819,
      "Ġ×ĵ×ĸ×©": 6820,
      "ĠØ³ÙĪ": 6821,
      "Ġbetween": 6822,
      "ĠPeace": 6823,
      "ë¥¼": 6824,
      "500": 6825,
      "Ay": 6826,
      "Aug": 6827,
      "nc": 6828,
      "ĠÏĮ": 6829,
      "Ġouc": 6830,
      "Ġmind": 6831,
      "ĠGaU": 6832,
      "ĠVile": 6833,
      "Ġfy": 6834,
      "Ġfoi": 6835,
      "idt": 6836,
      "ĠJud": 6837,
      "Ġlui": 6838,
      "Ġadt": 6839,
      "ĠAces": 6840,
      "ĠWU": 6841,
      "agu": 6842,
      "oxo": 6843,
      "dian": 6844,
      "ĠÎ·": 6845,
      "Ġuxe": 6846,
      "dby": 6847,
      "ĠCUT": 6848,
      "ĠØ§ÙĦØª": 6849,
      "ĠÃ¶tub": 6850,
      "Ġà¥©": 6851,
      "Ca": 6852,
      "NE": 6853,
      "dc": 6854,
      "nx": 6855,
      "pur": 6856,
      "xex": 6857,
      "ĠdZ": 6858,
      "Ġmg": 6859,
      "Ġuce": 6860,
      "Ġipu": 6861,
      "ĠCus": 6862,
      "ĠGat": 6863,
      "ĠSok": 6864,
      "ĠOyy": 6865,
      "ĠToL": 6866,
      "Ġnn": 6867,
      "Ġnai": 6868,
      "Ġlig": 6869,
      "oly": 6870,
      "Â£-": 6871,
      "ĠTha": 6872,
      "ĠTHR": 6873,
      "ĠTHY": 6874,
      "iry": 6875,
      "Ġeso": 6876,
      "ãĥĪ": 6877,
      "Ġ×ĺ×ķ": 6878,
      "Î¯Î±": 6879,
      "ICH": 6880,
      "Ã©Ã©Ã©Ã©Ã©Ã©Ã©Ã©Ã©Ã©Ã©Ã©Ã©Ã©Ã©Ã©Ã©Ã©Ã©Ã©Ã©Ã©Ã©Ã©Ã©Ã©Ã©Ã©Ã©Ã©Ã©Ã©Ã©Ã©Ã©Ã©Ã©Ã©Ã©Ã©Ã©Ã©Ã©Ã©Ã©Ã©Ã©Ã©Ã©Ã©Ã©Ã©Ã©Ã©Ã©Ã©Ã©Ã©Ã©Ã©Ã©Ã©Ã©Ã©": 6881,
      "ele": 6882,
      "yay": 6883,
      "zp": 6884,
      "Ġter": 6885,
      "Ġieu": 6886,
      "Ġvow": 6887,
      "Ġvoto": 6888,
      "Ġsoft": 6889,
      "ĠGiao": 6890,
      "ĠKT": 6891,
      "ĠKox": 6892,
      "ĠKeep": 6893,
      "iner": 6894,
      "Ġfax": 6895,
      "ĠÂ£âģĦ": 6896,
      "Ġdir": 6897,
      "Ġyep": 6898,
      "Ġacr": 6899,
      "enti": 6900,
      "Quane": 6901,
      "Ġdioi": 6902,
      "Ġdios": 6903,
      "Ġkome": 6904,
      "Ġ2002": 6905,
      "ãĤ¤": 6906,
      "ÙĤÙī": 6907,
      "×ŀ×Ķ": 6908,
      "ĠsubÃ©": 6909,
      "Ġcould": 6910,
      "Ġsucc": 6911,
      "OENOYZ": 6912,
      "ĠÑįÑģÐ²ÑįÐ»": 6913,
      "men": 6914,
      "¹Ń": 6915,
      "ĸª": 6916,
      "Ġeir": 6917,
      "Ġpis": 6918,
      "ĠSC": 6919,
      "ĠVAY": 6920,
      "ĠPs": 6921,
      "Ãīo": 6922,
      "ivo": 6923,
      "eva": 6924,
      "Ġ**": 6925,
      "Ġdixlo": 6926,
      "Ġ191": 6927,
      "MOEZ": 6928,
      "Ġadopt": 6929,
      "040": 6930,
      "Tus": 6931,
      "uit": 6932,
      "ĠAW": 6933,
      "Ġeyy": 6934,
      "Ġuice": 6935,
      "rong": 6936,
      "Ġvic": 6937,
      "over": 6938,
      "ĠYat": 6939,
      "Ġxco": 6940,
      "Ġgift": 6941,
      "icue": 6942,
      "Ġris": 6943,
      "etos": 6944,
      "ĠPH": 6945,
      "ĠJee": 6946,
      "erox": 6947,
      "ĠAds": 6948,
      "ggg": 6949,
      "These": 6950,
      "Ġubi": 6951,
      "dky": 6952,
      "Ġfathers": 6953,
      "ĠÚ©ÙĨ": 6954,
      ".,": 6955,
      "XS": 6956,
      "lÃł": 6957,
      "×¥": 6958,
      "Ø¢": 6959,
      "Ġydo": 6960,
      "Ġcable": 6961,
      "Ġpan": 6962,
      "ĠSg": 6963,
      "ĠSs": 6964,
      "ĠOd": 6965,
      "ĠkV": 6966,
      "Ġkr": 6967,
      "Ġkil": 6968,
      "TOE": 6969,
      "Ġotc": 6970,
      "ÙĬØ©": 6971,
      "ToL": 6972,
      "Ġvoie": 6973,
      "ĠTÃīS": 6974,
      "ĠAuot": 6975,
      "rrrr": 6976,
      "ĠCOM": 6977,
      "Ð¸Ð½": 6978,
      "Ġsyoo": 6979,
      "CTI": 6980,
      "Sol": 6981,
      "kov": 6982,
      "Ġaz": 6983,
      "Ġago": 6984,
      "Ġdai": 6985,
      "Ġtun": 6986,
      "ĠAudie": 6987,
      "Ġeed": 6988,
      "ĠQop": 6989,
      "ĠOct": 6990,
      "Ġxer": 6991,
      "Ġxud": 6992,
      "Ġxdv": 6993,
      "ĠPc": 6994,
      "Ġhop": 6995,
      "ĠRec": 6996,
      "ods": 6997,
      "Ġdigo": 6998,
      "exc": 6999,
      "ĠQUE": 7000,
      "×Ļ×£": 7001,
      "×¨×ĺ": 7002,
      "Ġmois": 7003,
      "Ø¯Ûķ": 7004,
      "ĠTuS": 7005,
      "ĠStÃŃ": 7006,
      "Ø¨Ø±": 7007,
      "ãĤ¯": 7008,
      "istist": 7009,
      "ĠEnglish": 7010,
      "37": 7011,
      "BE": 7012,
      "Gp": 7013,
      "Ye": 7014,
      "goi": 7015,
      "hr": 7016,
      "·¸": 7017,
      "Ġuit": 7018,
      "erf": 7019,
      "Ġsev": 7020,
      "ĠGun": 7021,
      "Ġ299": 7022,
      "ĠMoe": 7023,
      "TOX": 7024,
      "ĠBal": 7025,
      "ĠjS": 7026,
      "aero": 7027,
      "ĠFre": 7028,
      "×Ļ×ŀ": 7029,
      "ĠThu": 7030,
      "Ã¡d": 7031,
      "home": 7032,
      "ĠAUS": 7033,
      "ìĿĦ": 7034,
      "----": 7035,
      "×¢×ł×ĺ": 7036,
      "\"\"": 7037,
      "COU": 7038,
      "XT": 7039,
      "aus": 7040,
      "eig": 7041,
      "loy": 7042,
      "Ġyod": 7043,
      "Ġyit": 7044,
      "ĠQC": 7045,
      "Ġpuk": 7046,
      "ĠSX": 7047,
      "ĠSug": 7048,
      "ĠSOK": 7049,
      "ices": 7050,
      "Ġfix": 7051,
      "ĠPS": 7052,
      "ĠPett": 7053,
      "ĠRoy": 7054,
      "ĠJet": 7055,
      "ubal": 7056,
      "Ġovde": 7057,
      "opht": 7058,
      "018": 7059,
      "209": 7060,
      "ASA": 7061,
      "Ġthinking": 7062,
      "Da": 7063,
      "Qau": 7064,
      "VT": 7065,
      "km": 7066,
      "xei": 7067,
      "Ġdco": 7068,
      "ĠmÃ¶t": 7069,
      "Ġcis": 7070,
      "ouy": 7071,
      "Ġ&-": 7072,
      "Ġpato": 7073,
      "Ġsuch": 7074,
      "ĠGero": 7075,
      "ĠSar": 7076,
      "ĠVG": 7077,
      "icuo": 7078,
      "Ġruo": 7079,
      "ĠUa": 7080,
      "à¸ĸ": 7081,
      "ĠBr": 7082,
      "iger": 7083,
      "ĠHouse": 7084,
      "uli": 7085,
      "ĠAny": 7086,
      "Ġarea": 7087,
      "ĠØ§ÙĪ": 7088,
      "THING": 7089,
      "Ġsob": 7090,
      "ãĥĥ": 7091,
      "IK": 7092,
      "kt": 7093,
      "kok": 7094,
      "ĠTote": 7095,
      "Ġdan": 7096,
      "ĠAOT": 7097,
      "Ġioo": 7098,
      "ĠYoo": 7099,
      "inks": 7100,
      "ĠDv": 7101,
      "TOt": 7102,
      "Ġlast": 7103,
      "Ġbas": 7104,
      "Ø§Ø²": 7105,
      "ĠTEOY": 7106,
      "Ġquad": 7107,
      "ĠÃ³Ti": 7108,
      "ãģĵ": 7109,
      "Ġdiem": 7110,
      "ĠTUAE": 7111,
      "Ġ×¢×ľ": 7112,
      "acht": 7113,
      "ìĬµëĭĪëĭ¤": 7114,
      "Tat": 7115,
      "uic": 7116,
      "vÃ©": 7117,
      "Ġast": 7118,
      "Ġdac": 7119,
      "ĠSog": 7120,
      "à¤ĸ": 7121,
      "ĠVat": 7122,
      "Ġxao": 7123,
      "ĠEf": 7124,
      "ĠPL": 7125,
      "oda": 7126,
      "Ġlive": 7127,
      "uly": 7128,
      "avi": 7129,
      "Ġarm": 7130,
      "ĠCAO": 7131,
      "ĠRead": 7132,
      ".-": 7133,
      "59": 7134,
      "Ug": 7135,
      "gA": 7136,
      "lou": 7137,
      "yro": 7138,
      "ĠTur": 7139,
      "Ġtee": 7140,
      "ĠAuk": 7141,
      "ĠAva": 7142,
      "Ġioi": 7143,
      "ĠCao": 7144,
      "ĠCry": 7145,
      "ĠCru": 7146,
      "ĠIr": 7147,
      "ĠIx": 7148,
      "ĠXue": 7149,
      "Ġwoo": 7150,
      "ĠDan": 7151,
      "iday": 7152,
      "Ġlou": 7153,
      "ugugu": 7154,
      "Ġadv": 7155,
      "ĠNov": 7156,
      "ily": 7157,
      "TIOV": 7158,
      "ixy": 7159,
      "eph": 7160,
      "ĠØ§Ø²": 7161,
      "tern": 7162,
      "ĠKoX": 7163,
      "ACT": 7164,
      "Ġ×ŀ×Ļ×ĺ": 7165,
      "ĠABA": 7166,
      "IR": 7167,
      "Quo": 7168,
      "Xa": 7169,
      "cre": 7170,
      "ges": 7171,
      "wl": 7172,
      "yÃ©": 7173,
      "Ġdao": 7174,
      "ĠyÃ©": 7175,
      "Ġmany": 7176,
      "Ġuico": 7177,
      "Ġcas": 7178,
      "Ġcua": 7179,
      "Ġime": 7180,
      "Ġipe": 7181,
      "Ġsed": 7182,
      "orT": 7183,
      "ĠYR": 7184,
      "ĠMAY": 7185,
      "Ġwants": 7186,
      "Ġkj": 7187,
      "Ġjv": 7188,
      "ĠWor": 7189,
      "own": 7190,
      "iver": 7191,
      "oUg": 7192,
      "ĠAxe": 7193,
      "aaa": 7194,
      "Ġuda": 7195,
      "Ġ×¨×Ĳ": 7196,
      "Ġà¤Ĺà¤°": 7197,
      "Ġmonths": 7198,
      "Pu": 7199,
      "XU": 7200,
      "goU": 7201,
      "åĪ": 7202,
      "Ġtent": 7203,
      "ĠAgu": 7204,
      "Ġyee": 7205,
      "Ġuix": 7206,
      "erou": 7207,
      "Ġvie": 7208,
      "ĠSuse": 7209,
      "ĠQum": 7210,
      "Ġfie": 7211,
      "ĠLOL": 7212,
      "mex": 7213,
      "ucA": 7214,
      "ĠTUY": 7215,
      "ags": 7216,
      "aven": 7217,
      "eros": 7218,
      "Ġlek": 7219,
      "ØªØ±": 7220,
      "ify": 7221,
      "Ġbeen": 7222,
      "ĠÐ·": 7223,
      "Ġtuban": 7224,
      "ĠAnswero": 7225,
      "Ev": 7226,
      "Lab": 7227,
      "QAC": 7228,
      "goc": 7229,
      "yf": 7230,
      "åľ": 7231,
      "çĶ": 7232,
      "ĠTia": 7233,
      "Ġaeu": 7234,
      "Ġmio": 7235,
      "Ġuve": 7236,
      "ĠQro": 7237,
      "Ġsv": 7238,
      "Ġsut": 7239,
      "ĠKal": 7240,
      "isy": 7241,
      "Ġkind": 7242,
      "Ġfon": 7243,
      "Ġfee": 7244,
      "ĠActo": 7245,
      "Ġrow": 7246,
      "Ġjou": 7247,
      "ivou": 7248,
      "×ķ×©": 7249,
      "rah": 7250,
      "ĠÎĳ": 7251,
      "Ġint": 7252,
      "Ġucc": 7253,
      "Ġopen": 7254,
      "Ġdiov": 7255,
      "×Ĵ×Ĳ": 7256,
      "PC": 7257,
      "eux": 7258,
      "oj": 7259,
      "pg": 7260,
      "ĠæĪĸ": 7261,
      "ĠAeg": 7262,
      "ĠQou": 7263,
      "Ġport": 7264,
      "Ġslo": 7265,
      "Ġgf": 7266,
      "ĠIY": 7267,
      "ĠIa": 7268,
      "ĠXov": 7269,
      "ĠMAR": 7270,
      "Ġrcov": 7271,
      "Ġnoma": 7272,
      "ĠÃ©se": 7273,
      "exi": 7274,
      "ĠNay": 7275,
      "Ġron": 7276,
      "Ġovt": 7277,
      "ĠÃ³T": 7278,
      "ĠExp": 7279,
      "Ġdeis": 7280,
      "Ġerp": 7281,
      "ĠQAA": 7282,
      "ĠØªØ¹": 7283,
      "à¤¹à¤°": 7284,
      "Ġà¤¤à¤¥": 7285,
      "900": 7286,
      "Lok": 7287,
      "Wh": 7288,
      "bet": 7289,
      "eS": 7290,
      "pow": 7291,
      "yop": 7292,
      "Ø¡": 7293,
      "Ġoye": 7294,
      "Ġape": 7295,
      "ĠAooo": 7296,
      "Ġeld": 7297,
      "Ġmf": 7298,
      "Ġmust": 7299,
      "Ġtool": 7300,
      "à¤«": 7301,
      "à¤Ĩ": 7302,
      "ĠQuog": 7303,
      "ĠMen": 7304,
      "ĠDL": 7305,
      "etg": 7306,
      "ueie": 7307,
      "ida": 7308,
      "ĠÂ£&": 7309,
      "ĠTIOU": 7310,
      "Ġjud": 7311,
      "Ġthing": 7312,
      "umo": 7313,
      "ĠTheo": 7314,
      "ĠÎļ": 7315,
      "TED": 7316,
      "Ġ*.": 7317,
      "ouso": 7318,
      "Ġìķ": 7319,
      "Ġ×ľ×Ķ": 7320,
      "ĠMarx": 7321,
      "Î®Ïĥ": 7322,
      "Ġcopper": 7323,
      "Gr": 7324,
      "ITI": 7325,
      "Xu": 7326,
      "aig": 7327,
      "las": 7328,
      "yot": 7329,
      "zr": 7330,
      "ĠdR": 7331,
      "ĠAust": 7332,
      "ĠTOG": 7333,
      "ioot": 7334,
      "ĠYey": 7335,
      "ĠKay": 7336,
      "ĠMl": 7337,
      "Ġrra": 7338,
      "ĠLLL": 7339,
      "ĠPux": 7340,
      "Ġnig": 7341,
      "aria": 7342,
      "asi": 7343,
      "ĠÃ©z": 7344,
      "ĠbU": 7345,
      "Ġbad": 7346,
      "Ġadf": 7347,
      "Ġadds": 7348,
      "umb": 7349,
      "Ġ7016": 7350,
      "Ġalm": 7351,
      "ĠzÃĢ": 7352,
      "uni": 7353,
      "aves": 7354,
      "ĠAno": 7355,
      "Ġesi": 7356,
      "icht": 7357,
      "ï¼ģ": 7358,
      "×ĸ×Ķ": 7359,
      "Ġ×ķ×ķ×Ļ": 7360,
      ".&": 7361,
      "Di": 7362,
      "Hel": 7363,
      "Xet": 7364,
      "gU": 7365,
      "gd": 7366,
      "Ġaav": 7367,
      "Ġsim": 7368,
      "ĠSus": 7369,
      "ĠXott": 7370,
      "Ġqug": 7371,
      "Ġrac": 7372,
      "ĠDoc": 7373,
      "ĠPD": 7374,
      "itg": 7375,
      "ĠUse": 7376,
      "à¸¶": 7377,
      "à¸ī": 7378,
      "Ø§ÛĮ": 7379,
      "ĠHere": 7380,
      "×Ļ×¤": 7381,
      "Ġoth": 7382,
      "ulh": 7383,
      "ccation": 7384,
      "ĠCUP": 7385,
      "ĠAlu": 7386,
      "Ġ786": 7387,
      "666": 7388,
      "ĠRadio": 7389,
      ");": 7390,
      "ITO": 7391,
      "eat": 7392,
      "Ġé": 7393,
      "Ġuia": 7394,
      "Ġcmo": 7395,
      "ĠQAG": 7396,
      "ĠCux": 7397,
      "ĠSix": 7398,
      "ĠKati": 7399,
      "iev": 7400,
      "Ġrer": 7401,
      "eta": 7402,
      "idov": 7403,
      "ĠQUO": 7404,
      "oph": 7405,
      "Ġdeg": 7406,
      "ĠGUT": 7407,
      "ĠCAS": 7408,
      "TXE": 7409,
      "ĠConk": 7410,
      "ÑįÑĢ": 7411,
      "ERY": 7412,
      "Ġ×Ĵ×Ĳ": 7413,
      "ĠADV": 7414,
      "Ak": 7415,
      "Aga": 7416,
      "En": 7417,
      "gan": 7418,
      "gai": 7419,
      "jor": 7420,
      "poe": 7421,
      "Ġtig": 7422,
      "Ġmac": 7423,
      "ĠCua": 7424,
      "ĠKN": 7425,
      "ĠKeri": 7426,
      "ĠMume": 7427,
      "Ġql": 7428,
      "Ġlan": 7429,
      "acc": 7430,
      "ĠTUL": 7431,
      "ĠNU": 7432,
      "Ġthings": 7433,
      "ivog": 7434,
      "Ġ008": 7435,
      "Ġasy": 7436,
      "ĠTlic": 7437,
      "à¤¿à¥¤": 7438,
      "ffer": 7439,
      "Ġdico": 7440,
      "TCV": 7441,
      "Õ¡Õ´": 7442,
      "Ð°Ð²": 7443,
      "Yi": 7444,
      "cui": 7445,
      "goy": 7446,
      "lal": 7447,
      "ĠTer": 7448,
      "Ġege": 7449,
      "Ġcout": 7450,
      "Ġxoo": 7451,
      "ical": 7452,
      "Ġkom": 7453,
      "Ġfiov": 7454,
      "Ġdiari": 7455,
      "ogi": 7456,
      "ĠØ²": 7457,
      "ĠWHO": 7458,
      "Acu": 7459,
      "Ġevi": 7460,
      "Ġ406": 7461,
      "Î½Î¿": 7462,
      "Õ¡ÖĢÕ": 7463,
      "Ġ×ŀ×Ķ": 7464,
      "ĠEmp": 7465,
      "QO": 7466,
      "Ser": 7467,
      "aic": 7468,
      "doy": 7469,
      "not": 7470,
      "oT": 7471,
      "voe": 7472,
      "Ġà¥¤": 7473,
      "ĠTk": 7474,
      "Ġaea": 7475,
      "ĠAve": 7476,
      "ĠAga": 7477,
      "ĠyU": 7478,
      "Ġcri": 7479,
      "Ġcalm": 7480,
      "ĠQXA": 7481,
      "eral": 7482,
      "ĠGBA": 7483,
      "ĠSte": 7484,
      "Ġ610": 7485,
      "orc": 7486,
      "otpe": 7487,
      "Ġxcov": 7488,
      "ĠQuÃ©": 7489,
      "ĠXr": 7490,
      "Ġwx": 7491,
      "Ġroue": 7492,
      "Ġbis": 7493,
      "ĠBv": 7494,
      "Ã³T": 7495,
      "ĠTIAS": 7496,
      "ild": 7497,
      "Ġthro": 7498,
      "ember": 7499,
      "Ġalt": 7500,
      "Ã¡r": 7501,
      "TIY": 7502,
      "Ġprice": 7503,
      "rtov": 7504,
      "à¸²à¸¢": 7505,
      "Ġvrac": 7506,
      "ÎµÎ¹ÏĤ": 7507,
      "Ġcontinue": 7508,
      "Ġavailable": 7509,
      "pal": 7510,
      "pay": 7511,
      "tue": 7512,
      "tux": 7513,
      "wow": 7514,
      "ç§ģ": 7515,
      "ĠTÃ¡": 7516,
      "ĠmÃ¶": 7517,
      "ĠSM": 7518,
      "ĠSas": 7519,
      "ĠKan": 7520,
      "Ġkok": 7521,
      "ĠPed": 7522,
      "odk": 7523,
      "Ġlake": 7524,
      "ĠBer": 7525,
      "Ġrote": 7526,
      "ĠWX": 7527,
      "rain": 7528,
      "raid": 7529,
      "aby": 7530,
      "Ã©Ã©Ã©Ã©Ã©": 7531,
      "ĠÕ¤": 7532,
      "704": 7533,
      "Ġapp": 7534,
      "ÙģØª": 7535,
      "ĠØ¦ÛĲ": 7536,
      "ĠÙĥÛĨ": 7537,
      "Ġeverywhere": 7538,
      "EZ": 7539,
      "She": 7540,
      "Xy": 7541,
      "ire": 7542,
      "moy": 7543,
      "yc": 7544,
      "Ġdote": 7545,
      "Ġtai": 7546,
      "Ġeere": 7547,
      "ĠGol": 7548,
      "ĠSS": 7549,
      "ĠSW": 7550,
      "ĠSox": 7551,
      "ĠVau": 7552,
      "Ġglo": 7553,
      "ĠKer": 7554,
      "ĠMIC": 7555,
      "ĠTodd": 7556,
      "Ġnub": 7557,
      "ĠRem": 7558,
      "exor": 7559,
      "ĠÎ²": 7560,
      "Ġheard": 7561,
      "Î±ÏĤ": 7562,
      "ĠAxf": 7563,
      "Ġedu": 7564,
      "Ġobo": 7565,
      "ĠArv": 7566,
      "Ġmize": 7567,
      "Ġvogue": 7568,
      "UE": 7569,
      "cY": 7570,
      "ged": 7571,
      "mou": 7572,
      "tan": 7573,
      "ĠTm": 7574,
      "ĠTas": 7575,
      "ĠTag": 7576,
      "Ġdice": 7577,
      "ĠmÃŃ": 7578,
      "Ġugu": 7579,
      "ouoy": 7580,
      "ĠQuem": 7581,
      "Ġgay": 7582,
      "Ġgui": 7583,
      "Ġfar": 7584,
      "Ġrad": 7585,
      "Ġrun": 7586,
      "ĠUk": 7587,
      "Ġlic": 7588,
      "tof": 7589,
      "×Ļ×ķ": 7590,
      "ĠNor": 7591,
      "emi": 7592,
      "OUT": 7593,
      "Ġexor": 7594,
      "oms": 7595,
      "Ġauto": 7596,
      "Ġ×¢×Ŀ": 7597,
      "Î»Î±": 7598,
      "Ġheads": 7599,
      "Ġgoose": 7600,
      "\"?": 7601,
      "Tod": 7602,
      "gv": 7603,
      "lon": 7604,
      "xQ": 7605,
      "Ð¢": 7606,
      "ĠATI": 7607,
      "ĠAuu": 7608,
      "ĠeR": 7609,
      "Ġess": 7610,
      "Ġelex": 7611,
      "Ġuut": 7612,
      "ĠcJ": 7613,
      "Ġcya": 7614,
      "Ġcoto": 7615,
      "Ġioc": 7616,
      "ĠQs": 7617,
      "ĠGut": 7618,
      "ĠSm": 7619,
      "ĠSoi": 7620,
      "ĠKk": 7621,
      "ĠkÃģ": 7622,
      "Ġric": 7623,
      "ĠPÃ©": 7624,
      "Ġnau": 7625,
      "Ġhus": 7626,
      "ĠUt": 7627,
      "ĠBow": 7628,
      "ĠTUOY": 7629,
      "exov": 7630,
      "ÙĦÙĥ": 7631,
      "Ġ709": 7632,
      "ĠÃīl": 7633,
      "Ġaiu": 7634,
      "ĠAUT": 7635,
      "Ð¸Ð»": 7636,
      "ĠâĢĭâĢĭâĢĭâĢĭâĢĭâĢĭ": 7637,
      "Ġanywhere": 7638,
      "Ð³Ð°": 7639,
      "Ana": 7640,
      "Loy": 7641,
      "PE": 7642,
      "Tf": 7643,
      "WH": 7644,
      "bone": 7645,
      "eoo": 7646,
      "qus": 7647,
      "riot": 7648,
      "Ġuor": 7649,
      "Ġuba": 7650,
      "ĠQÃģ": 7651,
      "ĠCep": 7652,
      "atv": 7653,
      "hew": 7654,
      "orb": 7655,
      "ĠXOT": 7656,
      "ĠMG": 7657,
      "Ġrel": 7658,
      "Ġrri": 7659,
      "ĠDey": 7660,
      "etr": 7661,
      "Ġhs": 7662,
      "à¥¯": 7663,
      "oia": 7664,
      "Ġexon": 7665,
      "Ġ$$": 7666,
      "ĠÐ¢": 7667,
      "ÏģÏī": 7668,
      "Ġdict": 7669,
      "Ġ×ĵ×¢×¨": 7670,
      "×Ĵ×Ł": 7671,
      "ittle": 7672,
      "ĠWHAT": 7673,
      "ê³ł": 7674,
      "401": 7675,
      "Aoo": 7676,
      "auo": 7677,
      "pL": 7678,
      "Ã¨": 7679,
      "Ġtre": 7680,
      "Ġmw": 7681,
      "Ġcau": 7682,
      "road": 7683,
      "ĠTOW": 7684,
      "ĠSK": 7685,
      "Ġxax": 7686,
      "ĠQuD": 7687,
      "ĠKex": 7688,
      "Ġorc": 7689,
      "Ġroug": 7690,
      "ĠDer": 7691,
      "ĠPer": 7692,
      "ĠPla": 7693,
      "idu": 7694,
      "Ġlight": 7695,
      "ĠBel": 7696,
      "oil": 7697,
      "Ġjn": 7698,
      "ecs": 7699,
      "Ġwhom": 7700,
      "ĠÎķ": 7701,
      "ĠÎł": 7702,
      "ÙĪÙĥ": 7703,
      "ÙĬÙĥ": 7704,
      "Ġanc": 7705,
      "Ġuds": 7706,
      "Ġtaboo": 7707,
      "TP": 7708,
      "bus": 7709,
      "cD": 7710,
      "eie": 7711,
      "foi": 7712,
      "gas": 7713,
      "pn": 7714,
      "xer": 7715,
      "ÙĢ": 7716,
      "Ġave": 7717,
      "Ġih": 7718,
      "Ġimo": 7719,
      "ĠCn": 7720,
      "iop": 7721,
      "Ġgal": 7722,
      "ĠXN": 7723,
      "alt": 7724,
      "ĠÂ«Â£": 7725,
      "ĠJev": 7726,
      "ĠUOI": 7727,
      "Ġ525": 7728,
      "raov": 7729,
      "Ġedv": 7730,
      "111": 7731,
      "ODCY": 7732,
      "Ġ2009": 7733,
      "ÏģÏĮ": 7734,
      "ĠÃ¡o": 7735,
      "ĠÃĵU": 7736,
      "essed": 7737,
      "ĠØ§ÙĦØŃ": 7738,
      "×ĳ×Ł": 7739,
      "Ġwhole": 7740,
      "ĠDUI": 7741,
      "Ġeroe": 7742,
      "AMAMAMAM": 7743,
      "Et": 7744,
      "ĠToto": 7745,
      "Ġici": 7746,
      "Ġpec": 7747,
      "Ġsea": 7748,
      "ĠShe": 7749,
      "ĠSim": 7750,
      "ĠMs": 7751,
      "ĠMak": 7752,
      "ĠrÃ©": 7753,
      "ĠPax": 7754,
      "Ġnan": 7755,
      "idid": 7756,
      "utos": 7757,
      "ĠHey": 7758,
      "Ġjx": 7759,
      "Ġjus": 7760,
      "Ġmma": 7761,
      "Ġzio": 7762,
      "Ġzoo": 7763,
      "TEO": 7764,
      "ToI": 7765,
      "Ġann": 7766,
      "Ġarro": 7767,
      "ĠAne": 7768,
      "×ĺ×¢×¨": 7769,
      "Ġauos": 7770,
      "ï¼Ī": 7771,
      "ĠÃ¶ko": 7772,
      "Ġ636": 7773,
      "ä¸Ģ": 7774,
      "âĢĶâĢĶâĢĶâĢĶâĢĶâĢĶâĢĶâĢĶ": 7775,
      "Tea": 7776,
      "mis": 7777,
      "mid": 7778,
      "yie": 7779,
      "è¦": 7780,
      "èª": 7781,
      "Ġtrou": 7782,
      "Ġtune": 7783,
      "ĠAaa": 7784,
      "ĠeH": 7785,
      "Ġcoti": 7786,
      "ĠCie": 7787,
      "ĠCove": 7788,
      "ĠSuo": 7789,
      "ĠgÃł": 7790,
      "Ġ120": 7791,
      "Ġky": 7792,
      "Ġkai": 7793,
      "ĠDel": 7794,
      "etd": 7795,
      "ĠPÃ¶t": 7796,
      "ĠRes": 7797,
      "ĠNS": 7798,
      "Ġovv": 7799,
      "×Ĳ×Ĳ": 7800,
      "ĠTXU": 7801,
      "Ø³Ùħ": 7802,
      "ĠKotk": 7803,
      "rovi": 7804,
      "TRE": 7805,
      "ĠØªØ§": 7806,
      "Ġmmmmm": 7807,
      "Ã©tk": 7808,
      "ĠScic": 7809,
      "ology": 7810,
      "EU": 7811,
      "Sk": 7812,
      "UK": 7813,
      "goo": 7814,
      "wer": 7815,
      "Õ¬": 7816,
      "åĲ": 7817,
      "ë¦": 7818,
      "Ġtet": 7819,
      "Ġtext": 7820,
      "ĠAtt": 7821,
      "Ġyia": 7822,
      "Ġuel": 7823,
      "Ġcho": 7824,
      "Ġ&)": 7825,
      "Ġpaa": 7826,
      "Ġvers": 7827,
      "ĠSce": 7828,
      "ĠVott": 7829,
      "Ġgai": 7830,
      "ĠEov": 7831,
      "ĠMus": 7832,
      "Ġtheir": 7833,
      "ĠJR": 7834,
      "Ġlid": 7835,
      "ĠBuy": 7836,
      "ube": 7837,
      "edv": 7838,
      "ĠâĤ¬)": 7839,
      "×Ĳ×ª": 7840,
      "Ġzou": 7841,
      "Ġauf": 7842,
      "116": 7843,
      "Ġcoh": 7844,
      "ĠGUI": 7845,
      "Ġeure": 7846,
      "ĠTrou": 7847,
      "à¤¯à¤¸": 7848,
      "Ġtype": 7849,
      "Ġafter": 7850,
      "ÏħÏĦÏĮ": 7851,
      "Jo": 7852,
      "jv": 7853,
      "pli": 7854,
      "vite": 7855,
      "Ġdur": 7856,
      "Ġeix": 7857,
      "Ġmate": 7858,
      "Ġmsc": 7859,
      "icus": 7860,
      "Ġhumm": 7861,
      "ital": 7862,
      "eeu": 7863,
      "ĠWT": 7864,
      "ĠFin": 7865,
      "tea": 7866,
      "ĠTHO": 7867,
      "Acr": 7868,
      "Ø³ÙīØ²": 7869,
      "ÏģÏİ": 7870,
      "ĠAcyes": 7871,
      "47": 7872,
      "Aou": 7873,
      "AÃĢ": 7874,
      "MY": 7875,
      "RV": 7876,
      "pst": 7877,
      "zb": 7878,
      "ê²": 7879,
      "ë¡": 7880,
      "Ġeim": 7881,
      "ĠCoke": 7882,
      "esto": 7883,
      "Ġtoday": 7884,
      "iem": 7885,
      "Ġrb": 7886,
      "Ġhocks": 7887,
      "ĠUJ": 7888,
      "osue": 7889,
      "edio": 7890,
      "ĠTUT": 7891,
      "ĠAcre": 7892,
      "ĠQUTD": 7893,
      "aix": 7894,
      "ĠThes": 7895,
      "ĠÃ³s": 7896,
      "this": 7897,
      "ĠAvin": 7898,
      "Ġtruth": 7899,
      "ĠkuÉĶ": 7900,
      "ĠVTL": 7901,
      "Ġà¥§": 7902,
      "Ġ×ł×Ĳ": 7903,
      "Ġblades": 7904,
      "Cp": 7905,
      "Gv": 7906,
      "Tel": 7907,
      "Xg": 7908,
      "gol": 7909,
      "ĸ´": 7910,
      "ĠTan": 7911,
      "Ġyolo": 7912,
      "Ġsex": 7913,
      "Ġ7000": 7914,
      "ĠGek": 7915,
      "Ġ644": 7916,
      "ĠMAC": 7917,
      "icot": 7918,
      "Ġfx": 7919,
      "Ġrue": 7920,
      "ĠPut": 7921,
      "Ġneed": 7922,
      "ĠRAR": 7923,
      "ĠBig": 7924,
      "ĠAcyo": 7925,
      "×ķ×¦": 7926,
      "Ġocv": 7927,
      "ĠTGA": 7928,
      "ccc": 7929,
      "Î½ÏĦ": 7930,
      "×ŀ×©": 7931,
      "Ġ3002": 7932,
      "Ġcond": 7933,
      "ukukukuk": 7934,
      "Ġblack": 7935,
      "ĠÐ±Ð°Ð¹Ð½Ð°": 7936,
      "MO": 7937,
      "Na": 7938,
      "Of": 7939,
      "oov": 7940,
      "tut": 7941,
      "uac": 7942,
      "ĠÏĨ": 7943,
      "ĠTuc": 7944,
      "ĠAui": 7945,
      "Ġefe": 7946,
      "Ġmel": 7947,
      "ĠiS": 7948,
      "Ġiw": 7949,
      "ĠCd": 7950,
      "ĠpL": 7951,
      "Ġsax": 7952,
      "ioV": 7953,
      "ĠOB": 7954,
      "Ġgad": 7955,
      "Ġwl": 7956,
      "ĠfV": 7957,
      "usu": 7958,
      "ĠbÃ©": 7959,
      "medi": 7960,
      "ĠNY": 7961,
      "ĠHG": 7962,
      "Ġroro": 7963,
      "ĠWÃľ": 7964,
      "Â£Â£": 7965,
      "Ġauae": 7966,
      "ÙħÙĨ": 7967,
      "Ġeds": 7968,
      "Ġdeu": 7969,
      "Ġaso": 7970,
      "Ġeng": 7971,
      "ĠCAR": 7972,
      "Ġcvyy": 7973,
      "anker": 7974,
      "888": 7975,
      "LUEBLUEBLUEBLUEBLUEBLUEBLUEBLUEB": 7976,
      "ERYTHING": 7977,
      "IY": 7978,
      "TÃŃ": 7979,
      "^^": 7980,
      "bate": 7981,
      "hing": 7982,
      "ras": 7983,
      "vox": 7984,
      "âģĵ": 7985,
      "ĠToug": 7986,
      "Ġawo": 7987,
      "ĠAut": 7988,
      "ĠApos": 7989,
      "ĠeC": 7990,
      "Ġees": 7991,
      "Ġmia": 7992,
      "Ġiex": 7993,
      "Ġveu": 7994,
      "ĠGM": 7995,
      "ĠGOD": 7996,
      "Ġgel": 7997,
      "ĠEAR": 7998,
      "ĠMol": 7999,
      "ĠMel": 8000,
      "aly": 8001,
      "ĠkÃŃ": 8002,
      "Ġkmo": 8003,
      "Ġqme": 8004,
      "eter": 8005,
      "ĠBV": 8006,
      "ubs": 8007,
      "Ġovre": 8008,
      "ĠÎ¸": 8009,
      "load": 8010,
      "ĠAxt": 8011,
      "Ġana": 8012,
      "ssss": 8013,
      "roves": 8014,
      "ĠGees": 8015,
      "ĠØ¨ÙĪÙĦ": 8016,
      "Ġuna": 8017,
      "ĠReme": 8018,
      "Õ¡Õ¯": 8019,
      "ĠAsp": 8020,
      "ĠØ£ÙĨ": 8021,
      "ĠCIR": 8022,
      "ĠTrain": 8023,
      "ìŀħ": 8024,
      "Ab": 8025,
      "CTG": 8026,
      "Un": 8027,
      "dor": 8028,
      "dig": 8029,
      "zx": 8030,
      "Ġapo": 8031,
      "Ġtar": 8032,
      "Ġtas": 8033,
      "ĠAH": 8034,
      "Ġyh": 8035,
      "Ġyoe": 8036,
      "ĠiO": 8037,
      "rof": 8038,
      "Ġpce": 8039,
      "Ġpda": 8040,
      "eris": 8041,
      "ĠVb": 8042,
      "icv": 8043,
      "ĠPan": 8044,
      "ĠJS": 8045,
      "Ġloy": 8046,
      "veg": 8047,
      "ĠAcrov": 8048,
      "Ġones": 8049,
      "Ġheck": 8050,
      "ÙĪØ¨": 8051,
      "×¨×ķ": 8052,
      "104": 8053,
      "Ġene": 8054,
      "Ġeiat": 8055,
      "ĠQAAI": 8056,
      "ÏģÎ¬": 8057,
      "ãĢĮ": 8058,
      "ĠTION": 8059,
      "Õ¡Õµ": 8060,
      "Ġ060": 8061,
      "Ġà¥¬": 8062,
      "ĠTÃĵp": 8063,
      "Ġwords": 8064,
      "à¸«à¸£": 8065,
      "à¹Ħà¸¡": 8066,
      "ĠTiva": 8067,
      "Ġsorry": 8068,
      "KOU": 8069,
      "Let": 8070,
      "ctu": 8071,
      "fac": 8072,
      "gog": 8073,
      "pai": 8074,
      "rÃľ": 8075,
      "å¾": 8076,
      "ĺ¤": 8077,
      "Ġafi": 8078,
      "Ġdude": 8079,
      "Ġtix": 8080,
      "ĠAq": 8081,
      "Ġeer": 8082,
      "Ġyum": 8083,
      "Ġvar": 8084,
      "Ġvai": 8085,
      "Ġvua": 8086,
      "Ġsuo": 8087,
      "ĠGiov": 8088,
      "orcy": 8089,
      "oves": 8090,
      "ĠVM": 8091,
      "ĠVÃī": 8092,
      "ĠOgg": 8093,
      "asc": 8094,
      "ĠÃ©ie": 8095,
      "Ġyoure": 8096,
      "uds": 8097,
      "ĠHas": 8098,
      "Ġovdi": 8099,
      "ĠWa": 8100,
      "ĠWed": 8101,
      "Ġzv": 8102,
      "Ġmek": 8103,
      "ÃĵS": 8104,
      "ĠTrue": 8105,
      "ĠtubÉĶ": 8106,
      "ACY": 8107,
      "Ġdta": 8108,
      "ĠÙħÛķÙĨ": 8109,
      "round": 8110,
      "Ġ091": 8111,
      "TCU": 8112,
      "656": 8113,
      "ĠJUI": 8114,
      "ĠÃ¶to": 8115,
      "ĠDUO": 8116,
      "à¦¾": 8117,
      "Ġbelieve": 8118,
      "-:": 8119,
      "Mou": 8120,
      "Wow": 8121,
      "ZZ": 8122,
      "puo": 8123,
      "tin": 8124,
      "vit": 8125,
      "Îł": 8126,
      "ĠATE": 8127,
      "Ġeol": 8128,
      "Ġyar": 8129,
      "Ã©li": 8130,
      "rok": 8131,
      "ĠGDU": 8132,
      "ĠSac": 8133,
      "Ġ616": 8134,
      "ĠView": 8135,
      "oom": 8136,
      "ĠXP": 8137,
      "ĠPub": 8138,
      "Ġhat": 8139,
      "aster": 8140,
      "ĠUi": 8141,
      "rev": 8142,
      "à¥¬": 8143,
      "Ġacf": 8144,
      "Ġauia": 8145,
      "mmmm": 8146,
      "ĠCOE": 8147,
      "ì§Ģ": 8148,
      "Ec": 8149,
      "IÃĵ": 8150,
      "Koc": 8151,
      "La": 8152,
      "TÃľ": 8153,
      "Up": 8154,
      "nv": 8155,
      "xim": 8156,
      "Î£": 8157,
      "Ġtli": 8158,
      "Ġyove": 8159,
      "Ġuui": 8160,
      "ĠCei": 8161,
      "Ġplo": 8162,
      "ĠtoT": 8163,
      "ĠSl": 8164,
      "ĠSci": 8165,
      "ĠYea": 8166,
      "ĠOOV": 8167,
      "Ġgub": 8168,
      "ĠIto": 8169,
      "Ġkalm": 8170,
      "uop": 8171,
      "ĠLio": 8172,
      "ĠPR": 8173,
      "usi": 8174,
      "ucan": 8175,
      "ĠWy": 8176,
      "Ãłe": 8177,
      "Ġ7076": 8178,
      "irs": 8179,
      "×¨×¢": 8180,
      "ĠAda": 8181,
      "AGe": 8182,
      "ĠÐ²": 8183,
      "ĠAuf": 8184,
      "Ġoxy": 8185,
      "ousand": 8186,
      "TXL": 8187,
      "ĠâĢĶâĢĶ": 8188,
      "Ġcha": 8189,
      "Ġchrome": 8190,
      "ï¼ļ": 8191,
      "ĠQeon": 8192,
      "Ġyoga": 8193,
      "ĠTÃįO": 8194,
      "Ã¦t": 8195,
      "64": 8196,
      "RG": 8197,
      "euo": 8198,
      "gax": 8199,
      "zog": 8200,
      "ìł": 8201,
      "Ġooa": 8202,
      "ĠtÃ¡": 8203,
      "ĠtÃŃ": 8204,
      "Ġiue": 8205,
      "Ġiid": 8206,
      "ĠCÃ©": 8207,
      "ĠCuo": 8208,
      "ĠCof": 8209,
      "ĠGog": 8210,
      "ĠGur": 8211,
      "ĠGai": 8212,
      "ĠGTI": 8213,
      "ĠVor": 8214,
      "ĠVig": 8215,
      "ĠEj": 8216,
      "Ġkock": 8217,
      "ĠPop": 8218,
      "ĠJC": 8219,
      "à¥©": 8220,
      "ĠTIDI": 8221,
      "ĠAcr": 8222,
      "ĠWO": 8223,
      "ums": 8224,
      "ĠFB": 8225,
      "Ġmean": 8226,
      "apt": 8227,
      "Acn": 8228,
      "Ġoues": 8229,
      "Ġ333": 8230,
      "Ġcvp": 8231,
      "161": 8232,
      "ĠZo": 8233,
      "ĠdYxluo": 8234,
      "Fin": 8235,
      "Meo": 8236,
      "Too": 8237,
      "bil": 8238,
      "rÃ³p": 8239,
      "Ġmn": 8240,
      "Ġmog": 8241,
      "ĠuÃ³": 8242,
      "ĠcÃ³": 8243,
      "Ġcul": 8244,
      "Ġcix": 8245,
      "ĠQox": 8246,
      "Ġvhi": 8247,
      "ĠSon": 8248,
      "ĠVL": 8249,
      "ĠEdo": 8250,
      "ĠXen": 8251,
      "icov": 8252,
      "Ġkei": 8253,
      "Ġqd": 8254,
      "Ġrab": 8255,
      "ider": 8256,
      "itus": 8257,
      "à¸ŀ": 8258,
      "eex": 8259,
      "Ġthousand": 8260,
      "opon": 8261,
      "ĠÃ³p": 8262,
      "OLD": 8263,
      "×Ķ×Ĳ": 8264,
      "ãĤĬ": 8265,
      "Ġmlox": 8266,
      "Ġ0771": 8267,
      "âĤĤ": 8268,
      "640": 8269,
      "But": 8270,
      "Ek": 8271,
      "Give": 8272,
      "cia": 8273,
      "wc": 8274,
      "ĠAum": 8275,
      "Ġefo": 8276,
      "Ġson": 8277,
      "Ġsave": 8278,
      "ĠSate": 8279,
      "ĠYX": 8280,
      "ĠYah": 8281,
      "ĠVR": 8282,
      "ĠEal": 8283,
      "ĠXoe": 8284,
      "ĠLike": 8285,
      "ĠBai": 8286,
      "exd": 8287,
      "ĠHou": 8288,
      "ĠWok": 8289,
      "ÙĦÛĮ": 8290,
      "TUOY": 8291,
      "Ġ209": 8292,
      "ÏģÎ¯": 8293,
      "Ġcvu": 8294,
      "Ð¾ÑĢ": 8295,
      "à¤µà¤¨": 8296,
      "×Ļ×Ļ×Ŀ": 8297,
      "Ġ×¡×Ĳ": 8298,
      "ÚĨÙī": 8299,
      "Ġresp": 8300,
      "Ġgreat": 8301,
      "boU": 8302,
      "lau": 8303,
      "pau": 8304,
      "Ġdag": 8305,
      "Ġepa": 8306,
      "Ġyai": 8307,
      "Ġmple": 8308,
      "Ġmrt": 8309,
      "Ã©z": 8310,
      "ĠCum": 8311,
      "Ġpel": 8312,
      "ĠGas": 8313,
      "hee": 8314,
      "ĠSR": 8315,
      "ĠDeo": 8316,
      "ĠPx": 8317,
      "idio": 8318,
      "ĠReo": 8319,
      "Ġll": 8320,
      "Ġbec": 8321,
      "à¥§": 8322,
      "vev": 8323,
      "Ġdow": 8324,
      "ÙĨÙĬ": 8325,
      "TID": 8326,
      "Ġemen": 8327,
      "Ġeti": 8328,
      "ÃĵDA": 8329,
      "ept": 8330,
      "Ġdeb": 8331,
      "à¤¾à¤ĥ": 8332,
      "106": 8333,
      "ĠTlie": 8334,
      "ouses": 8335,
      "ards": 8336,
      "Ġicodd": 8337,
      "ĠØ¦Ûķ": 8338,
      "ĠAfraid": 8339,
      "720": 8340,
      "CR": 8341,
      "Dp": 8342,
      "dO": 8343,
      "hon": 8344,
      "Ġtry": 8345,
      "Ġtight": 8346,
      "Ġyag": 8347,
      "ĠmE": 8348,
      "Ġcam": 8349,
      "Ġpom": 8350,
      "Ġpli": 8351,
      "Ġpado": 8352,
      "Ġvia": 8353,
      "ĠVoy": 8354,
      "oose": 8355,
      "ĠEM": 8356,
      "Ġkrox": 8357,
      "Ġfol": 8358,
      "Ġrye": 8359,
      "ĠLuc": 8360,
      "TOc": 8361,
      "ĠÃ©og": 8362,
      "adt": 8363,
      "Ġadj": 8364,
      "ĠWE": 8365,
      "ĠWat": 8366,
      "ĠFI": 8367,
      "ĠexÃ©": 8368,
      "Ġodis": 8369,
      "Ġoiu": 8370,
      "×§×ĺ": 8371,
      "ãĢį": 8372,
      "ĠSome": 8373,
      "Ġsuplome": 8374,
      "ĠÙĦØ§": 8375,
      "Aat": 8376,
      "Em": 8377,
      "Ey": 8378,
      "For": 8379,
      "Ji": 8380,
      "Where": 8381,
      "rum": 8382,
      "Ġooi": 8383,
      "Ġeit": 8384,
      "ĠmÃĥ": 8385,
      "Ġviv": 8386,
      "orl": 8387,
      "ĠVER": 8388,
      "ĠOCD": 8389,
      "ĠXL": 8390,
      "ĠMN": 8391,
      "aluo": 8392,
      "inus": 8393,
      "ĠfÃ©": 8394,
      "ocr": 8395,
      "Ġdip": 8396,
      "Ġyouo": 8397,
      "eop": 8398,
      "ĠNu": 8399,
      "ece": 8400,
      "Ġquank": 8401,
      "ĠTek": 8402,
      "ĠTTÃī": 8403,
      "Ã¡e": 8404,
      "ĠTAKE": 8405,
      "Ġodio": 8406,
      "off": 8407,
      "ĠAeon": 8408,
      "ĠÙħØ¹": 8409,
      "dtv": 8410,
      "AOTI": 8411,
      "Ġcioe": 8412,
      "ĠSouth": 8413,
      "Ġmistm": 8414,
      "230": 8415,
      "ced": 8416,
      "lor": 8417,
      "non": 8418,
      "yoy": 8419,
      "ķı": 8420,
      "Ġiau": 8421,
      "ĠSG": 8422,
      "ĠSut": 8423,
      "Ġgio": 8424,
      "ĠKR": 8425,
      "ĠMod": 8426,
      "ĠMos": 8427,
      "ĠMau": 8428,
      "ĠLib": 8429,
      "ocT": 8430,
      "ĠROV": 8431,
      "Ġlug": 8432,
      "Ġbox": 8433,
      "ache": 8434,
      "eoi": 8435,
      "estio": 8436,
      "Ġ89": 8437,
      "Ġjc": 8438,
      "oUe": 8439,
      "Ø±Ø¨": 8440,
      "ĠTAE": 8441,
      "ĠOUO": 8442,
      "ĠÃīe": 8443,
      "ĠAnf": 8444,
      "Ġopu": 8445,
      "tius": 8446,
      "cca": 8447,
      "ĠCAT": 8448,
      "ĠZe": 8449,
      "ĠpoA": 8450,
      "ought": 8451,
      "ĠArt": 8452,
      "Ġcuoc": 8453,
      "à®¯": 8454,
      "Ġkatika": 8455,
      "Ġtrouble": 8456,
      "Ekk": 8457,
      "Tio": 8458,
      "Tor": 8459,
      "YOV": 8460,
      "dU": 8461,
      "fus": 8462,
      "fow": 8463,
      "rro": 8464,
      "éĢ": 8465,
      "Ġain": 8466,
      "Ġduu": 8467,
      "Ġtes": 8468,
      "Ġtad": 8469,
      "Ġyug": 8470,
      "Ġica": 8471,
      "ĠQee": 8472,
      "Ġ&'": 8473,
      "Ġvete": 8474,
      "Ġswe": 8475,
      "ĠYon": 8476,
      "ĠId": 8477,
      "Ġfs": 8478,
      "Ġqud": 8479,
      "env": 8480,
      "uero": 8481,
      "ĠÃ©j": 8482,
      "Ġdigg": 8483,
      "ĠBag": 8484,
      "vei": 8485,
      "×Ĳ×Ļ×ļ": 8486,
      "ÃīS": 8487,
      "aky": 8488,
      "TEÃĢ": 8489,
      "Ġdieu": 8490,
      "ific": 8491,
      "Ġajo": 8492,
      "Ġkuoo": 8493,
      "Ð°Ð´": 8494,
      "ĠØ¯ÙĪ": 8495,
      "ØŃØ¨": 8496,
      "ĠØ³ÙīØ²": 8497,
      "Ġwait": 8498,
      "Ġfire": 8499,
      "Dv": 8500,
      "GR": 8501,
      "HY": 8502,
      "TÃį": 8503,
      "jux": 8504,
      "mix": 8505,
      "oic": 8506,
      "tion": 8507,
      "woy": 8508,
      "ĠAle": 8509,
      "ĠAof": 8510,
      "ĠATA": 8511,
      "Ġeec": 8512,
      "Ġyooo": 8513,
      "Ġved": 8514,
      "Ġseo": 8515,
      "ĠSoy": 8516,
      "ĠVit": 8517,
      "ĠxU": 8518,
      "ĠMex": 8519,
      "ĠMAL": 8520,
      "Ġwf": 8521,
      "Ġwhe": 8522,
      "Ġfle": 8523,
      "Ġoru": 8524,
      "Ġrli": 8525,
      "ĠPO": 8526,
      "Ġnis": 8527,
      "Ġhob": 8528,
      "TOR": 8529,
      "Ġbos": 8530,
      "tober": 8531,
      "ĠTUB": 8532,
      "Ġ82": 8533,
      "ĠAcad": 8534,
      "ĠØµ": 8535,
      "ĠQUAS": 8536,
      "Ġerro": 8537,
      "Ġever": 8538,
      "ĠTCA": 8539,
      "dbye": 8540,
      "Ã£Ã©": 8541,
      "Ø¹Ùħ": 8542,
      "Ġeigo": 8543,
      "Î¼Î¿": 8544,
      "Ġà¤ķà¤°": 8545,
      "Ġcomes": 8546,
      "Ġkanye": 8547,
      "åĢĭ": 8548,
      "ĠTHREE": 8549,
      "Con": 8550,
      "Gg": 8551,
      "HE": 8552,
      "Koi": 8553,
      "Qou": 8554,
      "fes": 8555,
      "han": 8556,
      "nor": 8557,
      "xl": 8558,
      "ÉĻ": 8559,
      "ĠApp": 8560,
      "Ġyur": 8561,
      "Ġmop": 8562,
      "Ġ\".": 8563,
      "Ġsop": 8564,
      "ĠGos": 8565,
      "ĠGÃī": 8566,
      "ovat": 8567,
      "Ġxol": 8568,
      "Ġguc": 8569,
      "Ġ122": 8570,
      "ĠMam": 8571,
      "Ġria": 8572,
      "eoy": 8573,
      "Ġovra": 8574,
      "ĠWoo": 8575,
      "ĠFE": 8576,
      "ĠTOVTIOY": 8577,
      "Ġino": 8578,
      "enty": 8579,
      "Ġopp": 8580,
      "iovs": 8581,
      "ĠKott": 8582,
      "ĠCUI": 8583,
      "ãĤī": 8584,
      "ÙĩØ§": 8585,
      "Ġ×¢×¨": 8586,
      "Ġ×¢×ĵ": 8587,
      "Ġfear": 8588,
      "Ġdina": 8589,
      "Ġcurio": 8590,
      "Ø·ÙĦ": 8591,
      "ĠEVERYTHING": 8592,
      "ĠÖĩ": 8593,
      "Ġlearned": 8594,
      "JL": 8595,
      "MX": 8596,
      "Ni": 8597,
      "QV": 8598,
      "QY": 8599,
      "ST": 8600,
      "Uy": 8601,
      "bau": 8602,
      "joy": 8603,
      "zor": 8604,
      "å®": 8605,
      "ĠoY": 8606,
      "Ġose": 8607,
      "Ġdri": 8608,
      "ĠAES": 8609,
      "Ġeaa": 8610,
      "Ġ\"-": 8611,
      "Ġpost": 8612,
      "Ġvae": 8613,
      "Ġsem": 8614,
      "Ġsudie": 8615,
      "ĠSax": 8616,
      "ores": 8617,
      "ĠQuool": 8618,
      "ĠTob": 8619,
      "idie": 8620,
      "Ġbes": 8621,
      "Ġbye": 8622,
      "Ġboth": 8623,
      "Ġdiq": 8624,
      "rel": 8625,
      "ĠBio": 8626,
      "Ġroll": 8627,
      "Ġovk": 8628,
      "Ġquote": 8629,
      "ĠFO": 8630,
      "ÙĦØª": 8631,
      "ĠÂ®.": 8632,
      "Ġusce": 8633,
      "×¢×Ĳ": 8634,
      "Ġ1044": 8635,
      "ÃģU": 8636,
      "ĠMaex": 8637,
      "ĠAyer": 8638,
      "ÎºÎ±": 8639,
      "à®¿": 8640,
      "Ġsalon": 8641,
      "ØºØ§": 8642,
      "uowog": 8643,
      "×¢×ł×¢×Ł": 8644,
      "Ġdjs": 8645,
      "ìĦľ": 8646,
      "272": 8647,
      "Ui": 8648,
      "cae": 8649,
      "sot": 8650,
      "ĠTore": 8651,
      "ĠaÃĵ": 8652,
      "Ġted": 8653,
      "Ġtalle": 8654,
      "ĠAgain": 8655,
      "Ġeach": 8656,
      "ĠpU": 8657,
      "atg": 8658,
      "ĠSer": 8659,
      "ĠVir": 8660,
      "ĠVict": 8661,
      "Ġxec": 8662,
      "oox": 8663,
      "ĠIL": 8664,
      "Ġwel": 8665,
      "Ġrus": 8666,
      "Ġhun": 8667,
      "Ġhappy": 8668,
      "idge": 8669,
      "uguk": 8670,
      "reet": 8671,
      "ĠBen": 8672,
      "ĠTIE": 8673,
      "Ġdok": 8674,
      "Ġ×Ĳ×ľ": 8675,
      "Ġmeans": 8676,
      "Ð°ÑĤ": 8677,
      "Ġvoa": 8678,
      "Ġdixluo": 8679,
      "Ġ729": 8680,
      "iko": 8681,
      "Ġido": 8682,
      "ÙĩÙħ": 8683,
      "Ġapi": 8684,
      "Ġpeus": 8685,
      "ffic": 8686,
      "ĠoVg": 8687,
      "ĠCxdb": 8688,
      "ruit": 8689,
      "Õ¸ÖĤÕ©": 8690,
      "ĠPhil": 8691,
      "Ba": 8692,
      "LT": 8693,
      "PT": 8694,
      "how": 8695,
      "lit": 8696,
      "qoy": 8697,
      "Ġapa": 8698,
      "Ġdet": 8699,
      "Ġyis": 8700,
      "Ġyoi": 8701,
      "Ġied": 8702,
      "ĠGlo": 8703,
      "ĠVAS": 8704,
      "Ġxei": 8705,
      "ĠQugu": 8706,
      "Ġgoi": 8707,
      "ĠXes": 8708,
      "ĠML": 8709,
      "ĠfÃ¼r": 8710,
      "Ġqur": 8711,
      "Ġruv": 8712,
      "ĠDave": 8713,
      "etor": 8714,
      "ĠPac": 8715,
      "TOi": 8716,
      "Ġbook": 8717,
      "Ġmmber": 8718,
      "Ġexi": 8719,
      "ivos": 8720,
      "Ġlet": 8721,
      "Ġidle": 8722,
      "Ġ291": 8723,
      "×¤×Ĳ": 8724,
      "Ġxxt": 8725,
      "à¸Ńà¸Ļ": 8726,
      "Ġypx": 8727,
      "pppp": 8728,
      "Ġhmcka": 8729,
      "æľī": 8730,
      "à¸Ĥà¸Ńà¸ĩ": 8731,
      "WY": 8732,
      "ĠTest": 8733,
      "ĠTem": 8734,
      "ĠAya": 8735,
      "Ġped": 8736,
      "Ġsyo": 8737,
      "Ġside": 8738,
      "ĠGW": 8739,
      "ovx": 8740,
      "ĠVIC": 8741,
      "Ġxgx": 8742,
      "ĠEkk": 8743,
      "ĠIP": 8744,
      "ĠMON": 8745,
      "ĠrU": 8746,
      "ĠÂ«(": 8747,
      "ĠRet": 8748,
      "Ġlam": 8749,
      "à¥ª": 8750,
      "Ġà¤ĸ": 8751,
      "elle": 8752,
      "OUX": 8753,
      "ĠÃ³x": 8754,
      "ĠAxy": 8755,
      "eka": 8756,
      "ĠStar": 8757,
      "Ġdvi": 8758,
      "ĠHeal": 8759,
      "ÏĥÏĦ": 8760,
      "Ġdidov": 8761,
      "Ġdlog": 8762,
      "Ġmoney": 8763,
      "Ġanyone": 8764,
      "IDV": 8765,
      "Ã¶tob": 8766,
      "YYYY": 8767,
      "Ġtudiate": 8768,
      "Ġ2777": 8769,
      "770": 8770,
      "Ce": 8771,
      "Die": 8772,
      "bg": 8773,
      "lw": 8774,
      "mas": 8775,
      "oD": 8776,
      "oovo": 8777,
      "put": 8778,
      "uG": 8779,
      "åĴĮ": 8780,
      "æŃ": 8781,
      "Ġcli": 8782,
      "ĠQale": 8783,
      "ĠCG": 8784,
      "ĠCoc": 8785,
      "eser": 8786,
      "ĠGra": 8787,
      "ĠVÃ©": 8788,
      "ĠDS": 8789,
      "ĠDis": 8790,
      "Ġnight": 8791,
      "ocv": 8792,
      "ĠUnd": 8793,
      "Ġyoug": 8794,
      "ubÉĶ": 8795,
      "Ġ85": 8796,
      "ĠHU": 8797,
      "ÙĪØ²": 8798,
      "ãģı": 8799,
      "Ġetg": 8800,
      "ÙĬØª": 8801,
      "Ã¼o": 8802,
      "ĠAxie": 8803,
      "Ġass": 8804,
      "Ġens": 8805,
      "ĠTlig": 8806,
      "Ġamy": 8807,
      "Ġnothing": 8808,
      "Ġids": 8809,
      "ÙĤØª": 8810,
      "Ð¾Ð³": 8811,
      "ĠCxe": 8812,
      "Ġ1006": 8813,
      "ï¼Ĩ": 8814,
      "Ġquoe": 8815,
      "ĠØ¯ÙīÙĨ": 8816,
      "ormes": 8817,
      "Ġfaith": 8818,
      "ìĬ¤": 8819,
      "101": 8820,
      "269": 8821,
      "AW": 8822,
      "Bi": 8823,
      "Not": 8824,
      "dQ": 8825,
      "fA": 8826,
      "sou": 8827,
      "xor": 8828,
      "zen": 8829,
      "¡Į": 8830,
      "ä¾": 8831,
      "Ġtag": 8832,
      "ĠAIO": 8833,
      "Ġeet": 8834,
      "Ġyux": 8835,
      "Ġuii": 8836,
      "ĠGÃĢ": 8837,
      "ĠERA": 8838,
      "Ġqov": 8839,
      "Ġrest": 8840,
      "Ġrrt": 8841,
      "ĠDes": 8842,
      "ĠLR": 8843,
      "ĠUgo": 8844,
      "Ġlov": 8845,
      "ucr": 8846,
      "ĠâĤ¬^": 8847,
      "Ġ)&": 8848,
      "ĠHam": 8849,
      "amen": 8850,
      "Ġwhose": 8851,
      "ĠâĢŀ": 8852,
      "Ġempl": 8853,
      "ÃŃa": 8854,
      "ixe": 8855,
      "Ã¼Ã©": 8856,
      "Ġane": 8857,
      "Ġoper": 8858,
      "tert": 8859,
      "ĠAUi": 8860,
      "ĠZO": 8861,
      "Ġ3988": 8862,
      "Ġmesi": 8863,
      "Ġsoup": 8864,
      "ĠOnly": 8865,
      "Ã¤tub": 8866,
      "Ġguys": 8867,
      "wwwwwwwwwwwwwwww": 8868,
      "ë¡ľ": 8869,
      "499": 8870,
      "Auc": 8871,
      "SO": 8872,
      "bed": 8873,
      "bel": 8874,
      "cU": 8875,
      "cfp": 8876,
      "dV": 8877,
      "gÃ³": 8878,
      "hÃ³": 8879,
      "voc": 8880,
      "wan": 8881,
      "wue": 8882,
      "ìĻ": 8883,
      "Ġaen": 8884,
      "Ġavo": 8885,
      "Ġtyr": 8886,
      "Ġtudio": 8887
    },
    "merges": [
      "Ġ T",
      "Ġ o",
      "Ġ a",
      "Ġ d",
      "Ġ t",
      "Ġ A",
      "Ġ e",
      "Ġ y",
      "Ġ m",
      "Ġ u",
      "Ġ c",
      "Ġ Ċ",
      "Ġ i",
      "o u",
      "Ã ©",
      "Ġ Q",
      "Ġ C",
      "r o",
      "Ġ &",
      "Ġ \"",
      "Ġ Â",
      "Ġ p",
      "e r",
      "Ġ v",
      "Ġ s",
      "Ġ 7",
      "e s",
      "a t",
      "ĠT O",
      "i o",
      "Ġ G",
      "a n",
      "Ġt o",
      "h e",
      "Ġ S",
      "Ġ 6",
      "o r",
      "o t",
      "o v",
      "à ¤",
      "Ġ 0",
      "Ġ Y",
      "Ġ V",
      "Ġ 4",
      "Ġ O",
      "Ġ Ġ",
      "Ġ 3",
      "Ġ x",
      "o o",
      "ĠQ u",
      "Ġ g",
      "Ġ E",
      "Ġ I",
      "Ġ 1",
      "Ġ 2",
      "Ġ K",
      "Ġ X",
      "Ġ M",
      "Ġ Ã",
      "Ġ w",
      "i e",
      "a l",
      "i s",
      "Ġ ×",
      "i n",
      "o n",
      "i c",
      "Ġ k",
      "Ġ f",
      "Ġ -",
      "Ġ q",
      "Ġo r",
      "l e",
      "Ġ r",
      "u o",
      "Ġ D",
      "e n",
      "ĠT o",
      "e t",
      "Ġt he",
      "Ġ L",
      "Ġ P",
      "Ġ â",
      "u e",
      "Ġ n",
      "Ġ (",
      "u s",
      "o c",
      "a r",
      "Ġ h",
      "i d",
      "a y",
      "ĠÂ «",
      "T O",
      "Ġ R",
      "o d",
      "a s",
      "Ĥ ¬",
      "Ġ J",
      "i t",
      "Ġ Ã©",
      "n d",
      "Ġi s",
      "ĠÂ £",
      "Ġ U",
      "Ġ 9",
      "Ġ l",
      "o s",
      "à ¸",
      "io n",
      "0 0",
      "a d",
      "Ġ b",
      "u g",
      "t o",
      "m e",
      "Ġd i",
      "r e",
      "Ġ ,",
      "a c",
      "u c",
      "Ġ B",
      "Ġy ou",
      "e e",
      "u b",
      "à ¥",
      "i g",
      "e o",
      "Ø §",
      "u d",
      "e d",
      "es t",
      "Ġo f",
      "× ķ",
      "o g",
      "ĠT U",
      "o l",
      "u t",
      "Ġâ Ĥ¬",
      "â Ģ",
      "× Ļ",
      "Ġa nd",
      "e x",
      "Ġa d",
      "Ġ )",
      "o y",
      "Ġ ĠĊ",
      "v e",
      "Â «",
      "Ġ N",
      "Ġ 8",
      "Ã ³",
      "Ġ 5",
      "o i",
      "ĠT I",
      "Ġ H",
      "est ion",
      "o e",
      "i a",
      "ĠA c",
      "Ġ .",
      "Ġ ro",
      "Ġo v",
      "Ġ Ø",
      "Ġ j",
      "Ġ W",
      "Ã© Ã©",
      "Ġd o",
      "× Ĳ",
      "ĠĠ ĠĠ",
      "a u",
      "e c",
      "Â £",
      "Ġ à¤",
      "i l",
      "e l",
      "o w",
      "Ã Ģ",
      "Ġo U",
      "a e",
      "Ġt h",
      "u m",
      "âĢ ĭ",
      "ĠQu estion",
      "u r",
      "Ã ł",
      "ĠQ U",
      "ĠT E",
      "a g",
      "Ġ Ù",
      "e m",
      "Ġq u",
      "O U",
      "Ã ī",
      "Ġ F",
      "Ġm m",
      "er e",
      "Â »",
      "a i",
      "in g",
      "o p",
      "ĠÂ »",
      "ĠT e",
      "Ġe x",
      "Ù Ħ",
      "âĢĭ âĢĭ",
      "ĠTO L",
      "Ġy o",
      "×Ļ ×",
      "a m",
      "Ġ7 0",
      "u i",
      "ĠTO V",
      "Ġa l",
      "Ġa t",
      "Ġ z",
      "ĠÃ ł",
      "u a",
      "ĠT h",
      "i v",
      "o m",
      "Ġo t",
      "ĠT T",
      "É Ķ",
      "a k",
      "Ġi t",
      "u x",
      "ĠY ou",
      "e v",
      "×ķ ×",
      "o x",
      "u k",
      "Ã ¡",
      "i m",
      "y y",
      "u n",
      "Ġo n",
      "r a",
      "at e",
      "Ġy e",
      "d i",
      "ĠT X",
      "ĠT he",
      "Ġw h",
      "ĠÂ ®",
      "Ġ $",
      "Ġ Î",
      "Ġa c",
      "a o",
      "Ù Ĩ",
      "â Ĥ¬",
      "Ù ī",
      "a b",
      "0 1",
      "e i",
      "T I",
      "o U",
      "ĠÃ ³",
      "Ġ× Ĳ",
      "ĠTO U",
      "Ġo c",
      "Ġu s",
      "ĠT i",
      "Ġâ Ģ",
      "r i",
      "Ġe m",
      "u l",
      "ð Ł",
      "ðŁ ĩ",
      "Ã Ń",
      "Ġm e",
      "Ġ [",
      "× ¢",
      "Ġ0 0",
      "Ġ he",
      "Ù Ī",
      "ã ģ",
      "a v",
      "t e",
      "Ø ±",
      "Ġi n",
      "à¥ į",
      "ĠT H",
      "a p",
      "ĠT A",
      "ĠQu an",
      "Ġo d",
      "o k",
      "y e",
      "i x",
      "u p",
      "e ro",
      "ĠO U",
      "Ġe t",
      "or e",
      "i r",
      "ĠÃ ī",
      "Ġa u",
      "ĠE x",
      "T E",
      "y o",
      "Ã ĵ",
      "t h",
      "Ġ *",
      "Ù Ĭ",
      "Ã ¼",
      "Ö ¸",
      "ug g",
      "ĠQuestion s",
      "e y",
      "l i",
      "× ¨",
      "Ġ |",
      "Ġm o",
      "Ġu x",
      "Ġt u",
      "Ã©Ã© Ã©Ã©",
      "Ġ ^",
      "Ù ħ",
      "l o",
      "ĠT R",
      "s t",
      "e p",
      "ĠĠ ĠĊ",
      "Î ±",
      "a x",
      "i i",
      "Ġ1 0",
      "ĠA x",
      "A c",
      ". .",
      "Ö ·",
      "a a",
      "T o",
      "s e",
      "Ġo u",
      "a me",
      "Ġa n",
      "ĠT G",
      "ĠA d",
      "u u",
      "c e",
      "9 9",
      "Ġe d",
      "w o",
      "à ¹",
      "O Y",
      "Ġd e",
      "à¤ ¾",
      "Ġ le",
      "c o",
      "Ġo i",
      "n t",
      "T U",
      "en t",
      "Ø ª",
      "p e",
      "o f",
      "Ġa r",
      "t u",
      "Ġa i",
      "Ø ¯",
      "O V",
      "Ð °",
      "Ġd ie",
      "i f",
      "Ã ¶",
      "Î ¹",
      "Ġe r",
      "Ġd u",
      "ĠA n",
      "ĠT u",
      "Ï Ħ",
      "Ġb e",
      "Ġv o",
      "Ġu e",
      "TO L",
      "Î ¿",
      "ĠT V",
      "& &",
      "h o",
      "× ľ",
      "1 1",
      "ugg ugg",
      "ou t",
      "× ĺ",
      "Ġu i",
      "Ġu c",
      "t t",
      "1 0",
      "od e",
      "ro m",
      "Ġc o",
      "ĠG U",
      "g u",
      "Ġa s",
      "A G",
      "Ġ Ð",
      "Ġe n",
      "Ġa re",
      "ro t",
      "Ġe u",
      "ĠT Ãī",
      "g o",
      "Q u",
      "Ġo p",
      "v o",
      "Ġ3 0",
      "e k",
      "t i",
      "Ġo y",
      "Ġf or",
      "Ġ Ø§",
      "e u",
      "âĢĭâĢĭ âĢĭâĢĭ",
      "Ġa U",
      "O L",
      "ĠT l",
      "Ġu l",
      "e a",
      "Ġa m",
      "ĠT ÃĢ",
      "Ġg o",
      "ov e",
      "a ve",
      "Ġo e",
      "ĠTO Y",
      "t s",
      "Ġd ay",
      "Ġe v",
      "' s",
      "g g",
      "Î µ",
      "ĠA u",
      "ĠT C",
      "T H",
      "Ġs a",
      "Ġ4 0",
      "× ¡",
      "uc k",
      "Ġs ay",
      "Ġd b",
      "ðŁĩ ·",
      "o a",
      "Ġdi x",
      "ðŁĩ §",
      "Ġth at",
      "Ġe i",
      "ĠT r",
      "× Ķ",
      "ĠTO I",
      "ðŁĩ§ ðŁĩ·",
      "y a",
      "d e",
      "Ġ7 2",
      "L L",
      "Ġs o",
      "il l",
      "c c",
      "d b",
      "Ġm ore",
      "m m",
      "i k",
      "Ġd io",
      "Û Į",
      "ĠC A",
      "Ø ³",
      "O D",
      "s s",
      "ĠS t",
      "it h",
      "Ġa b",
      "ĠQ A",
      "Ġn ot",
      "ĠG o",
      "Ġk o",
      "p o",
      "T he",
      "le x",
      "t er",
      "e g",
      "' m",
      "ĠA o",
      "Ġo x",
      "Ġwh at",
      "× §",
      "l y",
      "ĠĠ ĠĠĊ",
      "Ġ Õ",
      "u y",
      "Ġd Y",
      "Ġe c",
      "âĢ Ķ",
      "io v",
      "Û ķ",
      "ĠK o",
      "a w",
      "à¤ °",
      "ĠA C",
      "ĠÂ ¶",
      "A M",
      "r y",
      "h at",
      "Ġu o",
      "Ġm y",
      "Ġt i",
      "Ġo b",
      "Ġ2 0",
      "ud i",
      "Ġi d",
      "Ġa x",
      "ĠY OU",
      "Ġu d",
      "ĠK ot",
      "Ġs t",
      "O I",
      "Ġe s",
      "Ġth ere",
      "Ġ :",
      "4 4",
      "Î ½",
      "Ġp u",
      "ĠA G",
      "Ø ¨",
      "Ġ '",
      "oc k",
      "Ġal l",
      "ģ Ħ",
      "g e",
      "h er",
      "c y",
      "an t",
      "c i",
      "Ġ2 00",
      "ar t",
      "ĠĠĠĠ ĠĊ",
      "Ġt wo",
      "b a",
      "7 1",
      "an d",
      "ou r",
      "O T",
      "ĠÃ ģ",
      "l a",
      "Ù ĥ",
      "à¤ ¿",
      "ic h",
      "Ġt ub",
      "2 0",
      "ro v",
      "Ġ2 9",
      "Ġd v",
      "Ġd k",
      "Ġs u",
      "p a",
      "on e",
      "m o",
      "ĠH e",
      "Ġw as",
      "O O",
      "7 0",
      "ĠK od",
      "ĠTO C",
      "c k",
      "Ã ģ",
      "× ĵ",
      "ĠC U",
      "Ġ3 3",
      "Ġto o",
      "c t",
      "Ġo s",
      "ĠTo U",
      "ĠT Y",
      "ã ĥ",
      "ou s",
      "ĠT ov",
      "Ġa e",
      "Ġo o",
      "Ġe y",
      "A C",
      "ĠA U",
      "oo d",
      "Ġd d",
      "c h",
      "ĠQu e",
      "Ġ /",
      "Ï ģ",
      "Ġe o",
      "à¤ ¨",
      "Ï ĥ",
      "Ġd U",
      "ã Ĥ",
      "ig h",
      "ot e",
      "Ġd t",
      "Ġt e",
      "Õ ¡",
      "Ġm l",
      "ĠK or",
      "ĠA l",
      "Ġd id",
      "ĠÃ ¡",
      "r r",
      "ã Ģ",
      "at es",
      "ĠA e",
      "q u",
      "er s",
      "Ġo l",
      "ĠO Y",
      "ĠG e",
      "Ġc u",
      "Ġ2 2",
      "ĠAc y",
      "× ł",
      "Ġâ ģĦ",
      "Ġc v",
      "an y",
      "à¤ ¤",
      "ĠTI O",
      "4 0",
      "A S",
      "i ve",
      "Ġo w",
      "Ù ĩ",
      "ĠA N",
      "T X",
      "or d",
      "Ġf rom",
      "TO U",
      "f e",
      "Ġu y",
      "v a",
      "g a",
      "Ġc i",
      "o b",
      "Ġ6 0",
      "ro s",
      "Ġw ith",
      "TO V",
      "ĠÙ ħ",
      "Ġ4 9",
      "Ġ ;",
      "Ġa p",
      "Ġsa id",
      "ĠC E",
      "oo o",
      "1 6",
      "ĠÃ ĵ",
      "A U",
      "Ġyou r",
      "Ġu p",
      "Ù Ĥ",
      "Ġy y",
      "ĠI t",
      "Ġx o",
      "Ġ× ŀ",
      "ĠC o",
      "Ã© i",
      "es s",
      "Ġp a",
      "× Ł",
      "Ġ Z",
      "ĠâĢ Ķ",
      "2 2",
      "Ġu a",
      "al l",
      "ot t",
      "b er",
      "ĠT c",
      "Ġ Ñ",
      "ic e",
      "D U",
      "× ŀ",
      "à¥ ĭ",
      "at ion",
      "Ġ3 00",
      "ar d",
      "Ġ4 4",
      "an e",
      "Ã į",
      "T T",
      "ot o",
      "oo k",
      "T i",
      "Ġ× ķ",
      "Ã©Ã©Ã©Ã© Ã©Ã©Ã©Ã©",
      "T h",
      "Ġg u",
      "A I",
      "Ġc h",
      "A L",
      "Ġp e",
      "Q U",
      "t y",
      "ĠT v",
      "Ġy es",
      "ĠØ§ ÙĦ",
      "Ġ ?",
      "c u",
      "ĠØ ¨",
      "e w",
      "r ou",
      "Ġ3 8",
      "ĠA nd",
      ") .",
      "Ð ½",
      "Ġh ave",
      "t a",
      "ĠO R",
      "i p",
      "z o",
      "Qu estion",
      "Ġp l",
      "Ġu n",
      "Ġs ub",
      "Ġh o",
      "Ġwh ich",
      "id e",
      "Ġa g",
      "f f",
      "Ġ0 1",
      "Ġ3 9",
      "Ġ× ĺ",
      "Ġ× §",
      "I S",
      "ĠT s",
      "ĠT ot",
      "Ġv e",
      "Ġd ic",
      "ak e",
      "Ġa j",
      "Ġc a",
      "Ġa o",
      "ĠA v",
      "ĠQu b",
      "Ġa uo",
      "ĠC on",
      "× ĳ",
      "ĠÃ© p",
      "A T",
      "Ġ1 6",
      "is t",
      "Ġo V",
      "ĠT ie",
      "n e",
      "Ġ× Ķ",
      "Ġw ill",
      "ut e",
      "Ġr e",
      "0 6",
      "Ï Ģ",
      "Ġu t",
      "Ġp o",
      "Ġ× ĵ",
      "A x",
      "ĠC X",
      "Ñ į",
      "y m",
      "× ©",
      "Ġ7 3",
      "or t",
      "T e",
      "ĠC ode",
      "l u",
      "Ġ7 8",
      "Ġe p",
      "s o",
      "Ġv a",
      "f o",
      "ĠTO O",
      "l d",
      "Î ¯",
      "c a",
      "ro g",
      "à¥ ĩ",
      "er y",
      "ĠX o",
      "ĠR e",
      "Ð ¾",
      "ĠO r",
      "Ġy ov",
      "ãĢ Ĥ",
      "Ġ ðŁĩ§ðŁĩ·",
      "ĠTO S",
      "Ġm ÉĶ",
      "Ġx e",
      "Ġu g",
      "k s",
      "ĠĠĠĠ ĠĠĊ",
      "ou e",
      "à¤ ķ",
      "x x",
      "d s",
      "u v",
      "ĠW hat",
      "ĠC x",
      "n g",
      "Ġ0 9",
      "ĠA A",
      "in e",
      "Ã ľ",
      "&& &&",
      "× Ĵ",
      "4 9",
      "I t",
      "Ġe e",
      "Ġa y",
      "Ġx od",
      "Ġo A",
      "Ġm b",
      "ĠT S",
      "al e",
      "Ġ7 5",
      "ĠX A",
      "y r",
      "ĠTU A",
      "Ġ ]",
      "an s",
      "_ _",
      "ĠTo c",
      "ĠT t",
      "b e",
      "Ġa v",
      "Ġmm m",
      "Ã© s",
      "L U",
      "ĠC O",
      "A R",
      "k o",
      "à¤ ¸",
      "y s",
      "al m",
      "a h",
      "Ġ× ¤",
      "Ġa a",
      "Ï Ĥ",
      "Ġu u",
      "T C",
      "Ã £",
      "d o",
      "à¥ ģ",
      "ĠT y",
      "Ġt r",
      "Ġf o",
      "L O",
      "Ġy u",
      "igh t",
      "D I",
      "Õ¡ Õ",
      "6 6",
      "Û ĩ",
      "i u",
      "Ð »",
      "ĠÙ Ī",
      "t ub",
      "us t",
      "ro r",
      "ou g",
      "ĠS o",
      "Ġa w",
      "Ġe g",
      "Ġi o",
      "à¤ ®",
      "Ġo g",
      "Ġy a",
      "à¤ ¯",
      "C C",
      "ĠA r",
      "Ð ¸",
      "Ø ¹",
      "Õ ¸",
      "Ġro t",
      "Ġ4 3",
      "Ġ6 5",
      "Ġs h",
      "ĠÃ ¼",
      "i b",
      "ĠY o",
      "Ġc x",
      "Ġn o",
      "É Ľ",
      "Â ®",
      "Ã© p",
      "ĠC y",
      "Ġ7 9",
      "k e",
      "Ġt ab",
      "T R",
      "ĠA X",
      "Ø ©",
      "Ġe T",
      "T G",
      "n i",
      "Ġ1 9",
      "io s",
      "× ¤",
      "à¸ Ļ",
      "ug u",
      "p i",
      "ĠTo i",
      "Ġ0 6",
      "Ġi g",
      "E R",
      "ĠG u",
      "Ï ħ",
      "à¸ ²",
      "A Y",
      "Ġc an",
      "Ġ7 1",
      "Ġc r",
      "Ñ Ģ",
      "c r",
      "d v",
      "Ġt w",
      "ĠS u",
      "Ġk u",
      "Ø ²",
      "Ġ ì",
      "Ġ× ľ",
      "p u",
      "T V",
      "Ġq o",
      "ĠâĢ ĭ",
      "Ġ2 6",
      "×ķ ×ķ",
      "Ġe ic",
      "l l",
      "ĠY O",
      "U S",
      "Ø ´",
      "es e",
      "Ġ1 8",
      "us e",
      "ĠØ ª",
      "ĠA s",
      "Ġ4 8",
      "ĠJ e",
      "Ġc on",
      "Ġ à¸",
      "Ġ1 1",
      "× ª",
      "ĠV ol",
      "ĠT ro",
      "Ġc y",
      "an k",
      "ĠR A",
      "ĠT N",
      "Ġd s",
      "Ġ4 5",
      "ĠK oc",
      "Ġ×Ĳ ×Ļ×",
      "c s",
      "ĠO V",
      "Ġ× ©",
      "ĠD e",
      "z z",
      "ĠT Ã©",
      "Ġ1 3",
      "Ġx x",
      "Y ou",
      "Ġi e",
      "r u",
      "ad e",
      "' t",
      "×¢ ×¨",
      "Ġe a",
      "Ġ× ĳ",
      "ĠQ o",
      "Ġd a",
      "r s",
      "ĠG O",
      "in k",
      "Ġ1 00",
      "i y",
      "w w",
      "Ġ× ¢",
      "Ġu b",
      "Ġs ee",
      "Ġ1 4",
      "E S",
      "U T",
      "I C",
      "Ġth is",
      "er i",
      "Ġh im",
      "d t",
      "f i",
      "Ġd h",
      "Ġp i",
      "Ġo uo",
      "Ġb y",
      "Ġm i",
      "ĠT D",
      "Ġg e",
      "ĠTo e",
      "à¸ Ń",
      "A X",
      "ac e",
      "Ġl o",
      "j o",
      "Ġi c",
      "er a",
      "uggugg uggugg",
      "Î »",
      "Ð° Ð",
      "Ġ ë",
      "Ġd E",
      "ro o",
      "er t",
      "ĠT L",
      "ar e",
      "Ġd Ã©",
      "Ġp r",
      "Ġa A",
      "O M",
      "w ay",
      "Ġon e",
      "s w",
      "Ġw e",
      "al k",
      "Ġq i",
      "ĠYou r",
      "ï ¼",
      "ĠT is",
      "Ġr a",
      "D e",
      "ĠT ic",
      "ĠC or",
      "Ġd y",
      "ĠQuan e",
      "ĠG i",
      "it e",
      "Ö Ģ",
      "6 5",
      "I O",
      "c v",
      "n o",
      "n a",
      "3 0",
      "à¤ µ",
      "ĠâĢ ľ",
      "Ġc A",
      "Ï Į",
      "A o",
      "ĠJ U",
      "Ġw ant",
      "ac k",
      "Ġd l",
      "ĠA b",
      "p s",
      "Ù ģ",
      "ro c",
      "ĠG A",
      "x t",
      "Ġa io",
      "Ġro v",
      "Ġe ig",
      "nt il",
      "Ġk m",
      "el l",
      "on g",
      "Ġ1 5",
      "ĠT ou",
      "Ġv i",
      "G U",
      "Ġq uo",
      "Ġd uo",
      "Ġ× Ļ",
      "x y",
      "al al",
      "×ķ× Ł",
      "Ġe A",
      "ĠV T",
      "at o",
      "ĠD o",
      "âĢĭâĢĭâĢĭâĢĭ âĢĭâĢĭâĢĭâĢĭ",
      "à¥ Ģ",
      "m a",
      "Ġo ut",
      "ic o",
      "ud e",
      "Î ·",
      "ĠØ ¦",
      "A d",
      "Ñ ĥ",
      "Ø§ ÙĦ",
      "O E",
      "Ġ0 00",
      "ĠÃ ¶",
      "ĠĠĠĠ ĠĠĠĊ",
      "ĠT P",
      "Ġdo es",
      "ĠA O",
      "Ġy p",
      "if e",
      "ic k",
      "d k",
      "ĠT a",
      "Ö ¼",
      "Ġ2 3",
      "Ġl u",
      "8 8",
      "Ġd W",
      "ĠØ ¯",
      "O S",
      "Î ¼",
      "Ġ ÏĦ",
      "Î± Î¹",
      "ĠS e",
      "Ø§ ÙĨ",
      "ĠÙ Ĭ",
      "Ġm on",
      "Ġu r",
      "Ġn a",
      "ĠTO T",
      "Ġm me",
      "ot i",
      "ĠA S",
      "Ġe st",
      "ĠÃ© m",
      "Ġ6 3",
      "ĠM a",
      "as s",
      "x e",
      "Ġy r",
      "Ġov er",
      "Ġm a",
      "Î ¬",
      "Ġw o",
      "ĠâĢ ĵ",
      "ou se",
      "Ġan y",
      "ĠA R",
      "in t",
      "Ġf e",
      "TO Y",
      "n ow",
      "Õ ¥",
      "ĠL o",
      "p le",
      "Ġ3 5",
      "6 3",
      "à¸ £",
      "Ġe ov",
      "r t",
      "ĠTU O",
      "ĠC T",
      "U X",
      "an a",
      "7 7",
      "ĠA g",
      "k a",
      "ĠTo y",
      "ÙĦ Ùī",
      "p l",
      "A E",
      "ĠL e",
      "à¥ ¤",
      "ĠA a",
      "ĠTO M",
      "Ġv l",
      "ĠÃ ľ",
      "ĠG ov",
      "A V",
      "ar s",
      "Ġy i",
      "ĠQ e",
      "Ġw or",
      "Ġd r",
      "à¤ ²",
      "Ġ4 6",
      "oo l",
      "Ġ3 4",
      "Ġto y",
      "× ĸ",
      "ĠTh o",
      "Ġy x",
      "Ġm u",
      "ĠA LL",
      "oc i",
      "g y",
      "G o",
      "Ġà¤ ķ",
      "Ġwh o",
      "ĠD U",
      "2 4",
      "A s",
      "Ġs e",
      "p p",
      "ĠAc c",
      "9 0",
      "Ġc ou",
      "ĠAn sw",
      "ĠA y",
      "Ġp s",
      "et e",
      "he n",
      "Ð ³",
      "t v",
      "am es",
      "Ġe ro",
      "ĠG v",
      "Ġ70 1",
      "Ġt t",
      "Ġ1 2",
      "O C",
      "Ġm ro",
      "Ġd is",
      "u an",
      "Ġc e",
      "Ġ Ú",
      "Ø Ń",
      "Ġd x",
      "re e",
      "E x",
      "Ġc l",
      "×Ļ ×Ļ×",
      "00 0",
      "z y",
      "Ġs c",
      "Ã© r",
      "K S",
      "ĠQu ad",
      "Ġo h",
      "ĠI n",
      "ĠX e",
      "ĠT li",
      "b o",
      "k k",
      "ec t",
      "E L",
      "Ġm ot",
      "N G",
      "Ġ× Ĵ",
      "Ġdi g",
      "i le",
      "ol d",
      "Ġto v",
      "ĠØ ³",
      "Ġc uo",
      "Ġg a",
      "Ġe l",
      "Ġs y",
      "ĠE A",
      "r us",
      "D o",
      "Ġdi a",
      "ud io",
      "os e",
      "O X",
      "s c",
      "I D",
      "id b",
      "Ġy m",
      "id eo",
      "Ġat e",
      "Ġu ot",
      "Ġ6 9",
      "Õ ¶",
      "ag e",
      "Ġo ov",
      "T Ãī",
      "Ġu ntil",
      "Ġq r",
      "2 5",
      "Ġ !",
      "ou c",
      "à¹ Ī",
      "ĠĠĠĠ ĠĠĠĠĊ",
      "at i",
      "Ġ2 5",
      "t r",
      "Õ «",
      "or i",
      "Ġr i",
      "Ġt ut",
      "Ġab out",
      "ia e",
      "Ġd in",
      "Ġs p",
      "A O",
      "ĠG s",
      "Ġy s",
      "Î º",
      "Ġg ov",
      "à¸ ±",
      "Ġsu re",
      "ar y",
      "Ã© v",
      "Ö Ĥ",
      "Ġg ive",
      "T A",
      "Ġt v",
      "m i",
      "ĠQu o",
      "et t",
      "Ġy og",
      "Ġp uo",
      "ĠX X",
      "ĠC a",
      "Ġl ame",
      "ro w",
      "ĠU p",
      "Ġp at",
      "ĠY e",
      "ĠM A",
      "ĠO y",
      "Ġd V",
      "Ġc U",
      "Ġo a",
      "Ġu ou",
      "Ġc od",
      "× Ŀ",
      "E A",
      "l uo",
      "Ø§ Ø±",
      "Ġp ut",
      "ĠÙ ĥ",
      "à ®",
      "in d",
      "ĠÎ µ",
      "c p",
      "ĠT ig",
      "oo oo",
      "ĠTo l",
      "Ġp x",
      "en s",
      ".. ..",
      "ĠC u",
      "ĠB e",
      "ë ĭ",
      "Ġv u",
      "ĠK e",
      "Ġml om",
      "à¤ Ĥ",
      "ĠG uo",
      "as t",
      "ac h",
      "T D",
      "ĠT f",
      "Ġm an",
      "ĠTh ere",
      "Ġ2 4",
      "Ġu li",
      "i z",
      "um m",
      "a U",
      "ĠAN D",
      "p er",
      "x o",
      "Ġ à¥",
      "Ġc Ãł",
      "ou o",
      "ĠO L",
      "ĠT Ãĵ",
      "Ġd on",
      "w e",
      "A e",
      "A n",
      "io t",
      "Ġo T",
      "Ġt y",
      "Ġs up",
      "al le",
      "ar i",
      "b i",
      "Ñ ģ",
      "ĠM o",
      "Ġu k",
      "as e",
      "d d",
      "ĠO D",
      "ĠĠĠĠ ĠĠĠĠĠĊ",
      "Ġm ay",
      "à¹ Ģ",
      "ĠTh is",
      "Ġo k",
      "an o",
      "Ġ& &",
      "ĠG V",
      "6 9",
      "ĠV o",
      "×ķ ×Ĳ",
      "ol o",
      "Ġ0 2",
      "Ġz o",
      "ĠC r",
      "ik e",
      "Ġe uo",
      "x a",
      "Ġad d",
      "uc h",
      "ĠÎ º",
      "y ou",
      "v es",
      "oo n",
      "L E",
      "ie n",
      "âĢĶ âĢĶ",
      "t ov",
      "ĠE T",
      "Ġdo x",
      "p or",
      "ĠM ar",
      "Ġà¤ ¸",
      "uc t",
      "ĠP Y",
      "op e",
      "E T",
      "at her",
      "Ġ6 1",
      "ì Ŀ",
      "Ġu A",
      "er m",
      "O K",
      "Ġu nd",
      "ĠTI U",
      "Ġp ac",
      "ĠG g",
      "Ø ¬",
      "Ġt ue",
      "io y",
      "ĠC h",
      "ĠTO R",
      "Ġh as",
      "ĠJ i",
      "Î Ń",
      "ĠE m",
      "id i",
      "Ġa ie",
      "Ġm ov",
      "Ġe X",
      "ĠG y",
      "Ð ´",
      "Ġe U",
      "ĠC l",
      "Ã© ic",
      "ĠÃ© s",
      "à¸² à¸",
      "ĠÃ© g",
      "Ġi m",
      "ĠQ i",
      "ro n",
      "ĠTT L",
      "ĠC B",
      "Ġot l",
      "2 3",
      "ĠK oi",
      "o Y",
      "ĠS U",
      "0 4",
      "Ġo ue",
      "Ġg uo",
      "ud ie",
      "io r",
      "C Y",
      "Ġm p",
      "Ġq ue",
      "Ġt a",
      "O A",
      "q ue",
      "Ñ Ĥ",
      "ĠTE A",
      "l es",
      "Ġ Ïĥ",
      "Ġ7 7",
      "ĠC H",
      "Ġd ou",
      "Ġo j",
      "ĠA T",
      "à¤ ¹",
      "ĠM art",
      "ĠTe a",
      "is s",
      "c ov",
      "ĠQu eo",
      "Ġt uk",
      "Ġx d",
      "ad o",
      "Ã¶ to",
      ". \"",
      "Û Ĳ",
      "Ġo ur",
      "uc e",
      "E E",
      "ro y",
      "Ġc t",
      "Ġp A",
      "Ġl a",
      "g s",
      "Ġp y",
      "I G",
      "2 9",
      "R A",
      "Ġc s",
      "Ġq e",
      "ĠG c",
      "M M",
      "ĠQ a",
      "oc e",
      "ĠA m",
      "Ġi f",
      "ĠK g",
      "Ġc d",
      "Ġe oe",
      "ĠTT A",
      "O r",
      "ĠKor k",
      "ĠT rot",
      "Õ¸ ÖĤ",
      "h i",
      "A v",
      "Ġt g",
      "ĠT or",
      "Ġm x",
      "Ġg i",
      "ĠF or",
      "ic i",
      "ĠTo s",
      "ĠR ep",
      "I T",
      "Ġa ud",
      "at t",
      "ro i",
      "Ġh i",
      "Ġb et",
      "Ġo ie",
      "ĠP l",
      "Ġy d",
      "Ġ7 6",
      "at er",
      "b ÉĶ",
      "ĠT TOL",
      "b s",
      "Ġc ub",
      "ĠL U",
      "Ġsay s",
      "Question s",
      "Ġo ot",
      "ĠV O",
      "Ġx ot",
      "__ __",
      "Ġk ub",
      "a f",
      "Ġa f",
      "ĠS y",
      "g i",
      "Ġ6 6",
      "p x",
      "Ġm r",
      "Ġm Ã©",
      "ĠE o",
      "to y",
      "Ġ7 00",
      "Ġ9 9",
      "C T",
      "or m",
      "à¹Ģ à¸",
      "Ġy v",
      "ĠT x",
      "an g",
      "ĠG t",
      "1 9",
      "ĠA L",
      "Ġv og",
      "Ġ0 7",
      "TO I",
      "D Y",
      "ĠE n",
      "ro e",
      "ĠTO t",
      "Ġp eo",
      "at a",
      "b p",
      "Ġmm mm",
      "Ġd n",
      "ĠK a",
      "A A",
      "ab ÉĶ",
      "Ã©Ã©Ã©Ã©Ã©Ã©Ã©Ã© Ã©Ã©Ã©Ã©Ã©Ã©Ã©Ã©",
      "ĠI s",
      "ĠO T",
      "it o",
      "b y",
      "ĠÙ Ħ",
      "à¤ ª",
      "Ġc ot",
      "Ġv y",
      "Ġg ood",
      "Y Y",
      "Ġo ed",
      "ĠT w",
      "Ġy c",
      "ĠA M",
      "et o",
      "d a",
      "ģ à¸",
      "ĠJ o",
      "Ġad i",
      "ĠTU S",
      "ĠY a",
      "ĠC V",
      "ĠA D",
      "Ã© t",
      "ĠTE L",
      "ĠT ex",
      "g ov",
      "Ġn e",
      "ĠM e",
      "yy y",
      "ĠT to",
      "Ġv el",
      "Ġà¤ ħ",
      "Ġd L",
      "Ġc oc",
      "ĠL E",
      "Ġh ouse",
      "Ġ× ¡",
      "d y",
      "Ġe ie",
      "ĠU A",
      "Ġà¤ ª",
      "Ġu ie",
      "Ġ3 6",
      "ur a",
      "ĠÐ ±",
      "&&&& &&&&",
      "Ġo m",
      "an an",
      "Ġâ Ĥ",
      "Ġn ame",
      "ĠS c",
      "ĠÙ Ĥ",
      "p t",
      "Ġl i",
      "ĠL A",
      "T u",
      "X A",
      "TO S",
      "ĠTA I",
      "c l",
      "ĠV ideo",
      "×ķ× ª",
      "Ġk e",
      "t g",
      "l og",
      "Î¿ Ïħ",
      "r es",
      "Ġe at",
      "ro x",
      "l ow",
      "Ã³ s",
      "ĠâĢĭ âĢĭ",
      "p os",
      "Ġu oi",
      "ĠM y",
      "S o",
      "ov o",
      "I U",
      "Ġg x",
      "h ere",
      "ĠA f",
      "Ġi a",
      "ĠO i",
      "ĠU T",
      "Ġu at",
      "t he",
      "Ġa ui",
      "I I",
      "ĠQu y",
      "ĠTT C",
      "Ġso me",
      "Ġ× ¦",
      "TO C",
      "Ġof o",
      "Ġà¤ ¤",
      "ĠE U",
      "ĠA B",
      "Ġp ot",
      "×§ ×¡",
      "ĠT ee",
      "à¹ ī",
      "Ġa T",
      "ĠO v",
      "Ġu di",
      "d u",
      "Ġhe ad",
      "ĠS h",
      "Ã¶ tub",
      "ĠØ £",
      "Ã¶ t",
      "O N",
      "ov s",
      "ay s",
      "Ġti me",
      "ĠO h",
      "al a",
      "ord ing",
      "Ã³ t",
      "ok e",
      "O R",
      "od i",
      "Ã³ n",
      "Ġm eo",
      "uo s",
      "to g",
      "Ġv ou",
      "à¸ ĩ",
      "Ġg ame",
      "\" .",
      "os t",
      "à¸ µ",
      "1 4",
      "Ã© m",
      "Ø³ Øª",
      "ĠT W",
      "Ġm es",
      "ĠA E",
      "ĠN a",
      "r ie",
      "D A",
      "ĠÙ Ĩ",
      "s i",
      "Ġt ou",
      "k er",
      "Ġv ot",
      "Ġv ov",
      "Ġa ur",
      "Ġe io",
      "99 9",
      "ÉĽ ck",
      "L o",
      "ĠY A",
      "ĠT eo",
      "Ġe me",
      "Ġo ui",
      "Ġs al",
      "v i",
      "ĠÙ ĩ",
      "j e",
      "b b",
      "Ġà¤ ®",
      "Ġex e",
      "S t",
      "Ġthe y",
      "r et",
      "Ġc ar",
      "Ú Ń",
      "Ġr v",
      "Ġe to",
      "Ï ī",
      "Ø ®",
      "Ġu v",
      "Ġh m",
      "Ġa k",
      "oc t",
      "Ġ ÏĢ",
      "ĠC e",
      "ĠG r",
      "Ġd A",
      "ĠØ ¹",
      "ĠQU U",
      "Ġ×Ĳ ×ķ",
      "Ġr ate",
      "ed i",
      "e A",
      "Ġe ot",
      "ĠD em",
      "× Ĺ",
      "Ġo io",
      "ĠC ot",
      "ĠV ue",
      "S U",
      "en e",
      "ĠAnsw ers",
      "Ġ× ĸ",
      "Ã© n",
      "Ġa ue",
      "S e",
      "d r",
      "à¤ ĥ",
      "ĠA V",
      "Ġe ue",
      "Ġi v",
      "ou ld",
      "Ġd oy",
      "H e",
      "ĠTR U",
      "ĠQu x",
      "an i",
      "Ġk now",
      "Ġo di",
      "ĠW o",
      "× Ľ",
      "Ġx a",
      "uo l",
      "Ġt ie",
      "Ġi p",
      "z a",
      "Ġm ou",
      "Ã³ i",
      "7 2",
      "h h",
      "ĠT io",
      "Ġa M",
      "Ġc p",
      "Ġl Ãł",
      "Ġi i",
      "Ð ¹",
      "ĠTO i",
      "Ġs i",
      "×Ļ× Ŀ",
      "Q A",
      "Ì ģ",
      "ĠM ag",
      "on s",
      "ug ug",
      "N C",
      "Ġ0 4",
      "oc o",
      "ĠU u",
      "E Y",
      "a ue",
      "Ġc ode",
      "à¤ Ł",
      "Ġx or",
      "Ġi x",
      "ĠL em",
      "A nd",
      "Û ĭ",
      "Ġc ur",
      "s a",
      "Ġà¤ µ",
      "of th",
      "Ã© g",
      "Ġv h",
      "Ġd it",
      "C o",
      "h y",
      "ĠK A",
      "T ot",
      "] .",
      "Ġd vo",
      "ĠTo g",
      "d l",
      "Ġ Ìģ",
      "ĠO A",
      "ĠTOL L",
      "ĠT ec",
      "ĠV y",
      "ĠÃ Ģ",
      "Ġ× ¨",
      "Ã© iv",
      "d io",
      "h a",
      "ĠA or",
      "Ġu oc",
      "Ġc ov",
      "A u",
      "d n",
      ". )",
      "ĠO I",
      "A a",
      "ĠT B",
      "un e",
      "Ġd en",
      "g x",
      "Ã ĥ",
      "ĠC I",
      "ĠC Y",
      "Ġh ow",
      "ĠB U",
      "ĠT g",
      "ĠG a",
      "ac t",
      "o V",
      "ĠT p",
      "Ġm oo",
      "ĠT es",
      "ad a",
      "Ò ¯",
      "ÙĨ Ùī",
      "Ø ¦",
      "Ġe ui",
      "ĠV u",
      "ĠK ok",
      "le o",
      "Ġyo x",
      "Ġd g",
      "R O",
      "ĠE l",
      "Ġi ov",
      "ĠJ u",
      "Ġ5 00",
      "in s",
      "7 8",
      "ĠT ue",
      "ĠT wo",
      "Ġm ex",
      "Ġro e",
      "ro om",
      "Ï ĩ",
      "Ġthe m",
      "ĠEx x",
      "3 3",
      "Ġy et",
      "ĠG od",
      "ĠV a",
[...]
