{
  "version": "1.0",
  "truncation": null,
  "padding": null,
  "added_tokens": [
    {
      "id": 0,
      "content": "<|endoftext|>",
      "single_word": false,
      "lstrip": false,
      "rstrip": false,
      "normalized": false,
      "special": true
    }
  ],
  "normalizer": null,
  "pre_tokenizer": {
    "type": "ByteLevel",
    "add_prefix_space": false,
    "trim_offsets": true,
    "use_regex": true
  },
  "post_processor": {
    "type": "ByteLevel",
    "add_prefix_space": true,
    "trim_offsets": true,
    "use_regex": true
  },
  "decoder": {
    "type": "ByteLevel",
    "add_prefix_space": true,
    "trim_offsets": true,
    "use_regex": true
  },
  "model": {
    "type": "BPE",
    "dropout": null,
    "unk_token": null,
    "continuing_subword_prefix": null,
    "end_of_word_suffix": null,
    "fuse_unk": false,
    "vocab": {
      "<|endoftext|>": 0,
      "!": 1,
      "\"": 2,
      "#": 3,
      "$": 4,
      "%": 5,
      "&": 6,
      "'": 7,
      "(": 8,
      ")": 9,
      "*": 10,
      "+": 11,
      ",": 12,
      "-": 13,
      ".": 14,
      "/": 15,
      "0": 16,
      "1": 17,
      "2": 18,
      "3": 19,
      "4": 20,
      "5": 21,
      "6": 22,
      "7": 23,
      "8": 24,
      "9": 25,
      ":": 26,
      ";": 27,
      "<": 28,
      "=": 29,
      ">": 30,
      "?": 31,
      "@": 32,
      "A": 33,
      "B": 34,
      "C": 35,
      "D": 36,
      "E": 37,
      "F": 38,
      "G": 39,
      "H": 40,
      "I": 41,
      "J": 42,
      "K": 43,
      "L": 44,
      "M": 45,
      "N": 46,
      "O": 47,
      "P": 48,
      "Q": 49,
      "R": 50,
      "S": 51,
      "T": 52,
      "U": 53,
      "V": 54,
      "W": 55,
      "X": 56,
      "Y": 57,
      "Z": 58,
      "[": 59,
      "\\": 60,
      "]": 61,
      "^": 62,
      "_": 63,
      "`": 64,
      "a": 65,
      "b": 66,
      "c": 67,
      "d": 68,
      "e": 69,
      "f": 70,
      "g": 71,
      "h": 72,
      "i": 73,
      "j": 74,
      "k": 75,
      "l": 76,
      "m": 77,
      "n": 78,
      "o": 79,
      "p": 80,
      "q": 81,
      "r": 82,
      "s": 83,
      "t": 84,
      "u": 85,
      "v": 86,
      "w": 87,
      "x": 88,
      "y": 89,
      "z": 90,
      "{": 91,
      "|": 92,
      "}": 93,
      "~": 94,
      "¡": 95,
      "¢": 96,
      "£": 97,
      "¤": 98,
      "¥": 99,
      "¦": 100,
      "§": 101,
      "¨": 102,
      "©": 103,
      "ª": 104,
      "«": 105,
      "¬": 106,
      "®": 107,
      "¯": 108,
      "°": 109,
      "±": 110,
      "²": 111,
      "³": 112,
      "´": 113,
      "µ": 114,
      "¶": 115,
      "·": 116,
      "¸": 117,
      "¹": 118,
      "º": 119,
      "»": 120,
      "¼": 121,
      "½": 122,
      "¾": 123,
      "¿": 124,
      "À": 125,
      "Á": 126,
      "Â": 127,
      "Ã": 128,
      "Ä": 129,
      "Å": 130,
      "Æ": 131,
      "Ç": 132,
      "È": 133,
      "É": 134,
      "Ê": 135,
      "Ë": 136,
      "Ì": 137,
      "Í": 138,
      "Î": 139,
      "Ï": 140,
      "Ð": 141,
      "Ñ": 142,
      "Ò": 143,
      "Ó": 144,
      "Ô": 145,
      "Õ": 146,
      "Ö": 147,
      "×": 148,
      "Ø": 149,
      "Ù": 150,
      "Ú": 151,
      "Û": 152,
      "Ü": 153,
      "Ý": 154,
      "Þ": 155,
      "ß": 156,
      "à": 157,
      "á": 158,
      "â": 159,
      "ã": 160,
      "ä": 161,
      "å": 162,
      "æ": 163,
      "ç": 164,
      "è": 165,
      "é": 166,
      "ê": 167,
      "ë": 168,
      "ì": 169,
      "í": 170,
      "î": 171,
      "ï": 172,
      "ð": 173,
      "ñ": 174,
      "ò": 175,
      "ó": 176,
      "ô": 177,
      "õ": 178,
      "ö": 179,
      "÷": 180,
      "ø": 181,
      "ù": 182,
      "ú": 183,
      "û": 184,
      "ü": 185,
      "ý": 186,
      "þ": 187,
      "ÿ": 188,
      "Ā": 189,
      "ā": 190,
      "Ă": 191,
      "ă": 192,
      "Ą": 193,
      "ą": 194,
      "Ć": 195,
      "ć": 196,
      "Ĉ": 197,
      "ĉ": 198,
      "Ċ": 199,
      "ċ": 200,
      "Č": 201,
      "č": 202,
      "Ď": 203,
      "ď": 204,
      "Đ": 205,
      "đ": 206,
      "Ē": 207,
      "ē": 208,
      "Ĕ": 209,
      "ĕ": 210,
      "Ė": 211,
      "ė": 212,
      "Ę": 213,
      "ę": 214,
      "Ě": 215,
      "ě": 216,
      "Ĝ": 217,
      "ĝ": 218,
      "Ğ": 219,
      "ğ": 220,
      "Ġ": 221,
      "ġ": 222,
      "Ģ": 223,
      "ģ": 224,
      "Ĥ": 225,
      "ĥ": 226,
      "Ħ": 227,
      "ħ": 228,
      "Ĩ": 229,
      "ĩ": 230,
      "Ī": 231,
      "ī": 232,
      "Ĭ": 233,
      "ĭ": 234,
      "Į": 235,
      "į": 236,
      "İ": 237,
      "ı": 238,
      "Ĳ": 239,
      "ĳ": 240,
      "Ĵ": 241,
      "ĵ": 242,
      "Ķ": 243,
      "ķ": 244,
      "ĸ": 245,
      "Ĺ": 246,
      "ĺ": 247,
      "Ļ": 248,
      "ļ": 249,
      "Ľ": 250,
      "ľ": 251,
      "Ŀ": 252,
      "ŀ": 253,
      "Ł": 254,
      "ł": 255,
      "Ń": 256,
      "Ġt": 257,
      "Ġa": 258,
      "he": 259,
      "in": 260,
      "Ġw": 261,
      "re": 262,
      "Ġs": 263,
      "ou": 264,
      "Ġthe": 265,
      "on": 266,
      "ha": 267,
      "Ġi": 268,
      "er": 269,
      "Ġm": 270,
      "Ġb": 271,
      "ĠI": 272,
      "ing": 273,
      "Ġc": 274,
      "en": 275,
      "85": 276,
      "76": 277,
      "or": 278,
      "Ġto": 279,
      "Ġd": 280,
      "Ġf": 281,
      "06": 282,
      "an": 283,
      "71": 284,
      "Ġp": 285,
      "48": 286,
      "ll": 287,
      "Ġl": 288,
      "Ġo": 289,
      "es": 290,
      "51": 291,
      "Ġan": 292,
      "Ġy": 293,
      "ed": 294,
      "79": 295,
      "hat": 296,
      "st": 297,
      "it": 298,
      "Ġn": 299,
      "29": 300,
      "45": 301,
      "at": 302,
      "22": 303,
      "Ġyou": 304,
      "Ġg": 305,
      "om": 306,
      "Ġin": 307,
      "80": 308,
      "Ġof": 309,
      "Ġand": 310,
      "31": 311,
      "is": 312,
      "Ġbe": 313,
      "ve": 314,
      "ar": 315,
      "ot": 316,
      "Ġth": 317,
      "Ġit": 318,
      "le": 319,
      "41": 320,
      "Ġis": 321,
      "ow": 322,
      "Ġe": 323,
      "70": 324,
      "61": 325,
      "72": 326,
      "Ġha": 327,
      "Ġthat": 328,
      "99": 329,
      "74": 330,
      "al": 331,
      "as": 332,
      "ĠT": 333,
      "ic": 334,
      "âĢ": 335,
      "56": 336,
      "Ġh": 337,
      "35": 338,
      "se": 339,
      "ke": 340,
      "Ġre": 341,
      "ld": 342,
      "ut": 343,
      "ay": 344,
      "et": 345,
      "62": 346,
      "051": 347,
      "id": 348,
      "Ġhe": 349,
      "Ġon": 350,
      "ver": 351,
      "ion": 352,
      "94": 353,
      "Ġu": 354,
      "98": 355,
      "976": 356,
      "Ġli": 357,
      "ly": 358,
      "798": 359,
      "806": 360,
      "7198": 361,
      "70976": 362,
      "627198": 363,
      "051627198": 364,
      "806051627198": 365,
      "709760": 366,
      "806051627198709760": 367,
      "ED": 368,
      "ac": 369,
      "11": 370,
      "gh": 371,
      "Ġme": 372,
      "55": 373,
      "Ġwe": 374,
      "65": 375,
      "ĠA": 376,
      "Ġst": 377,
      "Ġfor": 378,
      "ent": 379,
      "ro": 380,
      "Ġk": 381,
      "im": 382,
      "am": 383,
      "00": 384,
      "5529": 385,
      "756": 386,
      "33": 387,
      "Ġnot": 388,
      "out": 389,
      "oo": 390,
      "8585": 391,
      "7566": 392,
      "855529": 393,
      "7611": 394,
      "85857566": 395,
      "8555297611": 396,
      "855529761185857566": 397,
      "all": 398,
      "Ġare": 399,
      "nd": 400,
      "ad": 401,
      "Ġwas": 402,
      "âĢĻ": 403,
      "ir": 404,
      "Ġdo": 405,
      "ould": 406,
      "ill": 407,
      "ĠThe": 408,
      "ith": 409,
      "Ġ[": 410,
      "7106": 411,
      "'s": 412,
      "'t": 413,
      "ust": 414,
      "ĠS": 415,
      "484": 416,
      "2261": 417,
      "7982261": 418,
      "94484": 419,
      "067982261": 420,
      "7106067982261": 421,
      "710606798226194484": 422,
      "Ġhave": 423,
      "9985": 424,
      "34": 425,
      "Ġmy": 426,
      "Ġj": 427,
      "ct": 428,
      "ĠW": 429,
      "op": 430,
      "20": 431,
      "ol": 432,
      "ri": 433,
      "Ġwith": 434,
      "315": 435,
      "ce": 436,
      "Ġlike": 437,
      "Ġthis": 438,
      "ght": 439,
      "Ġas": 440,
      "ch": 441,
      "88": 442,
      "ee": 443,
      "Ġthey": 444,
      "ome": 445,
      "92": 446,
      "82": 447,
      "Ġwh": 448,
      "Ġbut": 449,
      "Ġcan": 450,
      "36": 451,
      "her": 452,
      "90": 453,
      "729": 454,
      "77": 455,
      "Ġne": 456,
      "hing": 457,
      "Ġmo": 458,
      "ally": 459,
      "..": 460,
      "CT": 461,
      "Ġ\"": 462,
      "ant": 463,
      "RED": 464,
      "3580": 465,
      "ACT": 466,
      "REDACT": 467,
      "REDACTED": 468,
      "345": 469,
      "Ġkn": 470,
      "46": 471,
      "ĠH": 472,
      "81": 473,
      "ĠĠ": 474,
      "ĠY": 475,
      "Ġsu": 476,
      "456": 477,
      "459": 478,
      "Ġab": 479,
      "ĠB": 480,
      "Ġal": 481,
      "488": 482,
      "one": 483,
      "751": 484,
      "Ġor": 485,
      "Ġso": 486,
      "Ġwhat": 487,
      "Ġwor": 488,
      "Ġjust": 489,
      "ra": 490,
      "Ġv": 491,
      "Ġde": 492,
      "56488": 493,
      "5648879": 494,
      "7465": 495,
      "99855648879": 496,
      "31599855648879": 497,
      "746531599855648879": 498,
      "ter": 499,
      "ge": 500,
      "ess": 501,
      "us": 502,
      "Ġall": 503,
      "Ġknow": 504,
      "802": 505,
      "48802": 506,
      "34548802": 507,
      "7648": 508,
      "2934548802": 509,
      "412934548802": 510,
      "82412934548802": 511,
      "824129345488027648": 512,
      "ĠM": 513,
      "ation": 514,
      "75": 515,
      "il": 516,
      "32": 517,
      "780": 518,
      "ur": 519,
      "ink": 520,
      "725": 521,
      "Ġyour": 522,
      "pp": 523,
      "Ġat": 524,
      "ea": 525,
      "un": 526,
      "748": 527,
      "ind": 528,
      "Ġgo": 529,
      "76780": 530,
      "79748": 531,
      "7279748": 532,
      "74725": 533,
      "767804": 534,
      "7279748767804": 535,
      "747257279748767804": 536,
      "ĠIt": 537,
      "95": 538,
      "Ġex": 539,
      "Ġcon": 540,
      "ers": 541,
      "906": 542,
      "um": 543,
      "ie": 544,
      "ul": 545,
      "ĠĊ": 546,
      "eop": 547,
      "Ġwould": 548,
      "300": 549,
      "Ġdon": 550,
      "eople": 551,
      "ĠD": 552,
      "est": 553,
      "Ġma": 554,
      "rom": 555,
      "801": 556,
      "Ġif": 557,
      "Ġsh": 558,
      "Ġtr": 559,
      "our": 560,
      "very": 561,
      "han": 562,
      "ig": 563,
      "ĠN": 564,
      "Ġwill": 565,
      "Ġone": 566,
      "Ġpeople": 567,
      "6136": 568,
      "Ġwhe": 569,
      "3151": 570,
      "996136": 571,
      "729996136": 572,
      "729996136459": 573,
      "413151": 574,
      "413151729996136459": 575,
      "6577": 576,
      "Ġabout": 577,
      "13580": 578,
      "226577": 579,
      "79813580": 580,
      "456226577": 581,
      "798135808": 582,
      "456226577798135808": 583,
      "ĠC": 584,
      "890": 585,
      "ven": 586,
      "nt": 587,
      "--": 588,
      "ame": 589,
      "Ġ@": 590,
      "fe": 591,
      "art": 592,
      "ate": 593,
      "and": 594,
      "ĠP": 595,
      "end": 596,
      "ĠO": 597,
      "9288": 598,
      "76801": 599,
      "5194": 600,
      "22890": 601,
      "928876801": 602,
      "5194928876801": 603,
      "519492887680122890": 604,
      "Ġsome": 605,
      "Ġthink": 606,
      "ck": 607,
      "ðŁ": 608,
      "19": 609,
      "ĠL": 610,
      "ain": 611,
      "Ġthem": 612,
      "Ġpro": 613,
      "Ġfrom": 614,
      "au": 615,
      "em": 616,
      "'m": 617,
      "Ġr": 618,
      "ab": 619,
      "os": 620,
      "072": 621,
      "002": 622,
      "14": 623,
      "<@": 624,
      "ime": 625,
      "09": 626,
      "ood": 627,
      "Ġcom": 628,
      "Ġno": 629,
      "ĠR": 630,
      "ĠE": 631,
      "995": 632,
      "if": 633,
      "Ġany": 634,
      "ist": 635,
      "Ġup": 636,
      "Ġsee": 637,
      "Ġ@<@": 638,
      "od": 639,
      "Ġint": 640,
      "ight": 641,
      "50": 642,
      "331": 643,
      "ive": 644,
      "Ġsp": 645,
      "ity": 646,
      "ide": 647,
      "Ġthere": 648,
      "red": 649,
      "471": 650,
      "Ġpl": 651,
      "Ġout": 652,
      "633": 653,
      "7971": 654,
      "20471": 655,
      "331072": 656,
      "6337971": 657,
      "204716337971": 658,
      "204716337971331072": 659,
      "el": 660,
      "ĠG": 661,
      "Ġget": 662,
      "Ġthing": 663,
      "king": 664,
      "ause": 665,
      "ell": 666,
      "Ġher": 667,
      "ough": 668,
      "##": 669,
      "34906": 670,
      "2970": 671,
      "qu": 672,
      "Ġtime": 673,
      "ack": 674,
      "05": 675,
      "Ġus": 676,
      "Ġmore": 677,
      "712": 678,
      "285": 679,
      "be": 680,
      "8145": 681,
      "834906": 682,
      "995285": 683,
      "8145995285": 684,
      "8349068145995285": 685,
      "834906814599528519": 686,
      "âĢľ": 687,
      "âĢĿ": 688,
      "ĠF": 689,
      "Ġwho": 690,
      "871": 691,
      "227": 692,
      "75114": 693,
      "2970871": 694,
      "227712": 695,
      "75114227712": 696,
      "297087175114227712": 697,
      "pt": 698,
      "91": 699,
      "ĠYou": 700,
      "ong": 701,
      "434": 702,
      "Ġdid": 703,
      "ther": 704,
      "84": 705,
      "Ġhow": 706,
      "Ġam": 707,
      "Ġen": 708,
      "ore": 709,
      "ine": 710,
      "ĠðŁ": 711,
      "ear": 712,
      "Ġwant": 713,
      "ound": 714,
      "746": 715,
      "The": 716,
      "Ġbec": 717,
      "30": 718,
      "Ġby": 719,
      "Ġshe": 720,
      "ure": 721,
      "Ġlo": 722,
      "ort": 723,
      "Ġtheir": 724,
      "Ġwhen": 725,
      "ect": 726,
      "omet": 727,
      "ps": 728,
      "Ġlol": 729,
      "953": 730,
      "9751": 731,
      "4150": 732,
      "99854150": 733,
      "746953": 734,
      "9751746953": 735,
      "975174695399854150": 736,
      "ies": 737,
      "th": 738,
      "ec": 739,
      "ag": 740,
      "ĠAnd": 741,
      "Ġman": 742,
      "Ġevery": 743,
      "ast": 744,
      "Ġim": 745,
      "Ġother": 746,
      "ep": 747,
      "226": 748,
      "Ġsa": 749,
      "03": 750,
      "44": 751,
      "Ġsomet": 752,
      "Ġhis": 753,
      "ays": 754,
      "3245": 755,
      "61434": 756,
      "7461434": 757,
      "353245": 758,
      "22648": 759,
      "7461434353245": 760,
      "746143435324522648": 761,
      "ĠThat": 762,
      "ook": 763,
      "Ġhad": 764,
      "Ġwere": 765,
      "are": 766,
      "act": 767,
      "ite": 768,
      "Ġ-": 769,
      "ous": 770,
      "Ġcould": 771,
      "Ġar": 772,
      "Ġtoo": 773,
      "Ġun": 774,
      "Ġeven": 775,
      "ry": 776,
      "so": 777,
      "](": 778,
      "Ġnow": 779,
      "78": 780,
      "ue": 781,
      "ost": 782,
      "sel": 783,
      "pl": 784,
      "Ġhas": 785,
      "24": 786,
      "ice": 787,
      "ard": 788,
      "ĠTh": 789,
      "ose": 790,
      "tt": 791,
      "Ġneed": 792,
      "ĠâĢľ": 793,
      "ace": 794,
      "Ġag": 795,
      "86": 796,
      "ĠJ": 797,
      "res": 798,
      "ble": 799,
      "Ġact": 800,
      "Ġsomething": 801,
      "Ġmean": 802,
      "ff": 803,
      "ake": 804,
      "Ġinto": 805,
      "Ġthan": 806,
      "Ġits": 807,
      "Ġthen": 808,
      "...": 809,
      "per": 810,
      "201": 811,
      "reat": 812,
      "Ġgood": 813,
      "Ġmake": 814,
      "Ġway": 815,
      "ĠBut": 816,
      "89": 817,
      "ment": 818,
      "Ġro": 819,
      "Ġri": 820,
      "Ġ1": 821,
      "Ġcl": 822,
      "Ġreal": 823,
      "thing": 824,
      "Ġbeen": 825,
      "ence": 826,
      "Ġbecause": 827,
      "eel": 828,
      "Ġbeing": 829,
      "Ġch": 830,
      "iz": 831,
      "Ġgu": 832,
      "Ġonly": 833,
      "4609": 834,
      "5135": 835,
      "0515135": 836,
      "754609": 837,
      "20188": 838,
      "051513520188": 839,
      "754609051513520188": 840,
      "eah": 841,
      "Ġhere": 842,
      "93": 843,
      "Ġbl": 844,
      "731": 845,
      "Ġsay": 846,
      "758": 847,
      "22758": 848,
      "6205": 849,
      "358022758": 850,
      "6205358022758": 851,
      "74731": 852,
      "747316205358022758": 853,
      "der": 854,
      "Ġte": 855,
      "Ġreally": 856,
      "'re": 857,
      "ory": 858,
      "Ġle": 859,
      "age": 860,
      "erson": 861,
      "Ġour": 862,
      "Ġfeel": 863,
      "Ġnever": 864,
      "ich": 865,
      "iv": 866,
      "own": 867,
      "Ġdoes": 868,
      "Ġhim": 869,
      "de": 870,
      "Ġsc": 871,
      "self": 872,
      "ions": 873,
      "ber": 874,
      "ually": 875,
      "ĠHe": 876,
      "Ġwork": 877,
      "Ġworld": 878,
      "nder": 879,
      "Ġmay": 880,
      "Ġhapp": 881,
      "Ġright": 882,
      "Ġgoing": 883,
      "Ġover": 884,
      "Ġqu": 885,
      "Ġz": 886,
      "ĠWhat": 887,
      "Ġback": 888,
      "Ġtry": 889,
      "ak": 890,
      "uck": 891,
      "ach": 892,
      "oc": 893,
      "7209": 894,
      "Ġwhy": 895,
      "oin": 896,
      "3024": 897,
      "41002": 898,
      "Ġ(": 899,
      "uch": 900,
      "907": 901,
      "9002": 902,
      "ick": 903,
      "1907": 904,
      "797209": 905,
      "Ġbel": 906,
      "30249002": 907,
      "79720930249002": 908,
      "797209302490021907": 909,
      "ens": 910,
      "416": 911,
      "835": 912,
      "Ġthings": 913,
      "4470": 914,
      "4589": 915,
      "315300": 916,
      "459456": 917,
      "90641002": 918,
      "300835": 919,
      "4470300835": 920,
      "4589459456": 921,
      "3153004470300835": 922,
      "906410024589459456": 923,
      "315300447030083584": 924,
      "uman": 925,
      "ire": 926,
      "Ġpre": 927,
      "736": 928,
      "og": 929,
      "ple": 930,
      "itt": 931,
      "ass": 932,
      "Ġperson": 933,
      "Ġwr": 934,
      "Ġrem": 935,
      "ĠThis": 936,
      "ree": 937,
      "726": 938,
      "ult": 939,
      "wn": 940,
      "ĠIn": 941,
      "Ġalso": 942,
      "Ġcont": 943,
      "Ġstill": 944,
      "Ġunder": 945,
      "ĠĠĠ": 946,
      "Ġmuch": 947,
      "ys": 948,
      "Ġchan": 949,
      "ĠWe": 950,
      "Ġgr": 951,
      "Ġdis": 952,
      "ĠThey": 953,
      "Ġse": 954,
      "sp": 955,
      "Ġlot": 956,
      "Ġbet": 957,
      "ij": 958,
      "377": 959,
      "Ġshould": 960,
      "'ve": 961,
      "ren": 962,
      "ile": 963,
      "Ġac": 964,
      "Ġstu": 965,
      "ving": 966,
      "ord": 967,
      "---": 968,
      "ade": 969,
      "794": 970,
      "ild": 971,
      "Ġmost": 972,
      "other": 973,
      "ĠWh": 974,
      "132": 975,
      "lp": 976,
      "4193": 977,
      "5131": 978,
      "7296": 979,
      "9736": 980,
      "7945131": 981,
      "1327945131": 982,
      "97367296": 983,
      "132794513197367296": 984,
      "Ġgot": 985,
      "Ġad": 986,
      "ap": 987,
      "â©": 988,
      "ww": 989,
      "Ġwhere": 990,
      "Ġlife": 991,
      "Ġbelie": 992,
      "ew": 993,
      "ci": 994,
      "Ġid": 995,
      "ĠU": 996,
      "``": 997,
      "10": 998,
      "ĠSo": 999,
      "Ġwat": 1000,
      "3333": 1001,
      "orm": 1002,
      "Ġsaid": 1003,
      "431": 1004,
      "//": 1005,
      "ull": 1006,
      "Ġpart": 1007,
      "si": 1008,
      "Ġlook": 1009,
      "Ġwell": 1010,
      "3576": 1011,
      "70431": 1012,
      "91377": 1013,
      "33333576": 1014,
      "9137733333576": 1015,
      "913773333357670431": 1016,
      "://": 1017,
      "ase": 1018,
      "37": 1019,
      "fore": 1020,
      "ish": 1021,
      "Ġkind": 1022,
      "Ġown": 1023,
      "Ġthr": 1024,
      "Ġpr": 1025,
      "Ġtal": 1026,
      "Ġlea": 1027,
      "ttps": 1028,
      "ves": 1029,
      "Ġke": 1030,
      "ft": 1031,
      "ated": 1032,
      "ip": 1033,
      "ount": 1034,
      "urn": 1035,
      "Ġlove": 1036,
      "Ġhuman": 1037,
      "ways": 1038,
      "ĠNo": 1039,
      "Ġagain": 1040,
      "read": 1041,
      "Ġdif": 1042,
      "oll": 1043,
      "ations": 1044,
      "ical": 1045,
      "Ġvery": 1046,
      "ought": 1047,
      "6186": 1048,
      "nal": 1049,
      "Ġoff": 1050,
      "ĠIf": 1051,
      "hed": 1052,
      "Ġaf": 1053,
      "7811": 1054,
      "Ġsame": 1055,
      "irst": 1056,
      "2233": 1057,
      "8003": 1058,
      "464193": 1059,
      "7811464193": 1060,
      "22337811464193": 1061,
      "800322337811464193": 1062,
      ".\"": 1063,
      "Ġactually": 1064,
      "41691": 1065,
      "85300": 1066,
      "able": 1067,
      "7264": 1068,
      "61867264": 1069,
      "4169161867264": 1070,
      "853004169161867264": 1071,
      "Ġaw": 1072,
      "ĉĉ": 1073,
      "295": 1074,
      "te": 1075,
      "https": 1076,
      "Ġfl": 1077,
      "@@": 1078,
      "com": 1079,
      "ath": 1080,
      "ĠK": 1081,
      "Ġthose": 1082,
      "Ġper": 1083,
      "]]": 1084,
      "ks": 1085,
      "Ġlong": 1086,
      "ere": 1087,
      "Ġtw": 1088,
      "Ġfind": 1089,
      "==": 1090,
      "ms": 1091,
      "Ġser": 1092,
      "rent": 1093,
      "96": 1094,
      "306": 1095,
      "oint": 1096,
      "ream": 1097,
      "Ġwhich": 1098,
      "xt": 1099,
      "Ġsure": 1100,
      "ial": 1101,
      "ĠĠĠĠ": 1102,
      "Ġcall": 1103,
      "Ġmade": 1104,
      "Ġwon": 1105,
      "Ġnew": 1106,
      "Ġhelp": 1107,
      "Ġbefore": 1108,
      "Ġplay": 1109,
      "we": 1110,
      "Ġfirst": 1111,
      "Ġdown": 1112,
      "ru": 1113,
      "Ġmany": 1114,
      "old": 1115,
      "Ġrel": 1116,
      "ĠShe": 1117,
      "Ġhar": 1118,
      "ird": 1119,
      "Ġtake": 1120,
      "ress": 1121,
      "ict": 1122,
      "Ġ2": 1123,
      "Ġsomeone": 1124,
      "Ġmind": 1125,
      "Ġyear": 1126,
      "Ġsha": 1127,
      "Ġdidn": 1128,
      "Ġtell": 1129,
      "ance": 1130,
      "Ġyeah": 1131,
      "the": 1132,
      "Ġhappen": 1133,
      "vers": 1134,
      "ĠðŁĺ": 1135,
      "ody": 1136,
      "ool": 1137,
      "Ġvide": 1138,
      "Ġalways": 1139,
      "ĠThere": 1140,
      "###": 1141,
      "Ġthrough": 1142,
      "Ġend": 1143,
      "Ġuse": 1144,
      "Ġimp": 1145,
      "ual": 1146,
      "Ġday": 1147,
      "Ġread": 1148,
      "Ġsm": 1149,
      "ting": 1150,
      "Ġ#": 1151,
      "ian": 1152,
      "'ll": 1153,
      "ember": 1154,
      "stand": 1155,
      "Ġev": 1156,
      "con": 1157,
      "iss": 1158,
      "12": 1159,
      "Ġbu": 1160,
      "Ġdiffe": 1161,
      "Ġanything": 1162,
      "Ġ=": 1163,
      "Ġcha": 1164,
      "led": 1165,
      "Ġbr": 1166,
      "Ġlet": 1167,
      "ious": 1168,
      "Ġcomp": 1169,
      "486": 1170,
      "Ġapp": 1171,
      "ved": 1172,
      "Ġstart": 1173,
      "ark": 1174,
      "Ġbot": 1175,
      "imes": 1176,
      "Ġpoint": 1177,
      "ang": 1178,
      "\",": 1179,
      "Ġem": 1180,
      "ning": 1181,
      "ower": 1182,
      "Ġstuff": 1183,
      "Ġthough": 1184,
      "](/": 1185,
      "ï¸": 1186,
      "ï¸ı": 1187,
      "ever": 1188,
      "ock": 1189,
      "Ġsl": 1190,
      "Ġ[[": 1191,
      "Ġop": 1192,
      "Ġthought": 1193,
      "na": 1194,
      "Ġbelieve": 1195,
      "Ġcat": 1196,
      "Ġword": 1197,
      "rain": 1198,
      "Ġthese": 1199,
      "ful": 1200,
      "Ġpos": 1201,
      "vel": 1202,
      "Ġbetter": 1203,
      "side": 1204,
      "Ġunderstand": 1205,
      "064": 1206,
      "Ġmight": 1207,
      "ike": 1208,
      "oy": 1209,
      "ia": 1210,
      "Ġcome": 1211,
      "ond": 1212,
      "erest": 1213,
      "Ġsim": 1214,
      "ready": 1215,
      "ail": 1216,
      "Ġafter": 1217,
      "Ġever": 1218,
      "ily": 1219,
      "Ġalready": 1220,
      "Ġfun": 1221,
      "**": 1222,
      "ably": 1223,
      "921": 1224,
      "Ġwar": 1225,
      "Ġkill": 1226,
      "'d": 1227,
      "ise": 1228,
      "ob": 1229,
      "ĠV": 1230,
      "yp": 1231,
      "Ġatt": 1232,
      "Ġdes": 1233,
      "355": 1234,
      "941": 1235,
      "ud": 1236,
      "ary": 1237,
      "Ġinf": 1238,
      "48921": 1239,
      "84941": 1240,
      "064355": 1241,
      "4892184941": 1242,
      "06435594": 1243,
      "489218494106435594": 1244,
      "Ġname": 1245,
      "ĠGod": 1246,
      "Ġtrying": 1247,
      "Ġkid": 1248,
      "gg": 1249,
      "Ġmat": 1250,
      "cept": 1251,
      "Ġacc": 1252,
      "Ġcomm": 1253,
      "olog": 1254,
      "Ġdifferent": 1255,
      "Ġmaybe": 1256,
      "riend": 1257,
      "ĠMy": 1258,
      "Ġâ": 1259,
      "Ġent": 1260,
      "bl": 1261,
      "Ġremember": 1262,
      "27": 1263,
      "Ġask": 1264,
      "Ġsy": 1265,
      "ific": 1266,
      "Ġbad": 1267,
      "Ġyes": 1268,
      "ave": 1269,
      "ason": 1270,
      "Ġaround": 1271,
      "ne": 1272,
      "cl": 1273,
      "Ġstr": 1274,
      "uth": 1275,
      "Ġsec": 1276,
      "ope": 1277,
      "Ġph": 1278,
      "Ġeverything": 1279,
      "Ġvideo": 1280,
      "mm": 1281,
      "Ġprob": 1282,
      "Ġel": 1283,
      "Ġstory": 1284,
      "Ġshow": 1285,
      "ushing": 1286,
      "ng": 1287,
      "Ġtwo": 1288,
      "Ġgame": 1289,
      "kes": 1290,
      "ĠYeah": 1291,
      "Ġtrue": 1292,
      "Ġgive": 1293,
      "ness": 1294,
      "ĠNot": 1295,
      "Ġweird": 1296,
      "Ġfuck": 1297,
      "fect": 1298,
      "Ġnothing": 1299,
      "Ġcare": 1300,
      "Ġgen": 1301,
      "Ġdoing": 1302,
      "Ġdoesn": 1303,
      "Ġput": 1304,
      "ĠHow": 1305,
      "less": 1306,
      "Ġeveryone": 1307,
      "Ġhand": 1308,
      "ny": 1309,
      "hen": 1310,
      "ĠYes": 1311,
      "Ġwa": 1312,
      "ating": 1313,
      "465": 1314,
      "ather": 1315,
      "352": 1316,
      "Ġused": 1317,
      "Ġinterest": 1318,
      "âĢ¦": 1319,
      "ert": 1320,
      "ense": 1321,
      "926": 1322,
      "Ġkeep": 1323,
      "ĠDo": 1324,
      "Ġchild": 1325,
      "ans": 1326,
      "ĠOr": 1327,
      "ĠðŁħ": 1328,
      "ors": 1329,
      "Ġplace": 1330,
      "ĠPushing": 1331,
      "here": 1332,
      "ĠðŁħ¿": 1333,
      "))": 1334,
      "get": 1335,
      "ĠðŁħ¿ï¸ı": 1336,
      "Ġass": 1337,
      "39": 1338,
      "Ġdream": 1339,
      "gr": 1340,
      "ittle": 1341,
      "Ġwhile": 1342,
      "Ġexpl": 1343,
      "med": 1344,
      "Ġtri": 1345,
      "Ġold": 1346,
      "Ġreason": 1347,
      "9503": 1348,
      "9503926": 1349,
      "7627": 1350,
      "46306": 1351,
      "950392646306": 1352,
      "762772": 1353,
      "950392646306762772": 1354,
      "It": 1355,
      "tty": 1356,
      "Ġwatch": 1357,
      "Ġlive": 1358,
      "Ġyet": 1359,
      "Ġexper": 1360,
      "Ġhard": 1361,
      "Ġyears": 1362,
      "Ġinter": 1363,
      "Ġrec": 1364,
      "Ġenough": 1365,
      "ove": 1366,
      "arth": 1367,
      "Ġprobably": 1368,
      "ically": 1369,
      "uc": 1370,
      "ĠSt": 1371,
      "Ġsupp": 1372,
      "Ġguess": 1373,
      "ĠAl": 1374,
      ".âĢĿ": 1375,
      "Ġmet": 1376,
      "iet": 1377,
      "ĠJust": 1378,
      "Ġfriend": 1379,
      "ss": 1380,
      "Ġcr": 1381,
      "Ġbas": 1382,
      "058": 1383,
      "Ġtra": 1384,
      "outu": 1385,
      "Ġmust": 1386,
      "ĠOh": 1387,
      "Ġpower": 1388,
      "ix": 1389,
      "ces": 1390,
      "Ġanother": 1391,
      "Ġdef": 1392,
      "youtu": 1393,
      "Ġidea": 1394,
      "....": 1395,
      "Ġpretty": 1396,
      "Ġcreat": 1397,
      "Ġlear": 1398,
      "Ġable": 1399,
      "Ġleast": 1400,
      "Ġgod": 1401,
      "ism": 1402,
      "Ġra": 1403,
      "iting": 1404,
      "Ġhat": 1405,
      "Ġturn": 1406,
      "oney": 1407,
      "```": 1408,
      "Ġlittle": 1409,
      "ons": 1410,
      "4571": 1411,
      "316": 1412,
      "Ġ20": 1413,
      "468": 1414,
      "Ġfam": 1415,
      "Ġquest": 1416,
      "71295": 1417,
      "31581": 1418,
      "7561": 1419,
      "10352": 1420,
      "712957561": 1421,
      "31581712957561": 1422,
      "1035231581712957561": 1423,
      "Ġbo": 1424,
      "2934": 1425,
      "Ġok": 1426,
      "ied": 1427,
      "Ġche": 1428,
      "Ġsound": 1429,
      "ts": 1430,
      "Ġey": 1431,
      "Ġrep": 1432,
      "ðŁĺ": 1433,
      "ign": 1434,
      "ollow": 1435,
      "43": 1436,
      "bs": 1437,
      "ages": 1438,
      "als": 1439,
      "ource": 1440,
      "Ġmess": 1441,
      "gan": 1442,
      "Ġmyself": 1443,
      "Ġshit": 1444,
      "Ġvan": 1445,
      "82934": 1446,
      "34345": 1447,
      "058468": 1448,
      "8293434345": 1449,
      "05846837": 1450,
      "829343434505846837": 1451,
      "igh": 1452,
      "Ġexist": 1453,
      "Ġdie": 1454,
      "Ġtalk": 1455,
      "Ġcons": 1456,
      "Ġment": 1457,
      "ince": 1458,
      "Ġhet": 1459,
      "ition": 1460,
      "Ġsuch": 1461,
      "Ġplan": 1462,
      "Ġ3": 1463,
      "Ġinv": 1464,
      "Ġconf": 1465,
      "ience": 1466,
      "Ġexp": 1467,
      "Ġeach": 1468,
      "av": 1469,
      "Ġeen": 1470,
      "ither": 1471,
      "Ġvo": 1472,
      "Ġwithout": 1473,
      "ĠBec": 1474,
      "â«": 1475,
      "les": 1476,
      "ĠIs": 1477,
      "Ġelse": 1478,
      "Ġaway": 1479,
      "ject": 1480,
      "814": 1481,
      "aw": 1482,
      "Ġmem": 1483,
      "Ġwom": 1484,
      "leep": 1485,
      "Ġanyone": 1486,
      "Th": 1487,
      "ier": 1488,
      "orry": 1489,
      "Ġboth": 1490,
      "ward": 1491,
      "Ġmakes": 1492,
      "cess": 1493,
      "Ġfound": 1494,
      "day": 1495,
      "ories": 1496,
      "::": 1497,
      "Ġinst": 1498,
      "ĠLol": 1499,
      ").": 1500,
      "957": 1501,
      "Ġothers": 1502,
      "Ġuni": 1503,
      "Ġgreat": 1504,
      "Ġstop": 1505,
      "Ġ'": 1506,
      "sible": 1507,
      "ĠLike": 1508,
      "Ġver": 1509,
      "446": 1510,
      "Ġx": 1511,
      "Ġbig": 1512,
      "Ġsur": 1513,
      "oke": 1514,
      "Ġproble": 1515,
      "Ġ|": 1516,
      "Ġmoney": 1517,
      "ken": 1518,
      "ĠMay": 1519,
      "Ġbest": 1520,
      "Ġmatter": 1521,
      "ten": 1522,
      "Ġrun": 1523,
      "ER": 1524,
      "Ġpast": 1525,
      "You": 1526,
      "air": 1527,
      "az": 1528,
      "ev": 1529,
      "Ġcount": 1530,
      "Ġcontro": 1531,
      "----": 1532,
      "ĠWhy": 1533,
      "dd": 1534,
      "Ġ:": 1535,
      "ames": 1536,
      "Ġfollow": 1537,
      "ron": 1538,
      "iew": 1539,
      "hes": 1540,
      "73": 1541,
      "ants": 1542,
      "Ġcle": 1543,
      "Ġlast": 1544,
      "Ġmom": 1545,
      "595": 1546,
      "ĠCh": 1547,
      "Ġchange": 1548,
      "Ġcause": 1549,
      "Ġfew": 1550,
      "4192": 1551,
      "6176": 1552,
      "4866176": 1553,
      "45714866176": 1554,
      "5954192": 1555,
      "595419245714866176": 1556,
      "Ġfin": 1557,
      "hh": 1558,
      "Ġresp": 1559,
      "40": 1560,
      "====": 1561,
      "Ġmon": 1562,
      "www": 1563,
      "Ġtold": 1564,
      "stem": 1565,
      "elf": 1566,
      "ute": 1567,
      "irl": 1568,
      "388": 1569,
      "actly": 1570,
      "Ġhead": 1571,
      "ings": 1572,
      "iter": 1573,
      "ents": 1574,
      "ertain": 1575,
      "Ġsk": 1576,
      "Ġtalking": 1577,
      "Ġter": 1578,
      "ijn": 1579,
      "way": 1580,
      "Ġlearn": 1581,
      "ĠBecause": 1582,
      "ics": 1583,
      "Ġcomple": 1584,
      "verse": 1585,
      "Ġsub": 1586,
      "Ġfact": 1587,
      "ĠQ": 1588,
      "Ġdone": 1589,
      "Ġart": 1590,
      "ction": 1591,
      "Ġwhole": 1592,
      "@@@@": 1593,
      "Ġcre": 1594,
      "ret": 1595,
      "Ġeas": 1596,
      "Ġwrong": 1597,
      "Ġfar": 1598,
      "Ġhope": 1599,
      "orn": 1600,
      "ars": 1601,
      "Ġdisc": 1602,
      "99465": 1603,
      "8278": 1604,
      "8243": 1605,
      "0028278": 1606,
      "994650028278": 1607,
      "8243994650028278": 1608,
      "824399465002827846": 1609,
      "Ġpost": 1610,
      "Ġ*": 1611,
      "951": 1612,
      "not": 1613,
      "lease": 1614,
      "Ġinteresting": 1615,
      "Ġind": 1616,
      "doc": 1617,
      "Ġopen": 1618,
      "Ġlight": 1619,
      "Ġgl": 1620,
      "Ġdat": 1621,
      "Ġisn": 1622,
      "We": 1623,
      "oul": 1624,
      "me": 1625,
      "??": 1626,
      "onna": 1627,
      "Ġseems": 1628,
      "docs": 1629,
      "Ġspec": 1630,
      "Ġserver": 1631,
      "Ġunt": 1632,
      "Ġbecome": 1633,
      "Ġ5": 1634,
      "ize": 1635,
      "sy": 1636,
      "Ġfree": 1637,
      "60": 1638,
      "Ġres": 1639,
      "arly": 1640,
      "Ġfight": 1641,
      "Ġsleep": 1642,
      "Ġbody": 1643,
      "Ġgonna": 1644,
      "ater": 1645,
      "332": 1646,
      "Ġpu": 1647,
      "Ġ10": 1648,
      "Ġthats": 1649,
      "Ġchar": 1650,
      "23": 1651,
      "Ġdec": 1652,
      "Ġ>": 1653,
      "16": 1654,
      "ments": 1655,
      "ok": 1656,
      "Ġkids": 1657,
      "Ġadd": 1658,
      "ates": 1659,
      "of": 1660,
      "most": 1661,
      "its": 1662,
      "506": 1663,
      "Ġbook": 1664,
      "Ġside": 1665,
      "Ġimport": 1666,
      "Ġsense": 1667,
      "18": 1668,
      "Ġmin": 1669,
      "ced": 1670,
      "Ġcra": 1671,
      "Ġnight": 1672,
      "Ġlist": 1673,
      "Ġsystem": 1674,
      "This": 1675,
      "And": 1676,
      "Ġhome": 1677,
      "ĠFor": 1678,
      "481": 1679,
      "Ġyourself": 1680,
      "Ġsince": 1681,
      "âĢĶ": 1682,
      "31681": 1683,
      "ash": 1684,
      "978": 1685,
      "ĠMaybe": 1686,
      "76332": 1687,
      "31481": 1688,
      "3168176332": 1689,
      "314813168176332": 1690,
      "314813168176332801": 1691,
      "Ġonce": 1692,
      "arent": 1693,
      "odder": 1694,
      "Ġseen": 1695,
      "Ġcalled": 1696,
      "0614": 1697,
      "33951": 1698,
      "995978": 1699,
      "4340614": 1700,
      "339514340614": 1701,
      "339514340614995978": 1702,
      "Ġsch": 1703,
      "Ġsoci": 1704,
      "In": 1705,
      "Ġoh": 1706,
      "Ġleft": 1707,
      "IN": 1708,
      "Ġsorry": 1709,
      "Ġsoul": 1710,
      "Ġguy": 1711,
      "Ġless": 1712,
      "body": 1713,
      "ien": 1714,
      "aby": 1715,
      "Ġtimes": 1716,
      "ities": 1717,
      "ank": 1718,
      "Ġbit": 1719,
      "ĠWhen": 1720,
      "cri": 1721,
      "ange": 1722,
      "Ġloo": 1723,
      "ale": 1724,
      "ited": 1725,
      "Ġdeath": 1726,
      "Ġhate": 1727,
      "Ġwanted": 1728,
      "up": 1729,
      "sw": 1730,
      "Ġref": 1731,
      "chn": 1732,
      "ah": 1733,
      "Ġentire": 1734,
      "Ġsays": 1735,
      "Ġeither": 1736,
      "Ġco": 1737,
      "Ġext": 1738,
      "ledge": 1739,
      "454": 1740,
      "Ġspea": 1741,
      "=\"": 1742,
      "ĠAs": 1743,
      "ering": 1744,
      "Ġmeans": 1745,
      "gs": 1746,
      "ĠWell": 1747,
      "Ġproblem": 1748,
      "Ġob": 1749,
      "Ġnice": 1750,
      "Ġimportant": 1751,
      "rist": 1752,
      "uture": 1753,
      "pped": 1754,
      "Ġbrain": 1755,
      "Ġhear": 1756,
      "!!": 1757,
      "Ġcontrol": 1758,
      "ched": 1759,
      "Ġgetting": 1760,
      "ef": 1761,
      "Ġcool": 1762,
      "Ġ/": 1763,
      "Ġnat": 1764,
      "nect": 1765,
      "Ġsaw": 1766,
      "ead": 1767,
      "Ġhaving": 1768,
      "Ġfull": 1769,
      "Ġmaking": 1770,
      "osed": 1771,
      "Ġcertain": 1772,
      "Ġgirl": 1773,
      "9945": 1774,
      "Ġfamily": 1775,
      "92446": 1776,
      "3696": 1777,
      "939945": 1778,
      "Ġquestion": 1779,
      "50692446": 1780,
      "9399453696": 1781,
      "506924469399453696": 1782,
      "Ġcame": 1783,
      "Ġlost": 1784,
      "ying": 1785,
      "Ġexactly": 1786,
      "Ġexplain": 1787,
      "aven": 1788,
      "437": 1789,
      "Ġeyes": 1790,
      "idence": 1791,
      "Ġagainst": 1792,
      "ude": 1793,
      "Ġinside": 1794,
      "ĠAI": 1795,
      "41454": 1796,
      "20729": 1797,
      "38880": 1798,
      "43738880": 1799,
      "4145420729": 1800,
      "414542072943738880": 1801,
      "aking": 1802,
      "ph": 1803,
      "Ġmiss": 1804,
      "Ġlead": 1805,
      "Ġwouldn": 1806,
      "Ġwords": 1807,
      "Ġpres": 1808,
      "Ġself": 1809,
      "Ġfuture": 1810,
      "Ġmed": 1811,
      "Ġjob": 1812,
      "rin": 1813,
      "ysis": 1814,
      "onest": 1815,
      "Ġdra": 1816,
      "Ġpo": 1817,
      "Ġdr": 1818,
      "Ġansw": 1819,
      "ignal": 1820,
      "ately": 1821,
      "Ġset": 1822,
      "row": 1823,
      "Ġ4": 1824,
      "selves": 1825,
      "itten": 1826,
      "Ġuntil": 1827,
      "den": 1828,
      "ility": 1829,
      "Ġâ¨": 1830,
      "Ġsaying": 1831,
      "ged": 1832,
      "nel": 1833,
      "ired": 1834,
      "\\_": 1835,
      "atic": 1836,
      "oose": 1837,
      "Ġtruth": 1838,
      "host": 1839,
      "Ġtyp": 1840,
      "ek": 1841,
      "Ġtak": 1842,
      "ially": 1843,
      "eep": 1844,
      "0814": 1845,
      "mer": 1846,
      "ĠAr": 1847,
      "ouse": 1848,
      "Ġca": 1849,
      "Ġthinking": 1850,
      "Ġdark": 1851,
      "Ġcomplete": 1852,
      "Ġsw": 1853,
      "Ġimag": 1854,
      "Ġcour": 1855,
      "Ġhigh": 1856,
      "Ġbre": 1857,
      "Ġalmost": 1858,
      "Ġbeh": 1859,
      "Ġpol": 1860,
      "ĠAll": 1861,
      "ĠRock": 1862,
      "053": 1863,
      "ized": 1864,
      "Ġguys": 1865,
      "ik": 1866,
      "Ġide": 1867,
      "ĠThen": 1868,
      "AN": 1869,
      "Ġpain": 1870,
      "7631": 1871,
      "710814": 1872,
      "9577631": 1873,
      "0539577631": 1874,
      "7108140539577631": 1875,
      "710814053957763112": 1876,
      "Ġtest": 1877,
      "used": 1878,
      "Ġret": 1879,
      "Ġsex": 1880,
      "ump": 1881,
      "ative": 1882,
      "ma": 1883,
      "zy": 1884,
      "Ġgener": 1885,
      "Ġconnect": 1886,
      "Ġliter": 1887,
      "Ġmag": 1888,
      "ðŁĺĨ": 1889,
      "ĠTH": 1890,
      "cc": 1891,
      "du": 1892,
      "Ġworking": 1893,
      "gin": 1894,
      "rence": 1895,
      "Ġer": 1896,
      "Ġbc": 1897,
      "Ġhell": 1898,
      "cy": 1899,
      "Ġknew": 1900,
      "Ġfe": 1901,
      "ormation": 1902,
      "ots": 1903,
      "Ġheard": 1904,
      "ĠOn": 1905,
      "Ġreality": 1906,
      "umb": 1907,
      "Ġdep": 1908,
      "ulation": 1909,
      "ted": 1910,
      "Ġsing": 1911,
      "ĠInk": 1912,
      "Ġgi": 1913,
      "Ġsmall": 1914,
      "atch": 1915,
      "Ġmove": 1916,
      "Ġbro": 1917,
      "Ġrest": 1918,
      "Ġnext": 1919,
      "Ġcommun": 1920,
      "ular": 1921,
      "Ġwent": 1922,
      "alk": 1923,
      "Ġrelig": 1924,
      "Ġhumans": 1925,
      "Ġface": 1926,
      "line": 1927,
      "use": 1928,
      "¤£": 1929,
      "ology": 1930,
      "Ġusing": 1931,
      "Ġ$": 1932,
      "Ġwasn": 1933,
      "ster": 1934,
      "ĠTr": 1935,
      "ĠAnal": 1936,
      "ĠZ": 1937,
      "Ġfig": 1938,
      "alth": 1939,
      "Ġstand": 1940,
      "gram": 1941,
      "ines": 1942,
      "312": 1943,
      "ison": 1944,
      "Ġwonder": 1945,
      "SM": 1946,
      "lect": 1947,
      "Ġhappened": 1948,
      "Ġfore": 1949,
      "inite": 1950,
      "ient": 1951,
      "vious": 1952,
      "ĠAnalysis": 1953,
      "ĠTo": 1954,
      "Ġtechn": 1955,
      "5188": 1956,
      "01": 1957,
      "Ġroom": 1958,
      "Ġprot": 1959,
      "man": 1960,
      "ta": 1961,
      "Ġexam": 1962,
      "ident": 1963,
      "Ġpass": 1964,
      "Ġbuild": 1965,
      "ror": 1966,
      "source": 1967,
      "utm": 1968,
      "ĠEx": 1969,
      "Ġsit": 1970,
      "225188": 1971,
      "35072": 1972,
      "5529225188": 1973,
      "31235072": 1974,
      "552922518831235072": 1975,
      "Ġmus": 1976,
      "Ġtho": 1977,
      "ĠAt": 1978,
      "ween": 1979,
      "Ġbehind": 1980,
      "ĠWho": 1981,
      "Ġmov": 1982,
      "bb": 1983,
      "Ġcor": 1984,
      "Ġdead": 1985,
      "fl": 1986,
      "ĠMan": 1987,
      "ists": 1988,
      "Ġzijn": 1989,
      "52": 1990,
      "Ġinc": 1991,
      "Ġreg": 1992,
      "pe": 1993,
      "ety": 1994,
      "Ġdoor": 1995,
      "arch": 1996,
      "Ġdam": 1997,
      "Ġppl": 1998,
      "vent": 1999,
      "Ġhour": 2000,
      "21": 2001,
      "Ġallow": 2002,
      "Ġsad": 2003,
      "ross": 2004,
      "Ġsounds": 2005,
      "++": 2006,
      "post": 2007,
      "isc": 2008,
      "Ġhold": 2009,
      "Ġtoget": 2010,
      "Ġtogether": 2011,
      "ote": 2012,
      "Ġes": 2013,
      "ible": 2014,
      "ĠOne": 2015,
      "Ġpur": 2016,
      "Ġlooking": 2017,
      "Ġsent": 2018,
      "Ġstate": 2019,
      "Ġseem": 2020,
      "Ġcar": 2021,
      "Ġwhatever": 2022,
      "ger": 2023,
      "Ġfre": 2024,
      "Ġexperience": 2025,
      "Ġcur": 2026,
      "ĠSignal": 2027,
      "Ġuniverse": 2028,
      "Ġfall": 2029,
      "Ġones": 2030,
      "SMR": 2031,
      "Ġhu": 2032,
      "bol": 2033,
      "Ġcannot": 2034,
      "Ġwish": 2035,
      "Ġdet": 2036,
      "Ġcoming": 2037,
      "Ġom": 2038,
      "ĠGood": 2039,
      "ium": 2040,
      "haps": 2041,
      "Ġtrust": 2042,
      "ider": 2043,
      "aim": 2044,
      "ube": 2045,
      "Ġ6": 2046,
      "ner": 2047,
      "Ġdont": 2048,
      "gy": 2049,
      "Ġleave": 2050,
      "ĠxD": 2051,
      "ures": 2052,
      "no": 2053,
      "Ġill": 2054,
      "AT": 2055,
      "ality": 2056,
      "Ġearth": 2057,
      "acter": 2058,
      "tern": 2059,
      "Ġins": 2060,
      "Ġform": 2061,
      "Ġchannel": 2062,
      "conf": 2063,
      "OR": 2064,
      "Ġsuper": 2065,
      "ption": 2066,
      "Ġchildren": 2067,
      "Ġdest": 2068,
      "Ġsend": 2069,
      "ode": 2070,
      "ty": 2071,
      "where": 2072,
      "Ġfriends": 2073,
      "ues": 2074,
      "idants": 2075,
      "Ġdem": 2076,
      "Ġbetween": 2077,
      "Ġpossible": 2078,
      "Ġquite": 2079,
      "Ġdays": 2080,
      "irect": 2081,
      "Ġ**": 2082,
      "Ġcoll": 2083,
      "aught": 2084,
      "uthor": 2085,
      "ital": 2086,
      "Ġhonest": 2087,
      "Ġknowledge": 2088,
      "Ġcourse": 2089,
      "Ġago": 2090,
      "ract": 2091,
      "io": 2092,
      "ĠRe": 2093,
      "Ġsol": 2094,
      "Ġgrou": 2095,
      "25": 2096,
      "Ġpop": 2097,
      "Ġalone": 2098,
      "Ġlisten": 2099,
      "dit": 2100,
      "oot": 2101,
      "Ġview": 2102,
      "Ġwrite": 2103,
      "Ġmor": 2104,
      "Ġhor": 2105,
      "Ġcrazy": 2106,
      "ared": 2107,
      "ĠThan": 2108,
      "Ġliterally": 2109,
      "Âł": 2110,
      "Ġfood": 2111,
      "Ġeat": 2112,
      "Ġfucking": 2113,
      "Ġpa": 2114,
      "ets": 2115,
      "ĠðŁĺĨ": 2116,
      "ĠUn": 2117,
      "come": 2118,
      "Ġtried": 2119,
      "Ġstay": 2120,
      "Ġwoman": 2121,
      "pect": 2122,
      "Ġsecond": 2123,
      "br": 2124,
      "ĠSome": 2125,
      "esus": 2126,
      "ional": 2127,
      "ĠAn": 2128,
      "Ġinformation": 2129,
      "8780": 2130,
      "Ġhun": 2131,
      "9768780": 2132,
      "72660": 2133,
      "2959768780": 2134,
      "3972660": 2135,
      "29597687809": 2136,
      "397266029597687809": 2137,
      "08": 2138,
      "Ġaren": 2139,
      "Ġwithin": 2140,
      "Ġhappy": 2141,
      "Ġschool": 2142,
      "Ġtoday": 2143,
      "ES": 2144,
      "Ġ7": 2145,
      "Ġmoment": 2146,
      "Ġtook": 2147,
      "Ġsong": 2148,
      "?âĢĿ": 2149,
      "acy": 2150,
      "Ġpay": 2151,
      "532": 2152,
      "confidants": 2153,
      "ised": 2154,
      "ĠðŁĻ": 2155,
      "ĠEarth": 2156,
      "sh": 2157,
      "Ġlater": 2158,
      "Ġheart": 2159,
      "Ġforg": 2160,
      "Ġcomes": 2161,
      "Ġgrow": 2162,
      "Ġasked": 2163,
      "yan": 2164,
      "ĠEC": 2165,
      "Ġhouse": 2166,
      "Ġliving": 2167,
      "ĠĠĠĠĠĠĠĠ": 2168,
      "Ġplease": 2169,
      "Ġanswer": 2170,
      "Ġmar": 2171,
      "Ġokay": 2172,
      "Ġcharacter": 2173,
      "Ġpubl": 2174,
      "Ġgre": 2175,
      "ices": 2176,
      "Ġwater": 2177,
      "ĠDe": 2178,
      "ĠCan": 2179,
      "Ġsometimes": 2180,
      "Ġoften": 2181,
      "Ġevil": 2182,
      "Ġcountry": 2183,
      "*\"": 2184,
      "aar": 2185,
      "Ġdel": 2186,
      "Ġprogram": 2187,
      "Ġstarted": 2188,
      "261": 2189,
      "app": 2190,
      "ned": 2191,
      "Ġnorm": 2192,
      "ax": 2193,
      "ivid": 2194,
      "uter": 2195,
      "ĠEvery": 2196,
      "),": 2197,
      "âª": 2198,
      "ON": 2199,
      "Ġho": 2200,
      "Ġrese": 2201,
      "kn": 2202,
      "Ġblack": 2203,
      "Ġtop": 2204,
      "ganiz": 2205,
      "posts": 2206,
      "ĠBe": 2207,
      "my": 2208,
      "ournal": 2209,
      "ĠDon": 2210,
      "Ġthemselves": 2211,
      "more": 2212,
      "pr": 2213,
      "âĬ": 2214,
      "initely": 2215,
      "Ġfear": 2216,
      "itle": 2217,
      "Ġge": 2218,
      "Ġcult": 2219,
      "Ġsuff": 2220,
      "alse": 2221,
      "Ġmen": 2222,
      "Ġsoon": 2223,
      "Ġspace": 2224,
      "Ġclaim": 2225,
      "Ġwait": 2226,
      "gen": 2227,
      "Ġlooks": 2228,
      "ze": 2229,
      "oog": 2230,
      "ĠIts": 2231,
      "Ġclose": 2232,
      "Ġvis": 2233,
      "Ġkinda": 2234,
      "What": 2235,
      "right": 2236,
      "Ġknows": 2237,
      "832": 2238,
      "He": 2239,
      "wor": 2240,
      "elt": 2241,
      "Ġperfect": 2242,
      "Ġphys": 2243,
      "ussi": 2244,
      "Ġwriting": 2245,
      "Ġhur": 2246,
      "Ġmeaning": 2247,
      "Ġcompletely": 2248,
      "Ġjoin": 2249,
      "ub": 2250,
      "Ġstrong": 2251,
      "sych": 2252,
      "orts": 2253,
      "Ġideas": 2254,
      "oud": 2255,
      "ilar": 2256,
      "ĠAlso": 2257,
      "form": 2258,
      "ife": 2259,
      "Ġmur": 2260,
      "26": 2261,
      "ric": 2262,
      "Ġred": 2263,
      "ming": 2264,
      "png": 2265,
      "ffect": 2266,
      "ator": 2267,
      "Ġexpect": 2268,
      "iness": 2269,
      "Ġlink": 2270,
      "ĠYour": 2271,
      "ĠPro": 2272,
      "cious": 2273,
      "Ġwin": 2274,
      "andom": 2275,
      "Ġanim": 2276,
      "Ġrob": 2277,
      "joy": 2278,
      "Ġbreak": 2279,
      "Ġve": 2280,
      "Ġfunny": 2281,
      "Ġsign": 2282,
      "Ġopp": 2283,
      "ention": 2284,
      "fort": 2285,
      "Ġ8": 2286,
      "Ġlikely": 2287,
      "bt": 2288,
      "Ġblood": 2289,
      "',": 2290,
      "ats": 2291,
      "olf": 2292,
      "Ġcheck": 2293,
      "ĠðŁĻĤ": 2294,
      "Ġagree": 2295,
      "Ġexample": 2296,
      "lf": 2297,
      "Ġfast": 2298,
      "Ġoutside": 2299,
      "ĠAre": 2300,
      "Ġmovie": 2301,
      "Ġpar": 2302,
      "ĠNow": 2303,
      "Ġdou": 2304,
      "Ġ\"*": 2305,
      "ags": 2306,
      "Ġrequ": 2307,
      "achine": 2308,
      "Ġlonger": 2309,
      "ex": 2310,
      "Ġcol": 2311,
      "Ġcase": 2312,
      "Ġspeak": 2313,
      "Ġcou": 2314,
      "Ġmusic": 2315,
      ",\"": 2316,
      "Ġwall": 2317,
      "anger": 2318,
      ",âĢĿ": 2319,
      "bor": 2320,
      "LL": 2321,
      "Ġvi": 2322,
      "Ġsimp": 2323,
      "Ġdist": 2324,
      "gel": 2325,
      "Ġanyway": 2326,
      "ĠFodder": 2327,
      "ides": 2328,
      "ifer": 2329,
      "Ġgiven": 2330,
      "ho": 2331,
      "Ġcho": 2332,
      "Ġluck": 2333,
      "Ġmain": 2334,
      "ural": 2335,
      "gn": 2336,
      "Ġdri": 2337,
      "ĠSp": 2338,
      "Ġsecret": 2339,
      "Ġimagine": 2340,
      "Ġbus": 2341,
      "ĠRaven": 2342,
      "Ġaccount": 2343,
      "Ġed": 2344,
      "ulti": 2345,
      "Ġdev": 2346,
      "Ġwomen": 2347,
      "Ġmonth": 2348,
      "ane": 2349,
      "vern": 2350,
      "reddit": 2351,
      "ĠASMR": 2352,
      "Ġanymore": 2353,
      "Ġste": 2354,
      "ĠOk": 2355,
      "Ġstud": 2356,
      "Ġze": 2357,
      "âĭ": 2358,
      "Ġfail": 2359,
      "Ġcontin": 2360,
      "Ġrandom": 2361,
      "Ġgroup": 2362,
      "watch": 2363,
      "Ġvers": 2364,
      "Ġbed": 2365,
      "ution": 2366,
      "Ġje": 2367,
      "ox": 2368,
      "Ġrather": 2369,
      "Ġchoose": 2370,
      "But": 2371,
      "Ġcry": 2372,
      "Ġbegin": 2373,
      "Ġprotect": 2374,
      "Ġworth": 2375,
      "Ġgiv": 2376,
      "Ġbring": 2377,
      "Ġhist": 2378,
      "wards": 2379,
      "Ġinstead": 2380,
      "OU": 2381,
      "Ġemot": 2382,
      "ucifer": 2383,
      "Ġfix": 2384,
      "Ġleg": 2385,
      "velop": 2386,
      "Ġwatching": 2387,
      "Ġsn": 2388,
      "Ġlevel": 2389,
      "anthe": 2390,
      "Ġworks": 2391,
      "Ġtom": 2392,
      "Ġfelt": 2393,
      "Ġrock": 2394,
      "aut": 2395,
      "Ġphone": 2396,
      "oon": 2397,
      "Ġcreated": 2398,
      "Ġghost": 2399,
      "Ġkilled": 2400,
      "hip": 2401,
      "Ġdeep": 2402,
      "Ġpe": 2403,
      "Ġupon": 2404,
      "ividual": 2405,
      "Ġeffect": 2406,
      "static": 2407,
      "Ġenjoy": 2408,
      "Ġcreate": 2409,
      "tle": 2410,
      "Ġik": 2411,
      "Ġgames": 2412,
      "ĠHuman": 2413,
      "ĠJesus": 2414,
      "antheon": 2415,
      "igin": 2416,
      "atan": 2417,
      "Ġeasy": 2418,
      "Ġhaven": 2419,
      "men": 2420,
      "usion": 2421,
      "Ġneeded": 2422,
      "mit": 2423,
      "Ġfire": 2424,
      "aces": 2425,
      "Ġmessage": 2426,
      "Ġmis": 2427,
      "Ġsimply": 2428,
      "Ġyoung": 2429,
      "ped": 2430,
      "000": 2431,
      "Ġmention": 2432,
      "661": 2433,
      "fic": 2434,
      "umber": 2435,
      "Ġspir": 2436,
      "sof": 2437,
      "Ġdestro": 2438,
      "Ġattack": 2439,
      "Ġsupposed": 2440,
      "========": 2441,
      "Ġfoc": 2442,
      "Ġthree": 2443,
      "Ġbased": 2444,
      "net": 2445,
      "Ġuw": 2446,
      "Ġsun": 2447,
      "ĠMe": 2448,
      "Ġhappens": 2449,
      "ows": 2450,
      "Ġcouldn": 2451,
      "--------": 2452,
      "Ġfav": 2453,
      "to": 2454,
      "ĠHell": 2455,
      "Ġspecific": 2456,
      "ĠâĢ": 2457,
      "Ġdro": 2458,
      "Ġsingle": 2459,
      "ference": 2460,
      "Ġclass": 2461,
      "ological": 2462,
      "ured": 2463,
      "Ġaccept": 2464,
      "Ġhours": 2465,
      "hy": 2466,
      "lo": 2467,
      "Ġorigin": 2468,
      "Ġfigure": 2469,
      "Ġwants": 2470,
      "Ġvoice": 2471,
      "Ġpri": 2472,
      "unch": 2473,
      "?\"": 2474,
      "tags": 2475,
      "Ġways": 2476,
      "Ġeng": 2477,
      "ĠKun": 2478,
      "Ġprocess": 2479,
      "Ġreturn": 2480,
      "Ġfeeling": 2481,
      "8051": 2482,
      "Ġiss": 2483,
      "oogle": 2484,
      "any": 2485,
      "Ġhealth": 2486,
      "ĠCon": 2487,
      "erv": 2488,
      "Ġmother": 2489,
      "Ġfeels": 2490,
      "sha": 2491,
      "Ġsociety": 2492,
      "7148": 2493,
      "Ġru": 2494,
      "28": 2495,
      "76832": 2496,
      "Ġ\"\"": 2497,
      "raft": 2498,
      "Ġ@[": 2499,
      "ĠPeople": 2500,
      "738051": 2501,
      "6617148": 2502,
      "73805176832": 2503,
      "661714873805176832": 2504,
      "Ġfalse": 2505,
      "cer": 2506,
      "oor": 2507,
      "Ġ+": 2508,
      "ĠEven": 2509,
      "ellig": 2510,
      "Ġnormal": 2511,
      "ished": 2512,
      "Ġadv": 2513,
      "sib": 2514,
      "Ġindividual": 2515,
      "uring": 2516,
      "ias": 2517,
      "ips": 2518,
      "Ġage": 2519,
      "Ġya": 2520,
      "eg": 2521,
      "Ġimage": 2522,
      "Ġfil": 2523,
      "Ġgone": 2524,
      "ĠAny": 2525,
      "Ġdefinitely": 2526,
      "Ġtype": 2527,
      "journal": 2528,
      "Ġtaking": 2529,
      "ush": 2530,
      "ification": 2531,
      "how": 2532,
      "{{": 2533,
      "}}": 2534,
      "Ġmulti": 2535,
      "Ġfine": 2536,
      "Ġgoes": 2537,
      "Ġdreams": 2538,
      "Ġbasically": 2539,
      "Ġrespon": 2540,
      "Ġmeant": 2541,
      "RE": 2542,
      "Ġtrans": 2543,
      "Ġwalk": 2544,
      "Ġworry": 2545,
      "Ġdepend": 2546,
      "Ġuwu": 2547,
      "That": 2548,
      "Ġval": 2549,
      "Ġslow": 2550,
      "date": 2551,
      "Ġdirect": 2552,
      "Ġlie": 2553,
      "ries": 2554,
      "Ġtext": 2555,
      "Ġprom": 2556,
      "Ġparent": 2557,
      "ided": 2558,
      "roll": 2559,
      "Ġgets": 2560,
      "ecially": 2561,
      "Ġarg": 2562,
      "pro": 2563,
      "{{<": 2564,
      "761": 2565,
      "Ġgun": 2566,
      "Ġevent": 2567,
      "youtube": 2568,
      "@@@@@@@@": 2569,
      "ĠðŁ¤£": 2570,
      "Ġ>}}": 2571,
      "yle": 2572,
      "Ġhonestly": 2573,
      "uly": 2574,
      "ĠDid": 2575,
      "spir": 2576,
      "OT": 2577,
      "Ġap": 2578,
      "Ġmine": 2579,
      "alc": 2580,
      "ĠBl": 2581,
      "IS": 2582,
      "Ġpict": 2583,
      "Ġpsych": 2584,
      "8196": 2585,
      "ĉĉĉ": 2586,
      "Ġfather": 2587,
      "Ġgovern": 2588,
      "Ġsupport": 2589,
      "ivers": 2590,
      "pid": 2591,
      "Ġdevelop": 2592,
      "utes": 2593,
      "Ġdeal": 2594,
      "Ġmist": 2595,
      "760": 2596,
      "Ġmental": 2597,
      "ging": 2598,
      "night": 2599,
      "itch": 2600,
      "Ġplaying": 2601,
      "ins": 2602,
      "Ġniet": 2603,
      "rible": 2604,
      "795": 2605,
      "Ġchance": 2606,
      "Ġreligion": 2607,
      "ket": 2608,
      "Ġbelief": 2609,
      "ĠChrist": 2610,
      "Ġrul": 2611,
      "text": 2612,
      "Ġsym": 2613,
      "â¨": 2614,
      "Ġobvious": 2615,
      "Ġlaw": 2616,
      "ears": 2617,
      "title": 2618,
      "Ġexc": 2619,
      "Ġassum": 2620,
      "Ġitself": 2621,
      "aste": 2622,
      "Ġhappening": 2623,
      "If": 2624,
      "Ġ.": 2625,
      "reme": 2626,
      "ried": 2627,
      "Ġknown": 2628,
      "Ġmid": 2629,
      "Ġlang": 2630,
      "Ġneeds": 2631,
      "ĠWhich": 2632,
      "images": 2633,
      "Ġsimilar": 2634,
      "ĠRyan": 2635,
      "Ġimm": 2636,
      "Ġvideos": 2637,
      "Ġhistory": 2638,
      "over": 2639,
      "oms": 2640,
      "Ġforce": 2641,
      "Ġben": 2642,
      "Ġnumber": 2643,
      "web": 2644,
      "Ġdescri": 2645,
      "ganizations": 2646,
      "uciferian": 2647,
      "ib": 2648,
      "ĠEl": 2649,
      "ĠInt": 2650,
      "Ġlives": 2651,
      "Ġresearch": 2652,
      "haha": 2653,
      "Ġpred": 2654,
      "Ġthanks": 2655,
      "ĠðŁĺī": 2656,
      "ING": 2657,
      "cle": 2658,
      "ral": 2659,
      "They": 2660,
      "ext": 2661,
      "arr": 2662,
      "Ġusually": 2663,
      "[[": 2664,
      "ards": 2665,
      "Ġnature": 2666,
      "To": 2667,
      "ling": 2668,
      "Ġalong": 2669,
      "7003": 2670,
      "Ġsitu": 2671,
      "So": 2672,
      "uro": 2673,
      "Ġgave": 2674,
      "5584": 2675,
      "Ġforgot": 2676,
      "/)": 2677,
      "Ġban": 2678,
      "arc": 2679,
      "Ġshall": 2680,
      "go": 2681,
      "rect": 2682,
      "Ġdestroy": 2683,
      "355584": 2684,
      "300355584": 2685,
      "416300355584": 2686,
      "527003": 2687,
      "527003416300355584": 2688,
      "541": 2689,
      "Ġbull": 2690,
      "Ġburn": 2691,
      "Ġcent": 2692,
      "Ġcap": 2693,
      "Ġabs": 2694,
      "Ġstrange": 2695,
      "Ġhalf": 2696,
      "Ġsuck": 2697,
      "ĠIm": 2698,
      "Ġlar": 2699,
      "ĠRussi": 2700,
      "1211": 2701,
      "Ġcomputer": 2702,
      "Ġsick": 2703,
      "Ġprof": 2704,
      "8691": 2705,
      "Ġshare": 2706,
      "ument": 2707,
      "Ġdude": 2708,
      "Ġrole": 2709,
      "using": 2710,
      "â©Ĭ": 2711,
      "239": 2712,
      "ands": 2713,
      "Ġener": 2714,
      "Ġhit": 2715,
      "ined": 2716,
      "Ġpat": 2717,
      "7575": 2718,
      "oss": 2719,
      "Ġair": 2720,
      "anna": 2721,
      "itive": 2722,
      "ĠCom": 2723,
      "Ġrunning": 2724,
      "2019": 2725,
      "Ġsave": 2726,
      "ica": 2727,
      "Ġmeet": 2728,
      "ield": 2729,
      "Ġ0": 2730,
      "Ġjoke": 2731,
      "ilt": 2732,
      "Ġprison": 2733,
      "Ġdraw": 2734,
      "iscord": 2735,
      "ges": 2736,
      "Ġmill": 2737,
      "Ġfur": 2738,
      "Ġfake": 2739,
      "Ġremind": 2740,
      "ĠUS": 2741,
      "No": 2742,
      "author": 2743,
      "OL": 2744,
      "Ġgra": 2745,
      "3130": 2746,
      "Ġlooked": 2747,
      "7756": 2748,
      "dle": 2749,
      "oh": 2750,
      "Ġaut": 2751,
      "976760": 2752,
      "55976760": 2753,
      "outh": 2754,
      "8186": 2755,
      "ruct": 2756,
      "4658186": 2757,
      "814261": 2758,
      "ront": 2759,
      "76155976760": 2760,
      "7756814261": 2761,
      "761559767604658186": 2762,
      "098": 2763,
      "Ġborn": 2764,
      "Ġtruly": 2765,
      "Ġstupid": 2766,
      "163130": 2767,
      "7756814261163130": 2768,
      "775681426116313090": 2769,
      "esome": 2770,
      "ify": 2771,
      "akes": 2772,
      "like": 2773,
      "ones": 2774,
      "Ġlau": 2775,
      "Ġconst": 2776,
      "ĠLem": 2777,
      "Ġeye": 2778,
      "ring": 2779,
      "ĠWith": 2780,
      "304": 2781,
      "Ġpersonal": 2782,
      "abyrin": 2783,
      "Ġspirit": 2784,
      "abyrinth": 2785,
      "45295": 2786,
      "Ġforget": 2787,
      "88736": 2788,
      "4045295": 2789,
      "098304": 2790,
      "88736098304": 2791,
      "404529588736098304": 2792,
      "St": 2793,
      "Ġign": 2794,
      "Ġtot": 2795,
      "Ġline": 2796,
      "stair": 2797,
      "Ġquestions": 2798,
      "63": 2799,
      "Ġtrain": 2800,
      "Ġincl": 2801,
      "ently": 2802,
      "istic": 2803,
      "context": 2804,
      "ault": 2805,
      "ior": 2806,
      "Ġfr": 2807,
      "Ġalt": 2808,
      "Ġhumanity": 2809,
      "Ġpurp": 2810,
      "Ġhid": 2811,
      "42": 2812,
      "Ġav": 2813,
      "Ġhig": 2814,
      "ians": 2815,
      "Ġtakes": 2816,
      "ato": 2817,
      "Ġshort": 2818,
      "ĠRE": 2819,
      "Ġdrink": 2820,
      "Ġtheory": 2821,
      "Ġdru": 2822,
      "224": 2823,
      "oth": 2824,
      "Ġthoughts": 2825,
      "Ġlangu": 2826,
      "Ġpick": 2827,
      "Ġmanip": 2828,
      "Ġesp": 2829,
      "Ġpull": 2830,
      "ending": 2831,
      "ĠTHE": 2832,
      "uss": 2833,
      "Ġproject": 2834,
      "Ġtelling": 2835,
      "Or": 2836,
      "Ġstar": 2837,
      "Ġbecom": 2838,
      "Ġminutes": 2839,
      "Ġvir": 2840,
      "lpha": 2841,
      "Ġclear": 2842,
      "151": 2843,
      "IG": 2844,
      "Ġcut": 2845,
      "ased": 2846,
      "Ġwebs": 2847,
      "2020": 2848,
      "itting": 2849,
      "Ġforever": 2850,
      "pantheon": 2851,
      "Ġweek": 2852,
      "empt": 2853,
      "Ġtaken": 2854,
      "Ġ9": 2855,
      "Ġpublic": 2856,
      "ery": 2857,
      "Ġpot": 2858,
      "Ġmagic": 2859,
      "Ġdoubt": 2860,
      "Ġscre": 2861,
      "Ġready": 2862,
      "Ġfavor": 2863,
      "59": 2864,
      "enn": 2865,
      "amed": 2866,
      "ateg": 2867,
      "ficult": 2868,
      "Ġhands": 2869,
      "Ġsort": 2870,
      "Ġstyle": 2871,
      "Ġmostly": 2872,
      "Ġdifficult": 2873,
      "Ġinfl": 2874,
      "evidence": 2875,
      "ĠHer": 2876,
      "Ġorder": 2877,
      "1899": 2878,
      "Ġbat": 2879,
      "8250": 2880,
      "84957": 2881,
      "1511899": 2882,
      "825024": 2883,
      "84957825024": 2884,
      "151189984957825024": 2885,
      "Ġpers": 2886,
      "Ġamaz": 2887,
      "sofpantheon": 2888,
      "amp": 2889,
      "ĠPer": 2890,
      "Ġresult": 2891,
      "Ġpolit": 2892,
      "tc": 2893,
      "ĠRank": 2894,
      "OO": 2895,
      "aa": 2896,
      "Ġcop": 2897,
      "Ġweap": 2898,
      "Ġwhite": 2899,
      "ender": 2900,
      "Ġpartic": 2901,
      "Ġwatched": 2902,
      "apt": 2903,
      "eed": 2904,
      "Ġasking": 2905,
      "Ġseeing": 2906,
      "stairsofpantheon": 2907,
      "iment": 2908,
      "Ġjud": 2909,
      "Ġbeaut": 2910,
      "Ġrepl": 2911,
      "Ġmil": 2912,
      "comments": 2913,
      "Ġextreme": 2914,
      "ury": 2915,
      "share": 2916,
      "full": 2917,
      "Ġwel": 2918,
      "Ġcommon": 2919,
      "cent": 2920,
      "for": 2921,
      "und": 2922,
      "Ġstra": 2923,
      "Ġconv": 2924,
      "ĠThats": 2925,
      "3725": 2926,
      "ony": 2927,
      "ĠAmer": 2928,
      "ief": 2929,
      "Ġclearly": 2930,
      "cing": 2931,
      "Ġbey": 2932,
      "Ġsurv": 2933,
      "15": 2934,
      "ination": 2935,
      "Ġdanger": 2936,
      "ĠWhere": 2937,
      "Ġpresent": 2938,
      "Ġmurder": 2939,
      "Ġloc": 2940,
      "Ġsil": 2941,
      "Ġequ": 2942,
      "Ġenem": 2943,
      "chan": 2944,
      "ĠECO": 2945,
      "/?": 2946,
      "gress": 2947,
      "iar": 2948,
      "Ġbreat": 2949,
      "Ġchat": 2950,
      "Ġnon": 2951,
      "Ġear": 2952,
      "oooo": 2953,
      "0390": 2954,
      "Ġquick": 2955,
      "Ġpret": 2956,
      "Ġacross": 2957,
      "9244": 2958,
      "869244": 2959,
      "Ġrealm": 2960,
      "81960390": 2961,
      "1211869244": 2962,
      "819603901211869244": 2963,
      "ĠSomet": 2964,
      "Ġmod": 2965,
      "Ġscen": 2966,
      "medium": 2967,
      "Ġexperien": 2968,
      "Ġaccess": 2969,
      "ĠĠĊ": 2970,
      "Ġprove": 2971,
      "Ġ([": 2972,
      "Ġtechnology": 2973,
      "ĠDiscord": 2974,
      "Ġintellig": 2975,
      "oid": 2976,
      "Ġcute": 2977,
      "Ġconcept": 2978,
      "Ġident": 2979,
      "Ġrelations": 2980,
      "Ġbaby": 2981,
      "ĠPl": 2982,
      "ĠðŁĳ": 2983,
      "Ġremain": 2984,
      "Ġenergy": 2985,
      "Ġweak": 2986,
      "que": 2987,
      "Ġdiscord": 2988,
      "476": 2989,
      "Ġelect": 2990,
      "ential": 2991,
      "Ġreading": 2992,
      "ches": 2993,
      "fer": 2994,
      "Ġhel": 2995,
      "Ġalive": 2996,
      "Ġhimself": 2997,
      "iversity": 2998,
      "Ġtou": 2999,
      "612": 3000,
      "iction": 3001,
      "Ġtravel": 3002,
      "Ġhurt": 3003,
      "\"](": 3004,
      "965": 3005,
      "uri": 3006,
      "Ġdumb": 3007,
      "olm": 3008,
      "Ġlose": 3009,
      "Ġ100": 3010,
      "Ġcurrent": 3011,
      "ision": 3012,
      "ĠThese": 3013,
      "Ġunless": 3014,
      "Ġabove": 3015,
      "iebol": 3016,
      "ĠLabyrinth": 3017,
      "Ġprov": 3018,
      "Ġprodu": 3019,
      "Ġteac": 3020,
      "Ġsimple": 3021,
      "Ġplanet": 3022,
      "488486": 3023,
      "30625": 3024,
      "476965": 3025,
      "4884866": 3026,
      "306254884866": 3027,
      "476965306254884866": 3028,
      "351": 3029,
      "âĪ": 3030,
      "449": 3031,
      "Ġkey": 3032,
      "Ġphysical": 3033,
      "Ġpurpose": 3034,
      "Ġwake": 3035,
      "Ġcity": 3036,
      "ached": 3037,
      "ape": 3038,
      "Ġgovernment": 3039,
      "Ġcode": 3040,
      "4544": 3041,
      "ask": 3042,
      "56612": 3043,
      "30618": 3044,
      "ney": 3045,
      "454430618": 3046,
      "56612454430618": 3047,
      "566124544306184193": 3048,
      "EE": 3049,
      "ero": 3050,
      "ĠRight": 3051,
      "Ġthank": 3052,
      "ĠMost": 3053,
      "1972": 3054,
      "ĠLet": 3055,
      "Ġproof": 3056,
      "Ġsituation": 3057,
      "234": 3058,
      "HO": 3059,
      "My": 3060,
      "but": 3061,
      "Ġmass": 3062,
      "45541": 3063,
      "Ġinvol": 3064,
      "2391972": 3065,
      "449729": 3066,
      "45541449729": 3067,
      "239197245541449729": 3068,
      "Ġserious": 3069,
      "Ġfollowing": 3070,
      "Ġann": 3071,
      "Ġconvers": 3072,
      "There": 3073,
      "Ġchoice": 3074,
      "49": 3075,
      "ius": 3076,
      "light": 3077,
      "Ġwolf": 3078,
      "Ġidk": 3079,
      "Ġturned": 3080,
      "Ġwanna": 3081,
      "Ġmir": 3082,
      "oring": 3083,
      "ĠTR": 3084,
      "rif": 3085,
      "Ġsports": 3086,
      "Ġawesome": 3087,
      "Ġposition": 3088,
      "Ġmad": 3089,
      "Ġpie": 3090,
      "ĠSee": 3091,
      "arently": 3092,
      "mao": 3093,
      "ĠHis": 3094,
      "iful": 3095,
      "Ġperhaps": 3096,
      "Ġpath": 3097,
      "ug": 3098,
      "Ġbecame": 3099,
      "Ġattention": 3100,
      "dow": 3101,
      "Ġfing": 3102,
      "Ġwaiting": 3103,
      "Ġdata": 3104,
      "work": 3105,
      "Ġetc": 3106,
      "Al": 3107,
      "Ġobs": 3108,
      "Ġthreat": 3109,
      "Ġtreat": 3110,
      "alcolm": 3111,
      "Ġcir": 3112,
      "Tube": 3113,
      "Ġhot": 3114,
      "Ġappro": 3115,
      "Ġsurpr": 3116,
      "known": 3117,
      "Ġson": 3118,
      "Ġfront": 3119,
      "ication": 3120,
      "Ġsafe": 3121,
      "land": 3122,
      "now": 3123,
      "igital": 3124,
      "ĠHello": 3125,
      "Ġlanguage": 3126,
      "Ġlil": 3127,
      "ĠSame": 3128,
      "ificial": 3129,
      "........": 3130,
      "Ġamazing": 3131,
      "Ġmachine": 3132,
      "Ġboy": 3133,
      "ĠAge": 3134,
      "Ġblue": 3135,
      "jor": 3136,
      "ĠThank": 3137,
      "por": 3138,
      "ensen": 3139,
      "â©ī": 3140,
      "Ġsmart": 3141,
      "Ġwebsite": 3142,
      "She": 3143,
      "Ġsear": 3144,
      "Ġda": 3145,
      "Ġbeha": 3146,
      "+++": 3147,
      "cha": 3148,
      "2232": 3149,
      "7432": 3150,
      "7737": 3151,
      "ND": 3152,
      "ina": 3153,
      "Ġcomb": 3154,
      "4162232": 3155,
      "Ġgotta": 3156,
      "ggest": 3157,
      "74324162232": 3158,
      "773774324162232": 3159,
      "773774324162232351": 3160,
      "200": 3161,
      "Ġlay": 3162,
      "Ġant": 3163,
      "Ġrealize": 3164,
      "Ġground": 3165,
      "Ġtowards": 3166,
      "Ġeff": 3167,
      "ĠTw": 3168,
      "acc": 3169,
      "Ġpract": 3170,
      "int": 3171,
      "ossible": 3172,
      "Ġchanged": 3173,
      "Ġinflu": 3174,
      "Ġwind": 3175,
      "ogn": 3176,
      "Ġfinally": 3177,
      "ME": 3178,
      "ified": 3179,
      "Ġspread": 3180,
      "view": 3181,
      "aring": 3182,
      "Ġsuggest": 3183,
      "Ġvoor": 3184,
      "Ġmemory": 3185,
      "lish": 3186,
      "yn": 3187,
      "Ġnone": 3188,
      "ĠAlpha": 3189,
      "het": 3190,
      "Ġocc": 3191,
      "Ġplayed": 3192,
      "ĠIk": 3193,
      "ters": 3194,
      "Ġ*\"": 3195,
      "Ġblock": 3196,
      "Ġteam": 3197,
      "Ġparents": 3198,
      "draft": 3199,
      "Ġsqu": 3200,
      "Ġfair": 3201,
      "omb": 3202,
      "ising": 3203,
      "oph": 3204,
      "Ġsuffering": 3205,
      "Ġhigher": 3206,
      "Ġtre": 3207,
      "ales": 3208,
      "Ġdoc": 3209,
      "miss": 3210,
      "ĠTom": 3211,
      "Ġkept": 3212,
      "Ġevidence": 3213,
      "Ġfocus": 3214,
      "38": 3215,
      "fter": 3216,
      "nen": 3217,
      "Ġstep": 3218,
      "unk": 3219,
      "Ġprep": 3220,
      "ijk": 3221,
      "ĠJustice": 3222,
      "Ġeasier": 3223,
      "fully": 3224,
      "Ġfem": 3225,
      "ift": 3226,
      "tain": 3227,
      "Ġsource": 3228,
      "7950": 3229,
      "itect": 3230,
      "imens": 3231,
      "Ġnobody": 3232,
      "Ġbroken": 3233,
      "Ġgiving": 3234,
      "Ġpeace": 3235,
      "Ġbeyond": 3236,
      "Ġcontact": 3237,
      "ression": 3238,
      "Ġpossib": 3239,
      "Ġconnected": 3240,
      "Ġrobot": 3241,
      "7236": 3242,
      "ended": 3243,
      "Ġcompl": 3244,
      "Ġcorrect": 3245,
      "AR": 3246,
      "ives": 3247,
      "Ġ?": 3248,
      "Ġstories": 3249,
      "raid": 3250,
      "Ġmonths": 3251,
      "â©Ĭâ©Ĭ": 3252,
      "ler": 3253,
      "ietn": 3254,
      "Ġrepres": 3255,
      "Ġmessages": 3256,
      "Ĩâ«": 3257,
      "Ġonline": 3258,
      "ills": 3259,
      "Ġrespect": 3260,
      "TH": 3261,
      "Ġdied": 3262,
      "ĠEm": 3263,
      "Ġattempt": 3264,
      "Ġfeed": 3265,
      "Ġfurther": 3266,
      "Ġsuc": 3267,
      "Ġworse": 3268,
      "Ġprop": 3269,
      "orrow": 3270,
      "irth": 3271,
      "rad": 3272,
      "rel": 3273,
      "How": 3274,
      "223": 3275,
      "Ġlim": 3276,
      "Ġnotic": 3277,
      "Ġmajor": 3278,
      "Ġbuy": 3279,
      "Ġsymbol": 3280,
      "person": 3281,
      "Ġbrother": 3282,
      "ites": 3283,
      "ĠOf": 3284,
      "Ġthrow": 3285,
      "Ġaware": 3286,
      "Ġrid": 3287,
      "Ġinternet": 3288,
      "Ġdetail": 3289,
      "elling": 3290,
      "ĠThough": 3291,
      "Ġrofl": 3292,
      "Ġpicture": 3293,
      "Ġai": 3294,
      "Ġnear": 3295,
      "Ġnecess": 3296,
      "Ġsold": 3297,
      "Ġcats": 3298,
      "Ġversion": 3299,
      "Ġtroll": 3300,
      "Ġdue": 3301,
      "Ġyout": 3302,
      "Ġdog": 3303,
      "Ġneg": 3304,
      "raph": 3305,
      "university": 3306,
      "ĠUk": 3307,
      "Ġcompany": 3308,
      "amer": 3309,
      "When": 3310,
      "lt": 3311,
      "Ġlate": 3312,
      "Ġreach": 3313,
      "ĠHave": 3314,
      "Ġtem": 3315,
      "Ġland": 3316,
      "961": 3317,
      "Ġdiv": 3318,
      "â©Į": 3319,
      "ÂłÂł": 3320,
      "ST": 3321,
      "Ġcold": 3322,
      "eeee": 3323,
      "Ġcant": 3324,
      "Ġproper": 3325,
      "Ġfighting": 3326,
      "mon": 3327,
      "ðŁ¤£": 3328,
      "Ġunderstanding": 3329,
      "Ġgain": 3330,
      "ĠTe": 3331,
      "Ġvict": 3332,
      "Ġlearned": 3333,
      "Ġcontinue": 3334,
      "oun": 3335,
      "ari": 3336,
      "Ġlog": 3337,
      "Ġafraid": 3338,
      "Ġexistence": 3339,
      "Ġpoor": 3340,
      "ases": 3341,
      "968": 3342,
      "bed": 3343,
      "Ġwritten": 3344,
      "Ġfavorite": 3345,
      "GER": 3346,
      "Ġcore": 3347,
      "Ġexcept": 3348,
      "Ġimpossible": 3349,
      "Ġconscious": 3350,
      "Ġmorning": 3351,
      "ĠThanks": 3352,
      "bo": 3353,
      "jk": 3354,
      "7991": 3355,
      "3318691": 3356,
      "863318691": 3357,
      "795863318691": 3358,
      "961223": 3359,
      "7991795863318691": 3360,
      "799179586331869194": 3361,
      "dy": 3362,
      "ires": 3363,
      "uel": 3364,
      "44486": 3365,
      "]],": 3366,
      "Ġfreed": 3367,
      "load": 3368,
      "723644486": 3369,
      "ĠSh": 3370,
      "Ġ2019": 3371,
      "ĠOkay": 3372,
      "224723644486": 3373,
      "961223224723644486": 3374,
      "rap": 3375,
      "Ġconspir": 3376,
      "Ġrecord": 3377,
      "Ġoriginal": 3378,
      "Ġextremely": 3379,
      "Ġmot": 3380,
      "Ġwilling": 3381,
      "On": 3382,
      "path": 3383,
      "Ġbunch": 3384,
      "olute": 3385,
      "ĠDoes": 3386,
      "Ġtend": 3387,
      "ĠYep": 3388,
      "ION": 3389,
      "head": 3390,
      "Ġnews": 3391,
      "Ġbuilding": 3392,
      "Ġbeautiful": 3393,
      "ked": 3394,
      "Ġworst": 3395,
      "ĠJe": 3396,
      "gry": 3397,
      "min": 3398,
      "Ġ...": 3399,
      "Ġsusp": 3400,
      "Ġconsider": 3401,
      "Ġlaugh": 3402,
      "!âĢĿ": 3403,
      "Ġtool": 3404,
      "Ġpowerful": 3405,
      "Ġcover": 3406,
      "Ġtired": 3407,
      "Ġden": 3408,
      "Ġlmao": 3409,
      "Ġdesign": 3410,
      "ground": 3411,
      "5326": 3412,
      "Ġpure": 3413,
      "Ġcollect": 3414,
      "Ġespecially": 3415,
      "by": 3416,
      "Ģâ": 3417,
      "Ġsat": 3418,
      "ational": 3419,
      "ĠDiebol": 3420,
      "Ġactual": 3421,
      "Ġcreep": 3422,
      "ashion": 3423,
      "Ġpriv": 3424,
      "781": 3425,
      "ĠHet": 3426,
      "ĠLOL": 3427,
      "ĠYouTube": 3428,
      "ĠðŁ¤": 3429,
      "Ġclos": 3430,
      "Ġinsane": 3431,
      "Ġesc": 3432,
      "ĠĠĠĠĠĠĠĠĠĠ": 3433,
      "Ġoppos": 3434,
      "Ġlarge": 3435,
      "BI": 3436,
      "Ġbes": 3437,
      "chitect": 3438,
      "ĠRed": 3439,
      "ressed": 3440,
      "ĠðŁĺĤ": 3441,
      "As": 3442,
      "Ġlow": 3443,
      "Ġviol": 3444,
      "Ġstraight": 3445,
      "Ġdangerous": 3446,
      "292": 3447,
      "ister": 3448,
      "ĠGoogle": 3449,
      "Ġamount": 3450,
      "Ġenv": 3451,
      "Ġspeaking": 3452,
      "ered": 3453,
      "ĠGr": 3454,
      "cient": 3455,
      "ountain": 3456,
      "Ġsocial": 3457,
      "Ġyoutube": 3458,
      "Ġrele": 3459,
      "Ġdamn": 3460,
      "Ġmanipul": 3461,
      "((": 3462,
      "419": 3463,
      "Ġmiddle": 3464,
      "IGGER": 3465,
      "Ġcuri": 3466,
      "Ġstuck": 3467,
      "ĠYOU": 3468,
      "Ġscared": 3469,
      "ĠTRIGGER": 3470,
      "AL": 3471,
      "Ġess": 3472,
      "Ġmensen": 3473,
      "ĠId": 3474,
      "Ġlack": 3475,
      "Ġforward": 3476,
      "Ġkun": 3477,
      "Ġbusiness": 3478,
      "Ġrich": 3479,
      "ey": 3480,
      "Ġ&": 3481,
      "Ġability": 3482,
      "abor": 3483,
      "Ġfamil": 3484,
      "Ġfinal": 3485,
      "Ġsubject": 3486,
      "441": 3487,
      "ait": 3488,
      "Ġsens": 3489,
      "acking": 3490,
      "Ġ12": 3491,
      "Ġwrote": 3492,
      "Ġ200": 3493,
      "/).": 3494,
      "Ġnamed": 3495,
      "cons": 3496,
      "Ġunivers": 3497,
      "0689": 3498,
      "718": 3499,
      "2941": 3500,
      "owers": 3501,
      "Ġ((": 3502,
      "icked": 3503,
      "260689": 3504,
      "59781": 3505,
      "294159781": 3506,
      "260689419": 3507,
      "294159781260689419": 3508,
      "372": 3509,
      "dom": 3510,
      "Ġmouth": 3511,
      "Ġkitten": 3512,
      "ceive": 3513,
      "Ġmoder": 3514,
      "Ġals": 3515,
      "pping": 3516,
      "ID": 3517,
      "Ġfashion": 3518,
      "707": 3519,
      "ĠDave": 3520,
      "ĠThose": 3521,
      "eresting": 3522,
      "Ġspecial": 3523,
      "Ġbooks": 3524,
      "Ġwelcome": 3525,
      "970": 3526,
      "Do": 3527,
      "che": 3528,
      "gon": 3529,
      "Ġ30": 3530,
      "alm": 3531,
      "Ġseemed": 3532,
      "Ġskin": 3533,
      "pre": 3534,
      "wise": 3535,
      "Ġfit": 3536,
      "ĠLove": 3537,
      "Ġspend": 3538,
      "ĠOuro": 3539,
      "Ġgrand": 3540,
      "Ġmedia": 3541,
      "rew": 3542,
      "Ġduring": 3543,
      "ĠTO": 3544,
      "Un": 3545,
      "itary": 3546,
      "aced": 3547,
      "ĠGhost": 3548,
      "Ġcertainly": 3549,
      "Ġmultiple": 3550,
      "Ġsearch": 3551,
      "antly": 3552,
      "ploy": 3553,
      "ijd": 3554,
      "Ġrelated": 3555,
      "Ġapparently": 3556,
      "165": 3557,
      "bers": 3558,
      "ware": 3559,
      "org": 3560,
      "Ġple": 3561,
      "303": 3562,
      "weight": 3563,
      "Ġopin": 3564,
      "!\"": 3565,
      "uses": 3566,
      "Ġsomebody": 3567,
      "Ġbox": 3568,
      "ĠArt": 3569,
      "Ġbeliefs": 3570,
      "ĠPerhaps": 3571,
      "Ġannoy": 3572,
      "![": 3573,
      "Re": 3574,
      "een": 3575,
      "ata": 3576,
      "Ġcouple": 3577,
      "Ġenemy": 3578,
      "Ġswe": 3579,
      "Ġur": 3580,
      "Ġharm": 3581,
      "Ġallowed": 3582,
      "aly": 3583,
      "Ġhide": 3584,
      "Ġhij": 3585,
      "ĠWor": 3586,
      "ĠWill": 3587,
      "Ġmeth": 3588,
      "Ġpen": 3589,
      "821": 3590,
      "Ġworked": 3591,
      "ORD": 3592,
      "Ġaan": 3593,
      "Ġaud": 3594,
      "Ġcoin": 3595,
      "Ġdi": 3596,
      "5599": 3597,
      "imin": 3598,
      "Ġsoft": 3599,
      "ĠRem": 3600,
      "Ġroy": 3601,
      "Ġproblems": 3602,
      "Ġsexual": 3603,
      "ĠOnly": 3604,
      "ĉĠ": 3605,
      "ĠIS": 3606,
      "illed": 3607,
      "7106718": 3608,
      "Ġroll": 3609,
      "Ġreasons": 3610,
      "Ġrespond": 3611,
      "arciss": 3612,
      "7077106718": 3613,
      "3037077106718": 3614,
      "55993037077106718": 3615,
      "ii": 3616,
      "je": 3617,
      "Ġbirth": 3618,
      "Ġactions": 3619,
      "1055993037077106718": 3620,
      "Ġfloor": 3621,
      "Ġdifference": 3622,
      "Ġsla": 3623,
      "Ġsuppose": 3624,
      "Ġclean": 3625,
      "Ġhop": 3626,
      "Ġasks": 3627,
      "Ġknowing": 3628,
      "ocr": 3629,
      "dden": 3630,
      "Ch": 3631,
      "ĠAm": 3632,
      "Ġanimals": 3633,
      "aith": 3634,
      "what": 3635,
      "ĠâĢ¦": 3636,
      "eds": 3637,
      "Ġnaar": 3638,
      "ueen": 3639,
      "Ġinteract": 3640,
      "ategories": 3641,
      "VE": 3642,
      "ky": 3643,
      "Ġ^": 3644,
      "Ġach": 3645,
      "ency": 3646,
      "Ġenc": 3647,
      "Ġcontext": 3648,
      "Ġsky": 3649,
      "ĠECHO": 3650,
      "2021": 3651,
      "Ġshot": 3652,
      "fortun": 3653,
      "Ġfell": 3654,
      "raine": 3655,
      "though": 3656,
      "Ġterrible": 3657,
      "ĠInteresting": 3658,
      "hips": 3659,
      "lass": 3660,
      "ura": 3661,
      "zen": 3662,
      "Ġoper": 3663,
      "icle": 3664,
      "5555": 3665,
      "Ġprogress": 3666,
      "ooky": 3667,
      "Ġbuilt": 3668,
      "Ġobject": 3669,
      "eks": 3670,
      "ued": 3671,
      "796": 3672,
      "452": 3673,
      "icate": 3674,
      "Ġstars": 3675,
      "Ġnoticed": 3676,
      "150": 3677,
      "Luciferian": 3678,
      "ħâ«": 3679,
      "Ġlearning": 3680,
      "Ġissue": 3681,
      "464": 3682,
      "osp": 3683,
      "els": 3684,
      "ived": 3685,
      "Ġflat": 3686,
      "â«ĸ": 3687,
      "Ġmemories": 3688,
      "Ġmissing": 3689,
      "Ġcommunity": 3690,
      "Ġcolor": 3691,
      "Ġtomato": 3692,
      "ennis": 3693,
      "46446": 3694,
      "Ġteach": 3695,
      "â©Ī": 3696,
      "Ġexperiment": 3697,
      "pective": 3698,
      "Ġabsolute": 3699,
      "23446446": 3700,
      "9705555": 3701,
      "234464469705555": 3702,
      "234464469705555968": 3703,
      "Ġpun": 3704,
      "Ġmaar": 3705,
      "Ġconfused": 3706,
      "Ġfreedom": 3707,
      "icking": 3708,
      "Ġrules": 3709,
      "Ġtree": 3710,
      "Ġhyp": 3711,
      "acing": 3712,
      "Ġscream": 3713,
      "Not": 3714,
      "bit": 3715,
      "tf": 3716,
      "Ġheav": 3717,
      "Ġdecided": 3718,
      "rc": 3719,
      "ened": 3720,
      "set": 3721,
      "Ġdoct": 3722,
      "ĠBen": 3723,
      "Ġplaces": 3724,
      "For": 3725,
      "Ġhall": 3726,
      "Ġhack": 3727,
      "Ġsudden": 3728,
      "Ġdele": 3729,
      "Ġscience": 3730,
      "Ġhuge": 3731,
      "reci": 3732,
      "Ġla": 3733,
      "Ġele": 3734,
      "Ġsumm": 3735,
      "ĠMoon": 3736,
      "Ġzo": 3737,
      "Ġprefer": 3738,
      "Ġgods": 3739,
      "Ġmatters": 3740,
      "Ġrefer": 3741,
      "Ġport": 3742,
      "eth": 3743,
      "ĠAg": 3744,
      "Ġstri": 3745,
      "Ġintent": 3746,
      "Ġherself": 3747,
      "Ġlock": 3748,
      "hhhh": 3749,
      "ĠQu": 3750,
      "Ġgreen": 3751,
      "Ġmentioned": 3752,
      ".*": 3753,
      "ĠSha": 3754,
      "elcome": 3755,
      "ĠHey": 3756,
      "Ġdiscuss": 3757,
      "Ġglad": 3758,
      "Ġgeneral": 3759,
      "Ġhole": 3760,
      "OW": 3761,
      "bh": 3762,
      "ican": 3763,
      "Ġshoot": 3764,
      "ietnam": 3765,
      "588": 3766,
      "pret": 3767,
      "łĢâ": 3768,
      "ilia": 3769,
      "ĠLook": 3770,
      "Ġrelationship": 3771,
      "Ĩâ«ħâ«": 3772,
      "297": 3773,
      "Ġmoving": 3774,
      "Ġxan": 3775,
      "ĠQueen": 3776,
      "vior": 3777,
      "zz": 3778,
      "Ġinde": 3779,
      "ĠAct": 3780,
      "Ġjump": 3781,
      "3232": 3782,
      "medi": 3783,
      "Ġconversation": 3784,
      "rr": 3785,
      "othes": 3786,
      "Ġearly": 3787,
      "Ġadult": 3788,
      "Ġrecogn": 3789,
      "overed": 3790,
      "Ġobviously": 3791,
      "Ġinvolved": 3792,
      "67": 3793,
      "One": 3794,
      "lly": 3795,
      "99297": 3796,
      "7501": 3797,
      "Ġsomewhere": 3798,
      "ĠErin": 3799,
      "9957501": 3800,
      "ively": 3801,
      "ĠGo": 3802,
      "Ġinclud": 3803,
      "Ġhidden": 3804,
      "7969957501": 3805,
      "5887969957501": 3806,
      "588796995750199297": 3807,
      "Ġfold": 3808,
      "ators": 3809,
      "Ġbeat": 3810,
      "4120": 3811,
      "onely": 3812,
      "ieve": 3813,
      "dered": 3814,
      "Ġtouch": 3815,
      "Ã©": 3816,
      "Ġ19": 3817,
      "Ġemail": 3818,
      "menu": 3819,
      "Ĩâ«ħâ«Ĩâ«ħâ«": 3820,
      "categories": 3821,
      "la": 3822,
      "Ġbill": 3823,
      "Ġking": 3824,
      "ĠBr": 3825,
      "ĠOur": 3826,
      "ĠWhile": 3827,
      "ĠHowever": 3828,
      "KE": 3829,
      "Ġbod": 3830,
      "Ġlord": 3831,
      "Ġgold": 3832,
      "izing": 3833,
      "Ġdisapp": 3834,
      "sidered": 3835,
      "De": 3836,
      "ige": 3837,
      "Ġbegan": 3838,
      "imate": 3839,
      "Ġpredict": 3840,
      "ĠRussia": 3841,
      "All": 3842,
      "des": 3843,
      "Ġgay": 3844,
      "Ġink": 3845,
      "iron": 3846,
      "Ġsomehow": 3847,
      "Ġunknown": 3848,
      "ĠHere": 3849,
      "Ġbrought": 3850,
      "Ġcountries": 3851,
      "ervation": 3852,
      "room": 3853,
      "Ġconsidered": 3854,
      "Ġshut": 3855,
      "Ġship": 3856,
      "aster": 3857,
      "Ġblind": 3858,
      "779": 3859,
      "Ġcy": 3860,
      "Ġinn": 3861,
      "Ġnotice": 3862,
      "ĠDark": 3863,
      "Ġrad": 3864,
      "Fodder": 3865,
      "Ġsep": 3866,
      "Ġcomment": 3867,
      "Ġimmedi": 3868,
      "Ġappreci": 3869,
      "Ġâī": 3870,
      "Ġinterested": 3871,
      "Ġinvest": 3872,
      "Ġrule": 3873,
      "personas": 3874,
      "Ġconspiracy": 3875,
      "Ġmethod": 3876,
      "04": 3877,
      "Ġtort": 3878,
      "erd": 3879,
      "Ġmoon": 3880,
      "Ġmale": 3881,
      "Ġbecomes": 3882,
      "sc": 3883,
      "Ġhair": 3884,
      "Ġcann": 3885,
      "ograph": 3886,
      "Ġrecently": 3887,
      "Ġweapon": 3888,
      "Ġ62": 3889,
      "llen": 3890,
      "ĠMalcolm": 3891,
      "ĠNOT": 3892,
      "Ġaction": 3893,
      "Ġcontain": 3894,
      "Ġparts": 3895,
      "Ġserv": 3896,
      "Ġrepresent": 3897,
      "Ġroyals": 3898,
      ".*\"": 3899,
      "har": 3900,
      "Ġfield": 3901,
      "Ġnor": 3902,
      "Ġloved": 3903,
      "Ġposs": 3904,
      "Ġposted": 3905,
      "eps": 3906,
      "ences": 3907,
      "ature": 3908,
      "alking": 3909,
      "Ġamong": 3910,
      "Ġwild": 3911,
      "erm": 3912,
      "olution": 3913,
      "Ġvacc": 3914,
      "](((": 3915,
      "Ġdeser": 3916,
      "â«ķ": 3917,
      "Ġcharacters": 3918,
      "gor": 3919,
      "Ġou": 3920,
      "ĠPlease": 3921,
      "ables": 3922,
      "Ġcalling": 3923,
      "Ġphot": 3924,
      "???": 3925,
      "you": 3926,
      "Ġut": 3927,
      "Ġtennis": 3928,
      "Ġpan": 3929,
      "otes": 3930,
      "Ġkilling": 3931,
      "ĠZe": 3932,
      "Ġbeginning": 3933,
      "Ġce": 3934,
      "Ġcross": 3935,
      "rugg": 3936,
      "Ġrepe": 3937,
      "ĠExactly": 3938,
      "Love": 3939,
      "omen": 3940,
      "653": 3941,
      "ĠWE": 3942,
      "rix": 3943,
      "Ġmaster": 3944,
      "ĠCl": 3945,
      "ounds": 3946,
      "spooky": 3947,
      "rupt": 3948,
      "class": 3949,
      "Ġdemon": 3950,
      "Ġwaste": 3951,
      "Ġfoot": 3952,
      "Ġeating": 3953,
      "arden": 3954,
      "Ġmodern": 3955,
      "Ġindeed": 3956,
      "TI": 3957,
      "Ġwis": 3958,
      "Ġodd": 3959,
      "Ġheaven": 3960,
      "ung": 3961,
      "ĠFold": 3962,
      "Ġstarting": 3963,
      "Ġtalked": 3964,
      "Ġfollowers": 3965,
      "53": 3966,
      "Ġwit": 3967,
      "Ġtrou": 3968,
      "Ġplant": 3969,
      "aged": 3970,
      "2370": 3971,
      "Ġsouls": 3972,
      "Ġpolice": 3973,
      "Ġlistening": 3974,
      "Ġsuccess": 3975,
      "ĠUkraine": 3976,
      "tr": 3977,
      "Ġmountain": 3978,
      "Ġcell": 3979,
      "Ġdad": 3980,
      "rop": 3981,
      "Ġ>.": 3982,
      "oka": 3983,
      "Ġemotions": 3984,
      "Ġresponse": 3985,
      "ĠREC": 3986,
      "Ġcard": 3987,
      "irm": 3988,
      "ĠWas": 3989,
      "ĠHa": 3990,
      "ĠPr": 3991,
      "Ġuser": 3992,
      "play": 3993,
      "Ġfeet": 3994,
      "Ġsuffer": 3995,
      "Ġcurious": 3996,
      "\".": 3997,
      "Ġauthor": 3998,
      "erc": 3999,
      "Ġload": 4000,
      "Ġarm": 4001,
      "Ġbored": 4002,
      "Ġwife": 4003,
      "Ġcaught": 4004,
      "Ġcamer": 4005,
      "Ġdom": 4006,
      "Ġfly": 4007,
      "itter": 4008,
      "ĠHel": 4009,
      "ĠYet": 4010,
      "aken": 4011,
      "Ġcrypt": 4012,
      "Ġdrugs": 4013,
      "Just": 4014,
      "duc": 4015,
      "uff": 4016,
      "vid": 4017,
      "Ġfant": 4018,
      "Ġpush": 4019,
      "ĠSatan": 4020,
      "ĠDam": 4021,
      "this": 4022,
      "Ġissues": 4023,
      "conscious": 4024,
      "Ġpossess": 4025,
      "book": 4026,
      "Ġfan": 4027,
      "Ġthous": 4028,
      "Ġuit": 4029,
      "Ġrealized": 4030,
      "Ġaccur": 4031,
      "bling": 4032,
      "Ġeasily": 4033,
      "Ġquickly": 4034,
      "Oh": 4035,
      "tom": 4036,
      "Ġstream": 4037,
      "Ġsaf": 4038,
      "cription": 4039,
      "ĠRECORD": 4040,
      "Ġton": 4041,
      "Ġbird": 4042,
      "ĠIT": 4043,
      "antum": 4044,
      "Ġtrick": 4045,
      "Ġappear": 4046,
      "Ġbroke": 4047,
      "łĢâłĢâ": 4048,
      "66": 4049,
      "Ik": 4050,
      "pter": 4051,
      "76779": 4052,
      "74729": 4053,
      "Ġrecall": 4054,
      "0848": 4055,
      "Ġdirectly": 4056,
      "Ġpiece": 4057,
      "82176779": 4058,
      "45282176779": 4059,
      "7472945282176779": 4060,
      "747294528217677938": 4061,
      "SC": 4062,
      "ker": 4063,
      "Ġ24": 4064,
      "Ġcost": 4065,
      "ances": 4066,
      "Ġweeks": 4067,
      "iza": 4068,
      "Ġnatural": 4069,
      "px": 4070,
      "ping": 4071,
      "pite": 4072,
      "asc": 4073,
      "rib": 4074,
      "ĠBy": 4075,
      "Ġring": 4076,
      "ĠFl": 4077,
      "Ġminds": 4078,
      "Ġevents": 4079,
      "Ġsimulation": 4080,
      "Ġterm": 4081,
      "Ġpaper": 4082,
      "Ġeffort": 4083,
      "148": 4084,
      "Ġlore": 4085,
      "asy": 4086,
      "Ġvol": 4087,
      "Ġshouldn": 4088,
      "Ġinterpret": 4089,
      "Ġhorror": 4090,
      "ĠEveryone": 4091,
      "Ġtomorrow": 4092,
      "Ġperspective": 4093,
      "Ġjudge": 4094,
      "Ġintelligence": 4095
    },
    "merges": [
      "Ġ t",
      "Ġ a",
      "h e",
      "i n",
      "Ġ w",
      "r e",
      "Ġ s",
      "o u",
      "Ġt he",
      "o n",
      "h a",
      "Ġ i",
      "e r",
      "Ġ m",
      "Ġ b",
      "Ġ I",
      "in g",
      "Ġ c",
      "e n",
      "8 5",
      "7 6",
      "o r",
      "Ġt o",
      "Ġ d",
      "Ġ f",
      "0 6",
      "a n",
      "7 1",
      "Ġ p",
      "4 8",
      "l l",
      "Ġ l",
      "Ġ o",
      "e s",
      "5 1",
      "Ġa n",
      "Ġ y",
      "e d",
      "7 9",
      "ha t",
      "s t",
      "i t",
      "Ġ n",
      "2 9",
      "4 5",
      "a t",
      "2 2",
      "Ġy ou",
      "Ġ g",
      "o m",
      "Ġ in",
      "8 0",
      "Ġo f",
      "Ġan d",
      "3 1",
      "i s",
      "Ġb e",
      "v e",
      "a r",
      "o t",
      "Ġt h",
      "Ġi t",
      "l e",
      "4 1",
      "Ġi s",
      "o w",
      "Ġ e",
      "7 0",
      "6 1",
      "7 2",
      "Ġ ha",
      "Ġt hat",
      "9 9",
      "7 4",
      "a l",
      "a s",
      "Ġ T",
      "i c",
      "â Ģ",
      "5 6",
      "Ġ h",
      "3 5",
      "s e",
      "k e",
      "Ġ re",
      "l d",
      "u t",
      "a y",
      "e t",
      "6 2",
      "0 51",
      "i d",
      "Ġ he",
      "Ġ on",
      "v er",
      "i on",
      "9 4",
      "Ġ u",
      "9 8",
      "9 76",
      "Ġl i",
      "l y",
      "79 8",
      "8 06",
      "71 98",
      "70 976",
      "62 7198",
      "051 627198",
      "806 051627198",
      "70976 0",
      "806051627198 709760",
      "E D",
      "a c",
      "1 1",
      "g h",
      "Ġm e",
      "5 5",
      "Ġw e",
      "6 5",
      "Ġ A",
      "Ġs t",
      "Ġf or",
      "en t",
      "r o",
      "Ġ k",
      "i m",
      "a m",
      "0 0",
      "55 29",
      "7 56",
      "3 3",
      "Ġn ot",
      "ou t",
      "o o",
      "85 85",
      "756 6",
      "85 5529",
      "76 11",
      "8585 7566",
      "855529 7611",
      "8555297611 85857566",
      "a ll",
      "Ġa re",
      "n d",
      "a d",
      "Ġw as",
      "âĢ Ļ",
      "i r",
      "Ġd o",
      "ou ld",
      "i ll",
      "ĠT he",
      "it h",
      "Ġ [",
      "71 06",
      "' s",
      "' t",
      "u st",
      "Ġ S",
      "48 4",
      "22 61",
      "798 2261",
      "94 484",
      "06 7982261",
      "7106 067982261",
      "7106067982261 94484",
      "Ġha ve",
      "99 85",
      "3 4",
      "Ġm y",
      "Ġ j",
      "c t",
      "Ġ W",
      "o p",
      "2 0",
      "o l",
      "r i",
      "Ġw ith",
      "31 5",
      "c e",
      "Ġli ke",
      "Ġth is",
      "gh t",
      "Ġa s",
      "c h",
      "8 8",
      "e e",
      "Ġthe y",
      "om e",
      "9 2",
      "8 2",
      "Ġw h",
      "Ġb ut",
      "Ġc an",
      "3 6",
      "he r",
      "9 0",
      "7 29",
      "7 7",
      "Ġn e",
      "h ing",
      "Ġm o",
      "all y",
      ". .",
      "C T",
      "Ġ \"",
      "an t",
      "R ED",
      "35 80",
      "A CT",
      "RED ACT",
      "REDACT ED",
      "3 45",
      "Ġk n",
      "4 6",
      "Ġ H",
      "8 1",
      "Ġ Ġ",
      "Ġ Y",
      "Ġs u",
      "45 6",
      "45 9",
      "Ġa b",
      "Ġ B",
      "Ġa l",
      "48 8",
      "on e",
      "7 51",
      "Ġ or",
      "Ġs o",
      "Ġw hat",
      "Ġw or",
      "Ġj ust",
      "r a",
      "Ġ v",
      "Ġd e",
      "56 488",
      "56488 79",
      "74 65",
      "9985 5648879",
      "315 99855648879",
      "7465 31599855648879",
      "t er",
      "g e",
      "es s",
      "u s",
      "Ġa ll",
      "Ġkn ow",
      "80 2",
      "48 802",
      "345 48802",
      "76 48",
      "29 34548802",
      "41 2934548802",
      "82 412934548802",
      "82412934548802 7648",
      "Ġ M",
      "at ion",
      "7 5",
      "i l",
      "3 2",
      "7 80",
      "u r",
      "in k",
      "72 5",
      "Ġyou r",
      "p p",
      "Ġa t",
      "e a",
      "u n",
      "7 48",
      "in d",
      "Ġg o",
      "76 780",
      "79 748",
      "72 79748",
      "74 725",
      "76780 4",
      "7279748 767804",
      "74725 7279748767804",
      "ĠI t",
      "9 5",
      "Ġe x",
      "Ġc on",
      "er s",
      "9 06",
      "u m",
      "i e",
      "u l",
      "Ġ Ċ",
      "e op",
      "Ġw ould",
      "3 00",
      "Ġd on",
      "eop le",
      "Ġ D",
      "es t",
      "Ġm a",
      "r om",
      "80 1",
      "Ġi f",
      "Ġs h",
      "Ġt r",
      "ou r",
      "ver y",
      "ha n",
      "i g",
      "Ġ N",
      "Ġw ill",
      "Ġon e",
      "Ġp eople",
      "61 36",
      "Ġw he",
      "31 51",
      "99 6136",
      "729 996136",
      "729996136 459",
      "41 3151",
      "413151 729996136459",
      "65 77",
      "Ġab out",
      "1 3580",
      "22 6577",
      "798 13580",
      "456 226577",
      "79813580 8",
      "456226577 798135808",
      "Ġ C",
      "8 90",
      "v en",
      "n t",
      "- -",
      "am e",
      "Ġ @",
      "f e",
      "ar t",
      "at e",
      "an d",
      "Ġ P",
      "en d",
      "Ġ O",
      "92 88",
      "76 801",
      "51 94",
      "22 890",
      "9288 76801",
      "5194 928876801",
      "5194928876801 22890",
      "Ġs ome",
      "Ġth ink",
      "c k",
      "ð Ł",
      "1 9",
      "Ġ L",
      "a in",
      "Ġthe m",
      "Ġp ro",
      "Ġf rom",
      "a u",
      "e m",
      "' m",
      "Ġ r",
      "a b",
      "o s",
      "0 72",
      "00 2",
      "1 4",
      "< @",
      "im e",
      "0 9",
      "oo d",
      "Ġc om",
      "Ġn o",
      "Ġ R",
      "Ġ E",
      "99 5",
      "i f",
      "Ġan y",
      "i st",
      "Ġu p",
      "Ġs ee",
      "Ġ@ <@",
      "o d",
      "Ġin t",
      "i ght",
      "5 0",
      "3 31",
      "i ve",
      "Ġs p",
      "it y",
      "id e",
      "Ġthe re",
      "re d",
      "4 71",
      "Ġp l",
      "Ġ out",
      "6 33",
      "79 71",
      "20 471",
      "331 072",
      "633 7971",
      "20471 6337971",
      "204716337971 331072",
      "e l",
      "Ġ G",
      "Ġg et",
      "Ġth ing",
      "k ing",
      "au se",
      "e ll",
      "Ġhe r",
      "ou gh",
      "# #",
      "34 906",
      "29 70",
      "q u",
      "Ġt ime",
      "ac k",
      "0 5",
      "Ġu s",
      "Ġmo re",
      "71 2",
      "2 85",
      "b e",
      "81 45",
      "8 34906",
      "995 285",
      "8145 995285",
      "834906 8145995285",
      "8349068145995285 19",
      "âĢ ľ",
      "âĢ Ŀ",
      "Ġ F",
      "Ġwh o",
      "8 71",
      "22 7",
      "751 14",
      "2970 871",
      "227 712",
      "75114 227712",
      "2970871 75114227712",
      "p t",
      "9 1",
      "ĠY ou",
      "on g",
      "4 34",
      "Ġd id",
      "t her",
      "8 4",
      "Ġh ow",
      "Ġa m",
      "Ġ en",
      "o re",
      "in e",
      "Ġ ðŁ",
      "e ar",
      "Ġw ant",
      "ou nd",
      "74 6",
      "T he",
      "Ġbe c",
      "3 0",
      "Ġb y",
      "Ġs he",
      "u re",
      "Ġl o",
      "or t",
      "Ġthe ir",
      "Ġwhe n",
      "e ct",
      "om et",
      "p s",
      "Ġl ol",
      "95 3",
      "9 751",
      "41 50",
      "9985 4150",
      "746 953",
      "9751 746953",
      "9751746953 99854150",
      "i es",
      "t h",
      "e c",
      "a g",
      "ĠA nd",
      "Ġm an",
      "Ġe very",
      "a st",
      "Ġi m",
      "Ġo ther",
      "e p",
      "22 6",
      "Ġs a",
      "0 3",
      "4 4",
      "Ġs omet",
      "Ġh is",
      "ay s",
      "32 45",
      "61 434",
      "74 61434",
      "35 3245",
      "226 48",
      "7461434 353245",
      "7461434353245 22648",
      "ĠT hat",
      "oo k",
      "Ġha d",
      "Ġwe re",
      "a re",
      "ac t",
      "it e",
      "Ġ -",
      "ou s",
      "Ġc ould",
      "Ġa r",
      "Ġto o",
      "Ġu n",
      "Ġe ven",
      "r y",
      "s o",
      "] (",
      "Ġn ow",
      "7 8",
      "u e",
      "o st",
      "se l",
      "p l",
      "Ġha s",
      "2 4",
      "ic e",
      "ar d",
      "ĠT h",
      "o se",
      "t t",
      "Ġne ed",
      "Ġ âĢľ",
      "ac e",
      "Ġa g",
      "8 6",
      "Ġ J",
      "re s",
      "b le",
      "Ġa ct",
      "Ġsomet hing",
      "Ġme an",
      "f f",
      "a ke",
      "Ġint o",
      "Ġt han",
      "Ġit s",
      "Ġthe n",
      ".. .",
      "p er",
      "20 1",
      "re at",
      "Ġg ood",
      "Ġma ke",
      "Ġw ay",
      "ĠB ut",
      "8 9",
      "m ent",
      "Ġ ro",
      "Ġ ri",
      "Ġ 1",
      "Ġc l",
      "Ġre al",
      "t hing",
      "Ġbe en",
      "en ce",
      "Ġbec ause",
      "ee l",
      "Ġbe ing",
      "Ġc h",
      "i z",
      "Ġg u",
      "Ġon ly",
      "46 09",
      "51 35",
      "051 5135",
      "75 4609",
      "201 88",
      "0515135 20188",
      "754609 051513520188",
      "ea h",
      "Ġhe re",
      "9 3",
      "Ġb l",
      "7 31",
      "Ġs ay",
      "75 8",
      "22 758",
      "62 05",
      "3580 22758",
      "6205 358022758",
      "74 731",
      "74731 6205358022758",
      "d er",
      "Ġt e",
      "Ġre ally",
      "' re",
      "or y",
      "Ġl e",
      "a ge",
      "ers on",
      "Ġ our",
      "Ġf eel",
      "Ġne ver",
      "ic h",
      "i v",
      "ow n",
      "Ġdo es",
      "Ġh im",
      "d e",
      "Ġs c",
      "sel f",
      "ion s",
      "b er",
      "u ally",
      "ĠH e",
      "Ġwor k",
      "Ġwor ld",
      "nd er",
      "Ġm ay",
      "Ġha pp",
      "Ġri ght",
      "Ġgo ing",
      "Ġo ver",
      "Ġ qu",
      "Ġ z",
      "ĠW hat",
      "Ġb ack",
      "Ġtr y",
      "a k",
      "u ck",
      "ac h",
      "o c",
      "72 09",
      "Ġwh y",
      "o in",
      "30 24",
      "41 002",
      "Ġ (",
      "u ch",
      "90 7",
      "9 002",
      "ic k",
      "1 907",
      "79 7209",
      "Ġbe l",
      "3024 9002",
      "797209 30249002",
      "79720930249002 1907",
      "en s",
      "41 6",
      "8 35",
      "Ġthing s",
      "44 70",
      "45 89",
      "315 300",
      "459 456",
      "906 41002",
      "300 835",
      "4470 300835",
      "4589 459456",
      "315300 4470300835",
      "90641002 4589459456",
      "3153004470300835 84",
      "um an",
      "i re",
      "Ġp re",
      "7 36",
      "o g",
      "p le",
      "it t",
      "as s",
      "Ġp erson",
      "Ġw r",
      "Ġre m",
      "ĠTh is",
      "re e",
      "72 6",
      "ul t",
      "w n",
      "ĠI n",
      "Ġal so",
      "Ġcon t",
      "Ġst ill",
      "Ġu nder",
      "ĠĠ Ġ",
      "Ġm uch",
      "y s",
      "Ġc han",
      "ĠW e",
      "Ġg r",
      "Ġd is",
      "ĠThe y",
      "Ġs e",
      "s p",
      "Ġl ot",
      "Ġbe t",
      "i j",
      "3 77",
      "Ġsh ould",
      "' ve",
      "re n",
      "i le",
      "Ġa c",
      "Ġst u",
      "v ing",
      "or d",
      "-- -",
      "ad e",
      "79 4",
      "i ld",
      "Ġmo st",
      "ot her",
      "ĠW h",
      "1 32",
      "l p",
      "41 93",
      "51 31",
      "729 6",
      "9 736",
      "794 5131",
      "132 7945131",
      "9736 7296",
      "1327945131 97367296",
      "Ġg ot",
      "Ġa d",
      "a p",
      "â ©",
      "w w",
      "Ġwhe re",
      "Ġli fe",
      "Ġbel ie",
      "e w",
      "c i",
      "Ġi d",
      "Ġ U",
      "` `",
      "1 0",
      "ĠS o",
      "Ġw at",
      "33 33",
      "or m",
      "Ġsa id",
      "4 31",
      "/ /",
      "u ll",
      "Ġp art",
      "s i",
      "Ġl ook",
      "Ġwe ll",
      "35 76",
      "70 431",
      "91 377",
      "3333 3576",
      "91377 33333576",
      "9137733333576 70431",
      ": //",
      "as e",
      "3 7",
      "f ore",
      "is h",
      "Ġk ind",
      "Ġo wn",
      "Ġth r",
      "Ġp r",
      "Ġt al",
      "Ġl ea",
      "tt ps",
      "v es",
      "Ġ ke",
      "f t",
      "at ed",
      "i p",
      "ou nt",
      "ur n",
      "Ġlo ve",
      "Ġh uman",
      "w ays",
      "ĠN o",
      "Ġag ain",
      "re ad",
      "Ġd if",
      "o ll",
      "ation s",
      "ic al",
      "Ġ very",
      "ou ght",
      "61 86",
      "n al",
      "Ġof f",
      "ĠI f",
      "he d",
      "Ġa f",
      "78 11",
      "Ġs ame",
      "ir st",
      "22 33",
      "80 03",
      "46 4193",
      "7811 464193",
      "2233 7811464193",
      "8003 22337811464193",
      ". \"",
      "Ġact ually",
      "416 91",
      "85 300",
      "ab le",
      "726 4",
      "6186 7264",
      "41691 61867264",
      "85300 4169161867264",
      "Ġa w",
      "ĉ ĉ",
      "29 5",
      "t e",
      "h ttps",
      "Ġf l",
      "@ @",
      "c om",
      "at h",
      "Ġ K",
      "Ġth ose",
      "Ġp er",
      "] ]",
      "k s",
      "Ġl ong",
      "e re",
      "Ġt w",
      "Ġf ind",
      "= =",
      "m s",
      "Ġs er",
      "re nt",
      "9 6",
      "3 06",
      "oin t",
      "re am",
      "Ġwh ich",
      "x t",
      "Ġsu re",
      "i al",
      "ĠĠ ĠĠ",
      "Ġc all",
      "Ġm ade",
      "Ġw on",
      "Ġne w",
      "Ġhe lp",
      "Ġbe fore",
      "Ġpl ay",
      "w e",
      "Ġf irst",
      "Ġd own",
      "r u",
      "Ġman y",
      "o ld",
      "Ġre l",
      "ĠS he",
      "Ġha r",
      "ir d",
      "Ġt ake",
      "res s",
      "ic t",
      "Ġ 2",
      "Ġsome one",
      "Ġm ind",
      "Ġy ear",
      "Ġs ha",
      "Ġdid n",
      "Ġt ell",
      "an ce",
      "Ġy eah",
      "t he",
      "Ġhapp en",
      "ver s",
      "ĠðŁ ĺ",
      "od y",
      "oo l",
      "Ġv ide",
      "Ġal ways",
      "ĠThe re",
      "## #",
      "Ġthr ough",
      "Ġ end",
      "Ġu se",
      "Ġim p",
      "u al",
      "Ġd ay",
      "Ġre ad",
      "Ġs m",
      "t ing",
      "Ġ #",
      "i an",
      "' ll",
      "em ber",
      "st and",
      "Ġe v",
      "c on",
      "is s",
      "1 2",
      "Ġb u",
      "Ġdif fe",
      "Ġany thing",
      "Ġ =",
      "Ġc ha",
      "l ed",
      "Ġb r",
      "Ġl et",
      "i ous",
      "Ġcom p",
      "48 6",
      "Ġa pp",
      "v ed",
      "Ġst art",
      "ar k",
      "Ġb ot",
      "im es",
      "Ġp oint",
      "an g",
      "\" ,",
      "Ġe m",
      "n ing",
      "ow er",
      "Ġstu ff",
      "Ġth ough",
      "]( /",
      "ï ¸",
      "ï¸ ı",
      "e ver",
      "o ck",
      "Ġs l",
      "Ġ[ [",
      "Ġo p",
      "Ġth ought",
      "n a",
      "Ġbelie ve",
      "Ġc at",
      "Ġwor d",
      "ra in",
      "Ġthe se",
      "f ul",
      "Ġp os",
      "ve l",
      "Ġbet ter",
      "s ide",
      "Ġunder stand",
      "06 4",
      "Ġm ight",
      "i ke",
      "o y",
      "i a",
      "Ġc ome",
      "on d",
      "ere st",
      "Ġs im",
      "read y",
      "a il",
      "Ġaf ter",
      "Ġe ver",
      "i ly",
      "Ġal ready",
      "Ġf un",
      "* *",
      "ab ly",
      "92 1",
      "Ġw ar",
      "Ġk ill",
      "' d",
      "is e",
      "o b",
      "Ġ V",
      "y p",
      "Ġat t",
      "Ġd es",
      "35 5",
      "9 41",
      "u d",
      "ar y",
      "Ġin f",
      "48 921",
      "84 941",
      "064 355",
      "48921 84941",
      "064355 94",
      "4892184941 06435594",
      "Ġn ame",
      "ĠG od",
      "Ġtry ing",
      "Ġk id",
      "g g",
      "Ġm at",
      "ce pt",
      "Ġac c",
      "Ġcom m",
      "ol og",
      "Ġdiffe rent",
      "Ġmay be",
      "ri end",
      "ĠM y",
      "Ġ â",
      "Ġ ent",
      "b l",
      "Ġrem ember",
      "2 7",
      "Ġas k",
      "Ġs y",
      "if ic",
      "Ġb ad",
      "Ġy es",
      "a ve",
      "as on",
      "Ġar ound",
      "n e",
      "c l",
      "Ġst r",
      "ut h",
      "Ġs ec",
      "op e",
      "Ġp h",
      "Ġevery thing",
      "Ġvide o",
      "m m",
      "Ġpro b",
      "Ġe l",
      "Ġst ory",
      "Ġsh ow",
      "us hing",
      "n g",
      "Ġtw o",
      "Ġg ame",
      "k es",
      "ĠY eah",
      "Ġtr ue",
      "Ġg ive",
      "n ess",
      "ĠN ot",
      "Ġwe ird",
      "Ġf uck",
      "fe ct",
      "Ġnot hing",
      "Ġc are",
      "Ġg en",
      "Ġdo ing",
      "Ġdoes n",
      "Ġp ut",
      "ĠH ow",
      "l ess",
      "Ġevery one",
      "Ġha nd",
      "n y",
      "he n",
      "ĠY es",
      "Ġw a",
      "at ing",
      "4 65",
      "at her",
      "35 2",
      "Ġus ed",
      "Ġint erest",
      "âĢ ¦",
      "er t",
      "en se",
      "92 6",
      "Ġke ep",
      "ĠD o",
      "Ġch ild",
      "an s",
      "ĠO r",
      "ĠðŁ ħ",
      "or s",
      "Ġpl ace",
      "ĠP ushing",
      "he re",
      "ĠðŁħ ¿",
      ") )",
      "g et",
      "ĠðŁħ¿ ï¸ı",
      "Ġas s",
      "3 9",
      "Ġd ream",
      "g r",
      "itt le",
      "Ġwh ile",
      "Ġex pl",
      "m ed",
      "Ġt ri",
      "Ġo ld",
      "Ġre ason",
      "95 03",
      "9503 926",
      "76 27",
      "46 306",
      "9503926 46306",
      "7627 72",
      "950392646306 762772",
      "I t",
      "tt y",
      "Ġwat ch",
      "Ġli ve",
      "Ġy et",
      "Ġex per",
      "Ġhar d",
      "Ġyear s",
      "Ġin ter",
      "Ġre c",
      "Ġen ough",
      "o ve",
      "art h",
      "Ġprob ably",
      "ic ally",
      "u c",
      "ĠS t",
      "Ġsu pp",
      "Ġgu ess",
      "ĠA l",
      ". âĢĿ",
      "Ġm et",
      "i et",
      "ĠJ ust",
      "Ġf riend",
      "s s",
      "Ġc r",
      "Ġb as",
      "05 8",
      "Ġt ra",
      "out u",
      "Ġm ust",
      "ĠO h",
      "Ġp ower",
      "i x",
      "c es",
      "Ġan other",
      "Ġde f",
      "y outu",
      "Ġid ea",
      ".. ..",
      "Ġpre tty",
      "Ġc reat",
      "Ġl ear",
      "Ġab le",
      "Ġlea st",
      "Ġgo d",
      "is m",
      "Ġ ra",
      "it ing",
      "Ġ hat",
      "Ġt urn",
      "one y",
      "`` `",
      "Ġl ittle",
      "on s",
      "45 71",
      "31 6",
      "Ġ 20",
      "46 8",
      "Ġf am",
      "Ġqu est",
      "71 295",
      "315 81",
      "75 61",
      "10 352",
      "71295 7561",
      "31581 712957561",
      "10352 31581712957561",
      "Ġb o",
      "29 34",
      "Ġo k",
      "i ed",
      "Ġc he",
      "Ġs ound",
      "t s",
      "Ġe y",
      "Ġre p",
      "ðŁ ĺ",
      "ig n",
      "oll ow",
      "4 3",
      "b s",
      "ag es",
      "al s",
      "our ce",
      "Ġm ess",
      "g an",
      "Ġmy self",
      "Ġsh it",
      "Ġv an",
      "8 2934",
      "34 345",
      "058 468",
      "82934 34345",
      "058468 37",
      "8293434345 05846837",
      "i gh",
      "Ġex ist",
      "Ġd ie",
      "Ġtal k",
      "Ġcon s",
      "Ġm ent",
      "in ce",
      "Ġhe t",
      "it ion",
      "Ġsu ch",
      "Ġpl an",
      "Ġ 3",
      "Ġin v",
      "Ġcon f",
      "i ence",
      "Ġex p",
      "Ġe ach",
      "a v",
      "Ġe en",
      "it her",
      "Ġv o",
      "Ġwith out",
      "ĠB ec",
      "â «",
      "l es",
      "ĠI s",
      "Ġel se",
      "Ġaw ay",
      "j ect",
      "81 4",
      "a w",
      "Ġme m",
      "Ġw om",
      "le ep",
      "Ġany one",
      "T h",
      "i er",
      "or ry",
      "Ġbot h",
      "w ard",
      "Ġma kes",
      "c ess",
      "Ġf ound",
      "d ay",
      "or ies",
      ": :",
      "Ġin st",
      "ĠL ol",
      ") .",
      "95 7",
      "Ġother s",
      "Ġun i",
      "Ġg reat",
      "Ġst op",
      "Ġ '",
      "si ble",
      "ĠL ike",
      "Ġ ver",
      "4 46",
      "Ġ x",
      "Ġb ig",
      "Ġsu r",
      "o ke",
      "Ġpro ble",
      "Ġ |",
      "Ġm oney",
      "k en",
      "ĠM ay",
      "Ġb est",
      "Ġmat ter",
      "t en",
      "Ġr un",
      "E R",
      "Ġp ast",
      "Y ou",
      "a ir",
      "a z",
      "e v",
      "Ġc ount",
      "Ġcont ro",
      "-- --",
      "ĠWh y",
      "d d",
      "Ġ :",
      "am es",
      "Ġf ollow",
      "r on",
      "ie w",
      "he s",
      "7 3",
      "ant s",
      "Ġc le",
      "Ġl ast",
      "Ġm om",
      "5 95",
      "ĠC h",
      "Ġchan ge",
      "Ġc ause",
      "Ġf ew",
      "41 92",
      "61 76",
      "486 6176",
      "4571 4866176",
      "595 4192",
      "5954192 45714866176",
      "Ġf in",
      "h h",
      "Ġre sp",
      "4 0",
      "== ==",
      "Ġm on",
      "ww w",
      "Ġto ld",
      "st em",
      "el f",
      "ut e",
      "ir l",
      "3 88",
      "act ly",
      "Ġhe ad",
      "ing s",
      "it er",
      "ent s",
      "ert ain",
      "Ġs k",
      "Ġtal king",
      "Ġt er",
      "ij n",
      "w ay",
      "Ġlear n",
      "ĠBec ause",
      "ic s",
      "Ġcom ple",
      "ver se",
      "Ġsu b",
      "Ġf act",
      "Ġ Q",
      "Ġd one",
      "Ġar t",
      "ct ion",
      "Ġwho le",
      "@@ @@",
      "Ġc re",
      "re t",
      "Ġe as",
      "Ġwr ong",
      "Ġf ar",
      "Ġh ope",
      "or n",
      "ar s",
      "Ġdis c",
      "99 465",
      "82 78",
      "82 43",
      "002 8278",
      "99465 0028278",
      "8243 994650028278",
      "8243994650028278 46",
      "Ġp ost",
      "Ġ *",
      "9 51",
      "n ot",
      "le ase",
      "Ġinterest ing",
      "Ġin d",
      "d oc",
      "Ġop en",
      "Ġli ght",
      "Ġg l",
      "Ġd at",
      "Ġis n",
      "W e",
      "ou l",
      "m e",
      "? ?",
      "on na",
      "Ġsee ms",
      "doc s",
      "Ġsp ec",
      "Ġser ver",
      "Ġu nt",
      "Ġbec ome",
      "Ġ 5",
      "iz e",
      "s y",
      "Ġf ree",
      "6 0",
      "Ġre s",
      "ar ly",
      "Ġf ight",
      "Ġs leep",
      "Ġb ody",
      "Ġg onna",
      "at er",
      "33 2",
      "Ġp u",
      "Ġ1 0",
      "Ġthat s",
      "Ġcha r",
      "2 3",
      "Ġde c",
      "Ġ >",
      "1 6",
      "ment s",
      "o k",
      "Ġkid s",
      "Ġad d",
      "at es",
      "o f",
      "m ost",
      "it s",
      "5 06",
      "Ġb ook",
      "Ġs ide",
      "Ġimp ort",
      "Ġs ense",
      "1 8",
      "Ġm in",
      "c ed",
      "Ġc ra",
      "Ġn ight",
      "Ġli st",
      "Ġsy stem",
      "Th is",
      "A nd",
      "Ġh ome",
      "ĠF or",
      "48 1",
      "Ġyour self",
      "Ġs ince",
      "âĢ Ķ",
      "316 81",
      "as h",
      "9 78",
      "ĠMay be",
      "76 332",
      "31 481",
      "31681 76332",
      "31481 3168176332",
      "314813168176332 801",
      "Ġon ce",
      "are nt",
      "od der",
      "Ġse en",
      "Ġcall ed",
      "06 14",
      "33 951",
      "995 978",
      "434 0614",
      "33951 4340614",
      "339514340614 995978",
      "Ġs ch",
      "Ġso ci",
      "I n",
      "Ġo h",
      "Ġle ft",
      "I N",
      "Ġs orry",
      "Ġs oul",
      "Ġgu y",
      "Ġl ess",
      "b ody",
      "i en",
      "ab y",
      "Ġt imes",
      "it ies",
      "an k",
      "Ġb it",
      "ĠW hen",
      "c ri",
      "an ge",
      "Ġl oo",
      "a le",
      "it ed",
      "Ġde ath",
      "Ġhat e",
      "Ġwant ed",
      "u p",
      "s w",
      "Ġre f",
      "ch n",
      "a h",
      "Ġent ire",
      "Ġs ays",
      "Ġe ither",
      "Ġc o",
      "Ġex t",
      "led ge",
      "45 4",
      "Ġsp ea",
      "= \"",
      "ĠA s",
      "er ing",
      "Ġmean s",
      "g s",
      "ĠW ell",
      "Ġproble m",
      "Ġo b",
      "Ġn ice",
      "Ġimport ant",
      "ri st",
      "ut ure",
      "pp ed",
      "Ġb rain",
      "Ġhe ar",
      "! !",
      "Ġcontro l",
      "c hed",
      "Ġget ting",
      "e f",
      "Ġc ool",
      "Ġ /",
      "Ġn at",
      "n ect",
      "Ġsa w",
      "e ad",
      "Ġha ving",
      "Ġf ull",
      "Ġma king",
      "os ed",
      "Ġc ertain",
      "Ġg irl",
      "99 45",
      "Ġfam ily",
      "92 446",
      "36 96",
      "93 9945",
      "Ġquest ion",
      "506 92446",
      "939945 3696",
      "50692446 9399453696",
      "Ġc ame",
      "Ġlo st",
      "y ing",
      "Ġex actly",
      "Ġexpl ain",
      "a ven",
      "4 37",
      "Ġey es",
      "id ence",
      "Ġagain st",
      "u de",
      "Ġin side",
      "ĠA I",
      "41 454",
      "20 729",
      "388 80",
      "437 38880",
      "41454 20729",
      "4145420729 43738880",
      "a king",
      "p h",
      "Ġm iss",
      "Ġle ad",
      "Ġwould n",
      "Ġword s",
      "Ġp res",
      "Ġs elf",
      "Ġf uture",
      "Ġm ed",
      "Ġj ob",
      "r in",
      "ys is",
      "on est",
      "Ġd ra",
      "Ġp o",
      "Ġd r",
      "Ġan sw",
      "ig nal",
      "ate ly",
      "Ġs et",
      "r ow",
      "Ġ 4",
      "sel ves",
      "itt en",
      "Ġunt il",
      "d en",
      "il ity",
      "Ġâ ¨",
      "Ġsay ing",
      "g ed",
      "n el",
      "i red",
      "\\ _",
      "at ic",
      "oo se",
      "Ġtr uth",
      "h ost",
      "Ġt yp",
      "e k",
      "Ġt ak",
      "i ally",
      "ee p",
      "0 814",
      "m er",
      "ĠA r",
      "ou se",
      "Ġc a",
      "Ġthink ing",
      "Ġd ark",
      "Ġcomple te",
      "Ġs w",
      "Ġim ag",
      "Ġc our",
      "Ġh igh",
      "Ġb re",
      "Ġal most",
      "Ġbe h",
      "Ġp ol",
      "ĠA ll",
      "ĠR ock",
      "05 3",
      "iz ed",
      "Ġgu ys",
      "i k",
      "Ġi de",
      "ĠThe n",
      "A N",
      "Ġp ain",
      "76 31",
      "71 0814",
      "957 7631",
      "053 9577631",
      "710814 0539577631",
      "7108140539577631 12",
      "Ġt est",
      "us ed",
      "Ġre t",
      "Ġse x",
      "um p",
      "at ive",
      "m a",
      "z y",
      "Ġgen er",
      "Ġcon nect",
      "Ġl iter",
      "Ġma g",
      "ðŁĺ Ĩ",
      "ĠT H",
      "c c",
      "d u",
      "Ġwor king",
      "g in",
      "ren ce",
      "Ġ er",
      "Ġb c",
      "Ġhe ll",
      "c y",
      "Ġkn ew",
      "Ġf e",
      "orm ation",
      "ot s",
      "Ġhe ard",
      "ĠO n",
      "Ġreal ity",
      "um b",
      "Ġde p",
      "ul ation",
      "t ed",
      "Ġs ing",
      "ĠIn k",
      "Ġg i",
      "Ġsm all",
      "at ch",
      "Ġmo ve",
      "Ġb ro",
      "Ġre st",
      "Ġne xt",
      "Ġcomm un",
      "ul ar",
      "Ġw ent",
      "al k",
      "Ġrel ig",
      "Ġhuman s",
      "Ġf ace",
      "l ine",
      "u se",
      "¤ £",
      "olog y",
      "Ġus ing",
      "Ġ $",
      "Ġwas n",
      "st er",
      "ĠT r",
      "ĠA nal",
      "Ġ Z",
      "Ġf ig",
      "al th",
      "Ġst and",
      "gr am",
      "in es",
      "31 2",
      "is on",
      "Ġwon der",
      "S M",
      "le ct",
      "Ġhappen ed",
      "Ġf ore",
      "in ite",
      "i ent",
      "v ious",
      "ĠAnal ysis",
      "ĠT o",
      "Ġte chn",
      "51 88",
      "0 1",
      "Ġro om",
      "Ġpr ot",
      "m an",
      "t a",
      "Ġex am",
      "id ent",
      "Ġp ass",
      "Ġbu ild",
      "r or",
      "s ource",
      "ut m",
      "ĠE x",
      "Ġs it",
      "22 5188",
      "35 072",
      "5529 225188",
      "312 35072",
      "5529225188 31235072",
      "Ġm us",
      "Ġth o",
      "ĠA t",
      "we en",
      "Ġbeh ind",
      "ĠWh o",
      "Ġmo v",
      "b b",
      "Ġc or",
      "Ġde ad",
      "f l",
      "ĠM an",
      "ist s",
      "Ġz ijn",
      "5 2",
      "Ġin c",
      "Ġre g",
      "p e",
      "et y",
      "Ġdo or",
      "ar ch",
      "Ġd am",
      "Ġp pl",
      "v ent",
      "Ġh our",
      "2 1",
      "Ġall ow",
      "Ġs ad",
      "ro ss",
      "Ġsound s",
      "+ +",
      "p ost",
      "is c",
      "Ġh old",
      "Ġto get",
      "Ġtoget her",
      "ot e",
      "Ġ es",
      "i ble",
      "ĠO ne",
      "Ġp ur",
      "Ġloo king",
      "Ġs ent",
      "Ġst ate",
      "Ġsee m",
      "Ġc ar",
      "Ġwhat ever",
      "g er",
      "Ġf re",
      "Ġexper ience",
      "Ġc ur",
      "ĠS ignal",
      "Ġuni verse",
      "Ġf all",
      "Ġon es",
      "SM R",
      "Ġh u",
      "b ol",
      "Ġcan not",
      "Ġw ish",
      "Ġd et",
      "Ġcom ing",
      "Ġo m",
      "ĠG ood",
      "i um",
      "ha ps",
      "Ġtr ust",
      "id er",
      "a im",
      "u be",
      "Ġ 6",
      "n er",
      "Ġdon t",
      "g y",
      "Ġlea ve",
      "Ġx D",
      "ure s",
      "n o",
      "Ġi ll",
      "A T",
      "al ity",
      "Ġe arth",
      "ac ter",
      "ter n",
      "Ġin s",
      "Ġfor m",
      "Ġchan nel",
      "con f",
      "O R",
      "Ġsu per",
      "pt ion",
      "Ġchild ren",
      "Ġd est",
      "Ġs end",
      "od e",
      "t y",
      "w here",
      "Ġfriend s",
      "u es",
      "id ants",
      "Ġde m",
      "Ġbet ween",
      "Ġpos sible",
      "Ġqu ite",
      "Ġd ays",
      "ire ct",
      "Ġ **",
      "Ġc oll",
      "au ght",
      "uth or",
      "it al",
      "Ġh onest",
      "Ġknow ledge",
      "Ġcour se",
      "Ġag o",
      "r act",
      "i o",
      "ĠR e",
      "Ġs ol",
      "Ġgr ou",
      "2 5",
      "Ġp op",
      "Ġal one",
      "Ġlist en",
      "d it",
      "o ot",
      "Ġv iew",
      "Ġwr ite",
      "Ġm or",
      "Ġh or",
      "Ġcra zy",
      "a red",
      "ĠT han",
      "Ġliter ally",
      "Â ł",
      "Ġf ood",
      "Ġe at",
      "Ġfuck ing",
      "Ġp a",
      "et s",
      "ĠðŁĺ Ĩ",
      "ĠU n",
      "c ome",
      "Ġtri ed",
      "Ġst ay",
      "Ġwom an",
      "p ect",
      "Ġsec ond",
      "b r",
      "ĠS ome",
      "es us",
      "ion al",
      "ĠA n",
      "Ġinf ormation",
      "8 780",
      "Ġh un",
      "976 8780",
      "726 60",
      "295 9768780",
      "39 72660",
      "2959768780 9",
      "3972660 29597687809",
      "0 8",
      "Ġare n",
      "Ġwith in",
      "Ġhapp y",
      "Ġsch ool",
      "Ġto day",
      "E S",
      "Ġ 7",
      "Ġmom ent",
      "Ġtoo k",
      "Ġs ong",
      "? âĢĿ",
      "ac y",
      "Ġp ay",
      "5 32",
      "conf idants",
      "is ed",
      "ĠðŁ Ļ",
      "ĠE arth",
      "s h",
      "Ġl ater",
      "Ġhe art",
      "Ġfor g",
      "Ġcom es",
      "Ġgr ow",
      "Ġask ed",
      "y an",
      "ĠE C",
      "Ġh ouse",
      "Ġli ving",
      "ĠĠĠĠ ĠĠĠĠ",
      "Ġp lease",
      "Ġansw er",
      "Ġm ar",
      "Ġok ay",
      "Ġchar acter",
      "Ġpu bl",
      "Ġg re",
      "ic es",
      "Ġwat er",
      "ĠD e",
      "ĠC an",
      "Ġsomet imes",
      "Ġof ten",
      "Ġev il",
      "Ġcount ry",
      "* \"",
      "a ar",
      "Ġde l",
      "Ġpro gram",
      "Ġstart ed",
      "2 61",
      "a pp",
      "n ed",
      "Ġn orm",
      "a x",
      "iv id",
      "ut er",
      "ĠE very",
      ") ,",
      "â ª",
      "O N",
      "Ġh o",
      "Ġre se",
      "k n",
      "Ġbl ack",
      "Ġto p",
      "gan iz",
      "post s",
      "ĠB e",
      "m y",
      "our nal",
      "ĠD on",
      "Ġthem selves",
      "m ore",
      "p r",
      "â Ĭ",
      "inite ly",
      "Ġf ear",
      "it le",
      "Ġg e",
      "Ġc ult",
      "Ġsu ff",
      "al se",
      "Ġm en",
      "Ġso on",
      "Ġsp ace",
      "Ġcl aim",
      "Ġwa it",
      "g en",
      "Ġlook s",
      "z e",
      "oo g",
      "ĠIt s",
      "Ġcl ose",
      "Ġv is",
      "Ġkind a",
      "W hat",
      "ri ght",
      "Ġknow s",
      "8 32",
      "H e",
      "w or",
      "el t",
      "Ġper fect",
      "Ġph ys",
      "us si",
      "Ġwr iting",
      "Ġh ur",
      "Ġmean ing",
      "Ġcomplete ly",
      "Ġj oin",
      "u b",
      "Ġstr ong",
      "sy ch",
      "ort s",
      "Ġide as",
      "ou d",
      "il ar",
      "ĠAl so",
      "f orm",
      "i fe",
      "Ġm ur",
      "2 6",
      "r ic",
      "Ġre d",
      "m ing",
      "p ng",
      "f fect",
      "at or",
      "Ġexp ect",
      "in ess",
      "Ġl ink",
      "ĠY our",
      "ĠP ro",
      "ci ous",
      "Ġw in",
      "and om",
      "Ġan im",
      "Ġro b",
      "j oy",
      "Ġbre ak",
      "Ġ ve",
      "Ġfun ny",
      "Ġs ign",
      "Ġo pp",
      "ent ion",
      "f ort",
      "Ġ 8",
      "Ġlike ly",
      "b t",
      "Ġbl ood",
      "' ,",
      "at s",
      "ol f",
      "Ġche ck",
      "ĠðŁĻ Ĥ",
      "Ġag ree",
      "Ġexam ple",
      "l f",
      "Ġf ast",
      "Ġout side",
      "ĠA re",
      "Ġmov ie",
      "Ġp ar",
      "ĠN ow",
      "Ġd ou",
      "Ġ\" *",
      "ag s",
      "Ġre qu",
      "ach ine",
      "Ġlong er",
      "e x",
      "Ġc ol",
      "Ġc ase",
      "Ġspea k",
      "Ġc ou",
      "Ġmus ic",
      ", \"",
      "Ġw all",
      "ang er",
      ", âĢĿ",
      "b or",
      "L L",
      "Ġv i",
      "Ġsim p",
      "Ġd ist",
      "ge l",
      "Ġany way",
      "ĠF odder",
      "id es",
      "if er",
      "Ġgi ven",
      "h o",
      "Ġch o",
      "Ġl uck",
      "Ġma in",
      "ur al",
      "g n",
      "Ġd ri",
      "ĠS p",
      "Ġsec ret",
      "Ġimag ine",
      "Ġb us",
      "ĠR aven",
      "Ġacc ount",
      "Ġ ed",
      "ult i",
      "Ġde v",
      "Ġwom en",
      "Ġmon th",
      "an e",
      "ver n",
      "red dit",
      "ĠA SMR",
      "Ġany more",
      "Ġst e",
      "ĠO k",
      "Ġstu d",
      "Ġz e",
      "â ĭ",
      "Ġf ail",
      "Ġcont in",
      "Ġr andom",
      "Ġgrou p",
      "w atch",
      "Ġ vers",
      "Ġb ed",
      "ut ion",
      "Ġj e",
      "o x",
      "Ġr ather",
      "Ġch oose",
      "B ut",
      "Ġc ry",
      "Ġbe gin",
      "Ġprot ect",
      "Ġwor th",
      "Ġg iv",
      "Ġbr ing",
      "Ġh ist",
      "ward s",
      "Ġinst ead",
      "O U",
      "Ġem ot",
      "uc ifer",
      "Ġf ix",
      "Ġle g",
      "vel op",
      "Ġwatch ing",
      "Ġs n",
      "Ġle vel",
      "ant he",
      "Ġwork s",
      "Ġto m",
      "Ġf elt",
      "Ġro ck",
      "a ut",
      "Ġph one",
      "o on",
      "Ġcreat ed",
      "Ġg host",
      "Ġkill ed",
      "h ip",
      "Ġd eep",
      "Ġp e",
      "Ġup on",
      "ivid ual",
      "Ġe ffect",
      "st atic",
      "Ġen joy",
      "Ġcre ate",
      "t le",
      "Ġi k",
      "Ġg ames",
      "ĠH uman",
      "ĠJ esus",
      "anthe on",
      "ig in",
      "at an",
      "Ġeas y",
      "Ġha ven",
      "m en",
      "us ion",
      "Ġneed ed",
      "m it",
      "Ġf ire",
      "ac es",
      "Ġmess age",
      "Ġm is",
      "Ġsimp ly",
      "Ġyou ng",
      "p ed",
      "00 0",
      "Ġment ion",
      "6 61",
      "f ic",
      "um ber",
      "Ġsp ir",
      "so f",
      "Ġdest ro",
      "Ġatt ack",
      "Ġsupp osed",
      "==== ====",
      "Ġf oc",
      "Ġth ree",
      "Ġbas ed",
      "n et",
      "Ġu w",
      "Ġsu n",
      "ĠM e",
      "Ġhapp ens",
      "ow s",
      "Ġcould n",
      "---- ----",
      "Ġf av",
      "t o",
      "ĠH ell",
      "Ġspec ific",
      "Ġ âĢ",
      "Ġd ro",
      "Ġsing le",
      "fe rence",
      "Ġcl ass",
      "olog ical",
      "u red",
      "Ġac cept",
      "Ġhour s",
      "h y",
      "l o",
      "Ġor igin",
      "Ġfig ure",
      "Ġwant s",
      "Ġvo ice",
      "Ġp ri",
      "un ch",
      "? \"",
      "t ags",
      "Ġw ays",
      "Ġen g",
      "ĠK un",
      "Ġpro cess",
      "Ġret urn",
      "Ġfeel ing",
      "80 51",
      "Ġis s",
      "oog le",
      "an y",
      "Ġhe alth",
      "ĠC on",
      "er v",
      "Ġm other",
      "Ġfeel s",
      "s ha",
      "Ġsoci ety",
      "71 48",
      "Ġr u",
      "2 8",
      "76 832",
      "Ġ\" \"",
      "ra ft",
      "Ġ@ [",
      "ĠP eople",
      "73 8051",
      "661 7148",
      "738051 76832",
      "6617148 73805176832",
      "Ġf alse",
      "c er",
      "o or",
      "Ġ +",
      "ĠE ven",
      "ell ig",
      "Ġnorm al",
      "is hed",
      "Ġad v",
      "si b",
      "Ġind ividual",
      "ur ing",
      "i as",
      "i ps",
      "Ġa ge",
      "Ġy a",
      "e g",
      "Ġim age",
      "Ġf il",
      "Ġg one",
      "ĠA ny",
      "Ġdef initely",
      "Ġtyp e",
      "j ournal",
      "Ġt aking",
      "us h",
      "ific ation",
      "h ow",
      "{ {",
      "} }",
      "Ġm ulti",
      "Ġf ine",
      "Ġgo es",
      "Ġdream s",
      "Ġbas ically",
      "Ġresp on",
      "Ġme ant",
      "R E",
      "Ġtr ans",
      "Ġw alk",
      "Ġwor ry",
      "Ġdep end",
      "Ġuw u",
      "T hat",
      "Ġv al",
      "Ġsl ow",
      "d ate",
      "Ġd irect",
      "Ġli e",
      "ri es",
      "Ġte xt",
      "Ġp rom",
      "Ġp arent",
      "id ed",
      "ro ll",
      "Ġget s",
      "ec ially",
      "Ġar g",
      "p ro",
      "{{ <",
      "76 1",
      "Ġg un",
      "Ġev ent",
      "youtu be",
      "@@@@ @@@@",
      "ĠðŁ ¤£",
      "Ġ> }}",
      "y le",
      "Ġhonest ly",
      "u ly",
      "ĠD id",
      "sp ir",
      "O T",
      "Ġa p",
      "Ġm ine",
      "al c",
      "ĠB l",
      "I S",
      "Ġp ict",
      "Ġp sych",
      "81 96",
      "ĉĉ ĉ",
      "Ġf ather",
      "Ġgo vern",
      "Ġsupp ort",
      "i vers",
      "p id",
      "Ġde velop",
      "ut es",
      "Ġde al",
      "Ġm ist",
      "76 0",
      "Ġment al",
      "g ing",
      "n ight",
      "it ch",
      "Ġplay ing",
      "in s",
      "Ġn iet",
      "ri ble",
      "79 5",
      "Ġchan ce",
      "Ġrelig ion",
      "ke t",
      "Ġbelie f",
      "ĠCh rist",
      "Ġr ul",
      "te xt",
      "Ġsy m",
      "â ¨",
      "Ġob vious",
      "Ġl aw",
      "ear s",
      "t itle",
      "Ġex c",
      "Ġass um",
      "Ġit self",
      "ast e",
      "Ġhappen ing",
      "I f",
      "Ġ .",
      "re me",
      "ri ed",
      "Ġknow n",
      "Ġm id",
      "Ġl ang",
      "Ġneed s",
      "ĠWh ich",
      "im ages",
      "Ġsim ilar",
      "ĠR yan",
      "Ġim m",
      "Ġvide os",
      "Ġhist ory",
      "o ver",
      "om s",
      "Ġfor ce",
      "Ġb en",
      "Ġn umber",
      "we b",
      "Ġdes cri",
      "ganiz ations",
      "ucifer ian",
      "i b",
      "ĠE l",
      "ĠI nt",
      "Ġli ves",
      "Ġrese arch",
      "ha ha",
      "Ġp red",
      "Ġthan ks",
      "ĠðŁĺ ī",
      "IN G",
      "c le",
      "r al",
      "The y",
      "e xt",
      "ar r",
      "Ġus ually",
      "[ [",
      "ard s",
      "Ġnat ure",
      "T o",
      "l ing",
      "Ġal ong",
      "70 03",
      "Ġsit u",
      "S o",
      "u ro",
      "Ġg ave",
      "55 84",
      "Ġforg ot",
      "/ )",
      "Ġb an",
      "ar c",
      "Ġsha ll",
      "g o",
      "re ct",
      "Ġdestro y",
      "35 5584",
      "300 355584",
      "416 300355584",
      "52 7003",
      "527003 416300355584",
      "5 41",
      "Ġb ull",
      "Ġb urn",
      "Ġc ent",
      "Ġc ap",
      "Ġab s",
      "Ġstr ange",
      "Ġha lf",
      "Ġsu ck",
      "ĠI m",
      "Ġl ar",
      "ĠR ussi",
      "12 11",
      "Ġcomp uter",
      "Ġs ick",
      "Ġpro f",
      "86 91",
      "Ġsha re",
      "um ent",
      "Ġd ude",
      "Ġro le",
      "us ing",
      "â© Ĭ",
      "2 39",
      "and s",
      "Ġen er",
      "Ġh it",
      "in ed",
      "Ġp at",
      "75 75",
      "os s",
      "Ġa ir",
      "an na",
      "it ive",
      "ĠC om",
      "Ġrun ning",
      "20 19",
      "Ġsa ve",
      "ic a",
      "Ġme et",
      "ie ld",
      "Ġ 0",
      "Ġj oke",
      "il t",
      "Ġpr ison",
      "Ġdra w",
      "isc ord",
      "g es",
      "Ġm ill",
      "Ġf ur",
      "Ġf ake",
      "Ġrem ind",
      "ĠU S",
      "N o",
      "a uthor",
      "O L",
      "Ġg ra",
      "31 30",
      "Ġlook ed",
      "7 756",
      "d le",
      "o h",
      "Ġa ut",
      "976 760",
      "55 976760",
      "out h",
      "81 86",
      "ru ct",
      "465 8186",
      "814 261",
      "ron t",
      "761 55976760",
      "7756 814261",
      "76155976760 4658186",
      "0 98",
      "Ġb orn",
      "Ġtr uly",
      "Ġstu pid",
      "16 3130",
      "7756814261 163130",
      "7756814261163130 90",
      "es ome",
      "if y",
      "ak es",
      "l ike",
      "on es",
      "Ġl au",
      "Ġcon st",
      "ĠL em",
      "Ġey e",
      "r ing",
      "ĠW ith",
      "30 4",
      "Ġperson al",
      "aby rin",
      "Ġspir it",
      "abyrin th",
      "45 295",
      "Ġfor get",
      "88 736",
      "40 45295",
      "098 304",
      "88736 098304",
      "4045295 88736098304",
      "S t",
      "Ġi gn",
      "Ġto t",
      "Ġl ine",
      "st air",
      "Ġquest ions",
      "6 3",
      "Ġt rain",
      "Ġin cl",
      "ent ly",
      "ist ic",
      "con text",
      "a ult",
      "i or",
      "Ġf r",
      "Ġal t",
      "Ġhuman ity",
      "Ġpur p",
      "Ġh id",
      "4 2",
      "Ġa v",
      "Ġh ig",
      "ian s",
      "Ġtak es",
      "at o",
      "Ġsh ort",
      "ĠR E",
      "Ġdr ink",
      "Ġthe ory",
      "Ġd ru",
      "22 4",
      "ot h",
      "Ġthought s",
      "Ġlang u",
      "Ġp ick",
      "Ġman ip",
      "Ġes p",
      "Ġp ull",
      "end ing",
      "ĠTH E",
      "us s",
      "Ġpro ject",
      "Ġtell ing",
      "O r",
      "Ġst ar",
      "Ġbec om",
      "Ġmin utes",
      "Ġv ir",
      "lp ha",
      "Ġcle ar",
      "1 51",
      "I G",
      "Ġc ut",
      "as ed",
      "Ġwe bs",
      "20 20",
      "itt ing",
      "Ġfore ver",
      "p antheon",
      "Ġwe ek",
      "em pt",
      "Ġtak en",
      "Ġ 9",
      "Ġpubl ic",
      "er y",
      "Ġp ot",
      "Ġmag ic",
      "Ġdou bt",
      "Ġsc re",
      "Ġread y",
      "Ġfav or",
      "5 9",
      "en n",
      "am ed",
      "ate g",
      "fic ult",
      "Ġhand s",
      "Ġs ort",
      "Ġst yle",
      "Ġmost ly",
      "Ġdif ficult",
      "Ġinf l",
      "ev idence",
      "ĠH er",
      "Ġor der",
      "18 99",
      "Ġb at",
      "82 50",
      "84 957",
      "151 1899",
      "8250 24",
      "84957 825024",
      "1511899 84957825024",
      "Ġp ers",
      "Ġam az",
      "sof pantheon",
      "am p",
      "ĠP er",
      "Ġres ult",
      "Ġpol it",
      "t c",
      "ĠR ank",
      "O O",
      "a a",
      "Ġc op",
      "Ġwe ap",
      "Ġwh ite",
      "end er",
      "Ġpart ic",
      "Ġwat ched",
      "a pt",
      "e ed",
      "Ġas king",
      "Ġsee ing",
      "stair sofpantheon",
      "im ent",
      "Ġj ud",
      "Ġbe aut",
      "Ġre pl",
      "Ġm il",
      "com ments",
      "Ġext reme",
      "ur y",
      "sha re",
      "f ull",
      "Ġwe l",
      "Ġcomm on",
      "c ent",
      "f or",
      "u nd",
      "Ġst ra",
      "Ġcon v",
      "ĠThat s",
      "3 725",
      "on y",
      "ĠA mer",
      "ie f",
      "Ġcle arly",
      "c ing",
      "Ġbe y",
      "Ġsur v",
      "1 5",
      "in ation",
      "Ġd anger",
      "ĠW here",
      "Ġpres ent",
      "Ġmur der",
      "Ġlo c",
      "Ġs il",
      "Ġe qu",
      "Ġen em",
      "c han",
      "ĠEC O",
      "/ ?",
      "g ress",
      "i ar",
      "Ġb reat",
      "Ġc hat",
      "Ġn on",
      "Ġe ar",
      "oo oo",
      "03 90",
      "Ġqu ick",
      "Ġpre t",
      "Ġac ross",
      "92 44",
      "86 9244",
      "Ġreal m",
      "8196 0390",
      "1211 869244",
      "81960390 1211869244",
      "ĠS omet",
      "Ġmo d",
      "Ġsc en",
      "med ium",
      "Ġexper ien",
      "Ġacc ess",
      "ĠĠ Ċ",
      "Ġpro ve",
      "Ġ( [",
      "Ġtechn ology",
      "ĠD iscord",
      "Ġint ellig",
      "o id",
      "Ġc ute",
      "Ġcon cept",
      "Ġid ent",
      "Ġrel ations",
      "Ġb aby",
      "ĠP l",
      "ĠðŁ ĳ",
      "Ġrem ain",
      "Ġener gy",
      "Ġwe ak",
      "qu e",
      "Ġdisc ord",
      "4 76",
      "Ġe lect",
      "ent ial",
      "Ġread ing",
      "c hes",
      "f er",
      "Ġhe l",
      "Ġal ive",
      "Ġhim self",
      "ivers ity",
      "Ġt ou",
      "61 2",
      "ict ion",
      "Ġtra vel",
      "Ġhur t",
      "\" ](",
      "9 65",
      "u ri",
      "Ġd umb",
      "ol m",
      "Ġlo se",
      "Ġ1 00",
      "Ġcur rent",
      "is ion",
      "ĠThe se",
      "Ġun less",
      "Ġab ove",
      "ie bol",
      "ĠL abyrinth",
      "Ġpro v",
      "Ġpro du",
      "Ġte ac",
      "Ġsim ple",
      "Ġplan et",
      "488 486",
      "306 25",
      "476 965",
      "488486 6",
      "30625 4884866",
      "476965 306254884866",
      "3 51",
      "â Ī",
      "44 9",
      "Ġke y",
      "Ġphys ical",
      "Ġpurp ose",
      "Ġw ake",
      "Ġc ity",
      "ac hed",
      "ap e",
      "Ġgovern ment",
      "Ġc ode",
      "45 44",
      "as k",
      "56 612",
      "306 18",
      "ne y",
      "4544 30618",
      "56612 454430618",
      "56612454430618 4193",
      "E E",
      "er o",
      "ĠR ight",
      "Ġthan k",
      "ĠM ost",
      "19 72",
      "ĠL et",
      "Ġpro of",
      "Ġsitu ation",
      "2 34",
      "H O",
      "M y",
      "b ut",
      "Ġm ass",
      "45 541",
      "Ġinv ol",
      "239 1972",
      "449 729",
      "45541 449729",
      "2391972 45541449729",
      "Ġser ious",
      "Ġfollow ing",
      "Ġan n",
      "Ġcon vers",
      "The re",
      "Ġcho ice",
      "4 9",
      "i us",
      "l ight",
      "Ġw olf",
      "Ġid k",
      "Ġturn ed",
      "Ġw anna",
      "Ġm ir",
      "or ing",
      "ĠT R",
      "ri f",
      "Ġsp orts",
      "Ġaw esome",
      "Ġpos ition",
      "Ġm ad",
      "Ġp ie",
      "ĠS ee",
      "arent ly",
      "ma o",
      "ĠH is",
      "if ul",
      "Ġper haps",
      "Ġp ath",
      "u g",
      "Ġbec ame",
      "Ġatt ention",
      "d ow",
      "Ġf ing",
      "Ġwa iting",
      "Ġdat a",
      "wor k",
      "Ġe tc",
      "A l",
      "Ġo bs",
      "Ġth reat",
      "Ġt reat",
      "alc olm",
      "Ġc ir",
      "T ube",
      "Ġh ot",
      "Ġapp ro",
      "Ġsur pr",
      "kn own",
      "Ġs on",
      "Ġf ront",
      "ic ation",
      "Ġsa fe",
      "l and",
      "n ow",
      "ig ital",
      "ĠHell o",
      "Ġlangu age",
      "Ġli l",
      "ĠS ame",
      "ific ial",
      ".... ....",
      "Ġamaz ing",
      "Ġm achine",
      "Ġb oy",
      "ĠA ge",
      "Ġbl ue",
      "j or",
      "ĠThan k",
      "p or",
      "ens en",
      "â© ī",
      "Ġsm art",
      "Ġwebs ite",
      "S he",
      "Ġs ear",
      "Ġd a",
      "Ġbe ha",
      "++ +",
      "c ha",
      "22 32",
      "74 32",
      "77 37",
      "N D",
      "in a",
      "Ġcom b",
      "416 2232",
      "Ġgot ta",
      "gg est",
      "7432 4162232",
      "7737 74324162232",
      "773774324162232 351",
      "2 00",
      "Ġl ay",
      "Ġan t",
      "Ġreal ize",
      "Ġgr ound",
      "Ġto wards",
      "Ġe ff",
      "ĠT w",
      "ac c",
      "Ġpr act",
      "in t",
      "os sible",
      "Ġchan ged",
      "Ġinfl u",
      "Ġw ind",
      "og n",
      "Ġfin ally",
      "M E",
      "if ied",
      "Ġsp read",
      "v iew",
      "ar ing",
      "Ġsu ggest",
      "Ġvo or",
      "Ġmem ory",
      "l ish",
      "y n",
      "Ġn one",
      "ĠA lpha",
      "he t",
      "Ġo cc",
      "Ġplay ed",
      "ĠI k",
      "ter s",
      "Ġ* \"",
      "Ġbl ock",
      "Ġte am",
      "Ġparent s",
      "d raft",
      "Ġs qu",
      "Ġf air",
      "om b",
      "is ing",
      "op h",
      "Ġsuff ering",
      "Ġhig her",
      "Ġt re",
      "al es",
      "Ġdo c",
      "m iss",
      "ĠT om",
      "Ġke pt",
      "Ġev idence",
      "Ġfoc us",
      "3 8",
      "f ter",
      "n en",
      "Ġst ep",
      "un k",
      "Ġpre p",
      "ij k",
      "ĠJust ice",
      "Ġeas ier",
      "full y",
      "Ġf em",
      "if t",
      "t ain",
      "Ġs ource",
      "79 50",
      "it ect",
      "im ens",
      "Ġno body",
      "Ġbro ken",
      "Ġgiv ing",
      "Ġpe ace",
      "Ġbey ond",
      "Ġcont act",
      "ress ion",
      "Ġpos sib",
      "Ġconnect ed",
      "Ġrob ot",
      "72 36",
      "end ed",
      "Ġcom pl",
      "Ġcor rect",
      "A R",
      "iv es",
      "Ġ ?",
      "Ġst ories",
      "ra id",
      "Ġmonth s",
      "â©Ĭ â©Ĭ",
      "l er",
      "iet n",
      "Ġrep res",
      "Ġmess ages",
      "Ĩ â«",
      "Ġon line",
      "ill s",
      "Ġresp ect",
      "T H",
      "Ġd ied",
      "ĠE m",
      "Ġatt empt",
      "Ġfe ed",
      "Ġfur ther",
      "Ġsu c",
      "Ġwor se",
      "Ġpro p",
      "or row",
      "ir th",
      "r ad",
      "re l",
      "H ow",
      "22 3",
      "Ġli m",
      "Ġnot ic",
      "Ġma jor",
      "Ġbu y",
      "Ġsym bol",
      "p erson",
      "Ġbr other",
      "it es",
      "ĠO f",
      "Ġthr ow",
      "Ġaw are",
      "Ġr id",
      "Ġinter net",
      "Ġdet ail",
      "ell ing",
      "ĠTh ough",
      "Ġro fl",
      "Ġpict ure",
      "Ġa i",
      "Ġne ar",
      "Ġne cess",
      "Ġso ld",
      "Ġcat s",
      "Ġvers ion",
      "Ġt roll",
      "Ġd ue",
      "Ġyou t",
      "Ġdo g",
      "Ġne g",
      "ra ph",
      "un iversity",
      "ĠU k",
      "Ġcomp any",
      "am er",
      "W hen",
      "l t",
      "Ġl ate",
      "Ġre ach",
      "ĠH ave",
      "Ġt em",
      "Ġl and",
      "9 61",
      "Ġd iv",
      "â© Į",
      "Âł Âł",
      "S T",
      "Ġc old",
      "ee ee",
      "Ġcan t",
      "Ġpro per",
      "Ġfight ing",
      "m on",
      "ðŁ ¤£",
      "Ġunderstand ing",
      "Ġg ain",
      "ĠT e",
      "Ġv ict",
      "Ġlearn ed",
      "Ġcontin ue",
      "ou n",
      "ar i",
      "Ġlo g",
      "Ġaf raid",
      "Ġexist ence",
      "Ġpo or",
      "as es",
      "96 8",
      "b ed",
      "Ġwr itten",
      "Ġfavor ite",
      "G ER",
      "Ġc ore",
      "Ġex cept",
      "Ġimp ossible",
      "Ġcons cious",
      "Ġmor ning",
      "ĠThan ks",
      "b o",
      "j k",
      "79 91",
      "331 8691",
      "86 3318691",
      "795 863318691",
      "961 223",
      "7991 795863318691",
      "7991795863318691 94",
      "d y",
      "i res",
      "u el",
      "44 486",
      "]] ,",
      "Ġfre ed",
      "lo ad",
      "7236 44486",
      "ĠS h",
      "Ġ20 19",
      "ĠOk ay",
      "224 723644486",
      "961223 224723644486",
      "ra p",
      "Ġcon spir",
      "Ġrec ord",
      "Ġorigin al",
      "Ġextreme ly",
      "Ġm ot",
      "Ġwill ing",
      "O n",
      "p ath",
      "Ġb unch",
      "ol ute",
      "ĠDo es",
      "Ġt end",
      "ĠY ep",
      "I ON",
      "he ad",
      "Ġnew s",
      "Ġbuild ing",
      "Ġbeaut iful",
      "k ed",
      "Ġwor st",
      "ĠJ e",
      "g ry",
      "m in",
      "Ġ ...",
      "Ġsu sp",
      "Ġcons ider",
      "Ġlau gh",
      "! âĢĿ",
      "Ġto ol",
      "Ġpower ful",
      "Ġco ver",
      "Ġt ired",
      "Ġd en",
      "Ġl mao",
      "Ġdes ign",
      "gr ound",
      "532 6",
      "Ġp ure",
      "Ġcoll ect",
      "Ġesp ecially",
      "b y",
      "Ģ â",
      "Ġs at",
      "ation al",
      "ĠD iebol",
      "Ġact ual",
      "Ġcre ep",
      "ash ion",
      "Ġpri v",
      "7 81",
      "ĠH et",
      "ĠL OL",
      "ĠYou Tube",
      "ĠðŁ ¤",
      "Ġcl os",
      "Ġins ane",
      "Ġes c",
      "ĠĠĠĠĠĠĠĠ ĠĠ",
      "Ġopp os",
      "Ġlar ge",
      "B I",
      "Ġb es",
      "ch itect",
      "ĠR ed",
      "ress ed",
      "ĠðŁĺ Ĥ",
      "A s",
      "Ġl ow",
      "Ġvi ol",
      "Ġstra ight",
      "Ġdanger ous",
      "29 2",
      "ist er",
      "ĠG oogle",
      "Ġam ount",
      "Ġen v",
      "Ġspea king",
      "e red",
      "ĠG r",
      "ci ent",
      "ount ain",
      "Ġsoci al",
      "Ġyout ube",
      "Ġre le",
      "Ġdam n",
      "Ġmanip ul",
      "( (",
      "41 9",
      "Ġmid dle",
      "IG GER",
      "Ġc uri",
      "Ġst uck",
      "ĠY OU",
      "Ġsc ared",
      "ĠTR IGGER",
      "A L",
      "Ġ ess",
      "Ġm ensen",
      "ĠI d",
      "Ġl ack",
      "Ġfor ward",
      "Ġk un",
      "Ġbus iness",
      "Ġr ich",
      "e y",
      "Ġ &",
      "Ġab ility",
      "ab or",
      "Ġfam il",
      "Ġfin al",
      "Ġsub ject",
      "4 41",
      "a it",
      "Ġs ens",
      "ac king",
      "Ġ1 2",
      "Ġwr ote",
      "Ġ2 00",
      "/ ).",
      "Ġn amed",
      "con s",
      "Ġuni vers",
      "06 89",
      "71 8",
      "29 41",
      "ow ers",
      "Ġ( (",
      "ick ed",
      "26 0689",
      "59 781",
      "2941 59781",
      "260689 419",
      "294159781 260689419",
      "3 72",
      "d om",
      "Ġm outh",
      "Ġk itten",
      "ce ive",
      "Ġmo der",
      "Ġal s",
      "pp ing",
      "I D",
      "Ġf ashion",
      "70 7",
      "ĠD ave",
      "ĠTh ose",
      "erest ing",
      "Ġspec ial",
      "Ġbook s",
      "Ġwel come",
      "9 70",
      "D o",
      "c he",
      "g on",
      "Ġ 30",
      "al m",
      "Ġsee med",
      "Ġsk in",
      "p re",
      "w ise",
      "Ġf it",
      "ĠL ove",
      "Ġsp end",
      "ĠO uro",
      "Ġgr and",
      "Ġmed ia",
      "re w",
      "Ġd uring",
      "ĠT O",
      "U n",
      "it ary",
      "ac ed",
      "ĠG host",
      "Ġcertain ly",
      "Ġmulti ple",
      "Ġsear ch",
      "ant ly",
      "pl oy",
      "ij d",
      "Ġrel ated",
      "Ġapp arently",
      "1 65",
      "b ers",
      "w are",
      "or g",
      "Ġp le",
      "30 3",
      "we ight",
      "Ġop in",
      "! \"",
      "us es",
      "Ġsome body",
      "Ġbo x",
      "ĠAr t",
      "Ġbelief s",
      "ĠPer haps",
      "Ġann oy",
      "! [",
      "R e",
      "e en",
      "at a",
      "Ġcou ple",
      "Ġenem y",
      "Ġs we",
      "Ġu r",
      "Ġhar m",
      "Ġallow ed",
      "al y",
      "Ġh ide",
      "Ġh ij",
      "ĠW or",
      "ĠW ill",
      "Ġmet h",
      "Ġp en",
      "82 1",
      "Ġwork ed",
      "OR D",
      "Ġa an",
      "Ġa ud",
      "Ġc oin",
      "Ġd i",
      "55 99",
      "im in",
      "Ġso ft",
      "ĠR em",
      "Ġro y",
      "Ġproble ms",
      "Ġsex ual",
      "ĠOn ly",
      "ĉ Ġ",
      "ĠI S",
      "ill ed",
      "7106 718",
      "Ġro ll",
      "Ġreason s",
      "Ġresp ond",
      "arc iss",
      "707 7106718",
      "303 7077106718",
      "5599 3037077106718",
      "i i",
      "j e",
      "Ġb irth",
      "Ġact ions",
      "10 55993037077106718",
      "Ġfl oor",
      "Ġdiffe rence",
      "Ġsl a",
      "Ġsupp ose",
      "Ġcle an",
      "Ġh op",
      "Ġas ks",
      "Ġknow ing",
      "oc r",
      "dd en",
      "C h",
      "ĠA m",
      "Ġanim als",
      "a ith",
      "w hat",
      "Ġ âĢ¦",
      "ed s",
      "Ġn aar",
      "ue en",
      "Ġinter act",
      "ateg ories",
      "V E",
      "k y",
      "Ġ ^",
      "Ġa ch",
      "en cy",
      "Ġen c",
      "Ġcont ext",
      "Ġsk y",
      "ĠEC HO",
      "20 21",
      "Ġsh ot",
      "fort un",
      "Ġf ell",
      "ra ine",
      "th ough",
      "Ġter rible",
      "ĠInt eresting",
      "h ips",
      "l ass",
      "u ra",
      "z en",
      "Ġo per",
      "ic le",
      "55 55",
      "Ġpro gress",
      "ook y",
      "Ġbu ilt",
      "Ġob ject",
      "e ks",
      "u ed",
      "79 6",
      "45 2",
      "ic ate",
      "Ġst ars",
      "Ġnotic ed",
      "1 50",
      "L uciferian",
      "ħ â«",
      "Ġlear ning",
      "Ġiss ue",
      "46 4",
      "os p",
      "el s",
      "iv ed",
      "Ġfl at",
      "â« ĸ",
      "Ġmem ories",
      "Ġmiss ing",
      "Ġcommun ity",
      "Ġcol or",
      "Ġtom ato",
      "enn is",
      "46 446",
      "Ġte ach",
      "â© Ī",
      "Ġexper iment",
      "pect ive",
      "Ġabs olute",
      "234 46446",
      "970 5555",
      "23446446 9705555",
      "234464469705555 968",
      "Ġp un",
      "Ġma ar",
      "Ġconf used",
      "Ġfreed om",
      "ic king",
      "Ġrul es",
      "Ġt ree",
      "Ġh yp",
      "ac ing",
      "Ġsc ream",
      "N ot",
      "b it",
      "t f",
      "Ġhe av",
      "Ġdec ided",
      "r c",
      "en ed",
      "se t",
      "Ġdo ct",
      "ĠB en",
      "Ġpl aces",
      "F or",
      "Ġha ll",
      "Ġha ck",
      "Ġsu dden",
      "Ġde le",
      "Ġsc ience",
      "Ġhu ge",
      "re ci",
      "Ġl a",
      "Ġe le",
      "Ġsu mm",
      "ĠM oon",
      "Ġz o",
      "Ġpre fer",
      "Ġgod s",
      "Ġmatter s",
      "Ġref er",
      "Ġp ort",
      "et h",
      "ĠA g",
      "Ġst ri",
      "Ġint ent",
      "Ġher self",
      "Ġlo ck",
      "hh hh",
      "ĠQ u",
      "Ġgre en",
      "Ġmention ed",
      ". *",
      "ĠS ha",
      "el come",
      "ĠHe y",
      "Ġdisc uss",
      "Ġgl ad",
      "Ġgener al",
      "Ġho le",
      "O W",
      "b h",
      "ic an",
      "Ġsh oot",
      "ietn am",
      "5 88",
      "p ret",
      "ł Ģâ",
      "il ia",
      "ĠL ook",
      "Ġrelations hip",
      "Ĩâ« ħâ«",
      "29 7",
      "Ġmo ving",
      "Ġx an",
      "ĠQ ueen",
      "v ior",
      "z z",
      "Ġin de",
      "ĠA ct",
      "Ġj ump",
      "32 32",
      "med i",
      "Ġconvers ation",
      "r r",
      "ot hes",
      "Ġe arly",
      "Ġad ult",
      "Ġrec ogn",
      "ove red",
      "Ġobvious ly",
      "Ġinvol ved",
      "6 7",
      "O ne",
      "ll y",
      "99 297",
      "75 01",
      "Ġsome where",
      "ĠE rin",
      "995 7501",
      "ive ly",
      "ĠG o",
      "Ġincl ud",
      "Ġhid den",
      "796 9957501",
      "588 7969957501",
      "5887969957501 99297",
      "Ġf old",
      "at ors",
      "Ġbe at",
      "41 20",
      "one ly",
      "ie ve",
      "de red",
      "Ġtou ch",
      "Ã ©",
      "Ġ 19",
      "Ġem ail",
      "men u",
      "Ĩâ«ħâ« Ĩâ«ħâ«",
      "c ategories",
      "l a",
      "Ġb ill",
      "Ġk ing",
      "ĠB r",
      "ĠO ur",
      "ĠWh ile",
      "ĠHow ever",
      "K E",
      "Ġb od",
      "Ġl ord",
      "Ġgo ld",
      "iz ing",
      "Ġdis app",
      "side red",
      "D e",
      "i ge",
      "Ġbe gan",
      "im ate",
      "Ġpred ict",
      "ĠRussi a",
      "A ll",
      "d es",
      "Ġg ay",
      "Ġin k",
      "ir on",
      "Ġsome how",
      "Ġun known",
      "ĠHe re",
      "Ġbr ought",
      "Ġcount ries",
      "erv ation",
      "ro om",
      "Ġcon sidered",
      "Ġsh ut",
      "Ġsh ip",
      "ast er",
      "Ġbl ind",
      "7 79",
      "Ġc y",
      "Ġin n",
      "Ġnot ice",
      "ĠD ark",
      "Ġr ad",
      "F odder",
      "Ġs ep",
      "Ġcom ment",
      "Ġim medi",
      "Ġapp reci",
      "Ġâ ī",
      "Ġinterest ed",
      "Ġinv est",
      "Ġru le",
      "person as",
      "Ġconspir acy",
      "Ġmeth od",
      "0 4",
      "Ġt ort",
      "er d",
      "Ġmo on",
      "Ġma le",
      "Ġbecom es",
      "s c",
      "Ġha ir",
      "Ġcan n",
      "og raph",
      "Ġrec ently",
      "Ġweap on",
      "Ġ 62",
      "ll en",
      "ĠM alcolm",
      "ĠN OT",
      "Ġact ion",
      "Ġcont ain",
      "Ġpart s",
      "Ġser v",
      "Ġrepres ent",
      "Ġroy als",
      ". *\"",
      "ha r",
      "Ġf ield",
      "Ġn or",
      "Ġlo ved",
      "Ġpos s",
      "Ġpost ed",
      "e ps",
      "en ces",
      "at ure",
      "al king",
      "Ġam ong",
      "Ġw ild",
      "er m",
      "ol ution",
      "Ġv acc",
      "]( ((",
      "Ġdes er",
      "â« ķ",
      "Ġcharacter s",
      "g or",
      "Ġ ou",
      "ĠP lease",
      "ab les",
      "Ġcall ing",
      "Ġph ot",
      "?? ?",
      "y ou",
      "Ġ ut",
      "Ġt ennis",
      "Ġp an",
      "ot es",
      "Ġkill ing",
      "ĠZ e",
      "Ġbegin ning",
      "Ġc e",
      "Ġc ross",
      "ru gg",
      "Ġrep e",
      "ĠEx actly",
      "L ove",
      "om en",
      "65 3",
      "ĠW E",
      "ri x",
      "Ġma ster",
      "ĠC l",
      "ound s",
      "sp ooky",
      "ru pt",
      "cl ass",
      "Ġdem on",
      "Ġw aste",
      "Ġf oot",
      "Ġe ating",
      "ard en",
      "Ġmoder n",
      "Ġinde ed",
      "T I",
      "Ġw is",
      "Ġo dd",
      "Ġhe aven",
      "un g",
      "ĠF old",
      "Ġstart ing",
      "Ġtalk ed",
      "Ġfollow ers",
      "5 3",
      "Ġw it",
      "Ġtr ou",
      "Ġpl ant",
      "ag ed",
      "23 70",
      "Ġsoul s",
      "Ġpol ice",
      "Ġlisten ing",
      "Ġsuc cess",
      "ĠUk raine",
      "t r",
      "Ġm ountain",
      "Ġc ell",
      "Ġd ad",
      "ro p",
      "Ġ> .",
      "ok a",
      "Ġemot ions",
      "Ġrespon se",
      "ĠRE C",
      "Ġc ard",
      "ir m",
      "ĠW as",
      "ĠH a",
      "ĠP r",
      "Ġus er",
      "pl ay",
      "Ġfe et",
      "Ġsuff er",
      "Ġcuri ous",
      "\" .",
      "Ġa uthor",
      "er c",
      "Ġlo ad",
      "Ġar m",
      "Ġbo red",
      "Ġw ife",
      "Ġc aught",
      "Ġc amer",
      "Ġd om",
      "Ġf ly",
      "it ter",
      "ĠH el",
      "ĠY et",
      "ak en",
      "Ġcry pt",
      "Ġdru gs",
      "J ust",
      "d uc",
      "u ff",
      "v id",
      "Ġf ant",
      "Ġp ush",
      "ĠS atan",
      "ĠD am",
      "th is",
      "Ġiss ues",
      "cons cious",
      "Ġposs ess",
      "b ook",
      "Ġf an",
      "Ġth ous",
      "Ġu it",
      "Ġreal ized",
      "Ġacc ur",
      "bl ing",
      "Ġeas ily",
      "Ġquick ly",
      "O h",
      "t om",
      "Ġst ream",
      "Ġsa f",
      "cri ption",
      "ĠREC ORD",
      "Ġt on",
      "Ġb ird",
      "ĠI T",
      "ant um",
      "Ġtr ick",
      "Ġapp ear",
      "Ġbro ke",
      "łĢâ łĢâ",
      "6 6",
      "I k",
      "p ter",
      "76 779",
      "74 729",
      "Ġrec all",
      "08 48",
      "Ġdirect ly",
      "Ġpie ce",
      "821 76779",
      "452 82176779",
      "74729 45282176779",
      "7472945282176779 38",
      "S C",
      "k er",
      "Ġ 24",
      "Ġc ost",
      "an ces",
      "Ġwe eks",
      "iz a",
      "Ġnat ural",
      "p x",
      "p ing",
      "p ite",
      "as c",
      "ri b",
      "ĠB y",
      "Ġr ing",
      "ĠF l",
      "Ġmind s",
      "Ġev ents",
      "Ġsim ulation",
      "Ġter m",
      "Ġpa per",
      "Ġeff ort",
      "1 48",
      "Ġl ore",
      "as y",
      "Ġv ol",
      "Ġshould n",
      "Ġinter pret",
      "Ġhor ror",
      "ĠEvery one",
      "Ġtom orrow",
      "Ġpers pective",
      "Ġjud ge",
      "Ġintellig ence"
    ]
  }
}