{
  "version": "1.0",
  "truncation": null,
  "padding": null,
  "added_tokens": [
    {
      "id": 0,
      "content": "<|endoftext|>",
      "single_word": false,
      "lstrip": false,
      "rstrip": false,
      "normalized": false,
      "special": true
    }
  ],
  "normalizer": null,
  "pre_tokenizer": {
    "type": "ByteLevel",
    "add_prefix_space": false,
    "trim_offsets": true,
    "use_regex": true
  },
  "post_processor": {
    "type": "ByteLevel",
    "add_prefix_space": true,
    "trim_offsets": true,
    "use_regex": true
  },
  "decoder": {
    "type": "ByteLevel",
    "add_prefix_space": true,
    "trim_offsets": true,
    "use_regex": true
  },
  "model": {
    "type": "BPE",
    "dropout": null,
    "unk_token": null,
    "continuing_subword_prefix": null,
    "end_of_word_suffix": null,
    "fuse_unk": false,
    "vocab": {
      "<|endoftext|>": 0,
      "!": 1,
      "\"": 2,
      "#": 3,
      "$": 4,
      "%": 5,
      "&": 6,
      "'": 7,
      "(": 8,
      ")": 9,
      "*": 10,
      "+": 11,
      ",": 12,
      "-": 13,
      ".": 14,
      "/": 15,
      "0": 16,
      "1": 17,
      "2": 18,
      "3": 19,
      "4": 20,
      "5": 21,
      "6": 22,
      "7": 23,
      "8": 24,
      "9": 25,
      ":": 26,
      ";": 27,
      "<": 28,
      "=": 29,
      ">": 30,
      "?": 31,
      "@": 32,
      "A": 33,
      "B": 34,
      "C": 35,
      "D": 36,
      "E": 37,
      "F": 38,
      "G": 39,
      "H": 40,
      "I": 41,
      "J": 42,
      "K": 43,
      "L": 44,
      "M": 45,
      "N": 46,
      "O": 47,
      "P": 48,
      "Q": 49,
      "R": 50,
      "S": 51,
      "T": 52,
      "U": 53,
      "V": 54,
      "W": 55,
      "X": 56,
      "Y": 57,
      "Z": 58,
      "[": 59,
      "\\": 60,
      "]": 61,
      "^": 62,
      "_": 63,
      "`": 64,
      "a": 65,
      "b": 66,
      "c": 67,
      "d": 68,
      "e": 69,
      "f": 70,
      "g": 71,
      "h": 72,
      "i": 73,
      "j": 74,
      "k": 75,
      "l": 76,
      "m": 77,
      "n": 78,
      "o": 79,
      "p": 80,
      "q": 81,
      "r": 82,
      "s": 83,
      "t": 84,
      "u": 85,
      "v": 86,
      "w": 87,
      "x": 88,
      "y": 89,
      "z": 90,
      "{": 91,
      "|": 92,
      "}": 93,
      "~": 94,
      "¡": 95,
      "¢": 96,
      "£": 97,
      "¤": 98,
      "¥": 99,
      "¦": 100,
      "§": 101,
      "¨": 102,
      "©": 103,
      "ª": 104,
      "«": 105,
      "¬": 106,
      "®": 107,
      "¯": 108,
      "°": 109,
      "±": 110,
      "²": 111,
      "³": 112,
      "´": 113,
      "µ": 114,
      "¶": 115,
      "·": 116,
      "¸": 117,
      "¹": 118,
      "º": 119,
      "»": 120,
      "¼": 121,
      "½": 122,
      "¾": 123,
      "¿": 124,
      "À": 125,
      "Á": 126,
      "Â": 127,
      "Ã": 128,
      "Ä": 129,
      "Å": 130,
      "Æ": 131,
      "Ç": 132,
      "È": 133,
      "É": 134,
      "Ê": 135,
      "Ë": 136,
      "Ì": 137,
      "Í": 138,
      "Î": 139,
      "Ï": 140,
      "Ð": 141,
      "Ñ": 142,
      "Ò": 143,
      "Ó": 144,
      "Ô": 145,
      "Õ": 146,
      "Ö": 147,
      "×": 148,
      "Ø": 149,
      "Ù": 150,
      "Ú": 151,
      "Û": 152,
      "Ü": 153,
      "Ý": 154,
      "Þ": 155,
      "ß": 156,
      "à": 157,
      "á": 158,
      "â": 159,
      "ã": 160,
      "ä": 161,
      "å": 162,
      "æ": 163,
      "ç": 164,
      "è": 165,
      "é": 166,
      "ê": 167,
      "ë": 168,
      "ì": 169,
      "í": 170,
      "î": 171,
      "ï": 172,
      "ð": 173,
      "ñ": 174,
      "ò": 175,
      "ó": 176,
      "ô": 177,
      "õ": 178,
      "ö": 179,
      "÷": 180,
      "ø": 181,
      "ù": 182,
      "ú": 183,
      "û": 184,
      "ü": 185,
      "ý": 186,
      "þ": 187,
      "ÿ": 188,
      "Ā": 189,
      "ā": 190,
      "Ă": 191,
      "ă": 192,
      "Ą": 193,
      "ą": 194,
      "Ć": 195,
      "ć": 196,
      "Ĉ": 197,
      "ĉ": 198,
      "Ċ": 199,
      "ċ": 200,
      "Č": 201,
      "č": 202,
      "Ď": 203,
      "ď": 204,
      "Đ": 205,
      "đ": 206,
      "Ē": 207,
      "ē": 208,
      "Ĕ": 209,
      "ĕ": 210,
      "Ė": 211,
      "ė": 212,
      "Ę": 213,
      "ę": 214,
      "Ě": 215,
      "ě": 216,
      "Ĝ": 217,
      "ĝ": 218,
      "Ğ": 219,
      "ğ": 220,
      "Ġ": 221,
      "ġ": 222,
      "Ģ": 223,
      "ģ": 224,
      "Ĥ": 225,
      "ĥ": 226,
      "Ħ": 227,
      "ħ": 228,
      "Ĩ": 229,
      "ĩ": 230,
      "Ī": 231,
      "ī": 232,
      "Ĭ": 233,
      "ĭ": 234,
      "Į": 235,
      "į": 236,
      "İ": 237,
      "ı": 238,
      "Ĳ": 239,
      "ĳ": 240,
      "Ĵ": 241,
      "ĵ": 242,
      "Ķ": 243,
      "ķ": 244,
      "ĸ": 245,
      "Ĺ": 246,
      "ĺ": 247,
      "Ļ": 248,
      "ļ": 249,
      "Ľ": 250,
      "ľ": 251,
      "Ŀ": 252,
      "ŀ": 253,
      "Ł": 254,
      "ł": 255,
      "Ń": 256,
      "Ġt": 257,
      "he": 258,
      "Ġa": 259,
      "in": 260,
      "er": 261,
      "en": 262,
      "Ġw": 263,
      "Ġs": 264,
      "on": 265,
      "re": 266,
      "at": 267,
      "Ġthe": 268,
      "ou": 269,
      "is": 270,
      "an": 271,
      "Ġm": 272,
      "or": 273,
      "Ġb": 274,
      "it": 275,
      "ed": 276,
      "ing": 277,
      "Ġc": 278,
      "es": 279,
      "Ġd": 280,
      "Ġf": 281,
      "Ġto": 282,
      "Ġo": 283,
      "al": 284,
      "Ġh": 285,
      "Ġth": 286,
      "Ġp": 287,
      "ar": 288,
      "Ġan": 289,
      "ĠI": 290,
      "as": 291,
      "le": 292,
      "om": 293,
      "Ġin": 294,
      "âĢ": 295,
      "Ġof": 296,
      "The": 297,
      "el": 298,
      "Ġn": 299,
      "Ġhe": 300,
      "ĠĠ": 301,
      "Ġand": 302,
      "ic": 303,
      "Ġl": 304,
      "ion": 305,
      "st": 306,
      "Ġg": 307,
      "id": 308,
      "Ġe": 309,
      "you": 310,
      "ot": 311,
      "et": 312,
      "ow": 313,
      "ver": 314,
      "ll": 315,
      "Ġis": 316,
      "Ġ\"": 317,
      "ve": 318,
      "--": 319,
      "ent": 320,
      "ld": 321,
      "im": 322,
      "Ġre": 323,
      "Ġbe": 324,
      "##": 325,
      "Ġyou": 326,
      "ig": 327,
      "ac": 328,
      "ht": 329,
      "Ġ[": 330,
      "ĠThe": 331,
      "ĠA": 332,
      "Ġthat": 333,
      "ad": 334,
      "Ġon": 335,
      "ly": 336,
      "ro": 337,
      "Ġu": 338,
      "ay": 339,
      "se": 340,
      "Ġwas": 341,
      "ĠS": 342,
      "ut": 343,
      "am": 344,
      "Ġst": 345,
      "Ġit": 346,
      "if": 347,
      "](": 348,
      "ce": 349,
      "ct": 350,
      "ation": 351,
      "Ġk": 352,
      "ch": 353,
      "Ġv": 354,
      "od": 355,
      "Ġ-": 356,
      "Ġfor": 357,
      "ag": 358,
      "ir": 359,
      "ould": 360,
      "Ġme": 361,
      "ĠT": 362,
      "ith": 363,
      "âĢĻ": 364,
      "ke": 365,
      "ĠH": 366,
      "ol": 367,
      "Ġwh": 368,
      "Ġthis": 369,
      "Ġde": 370,
      "ie": 371,
      "ur": 372,
      "Ġwith": 373,
      "Ġas": 374,
      "ĠM": 375,
      "ill": 376,
      "nd": 377,
      "out": 378,
      "ps": 379,
      "ter": 380,
      "her": 381,
      "ĠC": 382,
      "ant": 383,
      "ij": 384,
      "em": 385,
      "ĠD": 386,
      "il": 387,
      "Ġher": 388,
      "Ġnot": 389,
      "Ġmy": 390,
      "Ġha": 391,
      "and": 392,
      "20": 393,
      "ight": 394,
      "---": 395,
      "ĠĠĠ": 396,
      "ĠE": 397,
      "ĠR": 398,
      "th": 399,
      "Ġdo": 400,
      "``": 401,
      "..": 402,
      "Ġfr": 403,
      "un": 404,
      "Ġen": 405,
      "op": 406,
      "Ġare": 407,
      "âĢľ": 408,
      "Ġr": 409,
      "ĠĊ": 410,
      "âĢĿ": 411,
      "ĠB": 412,
      "Ġz": 413,
      "ĠW": 414,
      "us": 415,
      "Ġse": 416,
      "Ġwe": 417,
      "Ġal": 418,
      "ess": 419,
      "ers": 420,
      "ate": 421,
      "ĉĉ": 422,
      "Ġwor": 423,
      "ul": 424,
      "Ġhis": 425,
      "Ġne": 426,
      "Ġcon": 427,
      "'s": 428,
      "ain": 429,
      "our": 430,
      "ust": 431,
      "ide": 432,
      "]]": 433,
      "Ġli": 434,
      "oc": 435,
      "est": 436,
      "ist": 437,
      "be": 438,
      "Ġj": 439,
      "um": 440,
      "ĠF": 441,
      "Ġle": 442,
      "pp": 443,
      "ore": 444,
      "ome": 445,
      "Ġat": 446,
      "//": 447,
      "://": 448,
      "nal": 449,
      "os": 450,
      "ity": 451,
      "Ġfrom": 452,
      "###": 453,
      "Ġtr": 454,
      "Ġsh": 455,
      "tps": 456,
      "der": 457,
      "ven": 458,
      "ĠP": 459,
      "Ġwould": 460,
      "Ġshe": 461,
      "Ġkn": 462,
      "](/": 463,
      "Ġor": 464,
      "Ġab": 465,
      "Ġ[[": 466,
      "Ġhave": 467,
      "https": 468,
      "ab": 469,
      "ect": 470,
      "ak": 471,
      "ge": 472,
      "one": 473,
      "ost": 474,
      "Ġex": 475,
      "ind": 476,
      "pt": 477,
      "all": 478,
      "ell": 479,
      "ĠN": 480,
      "Ġ=": 481,
      "'t": 482,
      "tu": 483,
      "ĠL": 484,
      "Ġthey": 485,
      "ack": 486,
      "\",": 487,
      "Ġch": 488,
      "ri": 489,
      "Ġsp": 490,
      "ame": 491,
      "Ġcan": 492,
      "ence": 493,
      "oug": 494,
      "ĠTh": 495,
      "very": 496,
      "Ġall": 497,
      "Ġcom": 498,
      "ĠO": 499,
      "oo": 500,
      "Ġgo": 501,
      "qu": 502,
      "Ġwill": 503,
      "ies": 504,
      "Ġ#": 505,
      "ĠĠĠĠ": 506,
      "Ġpro": 507,
      "19": 508,
      "ĠG": 509,
      "ra": 510,
      "Ġknow": 511,
      "Ġhad": 512,
      "ĠIn": 513,
      "art": 514,
      "Ġone": 515,
      "Ġte": 516,
      "Ġint": 517,
      "Ġ(": 518,
      "Ġlike": 519,
      "Ġun": 520,
      "ime": 521,
      "Ġbut": 522,
      "ive": 523,
      "ally": 524,
      "ink": 525,
      "Ġyour": 526,
      "end": 527,
      "ard": 528,
      "Ġso": 529,
      "og": 530,
      "Ġwhe": 531,
      "ure": 532,
      "ĠâĢľ": 533,
      "ound": 534,
      "au": 535,
      "ere": 536,
      "youtu": 537,
      "```": 538,
      "age": 539,
      "Ġwhat": 540,
      "ĠHe": 541,
      ".\"": 542,
      "hing": 543,
      "Ġthem": 544,
      "Ġby": 545,
      "iz": 546,
      "Ġpl": 547,
      "Ġabout": 548,
      "ough": 549,
      "ake": 550,
      "Ġout": 551,
      "You": 552,
      "reat": 553,
      "ine": 554,
      "Ġup": 555,
      "ort": 556,
      "â©": 557,
      "uc": 558,
      "ys": 559,
      "Ġman": 560,
      "ww": 561,
      "Ġsa": 562,
      "ens": 563,
      "::": 564,
      "ther": 565,
      "Ġtime": 566,
      "res": 567,
      "Ġ1": 568,
      "ass": 569,
      "ace": 570,
      "Ġar": 571,
      "eop": 572,
      "eople": 573,
      "ast": 574,
      "red": 575,
      "Ġhim": 576,
      "con": 577,
      "))": 578,
      "Ġhet": 579,
      "Ġdid": 580,
      "ĠIt": 581,
      "Ġif": 582,
      "Ġinto": 583,
      "Ġcould": 584,
      "ong": 585,
      "ations": 586,
      "Ġeen": 587,
      "Ġus": 588,
      "ays": 589,
      "ip": 590,
      "ap": 591,
      "ĠJ": 592,
      "ear": 593,
      "Ġno": 594,
      "elf": 595,
      "Ġ|": 596,
      "Ġim": 597,
      "**": 598,
      "ked": 599,
      "ely": 600,
      "ft": 601,
      "com": 602,
      "the": 603,
      "ous": 604,
      "Ġsu": 605,
      "de": 606,
      "doc": 607,
      "Ġsome": 608,
      "docs": 609,
      "Ġvan": 610,
      "Ġbl": 611,
      "Ġver": 612,
      "Ġpeople": 613,
      "pl": 614,
      "Ġjust": 615,
      "ep": 616,
      "iv": 617,
      "own": 618,
      "ijn": 619,
      "Ġthere": 620,
      "act": 621,
      "11": 622,
      "ment": 623,
      "aar": 624,
      "Ġother": 625,
      "Ġtheir": 626,
      "ev": 627,
      "fer": 628,
      "iver": 629,
      "ks": 630,
      "ue": 631,
      ").": 632,
      "ĠShe": 633,
      "odder": 634,
      "Ġfe": 635,
      "Th": 636,
      "hed": 637,
      "per": 638,
      "Ġhas": 639,
      "Ġevery": 640,
      "ings": 641,
      "Ġwere": 642,
      "Ġany": 643,
      "ice": 644,
      "oor": 645,
      "Ġcl": 646,
      "we": 647,
      "ha": 648,
      "Ġag": 649,
      "ang": 650,
      "Ġ20": 651,
      "ĠThis": 652,
      "Ġy": 653,
      "erson": 654,
      "âĢĶ": 655,
      "Ġsee": 656,
      "ove": 657,
      "int": 658,
      "ause": 659,
      "Ġbec": 660,
      "Ġwant": 661,
      "ach": 662,
      ".âĢĿ": 663,
      "ire": 664,
      "Ġcomp": 665,
      "Ġro": 666,
      "Ġmore": 667,
      "Ġwho": 668,
      "ory": 669,
      "Ġcont": 670,
      "ions": 671,
      "Ġover": 672,
      "ik": 673,
      "ry": 674,
      "omet": 675,
      "ark": 676,
      "ance": 677,
      "ific": 678,
      "ial": 679,
      "00": 680,
      "Ġgr": 681,
      "ble": 682,
      "orm": 683,
      "ood": 684,
      "ans": 685,
      "den": 686,
      "Ġworld": 687,
      "iet": 688,
      "ite": 689,
      "gan": 690,
      "Ġreal": 691,
      "ec": 692,
      "ignal": 693,
      "Ġam": 694,
      "Ġback": 695,
      "ich": 696,
      "king": 697,
      "12": 698,
      "Ġsc": 699,
      "other": 700,
      "ff": 701,
      "Ġwhen": 702,
      "ysis": 703,
      "ile": 704,
      "ED": 705,
      "ants": 706,
      "62": 707,
      "fid": 708,
      "Ġbr": 709,
      "ical": 710,
      "Ġvide": 711,
      "are": 712,
      "ĠAnal": 713,
      "ng": 714,
      "ated": 715,
      "ĠAnalysis": 716,
      "nder": 717,
      "=\"": 718,
      "atch": 719,
      "Ġop": 720,
      "ber": 721,
      "Ġdon": 722,
      "Ġpr": 723,
      "self": 724,
      "olog": 725,
      "bl": 726,
      "ild": 727,
      "Ġthr": 728,
      "ose": 729,
      "Ġget": 730,
      "...": 731,
      "*\"": 732,
      "In": 733,
      "Ġsomet": 734,
      "sp": 735,
      "Ġsaid": 736,
      "uth": 737,
      "ife": 738,
      "ian": 739,
      "hat": 740,
      "ĠSignal": 741,
      "Ġhow": 742,
      "Ġneed": 743,
      "stat": 744,
      "ult": 745,
      "av": 746,
      "Ġzijn": 747,
      "Ġfl": 748,
      "ase": 749,
      "ank": 750,
      "24": 751,
      "urn": 752,
      "fidants": 753,
      "old": 754,
      "oll": 755,
      "osts": 756,
      "iss": 757,
      "ree": 758,
      "ages": 759,
      "++": 760,
      "Ġnow": 761,
      "oun": 762,
      "Ġway": 763,
      "Ġbeen": 764,
      "Ġhere": 765,
      "Ġqu": 766,
      "cl": 767,
      "ĠYou": 768,
      "Ġour": 769,
      "Ġac": 770,
      "Ġtw": 771,
      "confidants": 772,
      "ull": 773,
      "Ġvideo": 774,
      "thing": 775,
      "Ġge": 776,
      "ĠEC": 777,
      "Ġsomething": 778,
      "Ġthrough": 779,
      "Ġmet": 780,
      "Ġhapp": 781,
      "Ġagain": 782,
      "ĠV": 783,
      "Ġnever": 784,
      "Ġals": 785,
      "lp": 786,
      "ĠK": 787,
      "ĠWe": 788,
      "03": 789,
      "wn": 790,
      "Ġdat": 791,
      "ĠThey": 792,
      "itt": 793,
      "Ġunder": 794,
      "Ġbel": 795,
      "'m": 796,
      "posts": 797,
      "ĠâĢ": 798,
      "vent": 799,
      "ijk": 800,
      "Ġthink": 801,
      "ave": 802,
      "ied": 803,
      "www": 804,
      "ok": 805,
      "Ġlife": 806,
      "aven": 807,
      "xt": 808,
      "Ġrel": 809,
      "Ġonly": 810,
      "uman": 811,
      "led": 812,
      "ne": 813,
      "ange": 814,
      "This": 815,
      "irst": 816,
      "Ġbecause": 817,
      "ade": 818,
      "able": 819,
      "te": 820,
      "ories": 821,
      "yp": 822,
      "Ġact": 823,
      "Ġem": 824,
      "ia": 825,
      "ick": 826,
      "Ġinter": 827,
      "Ġeven": 828,
      "ru": 829,
      "form": 830,
      "Ġright": 831,
      "Ġdis": 832,
      "ress": 833,
      "Ġper": 834,
      "Ġthan": 835,
      "ĠU": 836,
      "----": 837,
      "Ġloo": 838,
      "fore": 839,
      "Ġwr": 840,
      "ĠInk": 841,
      "Ġ\"*": 842,
      "Ġ$": 843,
      "ob": 844,
      "Ġwhere": 845,
      "Ġperson": 846,
      "ears": 847,
      "dd": 848,
      "ym": 849,
      "Ġ'": 850,
      "ord": 851,
      "/)": 852,
      "Ġthen": 853,
      "Ġsl": 854,
      "It": 855,
      "ĠFodder": 856,
      "ath": 857,
      "ournal": 858,
      "Ġdie": 859,
      "90": 860,
      "Ġrem": 861,
      "ivers": 862,
      "ount": 863,
      "fter": 864,
      "Ġfirst": 865,
      "',": 866,
      "Ġgoing": 867,
      "Ġdidn": 868,
      "ious": 869,
      "Ġcall": 870,
      "Ġbeing": 871,
      "Ġ2": 872,
      "lect": 873,
      "static": 874,
      "bol": 875,
      "Ġ@": 876,
      "....": 877,
      "Ġfeel": 878,
      "ved": 879,
      "ater": 880,
      ",âĢĿ": 881,
      "Ġhand": 882,
      "ags": 883,
      "uthor": 884,
      "Ġimp": 885,
      "â«": 886,
      "ish": 887,
      "idence": 888,
      "ganiz": 889,
      "Ġtwo": 890,
      "Ġmake": 891,
      "Ġpart": 892,
      "Ġpos": 893,
      "ĠRaven": 894,
      "Ġ3": 895,
      "Ġ**": 896,
      "69": 897,
      "Ġmay": 898,
      "png": 899,
      "tags": 900,
      "Ġbet": 901,
      "ail": 902,
      "Ġmu": 903,
      "Ġ@[": 904,
      "oe": 905,
      "Ġthings": 906,
      "Ġpo": 907,
      "Ġze": 908,
      "ody": 909,
      "Ġwhich": 910,
      "Ġ>": 911,
      "ves": 912,
      "Ġom": 913,
      "itle": 914,
      "journal": 915,
      "CT": 916,
      "{{": 917,
      "}}": 918,
      "Ġdoes": 919,
      "Ġdown": 920,
      "Ġaw": 921,
      "Ġ\"\"": 922,
      "Ġbefore": 923,
      "arn": 924,
      "Ġoff": 925,
      "{{<": 926,
      "ĠQ": 927,
      "âĭ": 928,
      "Ġ>}}": 929,
      "ĠY": 930,
      "ken": 931,
      "ret": 932,
      "of": 933,
      "Ġey": 934,
      "ĉĉĉ": 935,
      "Ġatt": 936,
      "esc": 937,
      "ign": 938,
      "ĠOr": 939,
      "ĠAr": 940,
      "Ġapp": 941,
      "Ġshould": 942,
      "Ġown": 943,
      "Ġer": 944,
      "Ġke": 945,
      "ew": 946,
      "Ġday": 947,
      "?âĢĿ": 948,
      "ons": 949,
      "hen": 950,
      "title": 951,
      "ud": 952,
      "Ġwork": 953,
      "ving": 954,
      "And": 955,
      "ator": 956,
      "Ġthese": 957,
      "images": 958,
      "Ġmany": 959,
      "We": 960,
      "Ġsim": 961,
      "ary": 962,
      "Ġstr": 963,
      "ix": 964,
      "Ġsm": 965,
      "ief": 966,
      "youtube": 967,
      "'ve": 968,
      "Ġrec": 969,
      "Ġdif": 970,
      "ness": 971,
      "yst": 972,
      "aking": 973,
      "ought": 974,
      "RED": 975,
      "[[": 976,
      "ition": 977,
      "10": 978,
      "ars": 979,
      "SM": 980,
      "Ġsay": 981,
      "ating": 982,
      "Ġfind": 983,
      "ĠSt": 984,
      "ifer": 985,
      "Ġaround": 986,
      "He": 987,
      "read": 988,
      "Ġdoor": 989,
      "ict": 990,
      "Ġvery": 991,
      "Ġcreat": 992,
      "oy": 993,
      "enc": 994,
      "oth": 995,
      "ĠMan": 996,
      "ER": 997,
      "ward": 998,
      "Ġhelp": 999,
      "'re": 1000,
      "Ġgu": 1001,
      "Ġend": 1002,
      "ource": 1003,
      "Ġent": 1004,
      "2019": 1005,
      "Ġid": 1006,
      "watch": 1007,
      "âĪ": 1008,
      "author": 1009,
      "Ġlove": 1010,
      "Ġje": 1011,
      "Ġnew": 1012,
      "ucifer": 1013,
      "up": 1014,
      "ream": 1015,
      "hes": 1016,
      "Ġik": 1017,
      "Ġniet": 1018,
      "Ġword": 1019,
      "uciferian": 1020,
      "Ġhappen": 1021,
      "Ġmind": 1022,
      "gr": 1023,
      "arth": 1024,
      "SMR": 1025,
      "ple": 1026,
      "Ġmuch": 1027,
      "ss": 1028,
      "ier": 1029,
      "ganizations": 1030,
      "Ġmo": 1031,
      "raft": 1032,
      "aw": 1033,
      "wer": 1034,
      "cess": 1035,
      "ible": 1036,
      "Ġtoo": 1037,
      "ĠDe": 1038,
      "Ġtell": 1039,
      "Ġmade": 1040,
      "ollow": 1041,
      "ful": 1042,
      "ĠLem": 1043,
      "ond": 1044,
      "Ġresp": 1045,
      "603": 1046,
      "ls": 1047,
      "Ġsame": 1048,
      "Ġlong": 1049,
      "ĠWh": 1050,
      "ystem": 1051,
      "bor": 1052,
      "les": 1053,
      "side": 1054,
      "eld": 1055,
      "sc": 1056,
      "over": 1057,
      "date": 1058,
      "Ġsays": 1059,
      "ĠRank": 1060,
      "ĠĠĠĠĠĠĠĠ": 1061,
      "Ġstill": 1062,
      "21": 1063,
      "evidence": 1064,
      "col": 1065,
      "2020": 1066,
      "ification": 1067,
      "118": 1068,
      "gg": 1069,
      ",\"": 1070,
      "alse": 1071,
      "819": 1072,
      "ates": 1073,
      "ower": 1074,
      "244": 1075,
      "men": 1076,
      "ĠECO": 1077,
      "ather": 1078,
      "12118": 1079,
      "9012118": 1080,
      "69244": 1081,
      "6039012118": 1082,
      "8196039012118": 1083,
      "819603901211869244": 1084,
      "Ġafter": 1085,
      "Ġcr": 1086,
      "pect": 1087,
      "ze": 1088,
      "Ġtal": 1089,
      "Ġbu": 1090,
      "Ġ10": 1091,
      "\"](": 1092,
      "cc": 1093,
      "ways": 1094,
      "ying": 1095,
      "ieve": 1096,
      "Ġide": 1097,
      "ĠCh": 1098,
      "ric": 1099,
      "ert": 1100,
      "Ġ7": 1101,
      "Ġwell": 1102,
      "unn": 1103,
      "fl": 1104,
      "Ġmess": 1105,
      "Ġ([": 1106,
      "Ġname": 1107,
      "iebol": 1108,
      "),": 1109,
      "ee": 1110,
      "ms": 1111,
      "Ġmost": 1112,
      "ual": 1113,
      "let": 1114,
      "AN": 1115,
      "ction": 1116,
      "oon": 1117,
      "pped": 1118,
      "Ġalso": 1119,
      "Ġmust": 1120,
      "ember": 1121,
      "Ġgood": 1122,
      "Ġad": 1123,
      "cept": 1124,
      "ference": 1125,
      "Ġhuman": 1126,
      "erv": 1127,
      "Ġmight": 1128,
      "Ġrep": 1129,
      "OR": 1130,
      "Ġeyes": 1131,
      "Ġel": 1132,
      "haps": 1133,
      "ias": 1134,
      "Ġhead": 1135,
      "stand": 1136,
      "ĠZ": 1137,
      "source": 1138,
      "alcol": 1139,
      "alcolm": 1140,
      "Ġtake": 1141,
      "Ġfollow": 1142,
      "Ġanother": 1143,
      "ĠGod": 1144,
      "Ġseem": 1145,
      "ily": 1146,
      "+++": 1147,
      "Ġchild": 1148,
      "arch": 1149,
      "Ġph": 1150,
      "08": 1151,
      "16": 1152,
      "Ġmens": 1153,
      "Ġpu": 1154,
      "Ġcomm": 1155,
      "draft": 1156,
      "ient": 1157,
      "ism": 1158,
      "Ġits": 1159,
      "ting": 1160,
      "ib": 1161,
      "ise": 1162,
      "iversity": 1163,
      "ait": 1164,
      "get": 1165,
      "ject": 1166,
      "ont": 1167,
      "15": 1168,
      "ever": 1169,
      "ph": 1170,
      "Ġ8": 1171,
      "ually": 1172,
      "Ġlet": 1173,
      "Ġsystem": 1174,
      "gen": 1175,
      "anc": 1176,
      "ĠAge": 1177,
      "ological": 1178,
      "arly": 1179,
      "Ġpoint": 1180,
      "Ġdiffer": 1181,
      "ren": 1182,
      "Ġ+": 1183,
      "imes": 1184,
      "RI": 1185,
      "What": 1186,
      "Ġcome": 1187,
      "chn": 1188,
      "Ġvo": 1189,
      "Ġever": 1190,
      "uck": 1191,
      "Ġfound": 1192,
      "iverse": 1193,
      "ien": 1194,
      "ten": 1195,
      "Ġdr": 1196,
      "ĠAnd": 1197,
      "ĠEarth": 1198,
      "vel": 1199,
      "isc": 1200,
      "ĠIf": 1201,
      "Ġstart": 1202,
      "Ġmean": 1203,
      "ĠBut": 1204,
      "Ġyears": 1205,
      "kn": 1206,
      "45": 1207,
      "ĠThere": 1208,
      "Ġturn": 1209,
      "Ġpre": 1210,
      "Ġgl": 1211,
      "akes": 1212,
      "Ġ5": 1213,
      "Ġmon": 1214,
      "oms": 1215,
      "HO": 1216,
      "nect": 1217,
      "ittle": 1218,
      "77": 1219,
      "Ch": 1220,
      "ale": 1221,
      "irl": 1222,
      "ACT": 1223,
      "enter": 1224,
      "Ġgot": 1225,
      "Ġdifferent": 1226,
      "Ġplan": 1227,
      "IN": 1228,
      "ital": 1229,
      "Ġthought": 1230,
      "ists": 1231,
      "Ġeverything": 1232,
      "ched": 1233,
      "Ġwer": 1234,
      "]],": 1235,
      "Ġpast": 1236,
      "Ġwhile": 1237,
      "Ġused": 1238,
      "Ġunderstand": 1239,
      "Ġvoor": 1240,
      "Ġalways": 1241,
      "formation": 1242,
      "med": 1243,
      "orn": 1244,
      "escri": 1245,
      "Ġreally": 1246,
      "row": 1247,
      "Ġthing": 1248,
      "ook": 1249,
      "Ġopen": 1250,
      "REDACT": 1251,
      "REDACTED": 1252,
      "university": 1253,
      "Ġment": 1254,
      "ĠDiebol": 1255,
      "ĠRE": 1256,
      "GG": 1257,
      "here": 1258,
      "Ġfalse": 1259,
      "ets": 1260,
      "Ġimport": 1261,
      "mer": 1262,
      "Ġthose": 1263,
      "ared": 1264,
      "18": 1265,
      "Ġev": 1266,
      "ĠĠĠĠĠĠĠĠĠĠ": 1267,
      "ateg": 1268,
      "aken": 1269,
      "Ġstory": 1270,
      "ĠTRI": 1271,
      "ulation": 1272,
      "aug": 1273,
      "Ġsomeone": 1274,
      "GGER": 1275,
      "ĠTRIGGER": 1276,
      "ax": 1277,
      "Ġ4": 1278,
      "Ġlittle": 1279,
      "Ġothers": 1280,
      "But": 1281,
      "ty": 1282,
      "bb": 1283,
      "person": 1284,
      "Ġ((": 1285,
      "/).": 1286,
      "ĠIk": 1287,
      "Ġlight": 1288,
      "Ġmensen": 1289,
      "ĠThat": 1290,
      "irect": 1291,
      "Ġroom": 1292,
      "atter": 1293,
      "Ġnothing": 1294,
      "Ġexper": 1295,
      "iend": 1296,
      "Ġconnect": 1297,
      "ately": 1298,
      "Ġdes": 1299,
      "Ġleft": 1300,
      "26": 1301,
      "Ġcle": 1302,
      "Ġshow": 1303,
      "rad": 1304,
      "ock": 1305,
      "Ġwar": 1306,
      "![": 1307,
      "ors": 1308,
      "als": 1309,
      "Ġaway": 1310,
      "Wh": 1311,
      "ron": 1312,
      "Ġfriend": 1313,
      "Ġagainst": 1314,
      "man": 1315,
      "igh": 1316,
      "Ġuse": 1317,
      "uter": 1318,
      "?\"": 1319,
      "Ġsch": 1320,
      "Ġfact": 1321,
      "ement": 1322,
      "ĉĠ": 1323,
      "Ġeach": 1324,
      "Ġbeh": 1325,
      "Ġass": 1326,
      "ience": 1327,
      "Ġmom": 1328,
      "Ġbelieve": 1329,
      "Or": 1330,
      "dat": 1331,
      "Ġkill": 1332,
      "ĠECHO": 1333,
      "Ġwon": 1334,
      "Ġgen": 1335,
      "Ġmem": 1336,
      "ari": 1337,
      "ider": 1338,
      "05": 1339,
      "rol": 1340,
      "Ġche": 1341,
      "Ġret": 1342,
      "Re": 1343,
      "pro": 1344,
      "inn": 1345,
      "elt": 1346,
      "Ġwanted": 1347,
      "ek": 1348,
      "Ġput": 1349,
      "Ġread": 1350,
      "weight": 1351,
      "ledge": 1352,
      "--------": 1353,
      "Luciferian": 1354,
      "Ġface": 1355,
      "ĠHet": 1356,
      "Ġasked": 1357,
      "Ġknew": 1358,
      "Ġspec": 1359,
      "ross": 1360,
      "Ġwhy": 1361,
      "Ġanything": 1362,
      "ĠMy": 1363,
      "ption": 1364,
      "AT": 1365,
      "07": 1366,
      "iven": 1367,
      "â¨": 1368,
      "Ġspe": 1369,
      "Ġca": 1370,
      "Ġres": 1371,
      "ĠWhat": 1372,
      "Ġplace": 1373,
      "Ġmoment": 1374,
      "Ġnaar": 1375,
      "Ġlearn": 1376,
      "achine": 1377,
      "........": 1378,
      "Ġimportant": 1379,
      "Ġalt": 1380,
      "Ġsuch": 1381,
      "ready": 1382,
      "Ġsur": 1383,
      "Ġlot": 1384,
      "Ġhij": 1385,
      "Ġ2019": 1386,
      "ategories": 1387,
      "ins": 1388,
      "ĠASMR": 1389,
      "ĠCom": 1390,
      "44": 1391,
      "Ġcre": 1392,
      "Ġkind": 1393,
      "Ġpubl": 1394,
      "eren": 1395,
      "Ġter": 1396,
      "Ġfam": 1397,
      "Ġwithout": 1398,
      "Ġexpl": 1399,
      "categories": 1400,
      "ub": 1401,
      "Ġmaar": 1402,
      "Ġhum": 1403,
      "Ġind": 1404,
      "menu": 1405,
      "ool": 1406,
      "Ġimage": 1407,
      "body": 1408,
      "til": 1409,
      "Ġboth": 1410,
      "ĠNo": 1411,
      "yle": 1412,
      "ited": 1413,
      "ON": 1414,
      "erg": 1415,
      "Ġwait": 1416,
      "ann": 1417,
      "org": 1418,
      "Ġalready": 1419,
      "!âĢĿ": 1420,
      "Ġcol": 1421,
      "09": 1422,
      "Ġaan": 1423,
      "ĠJe": 1424,
      "ĠâĢ¦": 1425,
      "((": 1426,
      "04": 1427,
      "du": 1428,
      "most": 1429,
      "wor": 1430,
      "resent": 1431,
      "personas": 1432,
      "So": 1433,
      "oke": 1434,
      "Ġdec": 1435,
      "Ġasks": 1436,
      "Fodder": 1437,
      "Ġsk": 1438,
      "Ġsub": 1439,
      "air": 1440,
      "ities": 1441,
      "Ġable": 1442,
      "ased": 1443,
      "ĠSo": 1444,
      "Ġyet": 1445,
      "Ġcalled": 1446,
      "33": 1447,
      "](((": 1448,
      "ĠMalcolm": 1449,
      "isten": 1450,
      ".*\"": 1451,
      "De": 1452,
      "ger": 1453,
      "Ġwall": 1454,
      "Ġbeg": 1455,
      "ird": 1456,
      "ijd": 1457,
      "Ġchange": 1458,
      "ized": 1459,
      "She": 1460,
      "Ġmiss": 1461,
      "Cl": 1462,
      "ORD": 1463,
      "not": 1464,
      "Ġmed": 1465,
      "Ġinformation": 1466,
      "Ġupon": 1467,
      "Ġinst": 1468,
      "Ġhun": 1469,
      "omen": 1470,
      "Ġsaw": 1471,
      "ificial": 1472,
      "less": 1473,
      "Ġpower": 1474,
      "Ġdoing": 1475,
      "ĠPro": 1476,
      "Ġ62": 1477,
      "ĠAn": 1478,
      "ĠHow": 1479,
      "oose": 1480,
      "No": 1481,
      "ĠDo": 1482,
      "ĠEr": 1483,
      "ope": 1484,
      "Ġlead": 1485,
      "Ġplay": 1486,
      "arr": 1487,
      "cond": 1488,
      "ĠREC": 1489,
      "ike": 1490,
      "Ġinv": 1491,
      "'ll": 1492,
      "Ġthough": 1493,
      "acht": 1494,
      "Ġkeep": 1495,
      "day": 1496,
      "ext": 1497,
      "Ġbo": 1498,
      "ffect": 1499,
      "Ġgive": 1500,
      "Ġrijk": 1501,
      "Ġentire": 1502,
      "ĠRECORD": 1503,
      "Ġsle": 1504,
      "Ġactually": 1505,
      "Ġposition": 1506,
      "wards": 1507,
      "ips": 1508,
      "chnolog": 1509,
      "ah": 1510,
      "ħâ©": 1511,
      "ingen": 1512,
      "99": 1513,
      "Ġstop": 1514,
      "Ġart": 1515,
      "Ġprot": 1516,
      "Ġlook": 1517,
      "ius": 1518,
      "Ġbest": 1519,
      "alth": 1520,
      "Ġstyle": 1521,
      "Ġlive": 1522,
      "bs": 1523,
      "rc": 1524,
      "Ġref": 1525,
      "Ġwasn": 1526,
      "Ġtold": 1527,
      "inta": 1528,
      "17": 1529,
      "Ġwat": 1530,
      "Ġside": 1531,
      "Ġfore": 1532,
      "Ġreas": 1533,
      "Ġthree": 1534,
      "Ġinside": 1535,
      "class": 1536,
      "Ġremember": 1537,
      "oog": 1538,
      "Ġuniverse": 1539,
      "Ġcomplet": 1540,
      "Ġbehind": 1541,
      "eg": 1542,
      "night": 1543,
      "Ġsec": 1544,
      "aat": 1545,
      "ertain": 1546,
      "ma": 1547,
      "Ĩâ©": 1548,
      "Ġwatch": 1549,
      "Ġcame": 1550,
      "Ġgre": 1551,
      "Ġ#[[": 1552,
      "Âł": 1553,
      "inal": 1554,
      "oud": 1555,
      "ĠHuman": 1556,
      "ĉĉĉĉ": 1557,
      "ably": 1558,
      "px": 1559,
      "rom": 1560,
      "ck": 1561,
      "Ġconf": 1562,
      "14": 1563,
      "Al": 1564,
      "Name": 1565,
      "Ġser": 1566,
      "Ġmin": 1567,
      "Ġhard": 1568,
      "Ġquest": 1569,
      "Ġdisc": 1570,
      "St": 1571,
      "Ġ/": 1572,
      "Ġheart": 1573,
      "iew": 1574,
      "flu": 1575,
      "?*\"": 1576,
      "sy": 1577,
      "ĠSh": 1578,
      "ames": 1579,
      "ationsh": 1580,
      "oin": 1581,
      "Ġdel": 1582,
      "Ġpar": 1583,
      "ĠWhen": 1584,
      "ĠUn": 1585,
      "Ġreturn": 1586,
      "Ġsn": 1587,
      "alk": 1588,
      "ween": 1589,
      "ĠâĢĭ": 1590,
      ".*": 1591,
      "ative": 1592,
      "Ġuit": 1593,
      "If": 1594,
      "je": 1595,
      "ted": 1596,
      "Ġcare": 1597,
      "Ġhome": 1598,
      "Ġmessage": 1599,
      "ired": 1600,
      "net": 1601,
      "Ġve": 1602,
      "erhaps": 1603,
      "ĠKun": 1604,
      "fin": 1605,
      "itect": 1606,
      "aster": 1607,
      "Ġrealm": 1608,
      "â§": 1609,
      "ĠAt": 1610,
      "Ġstand": 1611,
      "]].": 1612,
      "Ġeveryone": 1613,
      "Ġcons": 1614,
      "Ġfew": 1615,
      "Ġdoesn": 1616,
      "Ġold": 1617,
      "ĠBe": 1618,
      "Ġtrying": 1619,
      "Ik": 1620,
      "Ġcouldn": 1621,
      "center": 1622,
      "sel": 1623,
      "Ġlast": 1624,
      "Ġexist": 1625,
      "ypes": 1626,
      "Ġposs": 1627,
      "Organizations": 1628,
      "Ġbro": 1629,
      "Ġsecond": 1630,
      "Ġalone": 1631,
      "ĠOne": 1632,
      "Ġelse": 1633,
      "lease": 1634,
      "Ġonce": 1635,
      "usic": 1636,
      "Ġproble": 1637,
      "Ġsupp": 1638,
      "âĭ®": 1639,
      "01": 1640,
      "]([[": 1641,
      "ande": 1642,
      "Ġworden": 1643,
      "Ġtrust": 1644,
      "âĬ": 1645,
      "iewer": 1646,
      "Ġsit": 1647,
      "ison": 1648,
      "Ġpain": 1649,
      "known": 1650,
      "Class": 1651,
      "zen": 1652,
      "Ġsw": 1653,
      "organizations": 1654,
      "Ġfull": 1655,
      "arc": 1656,
      "13": 1657,
      "ender": 1658,
      "Ġgod": 1659,
      "Ġgreat": 1660,
      "Ġenough": 1661,
      "Ġdream": 1662,
      "Ġtrue": 1663,
      "Ġbody": 1664,
      "Ġlater": 1665,
      "ige": 1666,
      "igital": 1667,
      "Ġnext": 1668,
      "Ġbecome": 1669,
      "Ġcontrol": 1670,
      "border": 1671,
      "sh": 1672,
      "Ġsrc": 1673,
      "They": 1674,
      "Ġste": 1675,
      "Ġneeded": 1676,
      "ĠArt": 1677,
      "aan": 1678,
      "pr": 1679,
      "Ġdark": 1680,
      "Ġpur": 1681,
      "olut": 1682,
      "ĠOn": 1683,
      "That": 1684,
      "ĠArch": 1685,
      "escription": 1686,
      "radius": 1687,
      "Ġwithin": 1688,
      "=\"/": 1689,
      "obs": 1690,
      "unnen": 1691,
      "02": 1692,
      "ror": 1693,
      "Ġbreat": 1694,
      "Ġevent": 1695,
      "lpha": 1696,
      "Classification": 1697,
      "Ġkunnen": 1698,
      "Ġacc": 1699,
      "Ġbetween": 1700,
      "Ġ19": 1701,
      "Ġbre": 1702,
      "83": 1703,
      "BI": 1704,
      "Man": 1705,
      "app": 1706,
      "io": 1707,
      "ply": 1708,
      "Ġcur": 1709,
      "ote": 1710,
      "Ġkan": 1711,
      "ility": 1712,
      "ize": 1713,
      "Ġcompletely": 1714,
      "My": 1715,
      "Ġmult": 1716,
      "How": 1717,
      "SC": 1718,
      "way": 1719,
      "jande": 1720,
      "sym": 1721,
      "Ġtest": 1722,
      "Ġsound": 1723,
      "ision": 1724,
      "aring": 1725,
      "ics": 1726,
      "reats": 1727,
      "Ġcontin": 1728,
      "Ġcommun": 1729,
      "Ġuntil": 1730,
      "Ġvers": 1731,
      "Ġsoc": 1732,
      "ica": 1733,
      "uture": 1734,
      "Ġmyself": 1735,
      "Ġext": 1736,
      "ĠZe": 1737,
      "46": 1738,
      "Ġhold": 1739,
      "Ġlo": 1740,
      "Ġexact": 1741,
      "ĠLark": 1742,
      "Ġbetter": 1743,
      "06": 1744,
      "Ġmakes": 1745,
      "Ġmatter": 1746,
      "its": 1747,
      "vers": 1748,
      "image": 1749,
      "ĠAl": 1750,
      "ptoms": 1751,
      "Ġ6": 1752,
      "Ġset": 1753,
      "Ġnum": 1754,
      "used": 1755,
      "osed": 1756,
      "25": 1757,
      "fe": 1758,
      "ially": 1759,
      "Ġsent": 1760,
      "ana": 1761,
      "Ġfelt": 1762,
      "Ġhour": 1763,
      "ĠBl": 1764,
      "ape": 1765,
      "Ġdet": 1766,
      "Ġdone": 1767,
      "Ġgiven": 1768,
      "ode": 1769,
      "Ġalmost": 1770,
      "data": 1771,
      "When": 1772,
      "Ġwent": 1773,
      "ular": 1774,
      "oss": 1775,
      "Ġsimply": 1776,
      "orp": 1777,
      "Ġdro": 1778,
      "Ġtook": 1779,
      "Ġpass": 1780,
      "Ġpred": 1781,
      "els": 1782,
      "ĠFor": 1783,
      "sych": 1784,
      "ION": 1785,
      "ĠTr": 1786,
      "ocation": 1787,
      "Ġfamily": 1788,
      "uw": 1789,
      "iting": 1790,
      "ots": 1791,
      "ĠAs": 1792,
      "ables": 1793,
      "Ġfar": 1794,
      "ality": 1795,
      "Ġseen": 1796,
      "ueen": 1797,
      "Ġhumans": 1798,
      "cht": 1799,
      "fect": 1800,
      "min": 1801,
      "to": 1802,
      "ug": 1803,
      "Ġadd": 1804,
      "arl": 1805,
      "str": 1806,
      "Ġleven": 1807,
      "stats": 1808,
      "ervation": 1809,
      "symptoms": 1810,
      "Ã©": 1811,
      "There": 1812,
      "ĠTo": 1813,
      "Ġchang": 1814,
      "Ġsmall": 1815,
      "ĠErin": 1816,
      "23": 1817,
      "Un": 1818,
      "bably": 1819,
      "Ġ_": 1820,
      "Ġsym": 1821,
      "Ġdra": 1822,
      "ĠAI": 1823,
      "ĠCAT": 1824,
      "ĠNot": 1825,
      "ipulation": 1826,
      "Ġwords": 1827,
      "KE": 1828,
      "types": 1829,
      "Ġsure": 1830,
      "ister": 1831,
      "ention": 1832,
      "ĠMoon": 1833,
      "ture": 1834,
      "Ġyourself": 1835,
      "Ġsing": 1836,
      "ref": 1837,
      "ĠPh": 1838,
      "description": 1839,
      "eb": 1840,
      "ense": 1841,
      "Ġdays": 1842,
      "Ġfight": 1843,
      "Ġht": 1844,
      "threats": 1845,
      "Ġ2020": 1846,
      "Ġhappened": 1847,
      "88": 1848,
      "ASMR": 1849,
      "fodder": 1850,
      "adow": 1851,
      "ĠHis": 1852,
      "Ġreality": 1853,
      "Ġbrain": 1854,
      "oogle": 1855,
      "Ġtowards": 1856,
      "othes": 1857,
      "Ġ['": 1858,
      "ĠHer": 1859,
      "Ġexam": 1860,
      "ellig": 1861,
      "Ġreason": 1862,
      "mand": 1863,
      "ĠSp": 1864,
      "Ġtrans": 1865,
      "ments": 1866,
      "gram": 1867,
      "aught": 1868,
      "rij": 1869,
      "Ġpol": 1870,
      "ents": 1871,
      "2021": 1872,
      "Ġtruth": 1873,
      "Ġcannot": 1874,
      "WO": 1875,
      "ker": 1876,
      "ped": 1877,
      "Ġwaar": 1878,
      "ature": 1879,
      "Ġmove": 1880,
      "Ġfre": 1881,
      "ently": 1882,
      "Ġspace": 1883,
      "Ġunknown": 1884,
      "Ġprotect": 1885,
      "ex": 1886,
      "md": 1887,
      "ash": 1888,
      "otes": 1889,
      "Ġstars": 1890,
      "ified": 1891,
      "Ġform": 1892,
      "ĠQueen": 1893,
      "fluence": 1894,
      "selves": 1895,
      "elijk": 1896,
      "Ġdead": 1897,
      "Ġinterest": 1898,
      "ĠArtificial": 1899,
      "TI": 1900,
      "for": 1901,
      "vious": 1902,
      "Ġfing": 1903,
      "oodnight": 1904,
      "Ġideas": 1905,
      "Ġfollowing": 1906,
      "Ġ`": 1907,
      "Ġfuture": 1908,
      "Ġhear": 1909,
      "observation": 1910,
      "Ġhttps": 1911,
      "Digital": 1912,
      "eft": 1913,
      "Ġbed": 1914,
      "Ġbad": 1915,
      "Ġtoget": 1916,
      "Ġans": 1917,
      "Ġrest": 1918,
      "ountry": 1919,
      "ariables": 1920,
      "Ġtogether": 1921,
      "oney": 1922,
      "Ġhimself": 1923,
      "ĠJust": 1924,
      "ploy": 1925,
      "Ġfloor": 1926,
      "Ġtimes": 1927,
      "heid": 1928,
      "enn": 1929,
      "Ġhou": 1930,
      "Ġanyone": 1931,
      "Ġacross": 1932,
      "fd": 1933,
      "Ġmijn": 1934,
      "Ġcour": 1935,
      "ional": 1936,
      "Ġgame": 1937,
      "Ġ\"[": 1938,
      "ĠEvery": 1939,
      "istance": 1940,
      "raph": 1941,
      "ield": 1942,
      "iological": 1943,
      "uel": 1944,
      "ised": 1945,
      "Ġnight": 1946,
      "ided": 1947,
      "ĠSal": 1948,
      "Ġask": 1949,
      "Ġalle": 1950,
      "Ġworking": 1951,
      "Ġidea": 1952,
      "ically": 1953,
      "Ġlisten": 1954,
      "ypothes": 1955,
      "Ġlooked": 1956,
      "48": 1957,
      "aak": 1958,
      "iness": 1959,
      "Ġcertain": 1960,
      "Ġdev": 1961,
      "ĠMay": 1962,
      "andor": 1963,
      "ĠPerhaps": 1964,
      "medi": 1965,
      "Lem": 1966,
      "luciferian": 1967,
      "Ġdest": 1968,
      "Ġob": 1969,
      "Ġhu": 1970,
      "Ġrequ": 1971,
      "ĠCinta": 1972,
      "ĠBr": 1973,
      "ĠThief": 1974,
      "ĠComp": 1975,
      "'d": 1976,
      "Rev": 1977,
      "aut": 1978,
      "br": 1979,
      "gs": 1980,
      "Ġmod": 1981,
      "ĠNjande": 1982,
      "!\"": 1983,
      ";\"": 1984,
      "ines": 1985,
      "ero": 1986,
      "iety": 1987,
      "Ġhands": 1988,
      "ince": 1989,
      "Ġsign": 1990,
      "âĢ¦": 1991,
      "Ġgirl": 1992,
      "empt": 1993,
      "ĠRel": 1994,
      "Reference": 1995,
      "92": 1996,
      "ner": 1997,
      "ĠHij": 1998,
      "ury": 1999,
      "ored": 2000,
      "riend": 2001,
      "?*": 2002,
      "ished": 2003,
      "Ġdeath": 2004,
      "ĠCon": 2005,
      "quotes": 2006,
      "Ġvoice": 2007,
      "27": 2008,
      "aim": 2009,
      "fort": 2010,
      "âŁ": 2011,
      "ither": 2012,
      "oman": 2013,
      "ĠAll": 2014,
      "ĠTe": 2015,
      "ĠYears": 2016,
      "ICT": 2017,
      "oot": 2018,
      "inally": 2019,
      "Ġtot": 2020,
      "ventor": 2021,
      "Ġbuild": 2022,
      "Ġair": 2023,
      "Ġlang": 2024,
      "ccup": 2025,
      "ricandor": 2026,
      "WOKE": 2027,
      "yr": 2028,
      "Ġisn": 2029,
      "Ġrese": 2030,
      "Ġcreated": 2031,
      "tr": 2032,
      "yan": 2033,
      "Ġreg": 2034,
      "Ġdeep": 2035,
      "Ġknown": 2036,
      "velop": 2037,
      "Ã«": 2038,
      "Ġwater": 2039,
      "Ġpost": 2040,
      "Ġrepl": 2041,
      "Ġbegan": 2042,
      "ĠWor": 2043,
      "Ġmoet": 2044,
      "Ġtalk": 2045,
      "Ġmonth": 2046,
      "zelf": 2047,
      "Ġben": 2048,
      "itch": 2049,
      "Ġ\"/": 2050,
      "REDICT": 2051,
      "Ġseems": 2052,
      "ationships": 2053,
      "Ġexactly": 2054,
      "Do": 2055,
      "but": 2056,
      "oint": 2057,
      "Ġfree": 2058,
      "Ġoften": 2059,
      "Ġheard": 2060,
      "Ġgro": 2061,
      "Ġleave": 2062,
      "abor": 2063,
      "Ġknows": 2064,
      "mediately": 2065,
      "REDICTION": 2066,
      "af": 2067,
      "ube": 2068,
      "Ġpri": 2069,
      "ĠMat": 2070,
      "ĠRe": 2071,
      "uss": 2072,
      "Ġprobably": 2073,
      "bben": 2074,
      "ery": 2075,
      "Ġdirect": 2076,
      "Ġfall": 2077,
      "arm": 2078,
      "]({{<": 2079,
      "Ġvis": 2080,
      "Ġexpect": 2081,
      "Ġrelref": 2082,
      "Ġ>}})": 2083,
      "ccupations": 2084,
      ".]]": 2085,
      "89": 2086,
      "LL": 2087,
      "OM": 2088,
      "Oh": 2089,
      "Ġhope": 2090,
      "Ġelect": 2091,
      "Ġzal": 2092,
      "Ġmeaning": 2093,
      "Alias": 2094,
      "ste": 2095,
      "ify": 2096,
      "Ġabove": 2097,
      "Ġtechnolog": 2098,
      "...]": 2099,
      "ences": 2100,
      "Ġminut": 2101,
      "orpor": 2102,
      "df": 2103,
      "ruct": 2104,
      "ators": 2105,
      "Ġcommunic": 2106,
      "Ġself": 2107,
      "Ġmen": 2108,
      "Ġfear": 2109,
      "elen": 2110,
      "ĠEx": 2111,
      "Ġzich": 2112,
      "atever": 2113,
      "aining": 2114,
      "Ġtry": 2115,
      "ende": 2116,
      "Ġperhaps": 2117,
      "!!": 2118,
      "Ġstat": 2119,
      "ĠDark": 2120,
      "Ġblack": 2121,
      "Ġsitu": 2122,
      "57": 2123,
      "Ġsuc": 2124,
      "Ġmoose": 2125,
      "entity": 2126,
      "ained": 2127,
      "Ġtrav": 2128,
      "Ġknowledge": 2129,
      "Ġgrow": 2130,
      "Ġwrong": 2131,
      "Ġchildren": 2132,
      "Ġhours": 2133,
      "line": 2134,
      "Ġdit": 2135,
      "Ġhigh": 2136,
      "ĠIs": 2137,
      "Ġhebben": 2138,
      "imon": 2139,
      "amed": 2140,
      "Ġdevelop": 2141,
      "ĠPREDICTION": 2142,
      "Ġattempt": 2143,
      "Ġconnected": 2144,
      "/#": 2145,
      "As": 2146,
      "veill": 2147,
      "Ġenerg": 2148,
      "Ġzo": 2149,
      "theories": 2150,
      "Ġwhole": 2151,
      "Ġemot": 2152,
      "âĪĤ": 2153,
      "Ġspeak": 2154,
      "me": 2155,
      "ole": 2156,
      "iter": 2157,
      "Ġhor": 2158,
      "amer": 2159,
      "Ġmeans": 2160,
      "ument": 2161,
      "Ġexp": 2162,
      "SCAN": 2163,
      "Ġexample": 2164,
      "TIIN": 2165,
      "apt": 2166,
      "ox": 2167,
      "Ġ*": 2168,
      "Ġsend": 2169,
      "Ġmis": 2170,
      "Ġstarted": 2171,
      "ĠComputer": 2172,
      "47": 2173,
      "ced": 2174,
      "Ġmother": 2175,
      "ilit": 2176,
      "Ġsever": 2177,
      "ĉĉĠ": 2178,
      "ĠInventor": 2179,
      "Ġunivers": 2180,
      "ograph": 2181,
      "Ġsleep": 2182,
      "veillance": 2183,
      "30": 2184,
      "Goodnight": 2185,
      "my": 2186,
      "Ġsat": 2187,
      "esus": 2188,
      "Ġtoday": 2189,
      "Ġook": 2190,
      "Ġincl": 2191,
      "ural": 2192,
      "Ġallow": 2193,
      "Chron": 2194,
      "Ġreflect": 2195,
      "Biological": 2196,
      "Gender": 2197,
      "Race": 2198,
      "Test": 2199,
      "Variables": 2200,
      "view": 2201,
      "where": 2202,
      "anje": 2203,
      "Ġinc": 2204,
      "aces": 2205,
      "Ġprocess": 2206,
      "Ġusing": 2207,
      "Ġperfect": 2208,
      "43": 2209,
      "xim": 2210,
      "Ġwoman": 2211,
      "urt": 2212,
      "Ġorig": 2213,
      "Ġbring": 2214,
      "Chronological": 2215,
      "An": 2216,
      "ĠAls": 2217,
      "ĠAlpha": 2218,
      "ilin": 2219,
      "ĠEl": 2220,
      "ĠRes": 2221,
      "abb": 2222,
      "ivid": 2223,
      "Reviewer": 2224,
      "ming": 2225,
      "Ġmid": 2226,
      "Ġcar": 2227,
      "Ġeffect": 2228,
      "ift": 2229,
      "andid": 2230,
      "ures": 2231,
      "ullen": 2232,
      "Ġbreak": 2233,
      "Ġsymbol": 2234,
      "Ġsus": 2235,
      "ices": 2236,
      "Ġrele": 2237,
      "Ġchar": 2238,
      "ĠQilin": 2239,
      "ÂłĊ": 2240,
      "oen": 2241,
      "Ġhall": 2242,
      "ĠSome": 2243,
      "Ġherself": 2244,
      "ĠInter": 2245,
      "Ġoutside": 2246,
      ")):": 2247,
      "Ġpartic": 2248,
      "Ġrespond": 2249,
      "Ġtalking": 2250,
      "kay": 2251,
      "Ġsou": 2252,
      "Ġdep": 2253,
      "unt": 2254,
      "Ġprogram": 2255,
      "â©ģ": 2256,
      "Ġblood": 2257,
      "ĠJei": 2258,
      "ged": 2259,
      "Ġyoutu": 2260,
      "uring": 2261,
      "ush": 2262,
      "ecause": 2263,
      "Ġquite": 2264,
      "ype": 2265,
      "Ġappro": 2266,
      "ĠWhile": 2267,
      "Ġturned": 2268,
      "Ġyoutube": 2269,
      "na": 2270,
      "rew": 2271,
      "Ġmar": 2272,
      "ĠBricandor": 2273,
      "Ġzou": 2274,
      "ĠFre": 2275,
      "Ġcho": 2276,
      "ured": 2277,
      "Ġslow": 2278,
      "................": 2279,
      "Ġpublic": 2280,
      "42": 2281,
      "Tube": 2282,
      "ĸâ«": 2283,
      "Ġwal": 2284,
      "Ġsil": 2285,
      "Ġbit": 2286,
      "Ġhel": 2287,
      "Ġeng": 2288,
      "Ġzullen": 2289,
      "Ġconcept": 2290,
      "Ġcomple": 2291,
      "Ġcomputer": 2292,
      "iscord": 2293,
      "arciss": 2294,
      "ĠArchitect": 2295,
      "RE": 2296,
      "db": 2297,
      "host": 2298,
      "ued": 2299,
      "Ġâ": 2300,
      "Ġbig": 2301,
      "itz": 2302,
      "owledge": 2303,
      "Ġfront": 2304,
      "Ġlives": 2305,
      "Ġsecret": 2306,
      "68": 2307,
      "rees": 2308,
      "ĠSc": 2309,
      "rip": 2310,
      ")))": 2311,
      "Ġwonder": 2312,
      "Ġcourse": 2313,
      "Ġ*\"": 2314,
      "Ġtijd": 2315,
      "amuel": 2316,
      "Ġrun": 2317,
      "Ġjob": 2318,
      "40": 2319,
      "ling": 2320,
      "Ġ![": 2321,
      "ident": 2322,
      "ĠSe": 2323,
      "ency": 2324,
      "Ġlost": 2325,
      "acy": 2326,
      "Ġorder": 2327,
      "Ġvideos": 2328,
      "Ġsituation": 2329,
      "Ġmist": 2330,
      "Ġloc": 2331,
      "Ġblitz": 2332,
      "rypt": 2333,
      "Ġproblem": 2334,
      "iment": 2335,
      "urveillance": 2336,
      "que": 2337,
      "itten": 2338,
      "orporation": 2339,
      "22": 2340,
      "Is": 2341,
      "On": 2342,
      "path": 2343,
      "ganic": 2344,
      "Ġprom": 2345,
      "Influence": 2346,
      "ountain": 2347,
      "Ġresult": 2348,
      "Ġpredict": 2349,
      "Occupations": 2350,
      "SS": 2351,
      "ces": 2352,
      "fic": 2353,
      "use": 2354,
      "wik": 2355,
      "Ġmaking": 2356,
      "Ġbook": 2357,
      "Ġhealth": 2358,
      "ĠAss": 2359,
      "Ġthemselves": 2360,
      "Ġclaim": 2361,
      "aws": 2362,
      "Ġclearly": 2363,
      "58": 2364,
      "az": 2365,
      "pen": 2366,
      "Ġmoney": 2367,
      "Ġpull": 2368,
      "Ġless": 2369,
      "####": 2370,
      "Ġleast": 2371,
      "Ġtried": 2372,
      "Ġintellig": 2373,
      "iving": 2374,
      "Ġlooking": 2375,
      "â«ĺ": 2376,
      "Ġstrong": 2377,
      "rowen": 2378,
      "Ġgener": 2379,
      "imonial": 2380,
      "Testimonial": 2381,
      "eah": 2382,
      "Ġbes": 2383,
      "Ġfur": 2384,
      "Ġpe": 2385,
      "Ġpers": 2386,
      "Ġred": 2387,
      "â©Ĩâ©": 2388,
      "Ġimmediately": 2389,
      "scious": 2390,
      "Ġquestion": 2391,
      "Ġanswer": 2392,
      "To": 2393,
      "rag": 2394,
      "Ġaf": 2395,
      "erc": 2396,
      "Ġmusic": 2397,
      "Ġdri": 2398,
      "Ġgel": 2399,
      "ĠAction": 2400,
      "Ġstate": 2401,
      "ijke": 2402,
      "usion": 2403,
      "Ġprov": 2404,
      "ives": 2405,
      "Ġphys": 2406,
      "Ġinvol": 2407,
      "ides": 2408,
      "ĠGrowen": 2409,
      "Ġyear": 2410,
      "Ġstrange": 2411,
      "work": 2412,
      "Malcolm": 2413,
      "miss": 2414,
      "uff": 2415,
      "itive": 2416,
      "../": 2417,
      "Ġblue": 2418,
      "/),": 2419,
      "Ġattention": 2420,
      "Ġkept": 2421,
      "Ġmention": 2422,
      "Ġfriends": 2423,
      "Ġseveral": 2424,
      "For": 2425,
      "ior": 2426,
      "Ġheeft": 2427,
      "icked": 2428,
      "Ġgave": 2429,
      "aced": 2430,
      "keys": 2431,
      "outh": 2432,
      "Ġprison": 2433,
      "itting": 2434,
      "oek": 2435,
      "Ġphone": 2436,
      "Ġsingle": 2437,
      "Ġ`$": 2438,
      "ography": 2439,
      "49": 2440,
      "Ġtop": 2441,
      "Ġhate": 2442,
      "ĠDoor": 2443,
      "Ġcoming": 2444,
      "ĠOrganic": 2445,
      "Ġrepresent": 2446,
      "ule": 2447,
      "Ġsong": 2448,
      "Ġmag": 2449,
      "Ġcor": 2450,
      "esb": 2451,
      "alm": 2452,
      "Ġlaug": 2453,
      "ached": 2454,
      "ĠAg": 2455,
      "ĠFBI": 2456,
      "ĠNext": 2457,
      "ĠGirl": 2458,
      "000": 2459,
      "aving": 2460,
      "aves": 2461,
      "Ġpossible": 2462,
      "Ġnumber": 2463,
      "Ġhouse": 2464,
      "Just": 2465,
      "Yes": 2466,
      "light": 2467,
      "mon": 2468,
      "Ġ9": 2469,
      "Ġtim": 2470,
      "icht": 2471,
      "Ġeas": 2472,
      "Ġproject": 2473,
      "Ġprodu": 2474,
      "Ġrole": 2475,
      "Ġevil": 2476,
      "Ġveel": 2477,
      "uage": 2478,
      "atie": 2479,
      "Ġbus": 2480,
      "Ġpat": 2481,
      "Ġgev": 2482,
      "ĠThese": 2483,
      "Ġons": 2484,
      "ĠCorporation": 2485,
      "ĠJesus": 2486,
      "Ġgeen": 2487,
      "ĠChr": 2488,
      "ĠRelax": 2489,
      "onym": 2490,
      "Ġdescri": 2491,
      "Ġpret": 2492,
      "Ġrece": 2493,
      "acking": 2494,
      "rap": 2495,
      "ollabor": 2496,
      "Ġsense": 2497,
      "onse": 2498,
      "Ġpresent": 2499,
      "ask": 2500,
      "igen": 2501,
      "ĠThen": 2502,
      "ards": 2503,
      "assets": 2504,
      "anger": 2505,
      "Ġcontact": 2506,
      "Ġaccept": 2507,
      "ully": 2508,
      "Ġexperience": 2509,
      "50": 2510,
      "66": 2511,
      "Ar": 2512,
      "Bl": 2513,
      "uit": 2514,
      "head": 2515,
      "onely": 2516,
      "Ġgun": 2517,
      "ĠDev": 2518,
      "Ġring": 2519,
      "]])": 2520,
      ".\"*": 2521,
      "Ġhappy": 2522,
      "Het": 2523,
      "pre": 2524,
      "Ġkid": 2525,
      "Ġvol": 2526,
      "lsi": 2527,
      "ĠWhy": 2528,
      "----------------": 2529,
      "Ġgreen": 2530,
      "Ġinteresting": 2531,
      "ĠRelaxer": 2532,
      "87": 2533,
      "Direct": 2534,
      "ues": 2535,
      "eng": 2536,
      "onder": 2537,
      "alf": 2538,
      "Ġang": 2539,
      "tern": 2540,
      "this": 2541,
      "Ġliving": 2542,
      "Ġclose": 2543,
      "Ġguy": 2544,
      "inning": 2545,
      "Ġcreate": 2546,
      "Ġwatching": 2547,
      "Ġbroken": 2548,
      "ĠSalesb": 2549,
      "andidates": 2550,
      "ST": 2551,
      "ude": 2552,
      "Ġlar": 2553,
      "oph": 2554,
      "Ġcomes": 2555,
      "Ġgetting": 2556,
      "ney": 2557,
      "Ġminutes": 2558,
      "oenix": 2559,
      "ĠFrelsi": 2560,
      "37": 2561,
      "oly": 2562,
      "yn": 2563,
      "ered": 2564,
      "Ġwind": 2565,
      "Ġmir": 2566,
      "Ġcause": 2567,
      "Ġfix": 2568,
      "Ġandere": 2569,
      "Ġgone": 2570,
      "imens": 2571,
      "robor": 2572,
      "amp": 2573,
      "ilt": 2574,
      "Ġalong": 2575,
      "ische": 2576,
      "ficult": 2577,
      "35": 2578,
      "Je": 2579,
      "One": 2580,
      "ef": 2581,
      "Ġsol": 2582,
      "ptember": 2583,
      "Ġscream": 2584,
      "bled": 2585,
      "ĠâĢĵ": 2586,
      "Ġseemed": 2587,
      "insof": 2588,
      "Sh": 2589,
      "bers": 2590,
      "cle": 2591,
      "tle": 2592,
      "uly": 2593,
      "Ġsun": 2594,
      "Ġpop": 2595,
      "Ġland": 2596,
      "irit": 2597,
      "urity": 2598,
      "Ġhaving": 2599,
      "Ġsearch": 2600,
      "Ġthinking": 2601,
      "Ġtravel": 2602,
      "aten": 2603,
      "Ġmountain": 2604,
      "ational": 2605,
      "Ġmeet": 2606,
      "Ġhist": 2607,
      "ĠFold": 2608,
      "Ġdifficult": 2609,
      "Ġmental": 2610,
      "Ġdraw": 2611,
      "Ġtechnology": 2612,
      "Ġenergy": 2613,
      "Not": 2614,
      "ķâ«": 2615,
      "Ġheld": 2616,
      "Ġline": 2617,
      "](../": 2618,
      "ĠPr": 2619,
      "Ġmaybe": 2620,
      "Ġdestro": 2621,
      "candidates": 2622,
      "Ħâ©": 2623,
      "Ġwish": 2624,
      "Ġsince": 2625,
      "rem": 2626,
      "Ġfig": 2627,
      "aren": 2628,
      "ĠIm": 2629,
      "Ġlink": 2630,
      "ĠAm": 2631,
      "Ġdeze": 2632,
      "ĠEm": 2633,
      "âĢĿ.": 2634,
      "ried": 2635,
      "Ġquick": 2636,
      "Ġrelig": 2637,
      "Ġrespons": 2638,
      "Ġadv": 2639,
      "Ġspecific": 2640,
      "Ġindivid": 2641,
      "alkyr": 2642,
      "Ġlanguage": 2643,
      "Ġresearch": 2644,
      "alkyrie": 2645,
      "??": 2646,
      "All": 2647,
      "country": 2648,
      "ead": 2649,
      "Ġtaking": 2650,
      "ened": 2651,
      "Ġways": 2652,
      "ishes": 2653,
      "Ġden": 2654,
      "Ġfire": 2655,
      "Ġreference": 2656,
      "Ġwouldn": 2657,
      "elling": 2658,
      "Ġteam": 2659,
      "Ġcompan": 2660,
      "Ġcontext": 2661,
      "Ġlonger": 2662,
      "ĠPhoenix": 2663,
      "OU": 2664,
      "Rel": 2665,
      "met": 2666,
      "ering": 2667,
      "Ġco": 2668,
      "ĠGoogle": 2669,
      "â©ī": 2670,
      "apter": 2671,
      "Ġclos": 2672,
      "Ġago": 2673,
      "ĠVer": 2674,
      "Ġplanet": 2675,
      "arrot": 2676,
      "ĠBride": 2677,
      "Ġmonths": 2678,
      "ĠSalesbury": 2679,
      "ffer": 2680,
      "hypothes": 2681,
      "ows": 2682,
      "Ġmeer": 2683,
      "ĠNow": 2684,
      "Ġgrou": 2685,
      "ngel": 2686,
      "overed": 2687,
      "land": 2688,
      "pret": 2689,
      "Ġtou": 2690,
      "Ġaut": 2691,
      "reen": 2692,
      "Ġburn": 2693,
      "Ġhit": 2694,
      "chien": 2695,
      "quest": 2696,
      "Ġrecord": 2697,
      "ĠStates": 2698,
      "Why": 2699,
      "olution": 2700,
      "Manipulation": 2701,
      "Ġsociety": 2702,
      "ĠMaybe": 2703,
      "At": 2704,
      "uk": 2705,
      "Ġfil": 2706,
      "Ġpath": 2707,
      "Ġeither": 2708,
      "ĠAct": 2709,
      "Ġval": 2710,
      "Ġforward": 2711,
      "Ġzien": 2712,
      "Ġlik": 2713,
      "redator": 2714,
      "Ġbecame": 2715,
      "Ġresponse": 2716,
      "153": 2717,
      "Ġwaiting": 2718,
      "ximity": 2719,
      "by": 2720,
      "fess": 2721,
      "ina": 2722,
      "Ġcra": 2723,
      "Ġfun": 2724,
      "Ġoper": 2725,
      "ayer": 2726,
      "emale": 2727,
      "ĠEn": 2728,
      "Ġsave": 2729,
      "unning": 2730,
      "apped": 2731,
      "duc": 2732,
      "ees": 2733,
      "ium": 2734,
      "uur": 2735,
      "wh": 2736,
      "Ġap": 2737,
      "Ġma": 2738,
      "Ġwhatever": 2739,
      "ĠMachine": 2740,
      "osp": 2741,
      "Ġsoft": 2742,
      "ĠValkyrie": 2743,
      "oeh": 2744,
      "Ġeye": 2745,
      "Ġclear": 2746,
      "Ġcapt": 2747,
      "Ġforever": 2748,
      "Ġbreath": 2749,
      ")](/": 2750,
      "29": 2751,
      "ball": 2752,
      "yte": 2753,
      "Ġfail": 2754,
      "Ġstay": 2755,
      "Ġneg": 2756,
      "Ġgeb": 2757,
      "Ġattack": 2758,
      "Ġmemory": 2759,
      "Ġsoul": 2760,
      "oehider": 2761,
      "80": 2762,
      "Ġed": 2763,
      "Ġ{{<": 2764,
      "ĠCont": 2765,
      "ilar": 2766,
      "ains": 2767,
      "Ġdata": 2768,
      "Ġwereld": 2769,
      "Ġcurr": 2770,
      "Ġdetail": 2771,
      "Ġindividual": 2772,
      "983": 2773,
      "Be": 2774,
      "Well": 2775,
      "WAN": 2776,
      "iam": 2777,
      "ware": 2778,
      "Ġ24": 2779,
      "ern": 2780,
      "rec": 2781,
      "Ġcap": 2782,
      "Ġdan": 2783,
      "Ġfour": 2784,
      "eline": 2785,
      "Ġstud": 2786,
      "Ġhistory": 2787,
      "AR": 2788,
      "With": 2789,
      "bt": 2790,
      "bed": 2791,
      "band": 2792,
      "false": 2793,
      "lt": 2794,
      "Ġfell": 2795,
      "acter": 2796,
      "amen": 2797,
      "ĠTH": 2798,
      "Ġwhite": 2799,
      "ili": 2800,
      "Ġwebs": 2801,
      "istic": 2802,
      "ĠPeople": 2803,
      "Ġyes": 2804,
      "Ġhappens": 2805,
      "ĠSty": 2806,
      "4508": 2807,
      "Ġexperiment": 2808,
      "ĠHowever": 2809,
      "aa": 2810,
      "iant": 2811,
      "phe": 2812,
      "right": 2813,
      "ene": 2814,
      "Ġdam": 2815,
      "Ġopp": 2816,
      "eth": 2817,
      "ĠFl": 2818,
      "Ġgoes": 2819,
      "Ġ12": 2820,
      "Ġsuffer": 2821,
      "ibly": 2822,
      "anced": 2823,
      "9919": 2824,
      "Ġsupport": 2825,
      "15326": 2826,
      "Lark": 2827,
      "jp": 2828,
      "zens": 2829,
      "Ġill": 2830,
      "Ġcir": 2831,
      "Ġcul": 2832,
      "Ġcase": 2833,
      "Ġpsych": 2834,
      "Ġant": 2835,
      "Ġhell": 2836,
      "Ġitself": 2837,
      "osen": 2838,
      "pty": 2839,
      "Ġevents": 2840,
      "fold": 2841,
      "hab": 2842,
      "Ġsqu": 2843,
      "Ġtheory": 2844,
      "esp": 2845,
      "Ġpa": 2846,
      "Ġins": 2847,
      "iced": 2848,
      "ential": 2849,
      "Ġforce": 2850,
      "iron": 2851,
      "irth": 2852,
      "ĠWith": 2853,
      "ereens": 2854,
      "Ġinterpret": 2855,
      "Ġquestions": 2856,
      "Ġstatement": 2857,
      "Relationships": 2858,
      "Ver": 2859,
      "dit": 2860,
      "like": 2861,
      "mes": 2862,
      "ract": 2863,
      "zy": 2864,
      "Ġage": 2865,
      "Ġcenter": 2866,
      "Ġhon": 2867,
      "Ġlim": 2868,
      "Ġvia": 2869,
      "Ġworks": 2870,
      "Ġabs": 2871,
      "Ġclass": 2872,
      "Ġground": 2873,
      "Ġtelling": 2874,
      "Ġthoughts": 2875,
      "ħâ©ħâ©": 2876,
      "ĠShadow": 2877,
      "Ġchanged": 2878,
      "crypt": 2879,
      "dle": 2880,
      "Ġesc": 2881,
      "Ġtaken": 2882,
      "erd": 2883,
      "Ġcode": 2884,
      "Ġnamed": 2885,
      "ĠTheory": 2886,
      "Ġont": 2887,
      "Ġchann": 2888,
      "Ġperform": 2889,
      "ĠOrange": 2890,
      "proximity": 2891,
      "Ġconsider": 2892,
      "United": 2893,
      "ĠMatana": 2894,
      "\".": 2895,
      "28": 2896,
      "CE": 2897,
      "Me": 2898,
      "bo": 2899,
      "oh": 2900,
      "isper": 2901,
      "Ġdate": 2902,
      "Ġdist": 2903,
      "Ġfather": 2904,
      "vern": 2905,
      "ctor": 2906,
      "Ġmeant": 2907,
      "ĠEst": 2908,
      "Ġweap": 2909,
      "Ġconvers": 2910,
      "ustom": 2911,
      "Ġspread": 2912,
      "Ġbelief": 2913,
      "Chapter": 2914,
      "Ġevidence": 2915,
      "Ġwatched": 2916,
      "Ġsuspect": 2917,
      "63": 2918,
      "tp": 2919,
      "Ġfield": 2920,
      "Ġstra": 2921,
      "ĠDiscord": 2922,
      "Ġjoin": 2923,
      "Ġspend": 2924,
      "Ġsoon": 2925,
      "ogn": 2926,
      "Ġarm": 2927,
      "Ġsaying": 2928,
      "Ġquickly": 2929,
      "Ryan": 2930,
      "aith": 2931,
      "lo": 2932,
      "und": 2933,
      "ined": 2934,
      "enes": 2935,
      "Ġserv": 2936,
      "Ġcamer": 2937,
      "Ġnet": 2938,
      "Ġnature": 2939,
      "Ġbeaut": 2940,
      "sec": 2941,
      "Ġstood": 2942,
      "Ġdef": 2943,
      "iemand": 2944,
      "ĠLion": 2945,
      "ventiv": 2946,
      "Ġrelated": 2947,
      "Ġ_\"": 2948,
      "force": 2949,
      "Ġdestroy": 2950,
      "Ġav": 2951,
      "Ġpie": 2952,
      "Ġnon": 2953,
      "play": 2954,
      "ivity": 2955,
      "spir": 2956,
      "Ġneeds": 2957,
      "dddd": 2958,
      "Ġcollect": 2959,
      "Ġreplied": 2960,
      "Ġfurther": 2961,
      "60": 2962,
      "ME": 2963,
      "more": 2964,
      "wall": 2965,
      "Ġbas": 2966,
      "eder": 2967,
      "Ġcry": 2968,
      "Ġnoticed": 2969,
      "Ġworth": 2970,
      "Ġconscious": 2971,
      "ocus": 2972,
      "iple": 2973,
      "iets": 2974,
      "Ġwritten": 2975,
      "Ġwerd": 2976,
      "Ġblitzer": 2977,
      "[![": 2978,
      "bad": 2979,
      "ipped": 2980,
      "ane": 2981,
      "Ġmine": 2982,
      "orry": 2983,
      "Ġhoe": 2984,
      "Ġple": 2985,
      "llll": 2986,
      "ĠAfter": 2987,
      "rog": 2988,
      "Ġkon": 2989,
      "ĠTrip": 2990,
      "ĠMe": 2991,
      "tered": 2992,
      "Ġlevel": 2993,
      "Ġimag": 2994,
      "âĪº": 2995,
      "95": 2996,
      "how": 2997,
      "la": 2998,
      "ta": 2999,
      "Ġwalk": 3000,
      "ones": 3001,
      "Ġmain": 3002,
      "Ġcent": 3003,
      "Ġcity": 3004,
      "Ġrev": 3005,
      "Ġyoung": 3006,
      "Ġonder": 3007,
      "ĠHel": 3008,
      "ĠDave": 3009,
      "Ġship": 3010,
      "ended": 3011,
      "ipul": 3012,
      "Ġfeet": 3013,
      "Ġwants": 3014,
      "Ink": 3015,
      "Ġrespect": 3016,
      "rics": 3017,
      "â¨Ģ": 3018,
      "Ġcontinued": 3019,
      "aam": 3020,
      "come": 3021,
      "machine": 3022,
      "Ġign": 3023,
      "Ġmouth": 3024,
      "Ġboy": 3025,
      "Ġborn": 3026,
      "Ġhint": 3027,
      "Ġnorm": 3028,
      "urs": 3029,
      "ĠMale": 3030,
      "Ġdoen": 3031,
      "Ġleg": 3032,
      "ĠPsych": 3033,
      "ĠNet": 3034,
      "â©į": 3035,
      "hav": 3036,
      "ology": 3037,
      "ganization": 3038,
      "CP": 3039,
      "aps": 3040,
      "mit": 3041,
      "Themes": 3042,
      "Ġgaan": 3043,
      "iden": 3044,
      "Ġrather": 3045,
      "Ġconfid": 3046,
      "Ġshort": 3047,
      "ĠPredator": 3048,
      "rible": 3049,
      "Ġspoke": 3050,
      "ively": 3051,
      "igned": 3052,
      "ĠOranje": 3053,
      "Ġsimilar": 3054,
      "Ġmessages": 3055,
      "Ġdrag": 3056,
      "Ġmoeten": 3057,
      "â©Ĩâ©ī": 3058,
      "41": 3059,
      "85": 3060,
      "Don": 3061,
      "name": 3062,
      "par": 3063,
      "port": 3064,
      "zz": 3065,
      "Ġtor": 3066,
      "Ġtwe": 3067,
      "atic": 3068,
      "ising": 3069,
      "Ġhurt": 3070,
      "Ġlie": 3071,
      "state": 3072,
      "owing": 3073,
      "room": 3074,
      "illed": 3075,
      "ĠCase": 3076,
      "Ġrunning": 3077,
      "Ġconst": 3078,
      "Ġmanipul": 3079,
      "iped": 3080,
      "Ġsomebody": 3081,
      "Ġdisapp": 3082,
      "ĠYes": 3083,
      "Ġhappening": 3084,
      "Ġspeaking": 3085,
      "Ġreleased": 3086,
      "65": 3087,
      "oid": 3088,
      "Ġiets": 3089,
      "ination": 3090,
      "Ġmachine": 3091,
      "Ġcut": 3092,
      "Ġcold": 3093,
      "Ġhid": 3094,
      "Ġharm": 3095,
      "Ġanderen": 3096,
      "igger": 3097,
      "irm": 3098,
      "Ġdoc": 3099,
      "ressed": 3100,
      "ground": 3101,
      "Ġchest": 3102,
      "â¨ĥ": 3103,
      "Ġdeliver": 3104,
      "Ġinclud": 3105,
      "questions": 3106,
      "Ġwebsite": 3107,
      "ĠTripover": 3108,
      ".)": 3109,
      "sch": 3110,
      "ª®": 3111,
      "irus": 3112,
      "estig": 3113,
      "pping": 3114,
      "Ġshall": 3115,
      "âĢĶâĢĿ": 3116,
      "Ġaccess": 3117,
      "Ġemploy": 3118,
      "Ġfeeling": 3119,
      "â«Ĵ": 3120,
      "iction": 3121,
      "âĭ®â§": 3122,
      "âĬĩ": 3123,
      "Ġpolit": 3124,
      "ollaborators": 3125,
      "Ġgroup": 3126,
      "Now": 3127,
      "go": 3128,
      "ique": 3129,
      "joy": 3130,
      "ral": 3131,
      "Ġwomen": 3132,
      "Ġsister": 3133,
      "Ġmot": 3134,
      "Ġdou": 3135,
      "Ġearth": 3136,
      "ĠBi": 3137,
      "ump": 3138,
      "Ġexc": 3139,
      "ĠLove": 3140,
      "ĠOver": 3141,
      "ĠGhost": 3142,
      "ived": 3143,
      "aseball": 3144,
      "Ġempty": 3145,
      "Ġwordt": 3146,
      "knowledge": 3147,
      "Ġprevent": 3148,
      "finit": 3149,
      "Ġpriv": 3150,
      "abbit": 3151,
      "Ġcomplete": 3152,
      "Ġcompany": 3153,
      "Diebol": 3154,
      "aff": 3155,
      "dc": 3156,
      "do": 3157,
      "friend": 3158,
      "ubl": 3159,
      "Ġ&": 3160,
      "Ĩâ«ĺ": 3161,
      "ĩâ©Ĩâ©ī": 3162,
      "rect": 3163,
      "ouw": 3164,
      "Ġdru": 3165,
      "alias": 3166,
      "Ġhalf": 3167,
      "Ġheav": 3168,
      "ster": 3169,
      "Ġreve": 3170,
      "Ġvi": 3171,
      "Ġforg": 3172,
      "ĠTown": 3173,
      "Ġenv": 3174,
      "Ġweek": 3175,
      "Ġtruly": 3176,
      "Ġchoose": 3177,
      "Ġfeed": 3178,
      "Ġbrought": 3179,
      "Ġwriting": 3180,
      "Ġguess": 3181,
      "Ġopened": 3182,
      "Ġkilled": 3183,
      "ħâ©ĩâ©Ĩâ©ī": 3184,
      "âĬĨâ«ĺ": 3185,
      "Ġfreed": 3186,
      "ĠTechnolog": 3187,
      "mission": 3188,
      "Ġmirror": 3189,
      "Ħâ©ħâ©ĩâ©Ĩâ©ī": 3190,
      "âĬĨâ«ĺâĬĩ": 3191,
      "Ħâ©ħâ©ĩâ©Ĩâ©īâ¨ĥ": 3192,
      "AL": 3193,
      "oved": 3194,
      "Ġtreat": 3195,
      "Ġtree": 3196,
      "Ġcross": 3197,
      "Ġpack": 3198,
      "lement": 3199,
      "Ġla": 3200,
      "unch": 3201,
      "Ġrad": 3202,
      "ĠĠĠĠĠĠ": 3203,
      "oker": 3204,
      "Ġwrite": 3205,
      "Ġsimple": 3206,
      "Ġunderstanding": 3207,
      "Ġsky": 3208,
      "Ġaccount": 3209,
      "Ã©n": 3210,
      "Ġdevice": 3211,
      "ospital": 3212,
      "OT": 3213,
      "Samuel": 3214,
      "Surveillance": 3215,
      "bot": 3216,
      "lijk": 3217,
      "Ġmur": 3218,
      "oring": 3219,
      "Ġplease": 3220,
      "igil": 3221,
      "Ġonze": 3222,
      "ĠEven": 3223,
      "estone": 3224,
      "Ġtext": 3225,
      "Ġscience": 3226,
      "Ġsometimes": 3227,
      "Ġlistening": 3228,
      "Ġinvolved": 3229,
      "Ġmentioned": 3230,
      "cryptography": 3231,
      "Ġcamera": 3232,
      "pose": 3233,
      "Ġwet": 3234,
      "Ġsignal": 3235,
      "Ġmass": 3236,
      "Ġmaster": 3237,
      "Ġbot": 3238,
      "Ġcou": 3239,
      "Ġcoll": 3240,
      "Ġlif": 3241,
      "Ġrefer": 3242,
      "Ġreach": 3243,
      "http": 3244,
      "rop": 3245,
      "ute": 3246,
      "ĠBecause": 3247,
      "Ġworry": 3248,
      "Ġgoed": 3249,
      "Ġprove": 3250,
      "Ġbrother": 3251,
      "...*\"": 3252,
      "ĠYouTube": 3253,
      "Ġhumanity": 3254,
      "Ġfingers": 3255,
      "onymous": 3256,
      "31": 3257,
      "aos": 3258,
      "Ġaud": 3259,
      "Ġswe": 3260,
      "aned": 3261,
      "Ġmill": 3262,
      "Ġtool": 3263,
      "aling": 3264,
      "Ġpres": 3265,
      "These": 3266,
      "Ġnat": 3267,
      "ĠĠĊ": 3268,
      "Ġlay": 3269,
      "Ġlief": 3270,
      "Ġeff": 3271,
      "ilestone": 3272,
      "ĠFemale": 3273,
      "Ġchance": 3274,
      "Ġspl": 3275,
      "Ġsold": 3276,
      "Ġplat": 3277,
      "Ġarg": 3278,
      "Ġnobody": 3279,
      "Ġbelie": 3280,
      "Ġidentity": 3281,
      "Ġserver": 3282,
      "Ġzoals": 3283,
      "badge": 3284,
      "Sc": 3285,
      "bon": 3286,
      "wo": 3287,
      "ĠX": 3288,
      "Ġwild": 3289,
      "Ġbij": 3290,
      "ases": 3291,
      "elijke": 3292,
      "Ġlate": 3293,
      "roll": 3294,
      "Ġstre": 3295,
      "Ġwhisper": 3296,
      "ĠDuck": 3297,
      "Ġnear": 3298,
      "Ġshadow": 3299,
      "))).": 3300,
      "aper": 3301,
      "Ġversion": 3302,
      "Ġ_âĢľ": 3303,
      "Ġsuccess": 3304,
      "Ġbusiness": 3305,
      ")\"": 3306,
      "ELL": 3307,
      "aal": 3308,
      "egr": 3309,
      "oel": 3310,
      "ring": 3311,
      "onna": 3312,
      "Ġduring": 3313,
      "Ġfin": 3314,
      "Ġokay": 3315,
      "Ġones": 3316,
      "ĠSm": 3317,
      "Ġvind": 3318,
      "ung": 3319,
      "Ġalive": 3320,
      "osure": 3321,
      "ĠLike": 3322,
      "Ġspirit": 3323,
      "Ġcompl": 3324,
      "oord": 3325,
      "ression": 3326,
      "Ġreport": 3327,
      "Ġwaren": 3328,
      "Ġspecial": 3329,
      "Ġmultiverse": 3330,
      "Ġdirectly": 3331,
      "Ġcharacter": 3332,
      "pathy": 3333,
      "Ġintelligence": 3334,
      "Ġpatient": 3335,
      "Ġlikely": 3336,
      "96": 3337,
      "IS": 3338,
      "ded": 3339,
      "áĽ": 3340,
      "erde": 3341,
      "Ġfood": 3342,
      "Ġpot": 3343,
      "Ġpay": 3344,
      "ication": 3345,
      "ĠSomet": 3346,
      "iful": 3347,
      "ĠDis": 3348,
      "using": 3349,
      "ushed": 3350,
      "ello": 3351,
      "Ġtechn": 3352,
      "Ġcontinue": 3353,
      "Ã©Ã©n": 3354,
      "Ġoriginal": 3355,
      "Ġhallway": 3356,
      "Ġpeace": 3357,
      "Ġtimeline": 3358,
      "Ġculture": 3359,
      "habilit": 3360,
      "Ġchannel": 3361,
      "Are": 3362,
      "Collaborators": 3363,
      "Ġbur": 3364,
      "Ġcaught": 3365,
      "alance": 3366,
      "Ġnod": 3367,
      "Ġlaw": 3368,
      "Ġecht": 3369,
      "Ġstep": 3370,
      "Ġshot": 3371,
      "ĠPl": 3372,
      "aked": 3373,
      "Ġgew": 3374,
      "Ġpersonal": 3375,
      "Ġinstead": 3376,
      "âĭ®â§Ĭ": 3377,
      "finitely": 3378,
      "Every": 3379,
      "fully": 3380,
      "iers": 3381,
      "ts": 3382,
      "enz": 3383,
      "Ġcy": 3384,
      "Ġfake": 3385,
      "Ġhop": 3386,
      "icle": 3387,
      "Ġonto": 3388,
      "Ġonline": 3389,
      "ĠSl": 3390,
      "Ġview": 3391,
      "iled": 3392,
      "ĠEen": 3393,
      "Ġenforce": 3394,
      "Ġra": 3395,
      "Ġrul": 3396,
      "ĠBereens": 3397,
      "ĠWas": 3398,
      "Ġorange": 3399,
      "ĠNew": 3400,
      "Ġcomb": 3401,
      "Ġuser": 3402,
      "While": 3403,
      "Ġskin": 3404,
      "Ġsubject": 3405,
      "Ġexistence": 3406,
      "55": 3407,
      "97": 3408,
      "Kn": 3409,
      "dom": 3410,
      "dden": 3411,
      "een": 3412,
      "nn": 3413,
      "rit": 3414,
      "ĠÃ©Ã©n": 3415,
      "Ġwin": 3416,
      "isk": 3417,
      "Ġfinal": 3418,
      "Ġthird": 3419,
      "Then": 3420,
      "Ġnarciss": 3421,
      "anted": 3422,
      "Ġenjoy": 3423,
      "essica": 3424,
      "Ġshare": 3425,
      "ĠPart": 3426,
      "ĠOu": 3427,
      "ĠInt": 3428,
      "Ġaren": 3429,
      "Ġsudden": 3430,
      "Ġemail": 3431,
      "Ġrecht": 3432,
      "Ġcreator": 3433,
      "scenes": 3434,
      "Ĩâ©Ĩâ©": 3435,
      "Ġproblems": 3436,
      "465": 3437,
      "Ġchoice": 3438,
      "Ġlarge": 3439,
      "ngelica": 3440,
      "Ġsuffering": 3441,
      "havior": 3442,
      "ĠBiou": 3443,
      "âĭ®â§Ĭâĭ®": 3444,
      "845": 3445,
      "cd": 3446,
      "euw": 3447,
      "Ġsorry": 3448,
      "Ġcorn": 3449,
      "Ġfant": 3450,
      "Ġpic": 3451,
      "Ġport": 3452,
      "arget": 3453,
      "Ġnie": 3454,
      "aching": 3455,
      "ills": 3456,
      "antum": 3457,
      "Ġspent": 3458,
      "Ġgovern": 3459,
      "auwe": 3460,
      "ousand": 3461,
      "Ġclosed": 3462,
      "ecially": 3463,
      "avor": 3464,
      "Ġlooks": 3465,
      "aterial": 3466,
      "enced": 3467,
      "ĠWho": 3468,
      "Ġrepe": 3469,
      "ances": 3470,
      "Ġlearned": 3471,
      "Ġpublishes": 3472,
      "Ġsecurity": 3473,
      "Ġbuilding": 3474,
      "ĠTechnologies": 3475,
      "Cinta": 3476,
      "back": 3477,
      "eks": 3478,
      "mother": 3479,
      "off": 3480,
      "sl": 3481,
      "Ġcat": 3482,
      "elde": 3483,
      "Ġgiving": 3484,
      "Ġequ": 3485,
      "Ġkw": 3486,
      "ĠEinsof": 3487,
      "Ġzag": 3488,
      "ruik": 3489,
      "Ġremain": 3490,
      "Ġshoulder": 3491,
      "Ġreturned": 3492,
      "Ġresponded": 3493,
      "Ġcorrect": 3494,
      "hypotheses": 3495,
      "Ġenforcement": 3496,
      "86": 3497,
      "QY": 3498,
      "ca": 3499,
      "cf": 3500,
      "nen": 3501,
      "pon": 3502,
      "Ġwel": 3503,
      "Ġband": 3504,
      "Ġboek": 3505,
      "eless": 3506,
      "Ġbecom": 3507,
      "Ġstom": 3508,
      "ceed": 3509,
      "ĠMar": 3510,
      "ters": 3511,
      "ĠRep": 3512,
      "Ġru": 3513,
      "inking": 3514,
      "ĠJa": 3515,
      "Ġmetal": 3516,
      "/)\"": 3517,
      "Ġbuilt": 3518,
      "Ġsurv": 3519,
      "ationship": 3520,
      "Ġfinger": 3521,
      "ĠResistance": 3522,
      "Ġwalked": 3523,
      "ĠChrist": 3524,
      "Ġbeautiful": 3525,
      "Ġenviron": 3526,
      "Ġeffort": 3527,
      "98": 3528,
      "Dick": 3529,
      "Pro": 3530,
      "aard": 3531,
      "bf": 3532,
      "jor": 3533,
      "ray": 3534,
      "Ġtem": 3535,
      "Ġdanger": 3536,
      "Ġges": 3537,
      "Ġvriend": 3538,
      "agement": 3539,
      "termin": 3540,
      "ilia": 3541,
      "Ġweak": 3542,
      "ested": 3543,
      "ĠLight": 3544,
      "Ġchosen": 3545,
      "Ġmanier": 3546,
      "Ġarri": 3547,
      "Ġnose": 3548,
      "Ġpoly": 3549,
      "7777": 3550,
      "uby": 3551,
      "Ġslecht": 3552,
      "Ġmultiple": 3553,
      "ustomer": 3554,
      "hK": 3555,
      "Ġtype": 3556,
      "Ġcell": 3557,
      "Ġgra": 3558,
      "Ġgonna": 3559,
      "etal": 3560,
      "imate": 3561,
      "lying": 3562,
      "Ġster": 3563,
      "ieg": 3564,
      "ĠWill": 3565,
      "Ġtraining": 3566,
      "**.": 3567,
      "olden": 3568,
      "Ġ30": 3569,
      "maal": 3570,
      "Ġdarkness": 3571,
      "Ġuniverses": 3572,
      "Ġparticular": 3573,
      "................................": 3574,
      "ķâ«ĸâ«": 3575,
      "Ġcrazy": 3576,
      "Ġconversation": 3577,
      "Ġconsciousness": 3578,
      ".](((": 3579,
      "After": 3580,
      "Google": 3581,
      "Jp": 3582,
      "Nine": 3583,
      "TH": 3584,
      "kt": 3585,
      "sY": 3586,
      "uister": 3587,
      "val": 3588,
      "Ġach": 3589,
      "Ġson": 3590,
      "Ġfinally": 3591,
      "omm": 3592,
      "Ġeer": 3593,
      "owers": 3594,
      "sequ": 3595,
      "iff": 3596,
      "Ġworked": 3597,
      "]]:": 3598,
      "Ġtrigger": 3599,
      "Ġtele": 3600,
      "Ġsuper": 3601,
      "ounter": 3602,
      "Ġrelationship": 3603,
      "arno": 3604,
      "ĠQu": 3605,
      "Ġident": 3606,
      "Ġsystems": 3607,
      "Ġexplain": 3608,
      "Ġwalls": 3609,
      "Ġdreams": 3610,
      "Ġpurpose": 3611,
      "Ġchanges": 3612,
      "Ġmodel": 3613,
      "Ġengine": 3614,
      "wiki": 3615,
      "remely": 3616,
      "Ġplatform": 3617,
      "hod": 3618,
      "Ġi": 3619,
      "Ġiemand": 3620,
      "Ġtakes": 3621,
      "Ġauthor": 3622,
      "inc": 3623,
      "Ġsitting": 3624,
      "anks": 3625,
      "Ġmorn": 3626,
      "Ġbased": 3627,
      "Ġbirth": 3628,
      "ites": 3629,
      "Ġocc": 3630,
      "aran": 3631,
      "Ġhem": 3632,
      "entially": 3633,
      "ĠMiss": 3634,
      "ĠCarl": 3635,
      "ĠDit": 3636,
      "ĠRev": 3637,
      "ĠRyan": 3638,
      "Ġleaving": 3639,
      "Ġunable": 3640,
      "Ġverl": 3641,
      "âĪ«": 3642,
      "Ġmemories": 3643,
      "Ġmisschien": 3644,
      "Ġsocial": 3645,
      "Ġfreedom": 3646,
      "84": 3647,
      "Five": 3648,
      "Ops": 3649,
      "city": 3650,
      "gge": 3651,
      "no": 3652,
      "Ġwake": 3653,
      "Ġsens": 3654,
      "anit": 3655,
      "Ġbat": 3656,
      "Ġcount": 3657,
      "Ġcountry": 3658,
      "Ġhospital": 3659,
      "Ġthousand": 3660,
      "Ġheb": 3661,
      "Ġrehabilit": 3662,
      "amb": 3663,
      "ighter": 3664,
      "Ġwezens": 3665,
      "ĉĉĉĉĉ": 3666,
      "Ġnecess": 3667,
      "Ġconc": 3668,
      "ourney": 3669,
      "Ġ16": 3670,
      "Ġarms": 3671,
      "Ġanymore": 3672,
      "Ġflo": 3673,
      "Ġactions": 3674,
      "Ġwrist": 3675,
      "pective": 3676,
      "Ġglass": 3677,
      "Ġready": 3678,
      "Ġdevelopment": 3679,
      "Ġtouch": 3680,
      "Ġtwee": 3681,
      "Ġliefde": 3682,
      "ĠBiouk": 3683,
      ")*": 3684,
      "93": 3685,
      "Alpha": 3686,
      "Her": 3687,
      "Of": 3688,
      "iel": 3689,
      "time": 3690,
      "Ġmaken": 3691,
      "Ġble": 3692,
      "ashed": 3693,
      "Ġinfin": 3694,
      "Ġearly": 3695,
      "agnet": 3696,
      "ĠMen": 3697,
      "iles": 3698,
      "Ġzw": 3699,
      "Ġlived": 3700,
      "ocked": 3701,
      "Ġshut": 3702,
      "ending": 3703,
      "irection": 3704,
      "Ġrose": 3705,
      "Ġwrote": 3706,
      "Ġrecogn": 3707,
      "Ġelk": 3708,
      "Ġexperi": 3709,
      "Ġschrij": 3710,
      "ossible": 3711,
      "aakt": 3712,
      "Ġmiddle": 3713,
      "ĠAsshat": 3714,
      "ragon": 3715,
      "Art": 3716,
      "Verification": 3717,
      "Ġdocument": 3718,
      "70": 3719,
      "71": 3720,
      "Pr": 3721,
      "che": 3722,
      "fee": 3723,
      "ging": 3724,
      "ires": 3725,
      "áļ": 3726,
      "Ġ0": 3727,
      "Ġsad": 3728,
      "Ġsort": 3729,
      "Ġmut": 3730,
      "itness": 3731,
      "Ġcool": 3732,
      "Ġdied": 3733,
      "Ġtown": 3734,
      "leg": 3735,
      "Ġlic": 3736,
      "Ġiss": 3737,
      "aged": 3738,
      "ĠDon": 3739,
      "iling": 3740,
      "Ġhair": 3741,
      "Ġweird": 3742,
      "Ġsugg": 3743,
      "Ġquiet": 3744,
      "closure": 3745,
      "Ġmethod": 3746,
      "text": 3747,
      "Ġmoved": 3748,
      "Ġcheck": 3749,
      "romagnet": 3750,
      "Ġcertainly": 3751,
      "Ġviol": 3752,
      "Ġmorning": 3753,
      "Er": 3754,
      "bd": 3755,
      "face": 3756,
      "ians": 3757,
      "sed": 3758,
      "order": 3759,
      "ingly": 3760,
      "Ġfast": 3761,
      "Ġhole": 3762,
      "Ġinde": 3763,
      "Ġoffer": 3764,
      "Ġliter": 3765,
      "Ġstuff": 3766,
      "Ġkle": 3767,
      "Ġasking": 3768,
      "uses": 3769,
      "Ġneck": 3770,
      "umb": 3771,
      "osing": 3772,
      "Ġexists": 3773,
      "ization": 3774,
      "cont": 3775,
      "Ġseeing": 3776,
      "Ġthroughout": 3777,
      "ords": 3778,
      "Ġappl": 3779,
      "Ġappar": 3780,
      "Ġconnection": 3781,
      "world": 3782,
      "Ġpowerful": 3783,
      "Ġloved": 3784,
      "Ġdeter": 3785,
      "Ġalleen": 3786,
      "Ġallemaal": 3787,
      "Ġprior": 3788,
      "Ġresponsible": 3789,
      "jpg": 3790,
      "terminator": 3791,
      "53": 3792,
      "racht": 3793,
      "uous": 3794,
      "yond": 3795,
      "Ġtend": 3796,
      "reference": 3797,
      "Ġcoin": 3798,
      "Ġopt": 3799,
      "aled": 3800,
      "Ġpun": 3801,
      "Ġnog": 3802,
      "Ġeat": 3803,
      "urch": 3804,
      "Ġran": 3805,
      "ume": 3806,
      "acked": 3807,
      "ries": 3808,
      "Ġcomfort": 3809,
      "Ġproof": 3810,
      "Ġtegen": 3811,
      "ĠJessica": 3812,
      "Ġrealized": 3813,
      "Ġbelow": 3814,
      "rugg": 3815,
      "Ġfeelings": 3816,
      "ĠYet": 3817,
      "Ġwarm": 3818,
      "Ġdecided": 3819,
      "Ġmedit": 3820,
      "Ġfighting": 3821,
      "âŁĮ": 3822,
      "Ġmeaningful": 3823,
      "Ġemotions": 3824,
      "Ġproduct": 3825,
      "81": 3826,
      "Dit": 3827,
      "James": 3828,
      "eared": 3829,
      "fRE": 3830,
      "hip": 3831,
      "location": 3832,
      "yes": 3833,
      "Ġcop": 3834,
      "Ġdingen": 3835,
      "Ġann": 3836,
      "Ġged": 3837,
      "Ġgiant": 3838,
      "seas": 3839,
      "chan": 3840,
      "Ġforget": 3841,
      "ĠCl": 3842,
      "ĠEach": 3843,
      "aby": 3844,
      "elled": 3845,
      "ĠLe": 3846,
      "Ġteeth": 3847,
      "Ġplaced": 3848,
      "Ġblij": 3849,
      "evhK": 3850,
      "Ġcomput": 3851,
      "Ġrock": 3852,
      "Ġamong": 3853,
      "Ġaction": 3854,
      "ĠUS": 3855,
      "Ġfeels": 3856,
      "Ġawake": 3857,
      "Ġsmile": 3858,
      "Ġbeginning": 3859,
      "Ġmedia": 3860,
      "ĠHumanity": 3861,
      "Ġsupposed": 3862,
      "ĠEveryone": 3863,
      "Ã«n": 3864,
      "previous": 3865,
      "Ġmajor": 3866,
      "Ġgebruik": 3867,
      "Ġescape": 3868,
      "Ġprivate": 3869,
      "enzaran": 3870,
      "sYevhK": 3871,
      "Because": 3872,
      "Yeah": 3873,
      "YsYevhK": 3874,
      "father": 3875,
      "hood": 3876,
      "nELL": 3877,
      "post": 3878,
      "pdf": 3879,
      "so": 3880,
      "âī": 3881,
      "Ġtap": 3882,
      "Ġmark": 3883,
      "Ġbar": 3884,
      "Ġcult": 3885,
      "Ġdaar": 3886,
      "Ġfavor": 3887,
      "Ġpan": 3888,
      "Ġanim": 3889,
      "ley": 3890,
      "Ġbeings": 3891,
      "Ġstri": 3892,
      "Ġvast": 3893,
      "ura": 3894,
      "ĠCat": 3895,
      "Ġenem": 3896,
      "Ġsex": 3897,
      "]]'": 3898,
      "Ġlegs": 3899,
      "ĠLonely": 3900,
      "ĠGr": 3901,
      "Ġhadn": 3902,
      "Ġsafe": 3903,
      "anging": 3904,
      "Ġgrand": 3905,
      "Ġappear": 3906,
      "upid": 3907,
      "merwall": 3908,
      "Ġcaused": 3909,
      "Ġextremely": 3910,
      "Ġdropped": 3911,
      "enno": 3912,
      "ĠExterminator": 3913,
      "Ġpretty": 3914,
      "Ġautom": 3915,
      "ĠStygge": 3916,
      "Ġcorner": 3917,
      "Ġfantas": 3918,
      "nELLJp": 3919,
      "Als": 3920,
      "FBI": 3921,
      "log": 3922,
      "ning": 3923,
      "under": 3924,
      "what": 3925,
      "Ġtarget": 3926,
      "Ġahead": 3927,
      "Ġwoke": 3928,
      "isch": 3929,
      "Ġce": 3930,
      "Ġfit": 3931,
      "Ġhide": 3932,
      "Ġhen": 3933,
      "Ġbehavior": 3934,
      "ĠHolden": 3935,
      "ĠMark": 3936,
      "Ġworst": 3937,
      "Ġconv": 3938,
      "istory": 3939,
      "Ġjourney": 3940,
      "Ġtrou": 3941,
      "ĠNe": 3942,
      "Ġproper": 3943,
      "Ġworlds": 3944,
      "Ġscreen": 3945,
      "Ġoffic": 3946,
      "Ġappears": 3947,
      "ixel": 3948,
      "Ġcreatures": 3949,
      "Ġmoving": 3950,
      "ibility": 3951,
      "Ġsounds": 3952,
      "ypothesis": 3953,
      "Ġelectromagnet": 3954,
      "Ġphysical": 3955,
      "roboros": 3956,
      "Ġhonest": 3957,
      "Ġpolymerwall": 3958,
      "59": 3959,
      "Here": 3960,
      "IA": 3961,
      "Mat": 3962,
      "Zero": 3963,
      "__": 3964,
      "ault": 3965,
      "kl": 3966,
      "ping": 3967,
      "tain": 3968,
      "ĺĨ": 3969,
      "information": 3970,
      "Ġmer": 3971,
      "esman": 3972,
      "Ġobs": 3973,
      "Ġlist": 3974,
      "Ġlose": 3975,
      "Ġreached": 3976,
      "ĠAk": 3977,
      "ĠAmer": 3978,
      "ager": 3979,
      "Ġwhom": 3980,
      "Ġdem": 3981,
      "Ġshit": 3982,
      "Ġspieg": 3983,
      ".\"_": 3984,
      "YouTube": 3985,
      "Ġrealize": 3986,
      "Ġpract": 3987,
      "itted": 3988,
      "arning": 3989,
      "âĭĳ": 3990,
      "Ġpupp": 3991,
      "ĠNov": 3992,
      "Ġbegin": 3993,
      "Ġbox": 3994,
      "However": 3995,
      "ĠâĺĨ": 3996,
      "OUR": 3997,
      "Ġabsolut": 3998,
      "Ġbeliefs": 3999,
      "Ġstraight": 4000,
      "56": 4001,
      "May": 4002,
      "Some": 4003,
      "cb": 4004,
      "las": 4005,
      "she": 4006,
      "wood": 4007,
      "Ġtable": 4008,
      "enary": 4009,
      "Ġsight": 4010,
      "rey": 4011,
      "orth": 4012,
      "Ġfac": 4013,
      "Ġlocation": 4014,
      "Ġviewer": 4015,
      "Ġhaven": 4016,
      "andom": 4017,
      "Ġnearly": 4018,
      "umbled": 4019,
      "Ġshown": 4020,
      "Ġverd": 4021,
      "Ġcontent": 4022,
      "Ġgrot": 4023,
      "Ġ26": 4024,
      "ĉĉĉĠ": 4025,
      "Ġerv": 4026,
      "Ġnews": 4027,
      "ggen": 4028,
      "ĠChild": 4029,
      "INE": 4030,
      "radesman": 4031,
      "Ġlearning": 4032,
      "ĠKunist": 4033,
      "ĠWorld": 4034,
      "ĠInternet": 4035,
      "Ġspecifically": 4036,
      "ipedia": 4037,
      "Ġcouple": 4038,
      ",*": 4039,
      "Ql": 4040,
      "hh": 4041,
      "uwe": 4042,
      "wers": 4043,
      "ĮĨ": 4044,
      "Ġwil": 4045,
      "Ġsamen": 4046,
      "Ġmat": 4047,
      "Ġmaterial": 4048,
      "eds": 4049,
      "eden": 4050,
      "Ġcage": 4051,
      "Ġda": 4052,
      "Ġdimens": 4053,
      "Ġfoot": 4054,
      "Ġpijn": 4055,
      "Ġvirus": 4056,
      "ĠHoly": 4057,
      "uration": 4058,
      "ndred": 4059,
      "ilities": 4060,
      "ĠRabbit": 4061,
      "Ġability": 4062,
      "ability": 4063,
      "ĠOct": 4064,
      "Ġgold": 4065,
      "Ġintent": 4066,
      "Ġ11": 4067,
      "**,": 4068,
      "Ġverify": 4069,
      "Ġ2024": 4070,
      "Ġseek": 4071,
      "Ġamount": 4072,
      "cles": 4073,
      "Ġpositive": 4074,
      "Ġzei": 4075,
      "Ġguard": 4076,
      "unny": 4077,
      "1657": 4078,
      "Ġaltijd": 4079,
      "ĠTrust": 4080,
      "Ġhundred": 4081,
      "Ġvisit": 4082,
      "Ġzichzelf": 4083,
      "Ġlaughed": 4084,
      "ĠAgent": 4085,
      "ength": 4086,
      "ĠXie": 4087,
      "NA": 4088,
      "dentity": 4089,
      "gt": 4090,
      "rough": 4091,
      "sing": 4092,
      "Ġest": 4093,
      "inated": 4094,
      "Ġberg": 4095
    },
    "merges": [
      "Ġ t",
      "h e",
      "Ġ a",
      "i n",
      "e r",
      "e n",
      "Ġ w",
      "Ġ s",
      "o n",
      "r e",
      "a t",
      "Ġt he",
      "o u",
      "i s",
      "a n",
      "Ġ m",
      "o r",
      "Ġ b",
      "i t",
      "e d",
      "in g",
      "Ġ c",
      "e s",
      "Ġ d",
      "Ġ f",
      "Ġt o",
      "Ġ o",
      "a l",
      "Ġ h",
      "Ġt h",
      "Ġ p",
      "a r",
      "Ġa n",
      "Ġ I",
      "a s",
      "l e",
      "o m",
      "Ġ in",
      "â Ģ",
      "Ġo f",
      "T he",
      "e l",
      "Ġ n",
      "Ġ he",
      "Ġ Ġ",
      "Ġan d",
      "i c",
      "Ġ l",
      "i on",
      "s t",
      "Ġ g",
      "i d",
      "Ġ e",
      "y ou",
      "o t",
      "e t",
      "o w",
      "v er",
      "l l",
      "Ġ is",
      "Ġ \"",
      "v e",
      "- -",
      "en t",
      "l d",
      "i m",
      "Ġ re",
      "Ġb e",
      "# #",
      "Ġ you",
      "i g",
      "a c",
      "h t",
      "Ġ [",
      "Ġ The",
      "Ġ A",
      "Ġth at",
      "a d",
      "Ġ on",
      "l y",
      "r o",
      "Ġ u",
      "a y",
      "s e",
      "Ġw as",
      "Ġ S",
      "u t",
      "a m",
      "Ġs t",
      "Ġ it",
      "i f",
      "] (",
      "c e",
      "c t",
      "at ion",
      "Ġ k",
      "c h",
      "Ġ v",
      "o d",
      "Ġ -",
      "Ġf or",
      "a g",
      "i r",
      "ou ld",
      "Ġm e",
      "Ġ T",
      "it h",
      "âĢ Ļ",
      "k e",
      "Ġ H",
      "o l",
      "Ġw h",
      "Ġth is",
      "Ġd e",
      "i e",
      "u r",
      "Ġw ith",
      "Ġa s",
      "Ġ M",
      "i ll",
      "n d",
      "ou t",
      "p s",
      "t er",
      "he r",
      "Ġ C",
      "an t",
      "i j",
      "e m",
      "Ġ D",
      "i l",
      "Ġhe r",
      "Ġn ot",
      "Ġm y",
      "Ġh a",
      "an d",
      "2 0",
      "ig ht",
      "-- -",
      "ĠĠ Ġ",
      "Ġ E",
      "Ġ R",
      "t h",
      "Ġd o",
      "` `",
      ". .",
      "Ġf r",
      "u n",
      "Ġ en",
      "o p",
      "Ġa re",
      "âĢ ľ",
      "Ġ r",
      "Ġ Ċ",
      "âĢ Ŀ",
      "Ġ B",
      "Ġ z",
      "Ġ W",
      "u s",
      "Ġs e",
      "Ġw e",
      "Ġa l",
      "es s",
      "er s",
      "at e",
      "ĉ ĉ",
      "Ġw or",
      "u l",
      "Ġh is",
      "Ġn e",
      "Ġc on",
      "' s",
      "a in",
      "ou r",
      "u st",
      "id e",
      "] ]",
      "Ġl i",
      "o c",
      "es t",
      "is t",
      "b e",
      "Ġ j",
      "u m",
      "Ġ F",
      "Ġ le",
      "p p",
      "o re",
      "om e",
      "Ġa t",
      "/ /",
      ": //",
      "n al",
      "o s",
      "it y",
      "Ġfr om",
      "## #",
      "Ġt r",
      "Ġs h",
      "t ps",
      "d er",
      "v en",
      "Ġ P",
      "Ġw ould",
      "Ġs he",
      "Ġk n",
      "]( /",
      "Ġ or",
      "Ġa b",
      "Ġ[ [",
      "Ġha ve",
      "ht tps",
      "a b",
      "e ct",
      "a k",
      "g e",
      "on e",
      "o st",
      "Ġe x",
      "in d",
      "p t",
      "al l",
      "el l",
      "Ġ N",
      "Ġ =",
      "' t",
      "t u",
      "Ġ L",
      "Ġthe y",
      "ac k",
      "\" ,",
      "Ġc h",
      "r i",
      "Ġs p",
      "am e",
      "Ġc an",
      "en ce",
      "ou g",
      "ĠT h",
      "ver y",
      "Ġa ll",
      "Ġc om",
      "Ġ O",
      "o o",
      "Ġg o",
      "q u",
      "Ġw ill",
      "i es",
      "Ġ #",
      "ĠĠ ĠĠ",
      "Ġp ro",
      "1 9",
      "Ġ G",
      "r a",
      "Ġkn ow",
      "Ġh ad",
      "ĠI n",
      "ar t",
      "Ġon e",
      "Ġt e",
      "Ġin t",
      "Ġ (",
      "Ġli ke",
      "Ġu n",
      "im e",
      "Ġb ut",
      "i ve",
      "al ly",
      "in k",
      "Ġyou r",
      "en d",
      "ar d",
      "Ġs o",
      "o g",
      "Ġw he",
      "u re",
      "Ġ âĢľ",
      "ou nd",
      "a u",
      "er e",
      "you tu",
      "`` `",
      "ag e",
      "Ġwh at",
      "ĠH e",
      ". \"",
      "h ing",
      "Ġthe m",
      "Ġb y",
      "i z",
      "Ġp l",
      "Ġab out",
      "oug h",
      "a ke",
      "Ġ out",
      "Y ou",
      "re at",
      "in e",
      "Ġu p",
      "or t",
      "â ©",
      "u c",
      "y s",
      "Ġm an",
      "w w",
      "Ġs a",
      "en s",
      ": :",
      "t her",
      "Ġt ime",
      "re s",
      "Ġ 1",
      "as s",
      "ac e",
      "Ġa r",
      "e op",
      "eop le",
      "as t",
      "re d",
      "Ġh im",
      "c on",
      ") )",
      "Ġhe t",
      "Ġd id",
      "ĠI t",
      "Ġ if",
      "Ġint o",
      "Ġc ould",
      "on g",
      "ation s",
      "Ġe en",
      "Ġu s",
      "ay s",
      "i p",
      "a p",
      "Ġ J",
      "e ar",
      "Ġn o",
      "el f",
      "Ġ |",
      "Ġ im",
      "* *",
      "k ed",
      "el y",
      "f t",
      "c om",
      "t he",
      "ou s",
      "Ġs u",
      "d e",
      "d oc",
      "Ġs ome",
      "doc s",
      "Ġv an",
      "Ġb l",
      "Ġ ver",
      "Ġp eople",
      "p l",
      "Ġj ust",
      "e p",
      "i v",
      "ow n",
      "ij n",
      "Ġthe re",
      "ac t",
      "1 1",
      "m ent",
      "a ar",
      "Ġo ther",
      "Ġthe ir",
      "e v",
      "f er",
      "i ver",
      "k s",
      "u e",
      ") .",
      "ĠS he",
      "od der",
      "Ġf e",
      "T h",
      "he d",
      "p er",
      "Ġh as",
      "Ġe very",
      "ing s",
      "Ġw ere",
      "Ġan y",
      "ic e",
      "o or",
      "Ġc l",
      "w e",
      "h a",
      "Ġa g",
      "an g",
      "Ġ 20",
      "ĠTh is",
      "Ġ y",
      "ers on",
      "âĢ Ķ",
      "Ġse e",
      "o ve",
      "in t",
      "au se",
      "Ġbe c",
      "Ġw ant",
      "ac h",
      ". âĢĿ",
      "i re",
      "Ġcom p",
      "Ġ ro",
      "Ġm ore",
      "Ġwh o",
      "or y",
      "Ġcon t",
      "ion s",
      "Ġo ver",
      "i k",
      "r y",
      "om et",
      "ar k",
      "an ce",
      "if ic",
      "i al",
      "0 0",
      "Ġg r",
      "b le",
      "or m",
      "o od",
      "an s",
      "d en",
      "Ġwor ld",
      "i et",
      "it e",
      "g an",
      "Ġre al",
      "e c",
      "ig nal",
      "Ġa m",
      "Ġb ack",
      "ic h",
      "k ing",
      "1 2",
      "Ġs c",
      "ot her",
      "f f",
      "Ġwhe n",
      "ys is",
      "i le",
      "E D",
      "ant s",
      "6 2",
      "f id",
      "Ġb r",
      "ic al",
      "Ġv ide",
      "a re",
      "ĠA nal",
      "n g",
      "at ed",
      "ĠAnal ysis",
      "nd er",
      "= \"",
      "at ch",
      "Ġo p",
      "b er",
      "Ġd on",
      "Ġp r",
      "s elf",
      "ol og",
      "b l",
      "i ld",
      "Ġth r",
      "o se",
      "Ġg et",
      ".. .",
      "* \"",
      "I n",
      "Ġs omet",
      "s p",
      "Ġsa id",
      "ut h",
      "if e",
      "i an",
      "h at",
      "ĠS ignal",
      "Ġh ow",
      "Ġne ed",
      "st at",
      "ul t",
      "a v",
      "Ġz ijn",
      "Ġf l",
      "as e",
      "an k",
      "2 4",
      "ur n",
      "fid ants",
      "o ld",
      "o ll",
      "ost s",
      "is s",
      "re e",
      "ag es",
      "+ +",
      "Ġn ow",
      "ou n",
      "Ġw ay",
      "Ġbe en",
      "Ġhe re",
      "Ġ qu",
      "c l",
      "Ġ You",
      "Ġ our",
      "Ġa c",
      "Ġt w",
      "con fidants",
      "u ll",
      "Ġvide o",
      "th ing",
      "Ġg e",
      "ĠE C",
      "Ġsomet hing",
      "Ġthr ough",
      "Ġm et",
      "Ġha pp",
      "Ġag ain",
      "Ġ V",
      "Ġne ver",
      "Ġal s",
      "l p",
      "Ġ K",
      "ĠW e",
      "0 3",
      "w n",
      "Ġd at",
      "ĠThe y",
      "it t",
      "Ġu nder",
      "Ġb el",
      "' m",
      "p osts",
      "Ġ âĢ",
      "v ent",
      "ij k",
      "Ġth ink",
      "a ve",
      "i ed",
      "ww w",
      "o k",
      "Ġl ife",
      "a ven",
      "x t",
      "Ġre l",
      "Ġon ly",
      "um an",
      "l ed",
      "n e",
      "an ge",
      "Th is",
      "ir st",
      "Ġbec ause",
      "ad e",
      "ab le",
      "t e",
      "or ies",
      "y p",
      "Ġa ct",
      "Ġe m",
      "i a",
      "ic k",
      "Ġin ter",
      "Ġe ven",
      "r u",
      "f orm",
      "Ġr ight",
      "Ġd is",
      "res s",
      "Ġp er",
      "Ġth an",
      "Ġ U",
      "-- --",
      "Ġl oo",
      "f ore",
      "Ġw r",
      "ĠIn k",
      "Ġ\" *",
      "Ġ $",
      "o b",
      "Ġwhe re",
      "Ġp erson",
      "ear s",
      "d d",
      "y m",
      "Ġ '",
      "or d",
      "/ )",
      "Ġthe n",
      "Ġs l",
      "I t",
      "ĠF odder",
      "at h",
      "our nal",
      "Ġd ie",
      "9 0",
      "Ġre m",
      "iver s",
      "oun t",
      "f ter",
      "Ġf irst",
      "' ,",
      "Ġgo ing",
      "Ġdid n",
      "i ous",
      "Ġc all",
      "Ġbe ing",
      "Ġ 2",
      "le ct",
      "stat ic",
      "b ol",
      "Ġ @",
      ".. ..",
      "Ġfe el",
      "v ed",
      "at er",
      ", âĢĿ",
      "Ġh and",
      "ag s",
      "uth or",
      "Ġim p",
      "â «",
      "is h",
      "id ence",
      "gan iz",
      "Ġtw o",
      "Ġm ake",
      "Ġp art",
      "Ġp os",
      "ĠR aven",
      "Ġ 3",
      "Ġ **",
      "6 9",
      "Ġm ay",
      "p ng",
      "t ags",
      "Ġb et",
      "a il",
      "Ġm u",
      "Ġ@ [",
      "o e",
      "Ġth ings",
      "Ġp o",
      "Ġz e",
      "od y",
      "Ġwh ich",
      "Ġ >",
      "v es",
      "Ġo m",
      "it le",
      "j ournal",
      "C T",
      "{ {",
      "} }",
      "Ġdo es",
      "Ġd own",
      "Ġa w",
      "Ġ\" \"",
      "Ġbe fore",
      "ar n",
      "Ġof f",
      "{{ <",
      "Ġ Q",
      "â ĭ",
      "Ġ> }}",
      "Ġ Y",
      "k en",
      "re t",
      "o f",
      "Ġe y",
      "ĉĉ ĉ",
      "Ġat t",
      "es c",
      "ig n",
      "ĠO r",
      "ĠA r",
      "Ġa pp",
      "Ġsh ould",
      "Ġo wn",
      "Ġ er",
      "Ġk e",
      "e w",
      "Ġd ay",
      "? âĢĿ",
      "on s",
      "he n",
      "t itle",
      "u d",
      "Ġwor k",
      "v ing",
      "A nd",
      "at or",
      "Ġthe se",
      "im ages",
      "Ġman y",
      "W e",
      "Ġs im",
      "ar y",
      "Ġst r",
      "i x",
      "Ġs m",
      "ie f",
      "youtu be",
      "' ve",
      "Ġre c",
      "Ġd if",
      "n ess",
      "y st",
      "ak ing",
      "oug ht",
      "R ED",
      "[ [",
      "it ion",
      "1 0",
      "ar s",
      "S M",
      "Ġs ay",
      "at ing",
      "Ġf ind",
      "ĠS t",
      "if er",
      "Ġar ound",
      "H e",
      "re ad",
      "Ġdo or",
      "ic t",
      "Ġ very",
      "Ġc reat",
      "o y",
      "en c",
      "ot h",
      "ĠM an",
      "E R",
      "w ard",
      "Ġhe lp",
      "' re",
      "Ġg u",
      "Ġen d",
      "our ce",
      "Ġ ent",
      "20 19",
      "Ġ id",
      "w atch",
      "â Ī",
      "a uthor",
      "Ġl ove",
      "Ġj e",
      "Ġne w",
      "uc ifer",
      "u p",
      "re am",
      "he s",
      "Ġ ik",
      "Ġn iet",
      "Ġwor d",
      "ucifer ian",
      "Ġhapp en",
      "Ġm ind",
      "g r",
      "ar th",
      "SM R",
      "p le",
      "Ġmu ch",
      "s s",
      "i er",
      "ganiz ations",
      "Ġm o",
      "ra ft",
      "a w",
      "w er",
      "c ess",
      "i ble",
      "Ġto o",
      "ĠD e",
      "Ġt ell",
      "Ġm ade",
      "oll ow",
      "f ul",
      "ĠL em",
      "on d",
      "Ġre sp",
      "6 03",
      "l s",
      "Ġs ame",
      "Ġl ong",
      "ĠW h",
      "yst em",
      "b or",
      "l es",
      "s ide",
      "el d",
      "s c",
      "o ver",
      "d ate",
      "Ġs ays",
      "ĠR ank",
      "ĠĠĠĠ ĠĠĠĠ",
      "Ġst ill",
      "2 1",
      "ev idence",
      "c ol",
      "20 20",
      "ific ation",
      "11 8",
      "g g",
      ", \"",
      "al se",
      "8 19",
      "at es",
      "ow er",
      "24 4",
      "m en",
      "ĠEC O",
      "at her",
      "12 118",
      "90 12118",
      "69 244",
      "603 9012118",
      "819 6039012118",
      "8196039012118 69244",
      "Ġa fter",
      "Ġc r",
      "p ect",
      "z e",
      "Ġt al",
      "Ġb u",
      "Ġ1 0",
      "\" ](",
      "c c",
      "w ays",
      "y ing",
      "ie ve",
      "Ġ ide",
      "ĠC h",
      "r ic",
      "er t",
      "Ġ 7",
      "Ġw ell",
      "un n",
      "f l",
      "Ġm ess",
      "Ġ( [",
      "Ġn ame",
      "ie bol",
      ") ,",
      "e e",
      "m s",
      "Ġm ost",
      "u al",
      "le t",
      "A N",
      "ct ion",
      "o on",
      "pp ed",
      "Ġals o",
      "Ġm ust",
      "em ber",
      "Ġgo od",
      "Ġa d",
      "ce pt",
      "fer ence",
      "Ġh uman",
      "er v",
      "Ġm ight",
      "Ġre p",
      "O R",
      "Ġey es",
      "Ġ el",
      "ha ps",
      "i as",
      "Ġhe ad",
      "st and",
      "Ġ Z",
      "s ource",
      "al col",
      "alcol m",
      "Ġt ake",
      "Ġf ollow",
      "Ġan other",
      "ĠG od",
      "Ġse em",
      "i ly",
      "++ +",
      "Ġch ild",
      "ar ch",
      "Ġp h",
      "0 8",
      "1 6",
      "Ġm ens",
      "Ġp u",
      "Ġcom m",
      "d raft",
      "i ent",
      "is m",
      "Ġit s",
      "t ing",
      "i b",
      "is e",
      "ivers ity",
      "a it",
      "g et",
      "j ect",
      "on t",
      "1 5",
      "e ver",
      "p h",
      "Ġ 8",
      "u ally",
      "Ġle t",
      "Ġs ystem",
      "g en",
      "an c",
      "ĠA ge",
      "olog ical",
      "ar ly",
      "Ġpo int",
      "Ġdif fer",
      "r en",
      "Ġ +",
      "im es",
      "R I",
      "W hat",
      "Ġc ome",
      "ch n",
      "Ġv o",
      "Ġe ver",
      "uc k",
      "Ġf ound",
      "iver se",
      "i en",
      "t en",
      "Ġd r",
      "ĠA nd",
      "ĠE arth",
      "v el",
      "is c",
      "ĠI f",
      "Ġst art",
      "Ġme an",
      "ĠB ut",
      "Ġy ears",
      "k n",
      "4 5",
      "ĠThe re",
      "Ġt urn",
      "Ġp re",
      "Ġg l",
      "ak es",
      "Ġ 5",
      "Ġm on",
      "om s",
      "H O",
      "n ect",
      "itt le",
      "7 7",
      "C h",
      "al e",
      "ir l",
      "A CT",
      "ent er",
      "Ġg ot",
      "Ġdiffer ent",
      "Ġpl an",
      "I N",
      "it al",
      "Ġth ought",
      "ist s",
      "Ġevery thing",
      "c hed",
      "Ġw er",
      "]] ,",
      "Ġp ast",
      "Ġwh ile",
      "Ġus ed",
      "Ġunder stand",
      "Ġv oor",
      "Ġal ways",
      "form ation",
      "m ed",
      "or n",
      "esc ri",
      "Ġre ally",
      "r ow",
      "Ġth ing",
      "oo k",
      "Ġop en",
      "RED ACT",
      "REDACT ED",
      "un iversity",
      "Ġm ent",
      "ĠD iebol",
      "ĠR E",
      "G G",
      "he re",
      "Ġf alse",
      "et s",
      "Ġimp ort",
      "m er",
      "Ġth ose",
      "a red",
      "1 8",
      "Ġe v",
      "ĠĠĠĠĠĠĠĠ ĠĠ",
      "ate g",
      "ak en",
      "Ġst ory",
      "ĠT RI",
      "ul ation",
      "au g",
      "Ġsome one",
      "GG ER",
      "ĠTRI GGER",
      "a x",
      "Ġ 4",
      "Ġl ittle",
      "Ġother s",
      "B ut",
      "t y",
      "b b",
      "p erson",
      "Ġ( (",
      "/ ).",
      "ĠI k",
      "Ġl ight",
      "Ġmens en",
      "ĠTh at",
      "ire ct",
      "Ġro om",
      "at ter",
      "Ġnot hing",
      "Ġex per",
      "i end",
      "Ġcon nect",
      "at ely",
      "Ġd es",
      "Ġle ft",
      "2 6",
      "Ġc le",
      "Ġsh ow",
      "r ad",
      "oc k",
      "Ġw ar",
      "! [",
      "or s",
      "al s",
      "Ġaw ay",
      "W h",
      "r on",
      "Ġfr iend",
      "Ġagain st",
      "m an",
      "ig h",
      "Ġu se",
      "ut er",
      "? \"",
      "Ġs ch",
      "Ġf act",
      "em ent",
      "ĉ Ġ",
      "Ġe ach",
      "Ġbe h",
      "Ġas s",
      "i ence",
      "Ġm om",
      "Ġbel ieve",
      "O r",
      "d at",
      "Ġk ill",
      "ĠEC HO",
      "Ġw on",
      "Ġg en",
      "Ġme m",
      "ar i",
      "id er",
      "0 5",
      "ro l",
      "Ġc he",
      "Ġre t",
      "R e",
      "p ro",
      "in n",
      "el t",
      "Ġwant ed",
      "e k",
      "Ġp ut",
      "Ġre ad",
      "we ight",
      "led ge",
      "---- ----",
      "L uciferian",
      "Ġf ace",
      "ĠH et",
      "Ġas ked",
      "Ġkn ew",
      "Ġsp ec",
      "ro ss",
      "Ġwh y",
      "Ġany thing",
      "ĠM y",
      "pt ion",
      "A T",
      "0 7",
      "i ven",
      "â ¨",
      "Ġsp e",
      "Ġc a",
      "Ġre s",
      "ĠW hat",
      "Ġpl ace",
      "Ġmom ent",
      "Ġn aar",
      "Ġle arn",
      "ach ine",
      ".... ....",
      "Ġimport ant",
      "Ġal t",
      "Ġsu ch",
      "read y",
      "Ġs ur",
      "Ġl ot",
      "Ġh ij",
      "Ġ20 19",
      "ateg ories",
      "in s",
      "ĠA SMR",
      "ĠC om",
      "4 4",
      "Ġc re",
      "Ġk ind",
      "Ġpu bl",
      "er en",
      "Ġt er",
      "Ġf am",
      "Ġwith out",
      "Ġex pl",
      "c ategories",
      "u b",
      "Ġm aar",
      "Ġh um",
      "Ġin d",
      "men u",
      "o ol",
      "Ġim age",
      "b ody",
      "t il",
      "Ġb oth",
      "ĠN o",
      "y le",
      "it ed",
      "O N",
      "er g",
      "Ġw ait",
      "an n",
      "or g",
      "Ġal ready",
      "! âĢĿ",
      "Ġc ol",
      "0 9",
      "Ġa an",
      "ĠJ e",
      "ĠâĢ ¦",
      "( (",
      "0 4",
      "d u",
      "m ost",
      "w or",
      "res ent",
      "person as",
      "S o",
      "o ke",
      "Ġde c",
      "Ġas ks",
      "F odder",
      "Ġs k",
      "Ġsu b",
      "a ir",
      "it ies",
      "Ġab le",
      "as ed",
      "ĠS o",
      "Ġy et",
      "Ġcall ed",
      "3 3",
      "]( ((",
      "ĠM alcolm",
      "ist en",
      ". *\"",
      "D e",
      "g er",
      "Ġw all",
      "Ġbe g",
      "ir d",
      "ij d",
      "Ġch ange",
      "iz ed",
      "S he",
      "Ġm iss",
      "C l",
      "OR D",
      "n ot",
      "Ġm ed",
      "Ġin formation",
      "Ġup on",
      "Ġin st",
      "Ġh un",
      "om en",
      "Ġsa w",
      "ific ial",
      "l ess",
      "Ġp ower",
      "Ġdo ing",
      "ĠP ro",
      "Ġ 62",
      "ĠA n",
      "ĠH ow",
      "oo se",
      "N o",
      "ĠD o",
      "ĠE r",
      "op e",
      "Ġle ad",
      "Ġpl ay",
      "ar r",
      "con d",
      "ĠRE C",
      "i ke",
      "Ġin v",
      "' ll",
      "Ġth ough",
      "ac ht",
      "Ġke ep",
      "d ay",
      "e xt",
      "Ġb o",
      "ff ect",
      "Ġg ive",
      "Ġr ijk",
      "Ġent ire",
      "ĠREC ORD",
      "Ġs le",
      "Ġact ually",
      "Ġpos ition",
      "ward s",
      "i ps",
      "chn olog",
      "a h",
      "ħ â©",
      "ing en",
      "9 9",
      "Ġst op",
      "Ġar t",
      "Ġpr ot",
      "Ġloo k",
      "i us",
      "Ġb est",
      "al th",
      "Ġst yle",
      "Ġli ve",
      "b s",
      "r c",
      "Ġre f",
      "Ġwas n",
      "Ġto ld",
      "int a",
      "1 7",
      "Ġw at",
      "Ġs ide",
      "Ġf ore",
      "Ġre as",
      "Ġth ree",
      "Ġin side",
      "cl ass",
      "Ġrem ember",
      "oo g",
      "Ġun iverse",
      "Ġcomp let",
      "Ġbeh ind",
      "e g",
      "n ight",
      "Ġse c",
      "a at",
      "ert ain",
      "m a",
      "Ĩ â©",
      "Ġw atch",
      "Ġc ame",
      "Ġg re",
      "Ġ# [[",
      "Â ł",
      "in al",
      "ou d",
      "ĠH uman",
      "ĉĉ ĉĉ",
      "ab ly",
      "p x",
      "r om",
      "c k",
      "Ġcon f",
      "1 4",
      "A l",
      "N ame",
      "Ġs er",
      "Ġm in",
      "Ġh ard",
      "Ġqu est",
      "Ġdis c",
      "S t",
      "Ġ /",
      "Ġhe art",
      "ie w",
      "fl u",
      "? *\"",
      "s y",
      "ĠS h",
      "am es",
      "ations h",
      "o in",
      "Ġd el",
      "Ġp ar",
      "ĠW hen",
      "ĠU n",
      "Ġret urn",
      "Ġs n",
      "al k",
      "we en",
      "ĠâĢ ĭ",
      ". *",
      "at ive",
      "Ġu it",
      "I f",
      "j e",
      "t ed",
      "Ġc are",
      "Ġh ome",
      "Ġmess age",
      "i red",
      "n et",
      "Ġ ve",
      "er haps",
      "ĠK un",
      "f in",
      "it ect",
      "as ter",
      "Ġreal m",
      "â §",
      "ĠA t",
      "Ġst and",
      "]] .",
      "Ġevery one",
      "Ġcon s",
      "Ġfe w",
      "Ġdoes n",
      "Ġo ld",
      "ĠB e",
      "Ġtr ying",
      "I k",
      "Ġcould n",
      "c enter",
      "s el",
      "Ġl ast",
      "Ġex ist",
      "yp es",
      "Ġpos s",
      "Or ganizations",
      "Ġb ro",
      "Ġse cond",
      "Ġal one",
      "ĠO ne",
      "Ġel se",
      "le ase",
      "Ġon ce",
      "us ic",
      "Ġpro ble",
      "Ġsu pp",
      "âĭ ®",
      "0 1",
      "]( [[",
      "and e",
      "Ġwor den",
      "Ġtr ust",
      "â Ĭ",
      "ie wer",
      "Ġs it",
      "is on",
      "Ġp ain",
      "kn own",
      "Cl ass",
      "z en",
      "Ġs w",
      "or ganizations",
      "Ġf ull",
      "ar c",
      "1 3",
      "en der",
      "Ġg od",
      "Ġg reat",
      "Ġen ough",
      "Ġd ream",
      "Ġtr ue",
      "Ġb ody",
      "Ġl ater",
      "ig e",
      "ig ital",
      "Ġne xt",
      "Ġbec ome",
      "Ġcont rol",
      "bor der",
      "s h",
      "Ġs rc",
      "The y",
      "Ġst e",
      "Ġneed ed",
      "ĠAr t",
      "a an",
      "p r",
      "Ġd ark",
      "Ġp ur",
      "ol ut",
      "ĠO n",
      "Th at",
      "ĠAr ch",
      "escri ption",
      "rad ius",
      "Ġwith in",
      "=\" /",
      "ob s",
      "unn en",
      "0 2",
      "r or",
      "Ġb reat",
      "Ġe vent",
      "lp ha",
      "Class ification",
      "Ġk unnen",
      "Ġac c",
      "Ġbet ween",
      "Ġ 19",
      "Ġb re",
      "8 3",
      "B I",
      "M an",
      "a pp",
      "i o",
      "p ly",
      "Ġc ur",
      "ot e",
      "Ġk an",
      "il ity",
      "iz e",
      "Ġcomplet ely",
      "M y",
      "Ġm ult",
      "H ow",
      "S C",
      "w ay",
      "j ande",
      "s ym",
      "Ġt est",
      "Ġs ound",
      "is ion",
      "ar ing",
      "ic s",
      "reat s",
      "Ġcont in",
      "Ġcomm un",
      "Ġun til",
      "Ġver s",
      "Ġs oc",
      "ic a",
      "ut ure",
      "Ġmy self",
      "Ġex t",
      "ĠZ e",
      "4 6",
      "Ġh old",
      "Ġl o",
      "Ġex act",
      "ĠL ark",
      "Ġbet ter",
      "0 6",
      "Ġm akes",
      "Ġm atter",
      "it s",
      "ver s",
      "im age",
      "ĠA l",
      "pt oms",
      "Ġ 6",
      "Ġs et",
      "Ġn um",
      "us ed",
      "os ed",
      "2 5",
      "f e",
      "i ally",
      "Ġs ent",
      "an a",
      "Ġf elt",
      "Ġh our",
      "ĠB l",
      "ap e",
      "Ġd et",
      "Ġd one",
      "Ġg iven",
      "od e",
      "Ġal most",
      "dat a",
      "W hen",
      "Ġw ent",
      "ul ar",
      "os s",
      "Ġsim ply",
      "or p",
      "Ġd ro",
      "Ġto ok",
      "Ġp ass",
      "Ġp red",
      "el s",
      "ĠF or",
      "sy ch",
      "I ON",
      "ĠT r",
      "oc ation",
      "Ġfam ily",
      "u w",
      "it ing",
      "ot s",
      "ĠA s",
      "ab les",
      "Ġf ar",
      "al ity",
      "Ġse en",
      "ue en",
      "Ġhum ans",
      "c ht",
      "f ect",
      "m in",
      "t o",
      "u g",
      "Ġa dd",
      "ar l",
      "st r",
      "Ġle ven",
      "stat s",
      "erv ation",
      "sym ptoms",
      "Ã ©",
      "The re",
      "ĠT o",
      "Ġch ang",
      "Ġsm all",
      "ĠEr in",
      "2 3",
      "U n",
      "b ably",
      "Ġ _",
      "Ġs ym",
      "Ġd ra",
      "ĠA I",
      "ĠC AT",
      "ĠN ot",
      "ip ulation",
      "Ġword s",
      "K E",
      "t ypes",
      "Ġs ure",
      "is ter",
      "ent ion",
      "ĠM oon",
      "tu re",
      "Ġyour self",
      "Ġs ing",
      "re f",
      "ĠP h",
      "d escription",
      "e b",
      "en se",
      "Ġd ays",
      "Ġf ight",
      "Ġh t",
      "th reats",
      "Ġ20 20",
      "Ġhappen ed",
      "8 8",
      "A SMR",
      "f odder",
      "ad ow",
      "ĠH is",
      "Ġreal ity",
      "Ġbr ain",
      "oog le",
      "Ġto wards",
      "ot hes",
      "Ġ[ '",
      "ĠH er",
      "Ġex am",
      "ell ig",
      "Ġreas on",
      "m and",
      "ĠS p",
      "Ġtr ans",
      "ment s",
      "gr am",
      "aug ht",
      "r ij",
      "Ġp ol",
      "ent s",
      "20 21",
      "Ġtr uth",
      "Ġcan not",
      "W O",
      "k er",
      "p ed",
      "Ġw aar",
      "at ure",
      "Ġm ove",
      "Ġf re",
      "ent ly",
      "Ġsp ace",
      "Ġun known",
      "Ġprot ect",
      "e x",
      "m d",
      "as h",
      "ot es",
      "Ġst ars",
      "if ied",
      "Ġfor m",
      "ĠQ ueen",
      "flu ence",
      "sel ves",
      "el ijk",
      "Ġde ad",
      "Ġinter est",
      "ĠArt ificial",
      "T I",
      "f or",
      "v ious",
      "Ġf ing",
      "ood night",
      "Ġide as",
      "Ġfollow ing",
      "Ġ `",
      "Ġf uture",
      "Ġhe ar",
      "obs ervation",
      "Ġht tps",
      "D igital",
      "e ft",
      "Ġb ed",
      "Ġb ad",
      "Ġto get",
      "Ġan s",
      "Ġre st",
      "ount ry",
      "ari ables",
      "Ġtoget her",
      "one y",
      "Ġhim self",
      "ĠJ ust",
      "pl oy",
      "Ġfl oor",
      "Ġt imes",
      "he id",
      "en n",
      "Ġh ou",
      "Ġany one",
      "Ġac ross",
      "f d",
      "Ġm ijn",
      "Ġc our",
      "ion al",
      "Ġg ame",
      "Ġ\" [",
      "ĠE very",
      "ist ance",
      "ra ph",
      "i eld",
      "i ological",
      "u el",
      "is ed",
      "Ġn ight",
      "id ed",
      "ĠS al",
      "Ġas k",
      "Ġal le",
      "Ġwor king",
      "Ġide a",
      "ic ally",
      "Ġl isten",
      "yp othes",
      "Ġloo ked",
      "4 8",
      "a ak",
      "in ess",
      "Ġc ertain",
      "Ġde v",
      "ĠM ay",
      "and or",
      "ĠP erhaps",
      "med i",
      "L em",
      "l uciferian",
      "Ġd est",
      "Ġo b",
      "Ġh u",
      "Ġre qu",
      "ĠC inta",
      "ĠB r",
      "ĠTh ief",
      "ĠCom p",
      "' d",
      "R ev",
      "a ut",
      "b r",
      "g s",
      "Ġm od",
      "ĠN jande",
      "! \"",
      "; \"",
      "in es",
      "er o",
      "iet y",
      "Ġhand s",
      "in ce",
      "Ġs ign",
      "âĢ ¦",
      "Ġg irl",
      "em pt",
      "ĠR el",
      "Re ference",
      "9 2",
      "n er",
      "ĠH ij",
      "ur y",
      "ore d",
      "ri end",
      "? *",
      "is hed",
      "Ġde ath",
      "ĠC on",
      "qu otes",
      "Ġvo ice",
      "2 7",
      "a im",
      "f ort",
      "â Ł",
      "it her",
      "om an",
      "ĠA ll",
      "ĠT e",
      "ĠY ears",
      "I CT",
      "o ot",
      "in ally",
      "Ġto t",
      "vent or",
      "Ġbu ild",
      "Ġa ir",
      "Ġl ang",
      "cc up",
      "ric andor",
      "WO KE",
      "y r",
      "Ġis n",
      "Ġre se",
      "Ġcreat ed",
      "t r",
      "y an",
      "Ġre g",
      "Ġde ep",
      "Ġknow n",
      "vel op",
      "Ã «",
      "Ġw ater",
      "Ġp ost",
      "Ġre pl",
      "Ġbe gan",
      "ĠW or",
      "Ġmo et",
      "Ġtal k",
      "Ġmon th",
      "z elf",
      "Ġb en",
      "it ch",
      "Ġ\" /",
      "RED ICT",
      "Ġseem s",
      "ationsh ips",
      "Ġexact ly",
      "D o",
      "b ut",
      "o int",
      "Ġf ree",
      "Ġof ten",
      "Ġhe ard",
      "Ġg ro",
      "Ġle ave",
      "ab or",
      "Ġknow s",
      "medi ately",
      "REDICT ION",
      "a f",
      "u be",
      "Ġp ri",
      "ĠM at",
      "ĠR e",
      "us s",
      "Ġpro bably",
      "bb en",
      "er y",
      "Ġd irect",
      "Ġf all",
      "ar m",
      "]( {{<",
      "Ġv is",
      "Ġex pect",
      "Ġrel ref",
      "Ġ>}} )",
      "ccup ations",
      ". ]]",
      "8 9",
      "L L",
      "O M",
      "O h",
      "Ġh ope",
      "Ġe lect",
      "Ġz al",
      "Ġmean ing",
      "Al ias",
      "st e",
      "if y",
      "Ġab ove",
      "Ġte chnolog",
      "... ]",
      "enc es",
      "Ġmin ut",
      "orp or",
      "d f",
      "ru ct",
      "ator s",
      "Ġcommun ic",
      "Ġs elf",
      "Ġm en",
      "Ġf ear",
      "el en",
      "ĠE x",
      "Ġz ich",
      "ate ver",
      "ain ing",
      "Ġtr y",
      "end e",
      "Ġper haps",
      "! !",
      "Ġst at",
      "ĠD ark",
      "Ġbl ack",
      "Ġsit u",
      "5 7",
      "Ġs uc",
      "Ġm oose",
      "ent ity",
      "ain ed",
      "Ġtr av",
      "Ġknow ledge",
      "Ġgr ow",
      "Ġwr ong",
      "Ġchild ren",
      "Ġhour s",
      "l ine",
      "Ġd it",
      "Ġh igh",
      "ĠI s",
      "Ġhe bben",
      "im on",
      "am ed",
      "Ġde velop",
      "ĠP REDICTION",
      "Ġatt empt",
      "Ġconnect ed",
      "/ #",
      "A s",
      "ve ill",
      "Ġen erg",
      "Ġz o",
      "the ories",
      "Ġwho le",
      "Ġem ot",
      "âĪ Ĥ",
      "Ġspe ak",
      "m e",
      "o le",
      "it er",
      "Ġh or",
      "am er",
      "Ġme ans",
      "um ent",
      "Ġex p",
      "SC AN",
      "Ġexam ple",
      "TI IN",
      "a pt",
      "o x",
      "Ġ *",
      "Ġs end",
      "Ġm is",
      "Ġstart ed",
      "ĠComp uter",
      "4 7",
      "c ed",
      "Ġm other",
      "il it",
      "Ġse ver",
      "ĉĉ Ġ",
      "ĠIn ventor",
      "Ġun ivers",
      "og raph",
      "Ġsle ep",
      "veill ance",
      "3 0",
      "G oodnight",
      "m y",
      "Ġs at",
      "es us",
      "Ġto day",
      "Ġo ok",
      "Ġin cl",
      "ur al",
      "Ġall ow",
      "Ch ron",
      "Ġref lect",
      "B iological",
      "G ender",
      "R ace",
      "T est",
      "V ariables",
      "v iew",
      "w here",
      "an je",
      "Ġin c",
      "ac es",
      "Ġpro cess",
      "Ġus ing",
      "Ġper fect",
      "4 3",
      "x im",
      "Ġw oman",
      "ur t",
      "Ġor ig",
      "Ġbr ing",
      "Chron ological",
      "A n",
      "ĠA ls",
      "ĠA lpha",
      "il in",
      "ĠE l",
      "ĠR es",
      "ab b",
      "iv id",
      "Rev iewer",
      "m ing",
      "Ġm id",
      "Ġc ar",
      "Ġe ffect",
      "if t",
      "and id",
      "ure s",
      "ull en",
      "Ġbre ak",
      "Ġsym bol",
      "Ġs us",
      "ic es",
      "Ġre le",
      "Ġch ar",
      "ĠQ ilin",
      "Âł Ċ",
      "o en",
      "Ġh all",
      "ĠS ome",
      "Ġher self",
      "ĠIn ter",
      "Ġout side",
      ")) :",
      "Ġpart ic",
      "Ġresp ond",
      "Ġtal king",
      "k ay",
      "Ġs ou",
      "Ġde p",
      "un t",
      "Ġpro gram",
      "â© ģ",
      "Ġbl ood",
      "ĠJe i",
      "g ed",
      "Ġyou tu",
      "ur ing",
      "us h",
      "ec ause",
      "Ġqu ite",
      "yp e",
      "Ġapp ro",
      "ĠWh ile",
      "Ġturn ed",
      "Ġyoutu be",
      "n a",
      "re w",
      "Ġm ar",
      "ĠB ricandor",
      "Ġz ou",
      "ĠF re",
      "Ġch o",
      "ure d",
      "Ġsl ow",
      "........ ........",
      "Ġpubl ic",
      "4 2",
      "T ube",
      "ĸ â«",
      "Ġw al",
      "Ġs il",
      "Ġb it",
      "Ġhe l",
      "Ġen g",
      "Ġz ullen",
      "Ġcon cept",
      "Ġcomp le",
      "Ġcomp uter",
      "isc ord",
      "arc iss",
      "ĠArch itect",
      "R E",
      "d b",
      "h ost",
      "u ed",
      "Ġ â",
      "Ġb ig",
      "it z",
      "ow ledge",
      "Ġfr ont",
      "Ġli ves",
      "Ġsec ret",
      "6 8",
      "re es",
      "ĠS c",
      "ri p",
      ")) )",
      "Ġwon der",
      "Ġcour se",
      "Ġ *\"",
      "Ġt ijd",
      "am uel",
      "Ġr un",
      "Ġj ob",
      "4 0",
      "l ing",
      "Ġ ![",
      "id ent",
      "ĠS e",
      "enc y",
      "Ġl ost",
      "ac y",
      "Ġor der",
      "Ġvide os",
      "Ġsitu ation",
      "Ġm ist",
      "Ġl oc",
      "Ġbl itz",
      "ry pt",
      "Ġproble m",
      "im ent",
      "ur veillance",
      "qu e",
      "itt en",
      "orpor ation",
      "2 2",
      "I s",
      "O n",
      "p ath",
      "gan ic",
      "Ġpr om",
      "In fluence",
      "ount ain",
      "Ġres ult",
      "Ġpred ict",
      "O ccupations",
      "S S",
      "c es",
      "f ic",
      "u se",
      "w ik",
      "Ġm aking",
      "Ġb ook",
      "Ġhe alth",
      "ĠA ss",
      "Ġthem selves",
      "Ġcl aim",
      "aw s",
      "Ġcle arly",
      "5 8",
      "a z",
      "p en",
      "Ġm oney",
      "Ġp ull",
      "Ġl ess",
      "## ##",
      "Ġle ast",
      "Ġtr ied",
      "Ġint ellig",
      "iv ing",
      "Ġloo king",
      "â« ĺ",
      "Ġstr ong",
      "row en",
      "Ġgen er",
      "imon ial",
      "Test imonial",
      "e ah",
      "Ġb es",
      "Ġf ur",
      "Ġp e",
      "Ġp ers",
      "Ġre d",
      "â© Ĩâ©",
      "Ġim mediately",
      "sc ious",
      "Ġquest ion",
      "Ġans wer",
      "T o",
      "r ag",
      "Ġa f",
      "er c",
      "Ġm usic",
      "Ġd ri",
      "Ġg el",
      "ĠA ction",
      "Ġst ate",
      "ij ke",
      "us ion",
      "Ġpro v",
      "iv es",
      "Ġph ys",
      "Ġinv ol",
      "id es",
      "ĠG rowen",
      "Ġy ear",
      "Ġstr ange",
      "wor k",
      "M alcolm",
      "m iss",
      "u ff",
      "it ive",
      ".. /",
      "Ġbl ue",
      "/) ,",
      "Ġatt ention",
      "Ġke pt",
      "Ġment ion",
      "Ġfriend s",
      "Ġsever al",
      "F or",
      "i or",
      "Ġhe eft",
      "ic ked",
      "Ġg ave",
      "ac ed",
      "ke ys",
      "out h",
      "Ġpr ison",
      "itt ing",
      "oe k",
      "Ġph one",
      "Ġsing le",
      "Ġ` $",
      "ograph y",
      "4 9",
      "Ġto p",
      "Ġh ate",
      "ĠD oor",
      "Ġcom ing",
      "ĠOr ganic",
      "Ġrep resent",
      "u le",
      "Ġs ong",
      "Ġm ag",
      "Ġc or",
      "es b",
      "al m",
      "Ġl aug",
      "ac hed",
      "ĠA g",
      "ĠF BI",
      "ĠN ext",
      "ĠG irl",
      "00 0",
      "av ing",
      "av es",
      "Ġposs ible",
      "Ġnum ber",
      "Ġhou se",
      "J ust",
      "Y es",
      "l ight",
      "m on",
      "Ġ 9",
      "Ġt im",
      "ic ht",
      "Ġe as",
      "Ġpro ject",
      "Ġpro du",
      "Ġro le",
      "Ġev il",
      "Ġve el",
      "u age",
      "at ie",
      "Ġb us",
      "Ġp at",
      "Ġg ev",
      "ĠThe se",
      "Ġon s",
      "ĠC orporation",
      "ĠJ esus",
      "Ġge en",
      "ĠCh r",
      "ĠRel ax",
      "on ym",
      "Ġd escri",
      "Ġp ret",
      "Ġre ce",
      "ack ing",
      "ra p",
      "oll abor",
      "Ġs ense",
      "on se",
      "Ġp resent",
      "as k",
      "ig en",
      "ĠThe n",
      "ard s",
      "ass ets",
      "ang er",
      "Ġcont act",
      "Ġac cept",
      "ull y",
      "Ġexper ience",
      "5 0",
      "6 6",
      "A r",
      "B l",
      "u it",
      "he ad",
      "on ely",
      "Ġg un",
      "ĠD ev",
      "Ġr ing",
      "]] )",
      ".\" *",
      "Ġhapp y",
      "H et",
      "p re",
      "Ġk id",
      "Ġv ol",
      "ls i",
      "ĠWh y",
      "-------- --------",
      "Ġgre en",
      "Ġinterest ing",
      "ĠRelax er",
      "8 7",
      "D irect",
      "u es",
      "en g",
      "on der",
      "al f",
      "Ġan g",
      "ter n",
      "th is",
      "Ġli ving",
      "Ġcl ose",
      "Ġgu y",
      "inn ing",
      "Ġcre ate",
      "Ġwatch ing",
      "Ġbro ken",
      "ĠSal esb",
      "andid ates",
      "S T",
      "u de",
      "Ġl ar",
      "op h",
      "Ġcom es",
      "Ġget ting",
      "ne y",
      "Ġminut es",
      "oen ix",
      "ĠFre lsi",
      "3 7",
      "o ly",
      "y n",
      "er ed",
      "Ġw ind",
      "Ġm ir",
      "Ġc ause",
      "Ġf ix",
      "Ġand ere",
      "Ġg one",
      "im ens",
      "ro bor",
      "am p",
      "il t",
      "Ġal ong",
      "isc he",
      "fic ult",
      "3 5",
      "J e",
      "O ne",
      "e f",
      "Ġs ol",
      "pt ember",
      "Ġsc ream",
      "bl ed",
      "ĠâĢ ĵ",
      "Ġseem ed",
      "ins of",
      "S h",
      "b ers",
      "c le",
      "t le",
      "u ly",
      "Ġs un",
      "Ġp op",
      "Ġl and",
      "ir it",
      "ur ity",
      "Ġha ving",
      "Ġse arch",
      "Ġthink ing",
      "Ġtrav el",
      "at en",
      "Ġm ountain",
      "ation al",
      "Ġme et",
      "Ġhis t",
      "ĠF old",
      "Ġdif ficult",
      "Ġment al",
      "Ġdra w",
      "Ġtechnolog y",
      "Ġenerg y",
      "N ot",
      "ķ â«",
      "Ġhe ld",
      "Ġl ine",
      "]( ../",
      "ĠP r",
      "Ġmay be",
      "Ġdest ro",
      "c andidates",
      "Ħ â©",
      "Ġw ish",
      "Ġs ince",
      "re m",
      "Ġf ig",
      "ar en",
      "ĠI m",
      "Ġl ink",
      "ĠA m",
      "Ġde ze",
      "ĠE m",
      "âĢĿ .",
      "ri ed",
      "Ġqu ick",
      "Ġrel ig",
      "Ġresp ons",
      "Ġad v",
      "Ġspec ific",
      "Ġind ivid",
      "alk yr",
      "Ġlang uage",
      "Ġrese arch",
      "alkyr ie",
      "? ?",
      "A ll",
      "c ountry",
      "e ad",
      "Ġt aking",
      "en ed",
      "Ġw ays",
      "is hes",
      "Ġd en",
      "Ġf ire",
      "Ġre ference",
      "Ġwould n",
      "ell ing",
      "Ġte am",
      "Ġcomp an",
      "Ġcont ext",
      "Ġlong er",
      "ĠPh oenix",
      "O U",
      "R el",
      "m et",
      "er ing",
      "Ġc o",
      "ĠG oogle",
      "â© ī",
      "ap ter",
      "Ġcl os",
      "Ġag o",
      "ĠV er",
      "Ġplan et",
      "arr ot",
      "ĠBr ide",
      "Ġmonth s",
      "ĠSalesb ury",
      "f fer",
      "h ypothes",
      "ow s",
      "Ġme er",
      "ĠN ow",
      "Ġgr ou",
      "ng el",
      "over ed",
      "l and",
      "p ret",
      "Ġt ou",
      "Ġa ut",
      "re en",
      "Ġb urn",
      "Ġh it",
      "ch ien",
      "qu est",
      "Ġrec ord",
      "ĠSt ates",
      "Wh y",
      "olut ion",
      "Man ipulation",
      "Ġsoc iety",
      "ĠMay be",
      "A t",
      "u k",
      "Ġf il",
      "Ġp ath",
      "Ġe ither",
      "ĠA ct",
      "Ġv al",
      "Ġfor ward",
      "Ġz ien",
      "Ġli k",
      "red ator",
      "Ġbec ame",
      "Ġresp onse",
      "15 3",
      "Ġwait ing",
      "xim ity",
      "b y",
      "f ess",
      "in a",
      "Ġc ra",
      "Ġf un",
      "Ġo per",
      "ay er",
      "em ale",
      "ĠE n",
      "Ġsa ve",
      "unn ing",
      "a pped",
      "d uc",
      "e es",
      "i um",
      "u ur",
      "w h",
      "Ġa p",
      "Ġm a",
      "Ġwh atever",
      "ĠM achine",
      "os p",
      "Ġso ft",
      "ĠV alkyrie",
      "oe h",
      "Ġey e",
      "Ġcle ar",
      "Ġca pt",
      "Ġfore ver",
      "Ġbreat h",
      ") ](/",
      "2 9",
      "b all",
      "y te",
      "Ġf ail",
      "Ġst ay",
      "Ġne g",
      "Ġge b",
      "Ġatt ack",
      "Ġmem ory",
      "Ġsou l",
      "oeh ider",
      "8 0",
      "Ġ ed",
      "Ġ {{<",
      "ĠC ont",
      "il ar",
      "ain s",
      "Ġdat a",
      "Ġwer eld",
      "Ġcur r",
      "Ġdet ail",
      "Ġindivid ual",
      "9 83",
      "B e",
      "W ell",
      "W AN",
      "i am",
      "w are",
      "Ġ 24",
      "er n",
      "re c",
      "Ġc ap",
      "Ġd an",
      "Ġf our",
      "el ine",
      "Ġst ud",
      "Ġhist ory",
      "A R",
      "W ith",
      "b t",
      "b ed",
      "b and",
      "f alse",
      "l t",
      "Ġf ell",
      "ac ter",
      "am en",
      "ĠT H",
      "Ġwh ite",
      "il i",
      "Ġwe bs",
      "ist ic",
      "ĠP eople",
      "Ġy es",
      "Ġhapp ens",
      "ĠSt y",
      "45 08",
      "Ġexper iment",
      "ĠHow ever",
      "a a",
      "i ant",
      "p he",
      "r ight",
      "en e",
      "Ġd am",
      "Ġo pp",
      "et h",
      "ĠF l",
      "Ġgo es",
      "Ġ1 2",
      "Ġsu ffer",
      "ib ly",
      "anc ed",
      "99 19",
      "Ġsupp ort",
      "153 26",
      "L ark",
      "j p",
      "z ens",
      "Ġ ill",
      "Ġc ir",
      "Ġc ul",
      "Ġc ase",
      "Ġp sych",
      "Ġan t",
      "Ġhe ll",
      "Ġit self",
      "os en",
      "pt y",
      "Ġevent s",
      "f old",
      "h ab",
      "Ġs qu",
      "Ġthe ory",
      "es p",
      "Ġp a",
      "Ġin s",
      "ic ed",
      "ent ial",
      "Ġfor ce",
      "ir on",
      "ir th",
      "ĠW ith",
      "ere ens",
      "Ġinter pret",
      "Ġquest ions",
      "Ġstat ement",
      "Rel ationships",
      "V er",
      "d it",
      "l ike",
      "m es",
      "r act",
      "z y",
      "Ġa ge",
      "Ġc enter",
      "Ġh on",
      "Ġl im",
      "Ġv ia",
      "Ġwor ks",
      "Ġab s",
      "Ġcl ass",
      "Ġgr ound",
      "Ġtell ing",
      "Ġthought s",
      "ħâ© ħâ©",
      "ĠSh adow",
      "Ġchang ed",
      "c rypt",
      "d le",
      "Ġ esc",
      "Ġt aken",
      "er d",
      "Ġc ode",
      "Ġn amed",
      "ĠThe ory",
      "Ġon t",
      "Ġch ann",
      "Ġper form",
      "ĠOr ange",
      "pro ximity",
      "Ġcons ider",
      "Un ited",
      "ĠMat ana",
      "\" .",
      "2 8",
      "C E",
      "M e",
      "b o",
      "o h",
      "is per",
      "Ġd ate",
      "Ġd ist",
      "Ġf ather",
      "ver n",
      "ct or",
      "Ġme ant",
      "ĠE st",
      "Ġwe ap",
      "Ġcon vers",
      "ust om",
      "Ġsp read",
      "Ġbel ief",
      "Ch apter",
      "Ġev idence",
      "Ġwat ched",
      "Ġsus pect",
      "6 3",
      "t p",
      "Ġf ield",
      "Ġst ra",
      "ĠD iscord",
      "Ġj oin",
      "Ġsp end",
      "Ġso on",
      "og n",
      "Ġar m",
      "Ġsay ing",
      "Ġquick ly",
      "R yan",
      "a ith",
      "l o",
      "u nd",
      "in ed",
      "en es",
      "Ġs erv",
      "Ġc amer",
      "Ġn et",
      "Ġn ature",
      "Ġbe aut",
      "se c",
      "Ġst ood",
      "Ġde f",
      "ie mand",
      "ĠL ion",
      "vent iv",
      "Ġrel ated",
      "Ġ_ \"",
      "for ce",
      "Ġdestro y",
      "Ġa v",
      "Ġp ie",
      "Ġn on",
      "pl ay",
      "iv ity",
      "sp ir",
      "Ġneed s",
      "dd dd",
      "Ġcol lect",
      "Ġrepl ied",
      "Ġfur ther",
      "6 0",
      "M E",
      "m ore",
      "w all",
      "Ġb as",
      "ed er",
      "Ġc ry",
      "Ġnot iced",
      "Ġwor th",
      "Ġcon scious",
      "oc us",
      "ip le",
      "iet s",
      "Ġwr itten",
      "Ġwer d",
      "Ġblitz er",
      "[ ![",
      "b ad",
      "i pped",
      "an e",
      "Ġm ine",
      "or ry",
      "Ġh oe",
      "Ġp le",
      "ll ll",
      "ĠA fter",
      "ro g",
      "Ġk on",
      "ĠT rip",
      "ĠM e",
      "ter ed",
      "Ġle vel",
      "Ġim ag",
      "âĪ º",
      "9 5",
      "h ow",
      "l a",
      "t a",
      "Ġw alk",
      "on es",
      "Ġm ain",
      "Ġc ent",
      "Ġc ity",
      "Ġre v",
      "Ġyou ng",
      "Ġon der",
      "ĠH el",
      "ĠD ave",
      "Ġsh ip",
      "end ed",
      "ip ul",
      "Ġfe et",
      "Ġwant s",
      "In k",
      "Ġresp ect",
      "ric s",
      "â¨ Ģ",
      "Ġcontin ued",
      "a am",
      "c ome",
      "m achine",
      "Ġ ign",
      "Ġm outh",
      "Ġb oy",
      "Ġb orn",
      "Ġh int",
      "Ġn orm",
      "ur s",
      "ĠM ale",
      "Ġdo en",
      "Ġle g",
      "ĠP sych",
      "ĠN et",
      "â© į",
      "ha v",
      "olog y",
      "ganiz ation",
      "C P",
      "a ps",
      "m it",
      "The mes",
      "Ġg aan",
      "id en",
      "Ġr ather",
      "Ġcon fid",
      "Ġsh ort",
      "ĠP redator",
      "ri ble",
      "Ġsp oke",
      "iv ely",
      "ign ed",
      "ĠOr anje",
      "Ġsim ilar",
      "Ġmess ages",
      "Ġdr ag",
      "Ġmoet en",
      "â©Ĩâ© ī",
      "4 1",
      "8 5",
      "D on",
      "n ame",
      "p ar",
      "p ort",
      "z z",
      "Ġt or",
      "Ġt we",
      "at ic",
      "is ing",
      "Ġh urt",
      "Ġl ie",
      "st ate",
      "ow ing",
      "ro om",
      "ill ed",
      "ĠC ase",
      "Ġr unning",
      "Ġcon st",
      "Ġman ipul",
      "ip ed",
      "Ġsome body",
      "Ġdis app",
      "ĠY es",
      "Ġhappen ing",
      "Ġspe aking",
      "Ġrele ased",
      "6 5",
      "o id",
      "Ġ iets",
      "in ation",
      "Ġm achine",
      "Ġc ut",
      "Ġc old",
      "Ġh id",
      "Ġh arm",
      "Ġand eren",
      "ig ger",
      "ir m",
      "Ġdo c",
      "ress ed",
      "gr ound",
      "Ġche st",
      "â¨ ĥ",
      "Ġdel iver",
      "Ġincl ud",
      "quest ions",
      "Ġwebs ite",
      "ĠTrip over",
      ". )",
      "s ch",
      "ª ®",
      "ir us",
      "est ig",
      "pp ing",
      "Ġsh all",
      "âĢĶ âĢĿ",
      "Ġac cess",
      "Ġem ploy",
      "Ġfeel ing",
      "â« Ĵ",
      "ict ion",
      "âĭ® â§",
      "âĬ ĩ",
      "Ġpol it",
      "ollabor ators",
      "Ġgrou p",
      "N ow",
      "g o",
      "i que",
      "j oy",
      "r al",
      "Ġw omen",
      "Ġs ister",
      "Ġm ot",
      "Ġd ou",
      "Ġe arth",
      "ĠB i",
      "um p",
      "Ġex c",
      "ĠL ove",
      "ĠO ver",
      "ĠG host",
      "iv ed",
      "ase ball",
      "Ġem pty",
      "Ġword t",
      "kn owledge",
      "Ġpre vent",
      "fin it",
      "Ġpri v",
      "abb it",
      "Ġcomple te",
      "Ġcompan y",
      "D iebol",
      "a ff",
      "d c",
      "d o",
      "f riend",
      "u bl",
      "Ġ &",
      "Ĩ â«ĺ",
      "ĩ â©Ĩâ©ī",
      "re ct",
      "ou w",
      "Ġd ru",
      "al ias",
      "Ġh alf",
      "Ġhe av",
      "st er",
      "Ġre ve",
      "Ġv i",
      "Ġfor g",
      "ĠT own",
      "Ġen v",
      "Ġwe ek",
      "Ġtr uly",
      "Ġch oose",
      "Ġfe ed",
      "Ġbr ought",
      "Ġwr iting",
      "Ġgu ess",
      "Ġopen ed",
      "Ġkill ed",
      "ħâ© ĩâ©Ĩâ©ī",
      "âĬ Ĩâ«ĺ",
      "Ġfre ed",
      "ĠTe chnolog",
      "miss ion",
      "Ġmir ror",
      "Ħâ© ħâ©ĩâ©Ĩâ©ī",
      "âĬĨâ«ĺ âĬĩ",
      "Ħâ©ħâ©ĩâ©Ĩâ©ī â¨ĥ",
      "A L",
      "o ved",
      "Ġt reat",
      "Ġt ree",
      "Ġc ross",
      "Ġp ack",
      "le ment",
      "Ġl a",
      "un ch",
      "Ġr ad",
      "ĠĠĠĠ ĠĠ",
      "ok er",
      "Ġwr ite",
      "Ġsim ple",
      "Ġunderstand ing",
      "Ġsk y",
      "Ġacc ount",
      "Ã© n",
      "Ġdev ice",
      "osp ital",
      "O T",
      "S amuel",
      "S urveillance",
      "b ot",
      "l ijk",
      "Ġm ur",
      "or ing",
      "Ġp lease",
      "ig il",
      "Ġon ze",
      "ĠE ven",
      "est one",
      "Ġte xt",
      "Ġsc ience",
      "Ġsomet imes",
      "Ġlisten ing",
      "Ġinvol ved",
      "Ġmention ed",
      "crypt ography",
      "Ġcamer a",
      "p ose",
      "Ġw et",
      "Ġs ignal",
      "Ġm ass",
      "Ġm aster",
      "Ġb ot",
      "Ġc ou",
      "Ġc oll",
      "Ġl if",
      "Ġre fer",
      "Ġre ach",
      "ht tp",
      "ro p",
      "ut e",
      "ĠB ecause",
      "Ġwor ry",
      "Ġgo ed",
      "Ġpro ve",
      "Ġbr other",
      "... *\"",
      "ĠYou Tube",
      "Ġhuman ity",
      "Ġfing ers",
      "onym ous",
      "3 1",
      "a os",
      "Ġa ud",
      "Ġs we",
      "an ed",
      "Ġm ill",
      "Ġto ol",
      "al ing",
      "Ġp res",
      "The se",
      "Ġn at",
      "ĠĠ Ċ",
      "Ġl ay",
      "Ġl ief",
      "Ġe ff",
      "il estone",
      "ĠF emale",
      "Ġch ance",
      "Ġsp l",
      "Ġso ld",
      "Ġpl at",
      "Ġar g",
      "Ġno body",
      "Ġbel ie",
      "Ġid entity",
      "Ġser ver",
      "Ġzo als",
      "bad ge",
      "S c",
      "b on",
      "w o",
      "Ġ X",
      "Ġw ild",
      "Ġb ij",
      "as es",
      "el ijke",
      "Ġl ate",
      "ro ll",
      "Ġst re",
      "Ġwh isper",
      "ĠD uck",
      "Ġne ar",
      "Ġsh adow",
      ")) ).",
      "ap er",
      "Ġvers ion",
      "Ġ_ âĢľ",
      "Ġsuc cess",
      "Ġbus iness",
      ") \"",
      "E LL",
      "a al",
      "e gr",
      "o el",
      "r ing",
      "on na",
      "Ġd uring",
      "Ġf in",
      "Ġo kay",
      "Ġon es",
      "ĠS m",
      "Ġv ind",
      "un g",
      "Ġal ive",
      "os ure",
      "ĠL ike",
      "Ġsp irit",
      "Ġcom pl",
      "oor d",
      "ress ion",
      "Ġrep ort",
      "Ġwar en",
      "Ġspec ial",
      "Ġmult iverse",
      "Ġdirect ly",
      "Ġchar acter",
      "path y",
      "Ġintellig ence",
      "Ġpat ient",
      "Ġlik ely",
      "9 6",
      "I S",
      "d ed",
      "á Ľ",
      "er de",
      "Ġf ood",
      "Ġp ot",
      "Ġp ay",
      "ic ation",
      "ĠS omet",
      "if ul",
      "ĠD is",
      "us ing",
      "us hed",
      "ell o",
      "Ġte chn",
      "Ġcontin ue",
      "Ã© Ã©n",
      "Ġorig inal",
      "Ġhall way",
      "Ġpe ace",
      "Ġtim eline",
      "Ġcul ture",
      "hab ilit",
      "Ġchann el",
      "A re",
      "C ollaborators",
      "Ġb ur",
      "Ġc aught",
      "al ance",
      "Ġn od",
      "Ġl aw",
      "Ġe cht",
      "Ġst ep",
      "Ġsh ot",
      "ĠP l",
      "ak ed",
      "Ġge w",
      "Ġperson al",
      "Ġinst ead",
      "âĭ®â§ Ĭ",
      "finit ely",
      "E very",
      "f ully",
      "i ers",
      "t s",
      "en z",
      "Ġc y",
      "Ġf ake",
      "Ġh op",
      "ic le",
      "Ġon to",
      "Ġon line",
      "ĠS l",
      "Ġv iew",
      "il ed",
      "ĠE en",
      "Ġen force",
      "Ġr a",
      "Ġr ul",
      "ĠB ereens",
      "ĠW as",
      "Ġor ange",
      "ĠN ew",
      "Ġcom b",
      "Ġus er",
      "Wh ile",
      "Ġsk in",
      "Ġsub ject",
      "Ġexist ence",
      "5 5",
      "9 7",
      "K n",
      "d om",
      "d den",
      "e en",
      "n n",
      "r it",
      "Ġ Ã©Ã©n",
      "Ġw in",
      "is k",
      "Ġf inal",
      "Ġth ird",
      "The n",
      "Ġn arciss",
      "ant ed",
      "Ġen joy",
      "ess ica",
      "Ġsh are",
      "ĠP art",
      "ĠO u",
      "ĠIn t",
      "Ġar en",
      "Ġsu dden",
      "Ġem ail",
      "Ġrec ht",
      "Ġcreat or",
      "sc enes",
      "Ĩâ© Ĩâ©",
      "Ġproble ms",
      "46 5",
      "Ġcho ice",
      "Ġlar ge",
      "ngel ica",
      "Ġsuffer ing",
      "hav ior",
      "ĠBi ou",
      "âĭ®â§Ĭ âĭ®",
      "8 45",
      "c d",
      "e uw",
      "Ġs orry",
      "Ġc orn",
      "Ġf ant",
      "Ġp ic",
      "Ġp ort",
      "ar get",
      "Ġn ie",
      "ac hing",
      "ill s",
      "ant um",
      "Ġsp ent",
      "Ġgo vern",
      "au we",
      "ous and",
      "Ġcl osed",
      "ec ially",
      "av or",
      "Ġloo ks",
      "ater ial",
      "enc ed",
      "ĠWh o",
      "Ġrep e",
      "anc es",
      "Ġlearn ed",
      "Ġpubl ishes",
      "Ġsec urity",
      "Ġbuild ing",
      "ĠTechnolog ies",
      "C inta",
      "b ack",
      "e ks",
      "m other",
      "o ff",
      "s l",
      "Ġc at",
      "el de",
      "Ġg iving",
      "Ġe qu",
      "Ġk w",
      "ĠE insof",
      "Ġz ag",
      "ru ik",
      "Ġrem ain",
      "Ġshould er",
      "Ġreturn ed",
      "Ġrespond ed",
      "Ġcor rect",
      "hypothes es",
      "Ġenforce ment",
      "8 6",
      "Q Y",
      "c a",
      "c f",
      "n en",
      "p on",
      "Ġw el",
      "Ġb and",
      "Ġb oek",
      "el ess",
      "Ġbe com",
      "Ġst om",
      "ce ed",
      "ĠM ar",
      "ter s",
      "ĠR ep",
      "Ġr u",
      "ink ing",
      "ĠJ a",
      "Ġmet al",
      "/) \"",
      "Ġbu ilt",
      "Ġsur v",
      "ationsh ip",
      "Ġfing er",
      "ĠRes istance",
      "Ġwal ked",
      "ĠChr ist",
      "Ġbeaut iful",
      "Ġenv iron",
      "Ġeff ort",
      "9 8",
      "D ick",
      "P ro",
      "a ard",
      "b f",
      "j or",
      "r ay",
      "Ġt em",
      "Ġd anger",
      "Ġg es",
      "Ġv riend",
      "ag ement",
      "ter min",
      "il ia",
      "Ġwe ak",
      "est ed",
      "ĠL ight",
      "Ġch osen",
      "Ġman ier",
      "Ġar ri",
      "Ġno se",
      "Ġpo ly",
      "77 77",
      "ub y",
      "Ġsle cht",
      "Ġmult iple",
      "ustom er",
      "h K",
      "Ġt ype",
      "Ġc ell",
      "Ġg ra",
      "Ġg onna",
      "et al",
      "im ate",
      "ly ing",
      "Ġst er",
      "ie g",
      "ĠW ill",
      "Ġtr aining",
      "** .",
      "old en",
      "Ġ3 0",
      "ma al",
      "Ġdark ness",
      "Ġunivers es",
      "Ġpartic ular",
      "................ ................",
      "ķâ« ĸâ«",
      "Ġcra zy",
      "Ġconvers ation",
      "Ġconscious ness",
      ". ](((",
      "A fter",
      "G oogle",
      "J p",
      "N ine",
      "T H",
      "k t",
      "s Y",
      "u ister",
      "v al",
      "Ġa ch",
      "Ġs on",
      "Ġf inally",
      "om m",
      "Ġe er",
      "ow ers",
      "se qu",
      "if f",
      "Ġwor ked",
      "]] :",
      "Ġtr igger",
      "Ġte le",
      "Ġsu per",
      "oun ter",
      "Ġrel ationship",
      "arn o",
      "ĠQ u",
      "Ġid ent",
      "Ġsystem s",
      "Ġexpl ain",
      "Ġwall s",
      "Ġdream s",
      "Ġpur pose",
      "Ġchang es",
      "Ġmod el",
      "Ġeng ine",
      "wik i",
      "rem ely",
      "Ġplat form",
      "h od",
      "Ġ i",
      "Ġ iemand",
      "Ġt akes",
      "Ġa uthor",
      "in c",
      "Ġs itting",
      "an ks",
      "Ġm orn",
      "Ġb ased",
      "Ġb irth",
      "it es",
      "Ġo cc",
      "ar an",
      "Ġhe m",
      "ent ially",
      "ĠM iss",
      "ĠC arl",
      "ĠD it",
      "ĠR ev",
      "ĠR yan",
      "Ġle aving",
      "Ġun able",
      "Ġver l",
      "âĪ «",
      "Ġmem ories",
      "Ġmiss chien",
      "Ġsoc ial",
      "Ġfreed om",
      "8 4",
      "F ive",
      "O ps",
      "c ity",
      "g ge",
      "n o",
      "Ġw ake",
      "Ġs ens",
      "an it",
      "Ġb at",
      "Ġc ount",
      "Ġc ountry",
      "Ġh ospital",
      "Ġth ousand",
      "Ġhe b",
      "Ġre habilit",
      "am b",
      "ight er",
      "Ġwe zens",
      "ĉĉ ĉĉĉ",
      "Ġne cess",
      "Ġcon c",
      "our ney",
      "Ġ1 6",
      "Ġar ms",
      "Ġany more",
      "Ġfl o",
      "Ġact ions",
      "Ġwr ist",
      "pect ive",
      "Ġgl ass",
      "Ġread y",
      "Ġdevelop ment",
      "Ġtou ch",
      "Ġtwe e",
      "Ġlief de",
      "ĠBiou k",
      ") *",
      "9 3",
      "A lpha",
      "H er",
      "O f",
      "i el",
      "t ime",
      "Ġm aken",
      "Ġb le",
      "as hed",
      "Ġin fin",
      "Ġe arly",
      "ag net",
      "ĠM en",
      "il es",
      "Ġz w",
      "Ġli ved",
      "oc ked",
      "Ġsh ut",
      "end ing",
      "ire ction",
      "Ġro se",
      "Ġwr ote",
      "Ġrec ogn",
      "Ġel k",
      "Ġexper i",
      "Ġsch rij",
      "oss ible",
      "aak t",
      "Ġmid dle",
      "ĠAss hat",
      "rag on",
      "Ar t",
      "Ver ification",
      "Ġdoc ument",
      "7 0",
      "7 1",
      "P r",
      "c he",
      "f ee",
      "g ing",
      "i res",
      "á ļ",
      "Ġ 0",
      "Ġs ad",
      "Ġs ort",
      "Ġm ut",
      "it ness",
      "Ġc ool",
      "Ġd ied",
      "Ġto wn",
      "le g",
      "Ġl ic",
      "Ġis s",
      "ag ed",
      "ĠD on",
      "il ing",
      "Ġha ir",
      "Ġwe ird",
      "Ġsu gg",
      "Ġqu iet",
      "cl osure",
      "Ġmet hod",
      "te xt",
      "Ġmo ved",
      "Ġche ck",
      "rom agnet",
      "Ġcertain ly",
      "Ġvi ol",
      "Ġmorn ing",
      "E r",
      "b d",
      "f ace",
      "i ans",
      "s ed",
      "or der",
      "ing ly",
      "Ġf ast",
      "Ġh ole",
      "Ġin de",
      "Ġof fer",
      "Ġl iter",
      "Ġst uff",
      "Ġk le",
      "Ġas king",
      "us es",
      "Ġne ck",
      "um b",
      "os ing",
      "Ġex ists",
      "iz ation",
      "con t",
      "Ġsee ing",
      "Ġthrough out",
      "ord s",
      "Ġapp l",
      "Ġapp ar",
      "Ġconnect ion",
      "wor ld",
      "Ġpower ful",
      "Ġlo ved",
      "Ġdet er",
      "Ġalle en",
      "Ġalle maal",
      "Ġpri or",
      "Ġrespons ible",
      "jp g",
      "termin ator",
      "5 3",
      "r acht",
      "u ous",
      "y ond",
      "Ġt end",
      "re ference",
      "Ġc oin",
      "Ġo pt",
      "al ed",
      "Ġp un",
      "Ġn og",
      "Ġe at",
      "ur ch",
      "Ġr an",
      "um e",
      "ack ed",
      "ri es",
      "Ġcom fort",
      "Ġpro of",
      "Ġte gen",
      "ĠJ essica",
      "Ġreal ized",
      "Ġbel ow",
      "ru gg",
      "Ġfeel ings",
      "ĠY et",
      "Ġwar m",
      "Ġdec ided",
      "Ġmed it",
      "Ġfight ing",
      "âŁ Į",
      "Ġmeaning ful",
      "Ġemot ions",
      "Ġprodu ct",
      "8 1",
      "D it",
      "J ames",
      "e ared",
      "f RE",
      "h ip",
      "l ocation",
      "y es",
      "Ġc op",
      "Ġd ingen",
      "Ġan n",
      "Ġg ed",
      "Ġg iant",
      "se as",
      "ch an",
      "Ġfor get",
      "ĠC l",
      "ĠE ach",
      "ab y",
      "ell ed",
      "ĠL e",
      "Ġte eth",
      "Ġpl aced",
      "Ġbl ij",
      "ev hK",
      "Ġcomp ut",
      "Ġro ck",
      "Ġam ong",
      "Ġact ion",
      "ĠU S",
      "Ġfeel s",
      "Ġaw ake",
      "Ġsm ile",
      "Ġbeg inning",
      "Ġmed ia",
      "ĠHuman ity",
      "Ġsupp osed",
      "ĠEvery one",
      "Ã« n",
      "pre vious",
      "Ġma jor",
      "Ġgeb ruik",
      "Ġesc ape",
      "Ġpriv ate",
      "enz aran",
      "sY evhK",
      "B ecause",
      "Y eah",
      "Y sYevhK",
      "f ather",
      "h ood",
      "n ELL",
      "p ost",
      "p df",
      "s o",
      "â ī",
      "Ġt ap",
      "Ġm ark",
      "Ġb ar",
      "Ġc ult",
      "Ġd aar",
      "Ġf avor",
      "Ġp an",
      "Ġan im",
      "le y",
      "Ġbe ings",
      "Ġst ri",
      "Ġv ast",
      "ur a",
      "ĠC at",
      "Ġen em",
      "Ġse x",
      "]] '",
      "Ġle gs",
      "ĠL onely",
      "ĠG r",
      "Ġhad n",
      "Ġsa fe",
      "ang ing",
      "Ġgr and",
      "Ġapp ear",
      "up id",
      "mer wall",
      "Ġca used",
      "Ġext remely",
      "Ġdro pped",
      "enn o",
      "ĠEx terminator",
      "Ġpret ty",
      "Ġaut om",
      "ĠSty gge",
      "Ġcorn er",
      "Ġfant as",
      "nELL Jp",
      "A ls",
      "F BI",
      "l og",
      "n ing",
      "u nder",
      "w hat",
      "Ġt arget",
      "Ġa head",
      "Ġw oke",
      "is ch",
      "Ġc e",
      "Ġf it",
      "Ġh ide",
      "Ġhe n",
      "Ġbe havior",
      "ĠH olden",
      "ĠM ark",
      "Ġwor st",
      "Ġcon v",
      "ist ory",
      "Ġj ourney",
      "Ġtr ou",
      "ĠN e",
      "Ġpro per",
      "Ġworld s",
      "Ġsc reen",
      "Ġoff ic",
      "Ġapp ears",
      "ix el",
      "Ġcreat ures",
      "Ġmo ving",
      "ib ility",
      "Ġsound s",
      "ypothes is",
      "Ġelect romagnet",
      "Ġphys ical",
      "robor os",
      "Ġhon est",
      "Ġpoly merwall",
      "5 9",
      "H ere",
      "I A",
      "M at",
      "Z ero",
      "_ _",
      "a ult",
      "k l",
      "p ing",
      "t ain",
      "ĺ Ĩ",
      "in formation",
      "Ġm er",
      "es man",
      "Ġo bs",
      "Ġl ist",
      "Ġl ose",
      "Ġre ached",
      "ĠA k",
      "ĠA mer",
      "ag er",
      "Ġwh om",
      "Ġde m",
      "Ġsh it",
      "Ġsp ieg",
      ".\" _",
      "You Tube",
      "Ġreal ize",
      "Ġpr act",
      "itt ed",
      "arn ing",
      "âĭ ĳ",
      "Ġpu pp",
      "ĠNo v",
      "Ġbeg in",
      "Ġbo x",
      "How ever",
      "Ġâ ĺĨ",
      "OU R",
      "Ġabs olut",
      "Ġbelief s",
      "Ġstra ight",
      "5 6",
      "M ay",
      "S ome",
      "c b",
      "l as",
      "s he",
      "w ood",
      "Ġt able",
      "en ary",
      "Ġs ight",
      "re y",
      "or th",
      "Ġf ac",
      "Ġl ocation",
      "Ġv iewer",
      "Ġha ven",
      "and om",
      "Ġne arly",
      "um bled",
      "Ġsh own",
      "Ġver d",
      "Ġcont ent",
      "Ġgr ot",
      "Ġ2 6",
      "ĉĉĉ Ġ",
      "Ġer v",
      "Ġnew s",
      "gg en",
      "ĠCh ild",
      "IN E",
      "rad esman",
      "Ġlearn ing",
      "ĠKun ist",
      "ĠWor ld",
      "ĠInter net",
      "Ġspecific ally",
      "iped ia",
      "Ġcou ple",
      ", *",
      "Q l",
      "h h",
      "u we",
      "w ers",
      "Į Ĩ",
      "Ġw il",
      "Ġs amen",
      "Ġm at",
      "Ġm aterial",
      "ed s",
      "ed en",
      "Ġc age",
      "Ġd a",
      "Ġd imens",
      "Ġf oot",
      "Ġp ijn",
      "Ġv irus",
      "ĠH oly",
      "ur ation",
      "nd red",
      "il ities",
      "ĠR abbit",
      "Ġab ility",
      "ab ility",
      "ĠO ct",
      "Ġgo ld",
      "Ġint ent",
      "Ġ1 1",
      "** ,",
      "Ġver ify",
      "Ġ20 24",
      "Ġsee k",
      "Ġam ount",
      "cl es",
      "Ġpos itive",
      "Ġze i",
      "Ġgu ard",
      "unn y",
      "16 57",
      "Ġalt ijd",
      "ĠTr ust",
      "Ġhu ndred",
      "Ġvis it",
      "Ġzich zelf",
      "Ġlaug hed",
      "ĠAg ent",
      "eng th",
      "ĠX ie",
      "N A",
      "d entity",
      "g t",
      "r ough",
      "s ing",
      "Ġ est",
      "in ated",
      "Ġb erg"
    ]
  }
}